{
  "version": "1.0",
  "truncation": null,
  "padding": null,
  "added_tokens": [
    {
      "id": 0,
      "content": "<UNK>",
      "single_word": false,
      "lstrip": false,
      "rstrip": false,
      "normalized": false,
      "special": true
    },
    {
      "id": 1,
      "content": "<SEP>",
      "single_word": false,
      "lstrip": false,
      "rstrip": false,
      "normalized": false,
      "special": true
    },
    {
      "id": 2,
      "content": "<MASK>",
      "single_word": false,
      "lstrip": false,
      "rstrip": false,
      "normalized": false,
      "special": true
    },
    {
      "id": 3,
      "content": "<CLS>",
      "single_word": false,
      "lstrip": false,
      "rstrip": false,
      "normalized": false,
      "special": true
    }
  ],
  "normalizer": null,
  "pre_tokenizer": {
    "type": "Whitespace"
  },
  "post_processor": null,
  "decoder": null,
  "model": {
    "type": "BPE",
    "dropout": null,
    "unk_token": "<UNK>",
    "continuing_subword_prefix": null,
    "end_of_word_suffix": null,
    "fuse_unk": false,
    "byte_fallback": false,
    "ignore_merges": false,
    "vocab": {
      "<UNK>": 0,
      "<SEP>": 1,
      "<MASK>": 2,
      "<CLS>": 3,
      "!": 4,
      "\"": 5,
      "$": 6,
      "%": 7,
      "&": 8,
      "'": 9,
      "(": 10,
      ")": 11,
      "*": 12,
      "+": 13,
      ",": 14,
      "-": 15,
      ".": 16,
      "/": 17,
      "0": 18,
      "1": 19,
      "2": 20,
      "3": 21,
      "4": 22,
      "5": 23,
      "6": 24,
      "7": 25,
      "8": 26,
      "9": 27,
      ":": 28,
      ";": 29,
      "<": 30,
      ">": 31,
      "?": 32,
      "A": 33,
      "B": 34,
      "C": 35,
      "D": 36,
      "E": 37,
      "F": 38,
      "G": 39,
      "H": 40,
      "I": 41,
      "J": 42,
      "K": 43,
      "L": 44,
      "M": 45,
      "N": 46,
      "O": 47,
      "P": 48,
      "Q": 49,
      "R": 50,
      "S": 51,
      "T": 52,
      "U": 53,
      "V": 54,
      "W": 55,
      "X": 56,
      "Y": 57,
      "Z": 58,
      "`": 59,
      "a": 60,
      "b": 61,
      "c": 62,
      "d": 63,
      "e": 64,
      "f": 65,
      "g": 66,
      "h": 67,
      "i": 68,
      "j": 69,
      "k": 70,
      "l": 71,
      "m": 72,
      "n": 73,
      "o": 74,
      "p": 75,
      "q": 76,
      "r": 77,
      "s": 78,
      "t": 79,
      "u": 80,
      "v": 81,
      "w": 82,
      "x": 83,
      "y": 84,
      "z": 85,
      "~": 86,
      "¡": 87,
      "¢": 88,
      "£": 89,
      "¥": 90,
      "§": 91,
      "«": 92,
      "®": 93,
      "°": 94,
      "±": 95,
      "²": 96,
      "³": 97,
      "´": 98,
      "µ": 99,
      "·": 100,
      "¹": 101,
      "º": 102,
      "»": 103,
      "¼": 104,
      "½": 105,
      "¾": 106,
      "¿": 107,
      "À": 108,
      "Á": 109,
      "Ä": 110,
      "Å": 111,
      "Æ": 112,
      "Ç": 113,
      "È": 114,
      "É": 115,
      "Ê": 116,
      "Í": 117,
      "Î": 118,
      "Ð": 119,
      "Ñ": 120,
      "Ó": 121,
      "Ô": 122,
      "Õ": 123,
      "Ö": 124,
      "×": 125,
      "Ø": 126,
      "Ú": 127,
      "Ü": 128,
      "Ý": 129,
      "Þ": 130,
      "ß": 131,
      "à": 132,
      "á": 133,
      "â": 134,
      "ã": 135,
      "ä": 136,
      "å": 137,
      "æ": 138,
      "ç": 139,
      "è": 140,
      "é": 141,
      "ê": 142,
      "ë": 143,
      "ì": 144,
      "í": 145,
      "î": 146,
      "ï": 147,
      "ð": 148,
      "ñ": 149,
      "ò": 150,
      "ó": 151,
      "ô": 152,
      "õ": 153,
      "ö": 154,
      "ø": 155,
      "ù": 156,
      "ú": 157,
      "û": 158,
      "ü": 159,
      "ý": 160,
      "þ": 161,
      "ÿ": 162,
      "Ā": 163,
      "ā": 164,
      "ă": 165,
      "Ą": 166,
      "ą": 167,
      "Ć": 168,
      "ć": 169,
      "Č": 170,
      "č": 171,
      "ď": 172,
      "Đ": 173,
      "đ": 174,
      "Ē": 175,
      "ē": 176,
      "ĕ": 177,
      "ė": 178,
      "ę": 179,
      "ě": 180,
      "ĝ": 181,
      "ğ": 182,
      "ġ": 183,
      "ħ": 184,
      "ĩ": 185,
      "Ī": 186,
      "ī": 187,
      "ĭ": 188,
      "į": 189,
      "İ": 190,
      "ı": 191,
      "ķ": 192,
      "ļ": 193,
      "ľ": 194,
      "Ł": 195,
      "ł": 196,
      "ń": 197,
      "ņ": 198,
      "ň": 199,
      "ŋ": 200,
      "Ō": 201,
      "ō": 202,
      "Ŏ": 203,
      "ŏ": 204,
      "Ő": 205,
      "ő": 206,
      "Œ": 207,
      "œ": 208,
      "Ř": 209,
      "ř": 210,
      "Ś": 211,
      "ś": 212,
      "Ş": 213,
      "ş": 214,
      "Š": 215,
      "š": 216,
      "Ţ": 217,
      "ţ": 218,
      "ť": 219,
      "ũ": 220,
      "Ū": 221,
      "ū": 222,
      "Ŭ": 223,
      "ŭ": 224,
      "ů": 225,
      "ű": 226,
      "ų": 227,
      "ŵ": 228,
      "Ź": 229,
      "ź": 230,
      "Ż": 231,
      "ż": 232,
      "Ž": 233,
      "ž": 234,
      "ſ": 235,
      "Ɔ": 236,
      "Ə": 237,
      "ơ": 238,
      "ư": 239,
      "ǎ": 240,
      "ǐ": 241,
      "ǒ": 242,
      "ǔ": 243,
      "ǚ": 244,
      "ǫ": 245,
      "Ǵ": 246,
      "ǵ": 247,
      "ǻ": 248,
      "Ș": 249,
      "ș": 250,
      "Ț": 251,
      "ț": 252,
      "ȟ": 253,
      "ȯ": 254,
      "ɑ": 255,
      "ɔ": 256,
      "ɕ": 257,
      "ə": 258,
      "ɛ": 259,
      "ɤ": 260,
      "ɪ": 261,
      "ɫ": 262,
      "ɬ": 263,
      "ɹ": 264,
      "ʀ": 265,
      "ʃ": 266,
      "ʊ": 267,
      "ʒ": 268,
      "ʔ": 269,
      "ʰ": 270,
      "ʷ": 271,
      "ʻ": 272,
      "ʼ": 273,
      "ʾ": 274,
      "ʿ": 275,
      "ˇ": 276,
      "ˈ": 277,
      "ˊ": 278,
      "ˌ": 279,
      "ː": 280,
      "˚": 281,
      "ˤ": 282,
      "̀": 283,
      "́": 284,
      "̄": 285,
      "̅": 286,
      "̆": 287,
      "̇": 288,
      "̈": 289,
      "̍": 290,
      "̝": 291,
      "̧": 292,
      "̱": 293,
      "̲": 294,
      "Β": 295,
      "Δ": 296,
      "Ε": 297,
      "Η": 298,
      "Θ": 299,
      "Κ": 300,
      "Μ": 301,
      "Σ": 302,
      "Τ": 303,
      "Ψ": 304,
      "Ω": 305,
      "ά": 306,
      "έ": 307,
      "ή": 308,
      "ί": 309,
      "α": 310,
      "β": 311,
      "γ": 312,
      "δ": 313,
      "ε": 314,
      "ζ": 315,
      "η": 316,
      "θ": 317,
      "ι": 318,
      "κ": 319,
      "λ": 320,
      "μ": 321,
      "ν": 322,
      "ξ": 323,
      "ο": 324,
      "π": 325,
      "ρ": 326,
      "ς": 327,
      "σ": 328,
      "τ": 329,
      "υ": 330,
      "φ": 331,
      "χ": 332,
      "ψ": 333,
      "ω": 334,
      "ϊ": 335,
      "ό": 336,
      "ύ": 337,
      "ώ": 338,
      "А": 339,
      "Б": 340,
      "В": 341,
      "Г": 342,
      "Д": 343,
      "З": 344,
      "И": 345,
      "К": 346,
      "М": 347,
      "Н": 348,
      "О": 349,
      "П": 350,
      "Р": 351,
      "С": 352,
      "Т": 353,
      "Ф": 354,
      "Ш": 355,
      "Э": 356,
      "Я": 357,
      "а": 358,
      "б": 359,
      "в": 360,
      "г": 361,
      "д": 362,
      "е": 363,
      "ж": 364,
      "з": 365,
      "и": 366,
      "й": 367,
      "к": 368,
      "л": 369,
      "м": 370,
      "н": 371,
      "о": 372,
      "п": 373,
      "р": 374,
      "с": 375,
      "т": 376,
      "у": 377,
      "ф": 378,
      "х": 379,
      "ц": 380,
      "ч": 381,
      "ш": 382,
      "щ": 383,
      "ъ": 384,
      "ы": 385,
      "ь": 386,
      "э": 387,
      "ю": 388,
      "я": 389,
      "і": 390,
      "҆": 391,
      "Ү": 392,
      "ӕ": 393,
      "Ө": 394,
      "Ա": 395,
      "Ջ": 396,
      "ա": 397,
      "գ": 398,
      "ե": 399,
      "ի": 400,
      "խ": 401,
      "մ": 402,
      "յ": 403,
      "ն": 404,
      "ր": 405,
      "ֲ": 406,
      "ָ": 407,
      "ֹ": 408,
      "א": 409,
      "ב": 410,
      "ד": 411,
      "ה": 412,
      "ו": 413,
      "ז": 414,
      "י": 415,
      "כ": 416,
      "ל": 417,
      "מ": 418,
      "נ": 419,
      "ע": 420,
      "פ": 421,
      "ץ": 422,
      "צ": 423,
      "ק": 424,
      "ר": 425,
      "ء": 426,
      "آ": 427,
      "أ": 428,
      "إ": 429,
      "ا": 430,
      "ب": 431,
      "ة": 432,
      "ث": 433,
      "ج": 434,
      "ح": 435,
      "خ": 436,
      "د": 437,
      "ر": 438,
      "س": 439,
      "ش": 440,
      "ط": 441,
      "ظ": 442,
      "ع": 443,
      "غ": 444,
      "ـ": 445,
      "ف": 446,
      "ق": 447,
      "ك": 448,
      "ل": 449,
      "م": 450,
      "ن": 451,
      "ه": 452,
      "و": 453,
      "ي": 454,
      "ْ": 455,
      "پ": 456,
      "چ": 457,
      "ڠ": 458,
      "ک": 459,
      "گ": 460,
      "ں": 461,
      "ھ": 462,
      "ہ": 463,
      "ی": 464,
      "ܐ": 465,
      "ܖ": 466,
      "ܡ": 467,
      "ं": 468,
      "इ": 469,
      "ख": 470,
      "च": 471,
      "ट": 472,
      "द": 473,
      "न": 474,
      "प": 475,
      "फ": 476,
      "म": 477,
      "र": 478,
      "ल": 479,
      "श": 480,
      "स": 481,
      "ा": 482,
      "ु": 483,
      "े": 484,
      "ो": 485,
      "्": 486,
      "।": 487,
      "ঁ": 488,
      "আ": 489,
      "উ": 490,
      "ক": 491,
      "ঙ": 492,
      "চ": 493,
      "ত": 494,
      "দ": 495,
      "ন": 496,
      "প": 497,
      "ফ": 498,
      "ব": 499,
      "ম": 500,
      "য": 501,
      "র": 502,
      "ল": 503,
      "শ": 504,
      "হ": 505,
      "া": 506,
      "ি": 507,
      "ে": 508,
      "্": 509,
      "அ": 510,
      "உ": 511,
      "க": 512,
      "ச": 513,
      "ஜ": 514,
      "ட": 515,
      "த": 516,
      "ந": 517,
      "ப": 518,
      "ம": 519,
      "ர": 520,
      "ல": 521,
      "ழ": 522,
      "வ": 523,
      "ா": 524,
      "ி": 525,
      "ு": 526,
      "ூ": 527,
      "ே": 528,
      "ை": 529,
      "ோ": 530,
      "்": 531,
      "ം": 532,
      "ഇ": 533,
      "ട": 534,
      "ത": 535,
      "ല": 536,
      "വ": 537,
      "අ": 538,
      "ද": 539,
      "න": 540,
      "ල": 541,
      "ව": 542,
      "ා": 543,
      "ැ": 544,
      "ි": 545,
      "ෝ": 546,
      "ก": 547,
      "ข": 548,
      "ค": 549,
      "ง": 550,
      "จ": 551,
      "ช": 552,
      "ซ": 553,
      "ฒ": 554,
      "ด": 555,
      "ต": 556,
      "ถ": 557,
      "ท": 558,
      "ธ": 559,
      "น": 560,
      "บ": 561,
      "ป": 562,
      "ผ": 563,
      "พ": 564,
      "ฟ": 565,
      "ภ": 566,
      "ม": 567,
      "ย": 568,
      "ร": 569,
      "ล": 570,
      "ว": 571,
      "ศ": 572,
      "ษ": 573,
      "ส": 574,
      "ห": 575,
      "อ": 576,
      "ะ": 577,
      "ั": 578,
      "า": 579,
      "ำ": 580,
      "ิ": 581,
      "ี": 582,
      "ึ": 583,
      "ื": 584,
      "ุ": 585,
      "ู": 586,
      "เ": 587,
      "แ": 588,
      "โ": 589,
      "ใ": 590,
      "ไ": 591,
      "่": 592,
      "้": 593,
      "๊": 594,
      "์": 595,
      "တ": 596,
      "န": 597,
      "ပ": 598,
      "ရ": 599,
      "သ": 600,
      "ူ": 601,
      "်": 602,
      "ၐ": 603,
      "ၑ": 604,
      "ᐯ": 605,
      "ᐸ": 606,
      "ᑐ": 607,
      "ᘅ": 608,
      "ᚦ": 609,
      "ḍ": 610,
      "Ḏ": 611,
      "ḏ": 612,
      "Ḑ": 613,
      "ḑ": 614,
      "Ḥ": 615,
      "ḥ": 616,
      "Ḩ": 617,
      "ḩ": 618,
      "Ḫ": 619,
      "ḫ": 620,
      "Ḱ": 621,
      "ḱ": 622,
      "Ḷ": 623,
      "ḷ": 624,
      "ḻ": 625,
      "ṃ": 626,
      "ṅ": 627,
      "ṇ": 628,
      "ṉ": 629,
      "ṛ": 630,
      "Ṟ": 631,
      "ṟ": 632,
      "Ṣ": 633,
      "ṣ": 634,
      "Ṭ": 635,
      "ṭ": 636,
      "Ṯ": 637,
      "ṯ": 638,
      "ṷ": 639,
      "ẓ": 640,
      "Ẕ": 641,
      "ẕ": 642,
      "ẖ": 643,
      "ẞ": 644,
      "ạ": 645,
      "ả": 646,
      "ấ": 647,
      "ẩ": 648,
      "ắ": 649,
      "ằ": 650,
      "ẻ": 651,
      "ẽ": 652,
      "ế": 653,
      "ề": 654,
      "ễ": 655,
      "ệ": 656,
      "ị": 657,
      "ọ": 658,
      "ố": 659,
      "ồ": 660,
      "ổ": 661,
      "ộ": 662,
      "ớ": 663,
      "ờ": 664,
      "ở": 665,
      "ủ": 666,
      "ứ": 667,
      "ử": 668,
      "ữ": 669,
      "ἀ": 670,
      "ἄ": 671,
      "ἐ": 672,
      "ὑ": 673,
      "ὸ": 674,
      "ῆ": 675,
      "ῖ": 676,
      "ῥ": 677,
      "ῦ": 678,
      "Ῥ": 679,
      "ῶ": 680,
      "​": 681,
      "‎": 682,
      "‐": 683,
      "‑": 684,
      "–": 685,
      "—": 686,
      "―": 687,
      "‘": 688,
      "’": 689,
      "‛": 690,
      "“": 691,
      "”": 692,
      "„": 693,
      "†": 694,
      "‡": 695,
      "•": 696,
      "…": 697,
      "′": 698,
      "″": 699,
      "※": 700,
      "⁄": 701,
      "⁷": 702,
      "⁸": 703,
      "ⁿ": 704,
      "₤": 705,
      "€": 706,
      "₹": 707,
      "℃": 708,
      "№": 709,
      "ℚ": 710,
      "ℝ": 711,
      "™": 712,
      "⅓": 713,
      "⅔": 714,
      "⅕": 715,
      "⅛": 716,
      "→": 717,
      "↔": 718,
      "⇄": 719,
      "⇌": 720,
      "∂": 721,
      "∆": 722,
      "−": 723,
      "∞": 724,
      "∴": 725,
      "≈": 726,
      "≠": 727,
      "≤": 728,
      "≥": 729,
      "☆": 730,
      "♅": 731,
      "♘": 732,
      "♠": 733,
      "♡": 734,
      "♭": 735,
      "♯": 736,
      "⛢": 737,
      "⟨": 738,
      "⟩": 739,
      "⿱": 740,
      "、": 741,
      "々": 742,
      "〈": 743,
      "〉": 744,
      "《": 745,
      "》": 746,
      "「": 747,
      "」": 748,
      "『": 749,
      "』": 750,
      "〔": 751,
      "〕": 752,
      "あ": 753,
      "い": 754,
      "う": 755,
      "え": 756,
      "お": 757,
      "か": 758,
      "き": 759,
      "ぎ": 760,
      "く": 761,
      "け": 762,
      "こ": 763,
      "ご": 764,
      "さ": 765,
      "し": 766,
      "じ": 767,
      "す": 768,
      "せ": 769,
      "た": 770,
      "だ": 771,
      "ち": 772,
      "つ": 773,
      "て": 774,
      "と": 775,
      "ど": 776,
      "な": 777,
      "に": 778,
      "の": 779,
      "ぶ": 780,
      "へ": 781,
      "ぼ": 782,
      "ま": 783,
      "み": 784,
      "む": 785,
      "ゃ": 786,
      "ゅ": 787,
      "ら": 788,
      "り": 789,
      "る": 790,
      "わ": 791,
      "を": 792,
      "ん": 793,
      "゜": 794,
      "ア": 795,
      "イ": 796,
      "ウ": 797,
      "ォ": 798,
      "カ": 799,
      "キ": 800,
      "ク": 801,
      "グ": 802,
      "コ": 803,
      "ゴ": 804,
      "サ": 805,
      "シ": 806,
      "ジ": 807,
      "ス": 808,
      "ズ": 809,
      "セ": 810,
      "ゼ": 811,
      "ソ": 812,
      "タ": 813,
      "ダ": 814,
      "チ": 815,
      "ッ": 816,
      "デ": 817,
      "ト": 818,
      "ド": 819,
      "ナ": 820,
      "ヌ": 821,
      "ノ": 822,
      "ハ": 823,
      "パ": 824,
      "ビ": 825,
      "フ": 826,
      "ブ": 827,
      "プ": 828,
      "ベ": 829,
      "ボ": 830,
      "マ": 831,
      "ミ": 832,
      "ム": 833,
      "メ": 834,
      "モ": 835,
      "ュ": 836,
      "ユ": 837,
      "ョ": 838,
      "ラ": 839,
      "リ": 840,
      "ル": 841,
      "レ": 842,
      "ヲ": 843,
      "ン": 844,
      "・": 845,
      "ー": 846,
      "ㄌ": 847,
      "ㄘ": 848,
      "ㄣ": 849,
      "ㄧ": 850,
      "ㄨ": 851,
      "一": 852,
      "七": 853,
      "万": 854,
      "三": 855,
      "上": 856,
      "下": 857,
      "世": 858,
      "业": 859,
      "两": 860,
      "中": 861,
      "主": 862,
      "乃": 863,
      "之": 864,
      "九": 865,
      "乡": 866,
      "事": 867,
      "二": 868,
      "五": 869,
      "井": 870,
      "亜": 871,
      "京": 872,
      "人": 873,
      "亿": 874,
      "什": 875,
      "今": 876,
      "仏": 877,
      "仝": 878,
      "仰": 879,
      "任": 880,
      "伏": 881,
      "伐": 882,
      "会": 883,
      "传": 884,
      "伤": 885,
      "伸": 886,
      "体": 887,
      "何": 888,
      "佛": 889,
      "作": 890,
      "你": 891,
      "使": 892,
      "依": 893,
      "倉": 894,
      "偕": 895,
      "偵": 896,
      "像": 897,
      "儿": 898,
      "元": 899,
      "先": 900,
      "光": 901,
      "克": 902,
      "全": 903,
      "八": 904,
      "公": 905,
      "兰": 906,
      "共": 907,
      "典": 908,
      "冒": 909,
      "准": 910,
      "凍": 911,
      "凤": 912,
      "出": 913,
      "切": 914,
      "列": 915,
      "別": 916,
      "前": 917,
      "劇": 918,
      "力": 919,
      "加": 920,
      "助": 921,
      "勝": 922,
      "勧": 923,
      "北": 924,
      "区": 925,
      "區": 926,
      "十": 927,
      "千": 928,
      "华": 929,
      "協": 930,
      "南": 931,
      "博": 932,
      "厂": 933,
      "历": 934,
      "原": 935,
      "县": 936,
      "取": 937,
      "口": 938,
      "召": 939,
      "台": 940,
      "右": 941,
      "号": 942,
      "司": 943,
      "吃": 944,
      "合": 945,
      "吉": 946,
      "同": 947,
      "名": 948,
      "向": 949,
      "君": 950,
      "吹": 951,
      "吾": 952,
      "周": 953,
      "味": 954,
      "命": 955,
      "和": 956,
      "品": 957,
      "哪": 958,
      "喃": 959,
      "喚": 960,
      "喜": 961,
      "噂": 962,
      "四": 963,
      "回": 964,
      "园": 965,
      "囯": 966,
      "国": 967,
      "圆": 968,
      "國": 969,
      "園": 970,
      "土": 971,
      "在": 972,
      "地": 973,
      "坂": 974,
      "城": 975,
      "基": 976,
      "埼": 977,
      "堀": 978,
      "報": 979,
      "塼": 980,
      "塽": 981,
      "壯": 982,
      "声": 983,
      "夏": 984,
      "外": 985,
      "多": 986,
      "夢": 987,
      "大": 988,
      "天": 989,
      "太": 990,
      "夫": 991,
      "失": 992,
      "奇": 993,
      "奉": 994,
      "奎": 995,
      "女": 996,
      "好": 997,
      "妃": 998,
      "威": 999,
      "婉": 1000,
      "孁": 1001,
      "子": 1002,
      "字": 1003,
      "孝": 1004,
      "孤": 1005,
      "学": 1006,
      "學": 1007,
      "宁": 1008,
      "安": 1009,
      "完": 1010,
      "宓": 1011,
      "宗": 1012,
      "宝": 1013,
      "実": 1014,
      "害": 1015,
      "宵": 1016,
      "家": 1017,
      "寄": 1018,
      "密": 1019,
      "寓": 1020,
      "察": 1021,
      "實": 1022,
      "寺": 1023,
      "寿": 1024,
      "小": 1025,
      "少": 1026,
      "尔": 1027,
      "尾": 1028,
      "山": 1029,
      "岳": 1030,
      "峡": 1031,
      "島": 1032,
      "川": 1033,
      "州": 1034,
      "巢": 1035,
      "工": 1036,
      "左": 1037,
      "巴": 1038,
      "市": 1039,
      "帅": 1040,
      "希": 1041,
      "帝": 1042,
      "平": 1043,
      "年": 1044,
      "幼": 1045,
      "幽": 1046,
      "府": 1047,
      "度": 1048,
      "庭": 1049,
      "庵": 1050,
      "廉": 1051,
      "廪": 1052,
      "延": 1053,
      "建": 1054,
      "弓": 1055,
      "弘": 1056,
      "後": 1057,
      "徐": 1058,
      "微": 1059,
      "徳": 1060,
      "德": 1061,
      "心": 1062,
      "志": 1063,
      "念": 1064,
      "性": 1065,
      "恪": 1066,
      "息": 1067,
      "悲": 1068,
      "情": 1069,
      "惠": 1070,
      "想": 1071,
      "感": 1072,
      "慎": 1073,
      "成": 1074,
      "我": 1075,
      "戦": 1076,
      "户": 1077,
      "房": 1078,
      "手": 1079,
      "打": 1080,
      "抄": 1081,
      "拳": 1082,
      "持": 1083,
      "挂": 1084,
      "按": 1085,
      "探": 1086,
      "政": 1087,
      "文": 1088,
      "斗": 1089,
      "料": 1090,
      "斥": 1091,
      "斯": 1092,
      "新": 1093,
      "方": 1094,
      "施": 1095,
      "族": 1096,
      "既": 1097,
      "日": 1098,
      "明": 1099,
      "星": 1100,
      "春": 1101,
      "昭": 1102,
      "晁": 1103,
      "景": 1104,
      "暗": 1105,
      "暦": 1106,
      "暫": 1107,
      "曲": 1108,
      "曳": 1109,
      "書": 1110,
      "會": 1111,
      "月": 1112,
      "有": 1113,
      "朗": 1114,
      "朝": 1115,
      "木": 1116,
      "未": 1117,
      "本": 1118,
      "术": 1119,
      "朱": 1120,
      "杉": 1121,
      "李": 1122,
      "材": 1123,
      "村": 1124,
      "条": 1125,
      "東": 1126,
      "松": 1127,
      "林": 1128,
      "果": 1129,
      "柿": 1130,
      "标": 1131,
      "根": 1132,
      "格": 1133,
      "桂": 1134,
      "案": 1135,
      "桜": 1136,
      "梅": 1137,
      "梨": 1138,
      "森": 1139,
      "椒": 1140,
      "楽": 1141,
      "榮": 1142,
      "樊": 1143,
      "標": 1144,
      "橘": 1145,
      "橫": 1146,
      "檀": 1147,
      "權": 1148,
      "歌": 1149,
      "正": 1150,
      "武": 1151,
      "歩": 1152,
      "殺": 1153,
      "毅": 1154,
      "氏": 1155,
      "民": 1156,
      "氣": 1157,
      "水": 1158,
      "永": 1159,
      "江": 1160,
      "池": 1161,
      "汤": 1162,
      "汪": 1163,
      "沛": 1164,
      "沤": 1165,
      "河": 1166,
      "沼": 1167,
      "泉": 1168,
      "波": 1169,
      "泰": 1170,
      "泳": 1171,
      "洛": 1172,
      "活": 1173,
      "流": 1174,
      "海": 1175,
      "涌": 1176,
      "渚": 1177,
      "渝": 1178,
      "渡": 1179,
      "湖": 1180,
      "湾": 1181,
      "源": 1182,
      "準": 1183,
      "溶": 1184,
      "漢": 1185,
      "澄": 1186,
      "濟": 1187,
      "瀬": 1188,
      "炊": 1189,
      "炜": 1190,
      "無": 1191,
      "照": 1192,
      "煮": 1193,
      "熊": 1194,
      "爱": 1195,
      "父": 1196,
      "物": 1197,
      "特": 1198,
      "献": 1199,
      "獄": 1200,
      "獣": 1201,
      "玄": 1202,
      "玉": 1203,
      "王": 1204,
      "珍": 1205,
      "班": 1206,
      "理": 1207,
      "瑞": 1208,
      "瑶": 1209,
      "生": 1210,
      "田": 1211,
      "由": 1212,
      "申": 1213,
      "电": 1214,
      "町": 1215,
      "畅": 1216,
      "痴": 1217,
      "白": 1218,
      "百": 1219,
      "的": 1220,
      "皇": 1221,
      "盛": 1222,
      "相": 1223,
      "眞": 1224,
      "真": 1225,
      "着": 1226,
      "矢": 1227,
      "知": 1228,
      "短": 1229,
      "石": 1230,
      "碣": 1231,
      "示": 1232,
      "社": 1233,
      "祈": 1234,
      "神": 1235,
      "科": 1236,
      "秒": 1237,
      "秘": 1238,
      "移": 1239,
      "種": 1240,
      "穆": 1241,
      "穿": 1242,
      "章": 1243,
      "第": 1244,
      "筒": 1245,
      "節": 1246,
      "篇": 1247,
      "築": 1248,
      "簡": 1249,
      "糖": 1250,
      "糸": 1251,
      "紀": 1252,
      "約": 1253,
      "紅": 1254,
      "紙": 1255,
      "級": 1256,
      "素": 1257,
      "紫": 1258,
      "絡": 1259,
      "絶": 1260,
      "絹": 1261,
      "經": 1262,
      "綬": 1263,
      "維": 1264,
      "綾": 1265,
      "綿": 1266,
      "総": 1267,
      "縱": 1268,
      "绍": 1269,
      "署": 1270,
      "羅": 1271,
      "美": 1272,
      "羽": 1273,
      "翁": 1274,
      "老": 1275,
      "者": 1276,
      "而": 1277,
      "联": 1278,
      "聯": 1279,
      "育": 1280,
      "脳": 1281,
      "腐": 1282,
      "膏": 1283,
      "臓": 1284,
      "與": 1285,
      "舞": 1286,
      "航": 1287,
      "船": 1288,
      "色": 1289,
      "艺": 1290,
      "花": 1291,
      "英": 1292,
      "茜": 1293,
      "茶": 1294,
      "華": 1295,
      "葬": 1296,
      "蔣": 1297,
      "薰": 1298,
      "藤": 1299,
      "蘋": 1300,
      "蘭": 1301,
      "虎": 1302,
      "蜀": 1303,
      "行": 1304,
      "術": 1305,
      "衛": 1306,
      "衣": 1307,
      "裸": 1308,
      "製": 1309,
      "褒": 1310,
      "西": 1311,
      "要": 1312,
      "視": 1313,
      "親": 1314,
      "见": 1315,
      "角": 1316,
      "言": 1317,
      "記": 1318,
      "証": 1319,
      "語": 1320,
      "誰": 1321,
      "調": 1322,
      "諸": 1323,
      "諾": 1324,
      "講": 1325,
      "謡": 1326,
      "譜": 1327,
      "警": 1328,
      "讃": 1329,
      "讲": 1330,
      "话": 1331,
      "语": 1332,
      "说": 1333,
      "豆": 1334,
      "豫": 1335,
      "貫": 1336,
      "責": 1337,
      "貴": 1338,
      "賢": 1339,
      "赤": 1340,
      "走": 1341,
      "起": 1342,
      "越": 1343,
      "趙": 1344,
      "跡": 1345,
      "路": 1346,
      "軍": 1347,
      "軒": 1348,
      "辞": 1349,
      "迅": 1350,
      "过": 1351,
      "速": 1352,
      "進": 1353,
      "道": 1354,
      "遠": 1355,
      "遺": 1356,
      "邑": 1357,
      "邡": 1358,
      "郎": 1359,
      "郑": 1360,
      "部": 1361,
      "都": 1362,
      "鄠": 1363,
      "鄰": 1364,
      "酒": 1365,
      "醂": 1366,
      "醉": 1367,
      "里": 1368,
      "金": 1369,
      "錢": 1370,
      "録": 1371,
      "镇": 1372,
      "长": 1373,
      "門": 1374,
      "間": 1375,
      "関": 1376,
      "门": 1377,
      "阿": 1378,
      "陛": 1379,
      "陵": 1380,
      "険": 1381,
      "陽": 1382,
      "隆": 1383,
      "隐": 1384,
      "際": 1385,
      "雄": 1386,
      "雛": 1387,
      "雞": 1388,
      "雨": 1389,
      "雪": 1390,
      "靖": 1391,
      "面": 1392,
      "革": 1393,
      "韓": 1394,
      "韦": 1395,
      "音": 1396,
      "順": 1397,
      "願": 1398,
      "风": 1399,
      "食": 1400,
      "馆": 1401,
      "首": 1402,
      "馨": 1403,
      "駅": 1404,
      "鱒": 1405,
      "鲁": 1406,
      "鲤": 1407,
      "鳥": 1408,
      "鳳": 1409,
      "鴨": 1410,
      "鶴": 1411,
      "鸟": 1412,
      "鸡": 1413,
      "鸭": 1414,
      "麦": 1415,
      "黃": 1416,
      "黄": 1417,
      "黒": 1418,
      "黨": 1419,
      "龍": 1420,
      "龐": 1421,
      "龙": 1422,
      "ꯀ": 1423,
      "ꯂ": 1424,
      "ꯃ": 1425,
      "ꯄ": 1426,
      "ꯅ": 1427,
      "ꯈ": 1428,
      "ꯉ": 1429,
      "ꯊ": 1430,
      "ꯔ": 1431,
      "ꯛ": 1432,
      "ꯜ": 1433,
      "ꯡ": 1434,
      "ꯣ": 1435,
      "ꯤ": 1436,
      "ꯥ": 1437,
      "ꯦ": 1438,
      "ꯧ": 1439,
      "ꯨ": 1440,
      "ꯩ": 1441,
      "가": 1442,
      "강": 1443,
      "개": 1444,
      "거": 1445,
      "경": 1446,
      "계": 1447,
      "고": 1448,
      "곡": 1449,
      "공": 1450,
      "과": 1451,
      "교": 1452,
      "구": 1453,
      "국": 1454,
      "군": 1455,
      "궁": 1456,
      "기": 1457,
      "김": 1458,
      "난": 1459,
      "낮": 1460,
      "내": 1461,
      "너": 1462,
      "누": 1463,
      "단": 1464,
      "달": 1465,
      "당": 1466,
      "대": 1467,
      "데": 1468,
      "도": 1469,
      "동": 1470,
      "따": 1471,
      "때": 1472,
      "뜨": 1473,
      "라": 1474,
      "례": 1475,
      "리": 1476,
      "무": 1477,
      "문": 1478,
      "뮤": 1479,
      "미": 1480,
      "민": 1481,
      "밀": 1482,
      "박": 1483,
      "밤": 1484,
      "밥": 1485,
      "방": 1486,
      "백": 1487,
      "뱅": 1488,
      "번": 1489,
      "보": 1490,
      "본": 1491,
      "부": 1492,
      "북": 1493,
      "뷔": 1494,
      "비": 1495,
      "뻐": 1496,
      "사": 1497,
      "산": 1498,
      "생": 1499,
      "서": 1500,
      "선": 1501,
      "설": 1502,
      "성": 1503,
      "수": 1504,
      "시": 1505,
      "식": 1506,
      "신": 1507,
      "심": 1508,
      "쌈": 1509,
      "아": 1510,
      "암": 1511,
      "약": 1512,
      "에": 1513,
      "엣": 1514,
      "예": 1515,
      "옹": 1516,
      "왕": 1517,
      "요": 1518,
      "우": 1519,
      "운": 1520,
      "위": 1521,
      "음": 1522,
      "의": 1523,
      "이": 1524,
      "인": 1525,
      "장": 1526,
      "쟁": 1527,
      "전": 1528,
      "정": 1529,
      "종": 1530,
      "좌": 1531,
      "주": 1532,
      "줄": 1533,
      "중": 1534,
      "지": 1535,
      "직": 1536,
      "찌": 1537,
      "천": 1538,
      "쳐": 1539,
      "출": 1540,
      "충": 1541,
      "쿵": 1542,
      "크": 1543,
      "토": 1544,
      "티": 1545,
      "파": 1546,
      "판": 1547,
      "평": 1548,
      "포": 1549,
      "피": 1550,
      "하": 1551,
      "학": 1552,
      "한": 1553,
      "해": 1554,
      "행": 1555,
      "헌": 1556,
      "현": 1557,
      "호": 1558,
      "혹": 1559,
      "화": 1560,
      "횡": 1561,
      "훈": 1562,
      "흥": 1563,
      "희": 1564,
      "ﬁ": 1565,
      "︠": 1566,
      "︡": 1567,
      "ﺍ": 1568,
      "ﺏ": 1569,
      "ﺤ": 1570,
      "ﺩ": 1571,
      "ﻫ": 1572,
      "！": 1573,
      "（": 1574,
      "）": 1575,
      "，": 1576,
      "：": 1577,
      "～": 1578,
      "｢": 1579,
      "er": 1580,
      "en": 1581,
      "an": 1582,
      "in": 1583,
      "ar": 1584,
      "he": 1585,
      "at": 1586,
      "st": 1587,
      "et": 1588,
      "on": 1589,
      "or": 1590,
      "ed": 1591,
      "the": 1592,
      "om": 1593,
      "al": 1594,
      "es": 1595,
      "is": 1596,
      "är": 1597,
      "ad": 1598,
      "il": 1599,
      "un": 1600,
      "it": 1601,
      "as": 1602,
      "and": 1603,
      "ch": 1604,
      "ing": 1605,
      "el": 1606,
      "of": 1607,
      "ig": 1608,
      "re": 1609,
      "av": 1610,
      "ol": 1611,
      "am": 1612,
      "to": 1613,
      "th": 1614,
      "ör": 1615,
      "ver": 1616,
      "och": 1617,
      "ut": 1618,
      "ion": 1619,
      "ic": 1620,
      "be": 1621,
      "are": 1622,
      "le": 1623,
      "de": 1624,
      "sk": 1625,
      "ro": 1626,
      "med": 1627,
      "att": 1628,
      "för": 1629,
      "ur": 1630,
      "ill": 1631,
      "ter": 1632,
      "än": 1633,
      "per": 1634,
      "us": 1635,
      "id": 1636,
      "ån": 1637,
      "unt": 1638,
      "ra": 1639,
      "ent": 1640,
      "kt": 1641,
      "eter": 1642,
      "The": 1643,
      "ck": 1644,
      "la": 1645,
      "som": 1646,
      "19": 1647,
      "for": 1648,
      "all": 1649,
      "ot": 1650,
      "fr": 1651,
      "pp": 1652,
      "ul": 1653,
      "iv": 1654,
      "den": 1655,
      "was": 1656,
      "ade": 1657,
      "det": 1658,
      "ir": 1659,
      "ag": 1660,
      "der": 1661,
      "se": 1662,
      "20": 1663,
      "lig": 1664,
      "till": 1665,
      "na": 1666,
      "im": 1667,
      "var": 1668,
      "på": 1669,
      "gen": 1670,
      "te": 1671,
      "ak": 1672,
      "ow": 1673,
      "hav": 1674,
      "ation": 1675,
      "ri": 1676,
      "ning": 1677,
      "em": 1678,
      "över": 1679,
      "ct": 1680,
      "ten": 1681,
      "sp": 1682,
      "ber": 1683,
      "rat": 1684,
      "ist": 1685,
      "inv": 1686,
      "ell": 1687,
      "um": 1688,
      "op": 1689,
      "by": 1690,
      "ik": 1691,
      "fol": 1692,
      "sta": 1693,
      "kv": 1694,
      "ska": 1695,
      "ce": 1696,
      "ere": 1697,
      "wh": 1698,
      "kil": 1699,
      "ly": 1700,
      "invån": 1701,
      "ometer": 1702,
      "invånare": 1703,
      "kilometer": 1704,
      "man": 1705,
      "folk": 1706,
      "art": 1707,
      "meter": 1708,
      "pl": 1709,
      "runt": 1710,
      "befolk": 1711,
      "vä": 1712,
      "när": 1713,
      "ay": 1714,
      "ne": 1715,
      "adrat": 1716,
      "kvadrat": 1717,
      "kvadratkilometer": 1718,
      "ta": 1719,
      "ess": 1720,
      "men": 1721,
      "havet": 1722,
      "ud": 1723,
      "år": 1724,
      "bo": 1725,
      "do": 1726,
      "his": 1727,
      "ith": 1728,
      "so": 1729,
      "kten": 1730,
      "ät": 1731,
      "In": 1732,
      "tr": 1733,
      "har": 1734,
      "bl": 1735,
      "if": 1736,
      "ans": 1737,
      "Den": 1738,
      "mo": 1739,
      "sam": 1740,
      "that": 1741,
      "äl": 1742,
      "rän": 1743,
      "ett": 1744,
      "ger": 1745,
      "hö": 1746,
      "con": 1747,
      "Runt": 1748,
      "pr": 1749,
      "os": 1750,
      "gr": 1751,
      "with": 1752,
      "befolkat": 1753,
      "upp": 1754,
      "nor": 1755,
      "und": 1756,
      "00": 1757,
      "fter": 1758,
      "ka": 1759,
      "It": 1760,
      "Ter": 1761,
      "sy": 1762,
      "åt": 1763,
      "pro": 1764,
      "pe": 1765,
      "He": 1766,
      "son": 1767,
      "ug": 1768,
      "rängen": 1769,
      "Terrängen": 1770,
      "co": 1771,
      "ant": 1772,
      "gan": 1773,
      "sh": 1774,
      "gl": 1775,
      "ster": 1776,
      "od": 1777,
      "com": 1778,
      "ind": 1779,
      "ma": 1780,
      "sl": 1781,
      "mer": 1782,
      "ven": 1783,
      "han": 1784,
      "from": 1785,
      "ort": 1786,
      "hög": 1787,
      "ge": 1788,
      "br": 1789,
      "ex": 1790,
      "201": 1791,
      "og": 1792,
      "200": 1793,
      "ble": 1794,
      "ers": 1795,
      "heten": 1796,
      "str": 1797,
      "ande": 1798,
      "ia": 1799,
      "one": 1800,
      "ear": 1801,
      "lo": 1802,
      "ies": 1803,
      "ie": 1804,
      "ser": 1805,
      "her": 1806,
      "da": 1807,
      "pun": 1808,
      "up": 1809,
      "under": 1810,
      "not": 1811,
      "pla": 1812,
      "bet": 1813,
      "km": 1814,
      "18": 1815,
      "uper": 1816,
      "högsta": 1817,
      "ther": 1818,
      "ades": 1819,
      "del": 1820,
      "punkten": 1821,
      "så": 1822,
      "ac": 1823,
      "ht": 1824,
      "ens": 1825,
      "ick": 1826,
      "kom": 1827,
      "närheten": 1828,
      "ord": 1829,
      "sin": 1830,
      "sig": 1831,
      "från": 1832,
      "ok": 1833,
      "kuper": 1834,
      "kuperad": 1835,
      "ap": 1836,
      "ity": 1837,
      "mar": 1838,
      "has": 1839,
      "were": 1840,
      "ci": 1841,
      "ns": 1842,
      "fin": 1843,
      "use": 1844,
      "ate": 1845,
      "ame": 1846,
      "tv": 1847,
      "ganska": 1848,
      "tal": 1849,
      "ive": 1850,
      "land": 1851,
      "my": 1852,
      "wo": 1853,
      "ard": 1854,
      "ha": 1855,
      "ele": 1856,
      "dr": 1857,
      "St": 1858,
      "ång": 1859,
      "des": 1860,
      "ich": 1861,
      "qu": 1862,
      "gles": 1863,
      "ang": 1864,
      "est": 1865,
      "also": 1866,
      "kan": 1867,
      "ts": 1868,
      ").": 1869,
      "tid": 1870,
      "fl": 1871,
      "ast": 1872,
      "glesbefolkat": 1873,
      "ust": 1874,
      "own": 1875,
      "ople": 1876,
      "hu": 1877,
      "ov": 1878,
      "wor": 1879,
      "ian": 1880,
      "can": 1881,
      "gg": 1882,
      "res": 1883,
      "ål": 1884,
      "tät": 1885,
      "väst": 1886,
      "kn": 1887,
      "sen": 1888,
      "ore": 1889,
      "ater": 1890,
      "have": 1891,
      "äm": 1892,
      "eller": 1893,
      "inte": 1894,
      "ann": 1895,
      "they": 1896,
      "vis": 1897,
      "Ch": 1898,
      "vid": 1899,
      "åg": 1900,
      "cl": 1901,
      "ve": 1902,
      "bar": 1903,
      "su": 1904,
      "di": 1905,
      "ite": 1906,
      "but": 1907,
      "fo": 1908,
      "ally": 1909,
      "Un": 1910,
      "två": 1911,
      "platt": 1912,
      "fir": 1913,
      "ong": 1914,
      "tätbefolkat": 1915,
      "kr": 1916,
      "ass": 1917,
      "itt": 1918,
      "we": 1919,
      "fe": 1920,
      "ca": 1921,
      "people": 1922,
      "ung": 1923,
      "An": 1924,
      "äll": 1925,
      "du": 1926,
      "ake": 1927,
      "part": 1928,
      "iska": 1929,
      "199": 1930,
      "opp": 1931,
      "Th": 1932,
      "De": 1933,
      "efter": 1934,
      "ock": 1935,
      "ary": 1936,
      "hade": 1937,
      "ligen": 1938,
      "dväst": 1939,
      "other": 1940,
      "Al": 1941,
      "ment": 1942,
      "ine": 1943,
      "had": 1944,
      "kon": 1945,
      "dost": 1946,
      "huv": 1947,
      "sak": 1948,
      "This": 1949,
      "ain": 1950,
      "tim": 1951,
      "go": 1952,
      "ab": 1953,
      "io": 1954,
      "En": 1955,
      "ier": 1956,
      "end": 1957,
      "ry": 1958,
      "its": 1959,
      "fer": 1960,
      "Det": 1961,
      "fö": 1962,
      "där": 1963,
      "sö": 1964,
      "first": 1965,
      "ip": 1966,
      "me": 1967,
      "huvud": 1968,
      "ld": 1969,
      "ish": 1970,
      "age": 1971,
      "berg": 1972,
      "play": 1973,
      "ide": 1974,
      "arna": 1975,
      "which": 1976,
      "stor": 1977,
      "their": 1978,
      "sa": 1979,
      "ated": 1980,
      "ou": 1981,
      "nam": 1982,
      "hon": 1983,
      "je": 1984,
      "uld": 1985,
      "get": 1986,
      "ty": 1987,
      "isk": 1988,
      "cket": 1989,
      "het": 1990,
      "ild": 1991,
      "lar": 1992,
      "ack": 1993,
      "ätt": 1994,
      "ember": 1995,
      "rit": 1996,
      "ligger": 1997,
      "vän": 1998,
      "par": 1999,
      "ach": 2000,
      "ats": 2001,
      "Tra": 2002,
      "Fr": 2003,
      "min": 2004,
      "ight": 2005,
      "led": 2006,
      "ingen": 2007,
      "Han": 2008,
      "ugh": 2009,
      "bor": 2010,
      "mot": 2011,
      "tt": 2012,
      "out": 2013,
      "ke": 2014,
      "year": 2015,
      "this": 2016,
      "call": 2017,
      "po": 2018,
      "act": 2019,
      "They": 2020,
      "form": 2021,
      "nära": 2022,
      "mycket": 2023,
      "ningen": 2024,
      "vers": 2025,
      "även": 2026,
      "ft": 2027,
      "ings": 2028,
      "abo": 2029,
      "era": 2030,
      "ition": 2031,
      "ure": 2032,
      "spel": 2033,
      "ree": 2034,
      "sm": 2035,
      "Trakten": 2036,
      "ets": 2037,
      "verk": 2038,
      "ult": 2039,
      "yr": 2040,
      "198": 2041,
      "sj": 2042,
      "che": 2043,
      "cent": 2044,
      "very": 2045,
      "vil": 2046,
      "ep": 2047,
      "iz": 2048,
      "Mar": 2049,
      "lik": 2050,
      "ice": 2051,
      "huvudsak": 2052,
      "ny": 2053,
      "ical": 2054,
      "used": 2055,
      "\".": 2056,
      "pol": 2057,
      "rå": 2058,
      "ho": 2059,
      "called": 2060,
      "äng": 2061,
      "She": 2062,
      "spe": 2063,
      "old": 2064,
      "work": 2065,
      "many": 2066,
      "mind": 2067,
      "197": 2068,
      "Ar": 2069,
      "red": 2070,
      "),": 2071,
      "amp": 2072,
      "ner": 2073,
      "way": 2074,
      "kl": 2075,
      "blev": 2076,
      "hel": 2077,
      "ste": 2078,
      "gro": 2079,
      "ction": 2080,
      "17": 2081,
      "reg": 2082,
      "ue": 2083,
      "tra": 2084,
      "lag": 2085,
      "huvudsakligen": 2086,
      "ien": 2087,
      "about": 2088,
      "two": 2089,
      "mindre": 2090,
      "ob": 2091,
      "andra": 2092,
      "liga": 2093,
      "who": 2094,
      "more": 2095,
      "bygg": 2096,
      "most": 2097,
      "ub": 2098,
      "fram": 2099,
      "ins": 2100,
      "hen": 2101,
      "off": 2102,
      "time": 2103,
      "any": 2104,
      "då": 2105,
      "oppen": 2106,
      "mon": 2107,
      "Toppen": 2108,
      "there": 2109,
      "mov": 2110,
      "finns": 2111,
      "uk": 2112,
      "196": 2113,
      "bel": 2114,
      "person": 2115,
      "slut": 2116,
      "ligt": 2117,
      "port": 2118,
      "net": 2119,
      "liv": 2120,
      "over": 2121,
      "our": 2122,
      "erna": 2123,
      "inter": 2124,
      "ubl": 2125,
      "made": 2126,
      "Kū": 2127,
      "hand": 2128,
      "ned": 2129,
      "bör": 2130,
      "app": 2131,
      "been": 2132,
      "också": 2133,
      "dif": 2134,
      "Kūh": 2135,
      "cause": 2136,
      "ial": 2137,
      "pt": 2138,
      "mus": 2139,
      "ory": 2140,
      "genom": 2141,
      "known": 2142,
      "bu": 2143,
      "ff": 2144,
      "rev": 2145,
      "ika": 2146,
      "she": 2147,
      "10": 2148,
      "them": 2149,
      "xt": 2150,
      "skap": 2151,
      "15": 2152,
      "16": 2153,
      "came": 2154,
      "ces": 2155,
      "fly": 2156,
      "comp": 2157,
      "cer": 2158,
      "int": 2159,
      "him": 2160,
      "ents": 2161,
      "dis": 2162,
      "vär": 2163,
      "ket": 2164,
      "val": 2165,
      "oll": 2166,
      "nog": 2167,
      "talet": 2168,
      "bergig": 2169,
      "band": 2170,
      "ased": 2171,
      "fam": 2172,
      "öd": 2173,
      "sed": 2174,
      "stad": 2175,
      "when": 2176,
      "pres": 2177,
      "into": 2178,
      "tre": 2179,
      "arbet": 2180,
      "mat": 2181,
      "ors": 2182,
      "tho": 2183,
      "ank": 2184,
      "cre": 2185,
      "ational": 2186,
      "första": 2187,
      "no": 2188,
      "start": 2189,
      "gs": 2190,
      "mun": 2191,
      "000": 2192,
      "befolkad": 2193,
      "ican": 2194,
      "lj": 2195,
      "använ": 2196,
      "sydväst": 2197,
      "akt": 2198,
      "eng": 2199,
      "någ": 2200,
      "ah": 2201,
      "num": 2202,
      "Re": 2203,
      "ful": 2204,
      "ph": 2205,
      "best": 2206,
      "nad": 2207,
      "after": 2208,
      "produ": 2209,
      "bes": 2210,
      "börj": 2211,
      "ions": 2212,
      "Ne": 2213,
      "new": 2214,
      "söder": 2215,
      "ret": 2216,
      "jor": 2217,
      "ced": 2218,
      "Amer": 2219,
      "cit": 2220,
      "nordost": 2221,
      "col": 2222,
      "norr": 2223,
      "hål": 2224,
      "only": 2225,
      "rel": 2226,
      "obefolkad": 2227,
      "tem": 2228,
      "Le": 2229,
      "lä": 2230,
      "pop": 2231,
      "sid": 2232,
      "195": 2233,
      "ningar": 2234,
      "dess": 2235,
      "Mo": 2236,
      "ome": 2237,
      "than": 2238,
      "ellan": 2239,
      "ile": 2240,
      "ations": 2241,
      "There": 2242,
      "gre": 2243,
      "ling": 2244,
      "years": 2245,
      "öster": 2246,
      "ath": 2247,
      "some": 2248,
      "nordväst": 2249,
      "194": 2250,
      "ala": 2251,
      "count": 2252,
      "ance": 2253,
      "met": 2254,
      "Lake": 2255,
      "ds": 2256,
      "ru": 2257,
      "hed": 2258,
      "bland": 2259,
      "bro": 2260,
      "Jo": 2261,
      "iga": 2262,
      "sydost": 2263,
      "fick": 2264,
      "giv": 2265,
      "differ": 2266,
      "day": 2267,
      "skul": 2268,
      "ks": 2269,
      "ställ": 2270,
      "bum": 2271,
      "cho": 2272,
      "ates": 2273,
      "ken": 2274,
      "stör": 2275,
      "ons": 2276,
      "atur": 2277,
      "igt": 2278,
      "ilj": 2279,
      "sing": 2280,
      "popul": 2281,
      "ward": 2282,
      "sä": 2283,
      "ict": 2284,
      "Nor": 2285,
      "lite": 2286,
      "cess": 2287,
      "als": 2288,
      "År": 2289,
      "aren": 2290,
      "kun": 2291,
      "Be": 2292,
      "As": 2293,
      "ire": 2294,
      "ys": 2295,
      "air": 2296,
      "dra": 2297,
      "dag": 2298,
      "pos": 2299,
      "äst": 2300,
      "inn": 2301,
      "ön": 2302,
      "publ": 2303,
      "ence": 2304,
      "12": 2305,
      "ever": 2306,
      "ely": 2307,
      "hans": 2308,
      "30": 2309,
      "dom": 2310,
      "sc": 2311,
      "ark": 2312,
      "mellan": 2313,
      "will": 2314,
      "igh": 2315,
      "väster": 2316,
      "became": 2317,
      "ånga": 2318,
      "uring": 2319,
      "stem": 2320,
      "name": 2321,
      "rele": 2322,
      "because": 2323,
      "ms": 2324,
      "åter": 2325,
      "fil": 2326,
      "hist": 2327,
      "different": 2328,
      "album": 2329,
      "stud": 2330,
      "ina": 2331,
      "van": 2332,
      "går": 2333,
      "ident": 2334,
      "would": 2335,
      "äck": 2336,
      "plan": 2337,
      "cial": 2338,
      "skulle": 2339,
      "dock": 2340,
      "iss": 2341,
      "kän": 2342,
      "14": 2343,
      "les": 2344,
      "vel": 2345,
      "\",": 2346,
      "ton": 2347,
      "ix": 2348,
      "sedan": 2349,
      "On": 2350,
      "fore": 2351,
      "samt": 2352,
      "enter": 2353,
      "olog": 2354,
      "ll": 2355,
      "ved": 2356,
      "back": 2357,
      "far": 2358,
      "olika": 2359,
      "cted": 2360,
      "trä": 2361,
      "Co": 2362,
      "iet": 2363,
      "hus": 2364,
      "main": 2365,
      "vara": 2366,
      "gör": 2367,
      "then": 2368,
      "erade": 2369,
      "bild": 2370,
      "nas": 2371,
      "vi": 2372,
      "fär": 2373,
      "Ro": 2374,
      "ss": 2375,
      "ale": 2376,
      "cy": 2377,
      "uro": 2378,
      "ivers": 2379,
      "grund": 2380,
      "Bo": 2381,
      "hol": 2382,
      "cond": 2383,
      "ually": 2384,
      "cord": 2385,
      "show": 2386,
      "sitt": 2387,
      "Con": 2388,
      "För": 2389,
      "like": 2390,
      "ited": 2391,
      "rist": 2392,
      "nes": 2393,
      "polit": 2394,
      "Hon": 2395,
      "ship": 2396,
      "Under": 2397,
      "ily": 2398,
      "ker": 2399,
      "håll": 2400,
      "au": 2401,
      "samman": 2402,
      "incl": 2403,
      "kall": 2404,
      "ase": 2405,
      "dy": 2406,
      "ous": 2407,
      "Se": 2408,
      "thro": 2409,
      "män": 2410,
      "car": 2411,
      "alla": 2412,
      "where": 2413,
      "iel": 2414,
      "ife": 2415,
      "citation": 2416,
      "Pr": 2417,
      "stru": 2418,
      "ied": 2419,
      "tar": 2420,
      "sv": 2421,
      "13": 2422,
      "American": 2423,
      "uary": 2424,
      "may": 2425,
      "äv": 2426,
      "ween": 2427,
      "found": 2428,
      "sol": 2429,
      "wn": 2430,
      "ran": 2431,
      "mö": 2432,
      "fatt": 2433,
      "sina": 2434,
      "New": 2435,
      "inne": 2436,
      "ja": 2437,
      "ev": 2438,
      "lin": 2439,
      "gu": 2440,
      "nu": 2441,
      "three": 2442,
      "tog": 2443,
      "ott": 2444,
      "kar": 2445,
      "jär": 2446,
      "tro": 2447,
      "cur": 2448,
      "193": 2449,
      "low": 2450,
      "pa": 2451,
      "system": 2452,
      "lighet": 2453,
      "number": 2454,
      "gam": 2455,
      "ister": 2456,
      "fall": 2457,
      "ics": 2458,
      "verig": 2459,
      "mak": 2460,
      "rad": 2461,
      "For": 2462,
      "able": 2463,
      "Com": 2464,
      "released": 2465,
      "pel": 2466,
      "tur": 2467,
      "member": 2468,
      "ende": 2469,
      "Sverig": 2470,
      "samma": 2471,
      "Sh": 2472,
      "yd": 2473,
      "organ": 2474,
      "gång": 2475,
      "vilket": 2476,
      "25": 2477,
      "fa": 2478,
      "före": 2479,
      "writ": 2480,
      "gram": 2481,
      "dire": 2482,
      "rikt": 2483,
      "sven": 2484,
      "utan": 2485,
      "län": 2486,
      "did": 2487,
      "ught": 2488,
      "va": 2489,
      "kommer": 2490,
      "El": 2491,
      "nar": 2492,
      "flera": 2493,
      "2010": 2494,
      "dec": 2495,
      "again": 2496,
      "Man": 2497,
      "ried": 2498,
      "make": 2499,
      "Efter": 2500,
      "vin": 2501,
      "detta": 2502,
      "between": 2503,
      "group": 2504,
      "chool": 2505,
      "sten": 2506,
      "world": 2507,
      "gif": 2508,
      "pre": 2509,
      "uch": 2510,
      "La": 2511,
      "born": 2512,
      "gav": 2513,
      "until": 2514,
      "Ma": 2515,
      "spr": 2516,
      "ilt": 2517,
      "ement": 2518,
      "well": 2519,
      "owever": 2520,
      "Br": 2521,
      "sur": 2522,
      "Car": 2523,
      "bur": 2524,
      "mål": 2525,
      "team": 2526,
      "At": 2527,
      "played": 2528,
      "dist": 2529,
      "ished": 2530,
      "lit": 2531,
      "ib": 2532,
      "veck": 2533,
      "oc": 2534,
      "bå": 2535,
      "gest": 2536,
      "same": 2537,
      "svar": 2538,
      "national": 2539,
      "lö": 2540,
      "ound": 2541,
      "Or": 2542,
      "själ": 2543,
      "later": 2544,
      "bak": 2545,
      "often": 2546,
      "through": 2547,
      "eral": 2548,
      "tag": 2549,
      "ason": 2550,
      "ond": 2551,
      "senare": 2552,
      "ole": 2553,
      "Par": 2554,
      "war": 2555,
      "His": 2556,
      "gar": 2557,
      "won": 2558,
      "heter": 2559,
      "city": 2560,
      ".\"": 2561,
      "vert": 2562,
      "namn": 2563,
      "växt": 2564,
      "els": 2565,
      "annat": 2566,
      "ofta": 2567,
      "alt": 2568,
      "these": 2569,
      "come": 2570,
      "book": 2571,
      "After": 2572,
      "ef": 2573,
      "ktion": 2574,
      "yn": 2575,
      "char": 2576,
      "ica": 2577,
      "fem": 2578,
      "music": 2579,
      "11": 2580,
      "utom": 2581,
      "Pro": 2582,
      "50": 2583,
      "second": 2584,
      "each": 2585,
      "ella": 2586,
      "många": 2587,
      "ower": 2588,
      "long": 2589,
      "sn": 2590,
      "four": 2591,
      "riv": 2592,
      "iskt": 2593,
      "Jan": 2594,
      "try": 2595,
      "ual": 2596,
      "Pe": 2597,
      "Gr": 2598,
      "small": 2599,
      "ativ": 2600,
      "vatt": 2601,
      "inom": 2602,
      "ugust": 2603,
      "When": 2604,
      "tober": 2605,
      "fun": 2606,
      "nen": 2607,
      "ists": 2608,
      "serv": 2609,
      "ga": 2610,
      "else": 2611,
      "jur": 2612,
      "li": 2613,
      "could": 2614,
      "last": 2615,
      "tember": 2616,
      "bb": 2617,
      "följ": 2618,
      "apan": 2619,
      "På": 2620,
      "tor": 2621,
      "lands": 2622,
      "includ": 2623,
      "Her": 2624,
      "Ber": 2625,
      "help": 2626,
      "ari": 2627,
      "stra": 2628,
      "movie": 2629,
      "being": 2630,
      "ious": 2631,
      "Euro": 2632,
      "Engl": 2633,
      "dan": 2634,
      "II": 2635,
      "mil": 2636,
      "oper": 2637,
      "area": 2638,
      "sätt": 2639,
      "tak": 2640,
      "oman": 2641,
      "igin": 2642,
      "put": 2643,
      "dig": 2644,
      "kill": 2645,
      "läng": 2646,
      "nings": 2647,
      "started": 2648,
      "during": 2649,
      "Bar": 2650,
      "ader": 2651,
      "ovember": 2652,
      "stat": 2653,
      "hn": 2654,
      "San": 2655,
      "itet": 2656,
      "died": 2657,
      "gover": 2658,
      "kyr": 2659,
      "All": 2660,
      "Sverige": 2661,
      "ham": 2662,
      "områ": 2663,
      "skol": 2664,
      "öm": 2665,
      "ters": 2666,
      "fan": 2667,
      "hal": 2668,
      "gy": 2669,
      "lång": 2670,
      "hem": 2671,
      "ather": 2672,
      "enda": 2673,
      "ben": 2674,
      "ign": 2675,
      "pril": 2676,
      "äg": 2677,
      "Hav": 2678,
      "Sp": 2679,
      "bil": 2680,
      "ren": 2681,
      "ont": 2682,
      "kor": 2683,
      "water": 2684,
      "vill": 2685,
      "offic": 2686,
      "histor": 2687,
      "byggnad": 2688,
      "cir": 2689,
      "Wor": 2690,
      "fy": 2691,
      "az": 2692,
      "igare": 2693,
      "Ger": 2694,
      "sel": 2695,
      "ash": 2696,
      "ildr": 2697,
      "tain": 2698,
      "before": 2699,
      "ator": 2700,
      "nment": 2701,
      "Some": 2702,
      "rä": 2703,
      "ution": 2704,
      "ars": 2705,
      "imes": 2706,
      "song": 2707,
      "gick": 2708,
      "slä": 2709,
      "bas": 2710,
      "gjor": 2711,
      "omen": 2712,
      "ific": 2713,
      "denna": 2714,
      "cts": 2715,
      "said": 2716,
      "192": 2717,
      "få": 2718,
      "ink": 2719,
      "ines": 2720,
      "ron": 2721,
      "hör": 2722,
      "mit": 2723,
      "rik": 2724,
      "ye": 2725,
      "still": 2726,
      "However": 2727,
      "gån": 2728,
      "usually": 2729,
      "such": 2730,
      "Gu": 2731,
      "These": 2732,
      "Med": 2733,
      "ämn": 2734,
      "US": 2735,
      "ball": 2736,
      "May": 2737,
      "mor": 2738,
      "bara": 2739,
      "around": 2740,
      "side": 2741,
      "tit": 2742,
      "norrut": 2743,
      "yt": 2744,
      "Ind": 2745,
      "växtlighet": 2746,
      "kra": 2747,
      "So": 2748,
      "ktbar": 2749,
      "Sk": 2750,
      "iversity": 2751,
      "bol": 2752,
      "bi": 2753,
      "ital": 2754,
      "stand": 2755,
      "gjorde": 2756,
      "ism": 2757,
      "let": 2758,
      "sex": 2759,
      "sim": 2760,
      "sty": 2761,
      "press": 2762,
      "2007": 2763,
      "place": 2764,
      "cap": 2765,
      "ofru": 2766,
      "ries": 2767,
      "stora": 2768,
      "ban": 2769,
      "ått": 2770,
      "ants": 2771,
      "dam": 2772,
      "United": 2773,
      "ofruktbar": 2774,
      "tin": 2775,
      "stit": 2776,
      "allt": 2777,
      "dessa": 2778,
      "spec": 2779,
      "moder": 2780,
      "Col": 2781,
      "cle": 2782,
      "chang": 2783,
      "iver": 2784,
      "pass": 2785,
      "named": 2786,
      "rum": 2787,
      "ata": 2788,
      "sub": 2789,
      "eg": 2790,
      "2011": 2791,
      "ingar": 2792,
      "söderut": 2793,
      "jo": 2794,
      "add": 2795,
      "game": 2796,
      "word": 2797,
      "lack": 2798,
      "hur": 2799,
      "ise": 2800,
      "Japan": 2801,
      "igen": 2802,
      "life": 2803,
      "När": 2804,
      "ium": 2805,
      "Detta": 2806,
      "ustr": 2807,
      "miss": 2808,
      "convert": 2809,
      "uss": 2810,
      "fri": 2811,
      "ley": 2812,
      "ages": 2813,
      "sever": 2814,
      "program": 2815,
      "origin": 2816,
      "ildren": 2817,
      "mal": 2818,
      "ask": 2819,
      "present": 2820,
      "Jul": 2821,
      "Vid": 2822,
      "själv": 2823,
      "Havet": 2824,
      "ange": 2825,
      "2008": 2826,
      "now": 2827,
      "typ": 2828,
      "light": 2829,
      "supp": 2830,
      "exem": 2831,
      "build": 2832,
      "Brit": 2833,
      "public": 2834,
      "loc": 2835,
      "ivid": 2836,
      "dem": 2837,
      "list": 2838,
      "record": 2839,
      "honom": 2840,
      "somet": 2841,
      "match": 2842,
      "ctor": 2843,
      "both": 2844,
      "kunde": 2845,
      "21": 2846,
      "mill": 2847,
      "190": 2848,
      "Wh": 2849,
      "aw": 2850,
      "une": 2851,
      "though": 2852,
      "öv": 2853,
      "what": 2854,
      "barn": 2855,
      "24": 2856,
      "suc": 2857,
      "började": 2858,
      "series": 2859,
      "nya": 2860,
      "Sto": 2861,
      "school": 2862,
      "af": 2863,
      "run": 2864,
      "död": 2865,
      "ple": 2866,
      "eln": 2867,
      "större": 2868,
      "mark": 2869,
      "ws": 2870,
      "appear": 2871,
      "bruk": 2872,
      "every": 2873,
      "ury": 2874,
      "bre": 2875,
      "We": 2876,
      "plats": 2877,
      "yo": 2878,
      "John": 2879,
      "proble": 2880,
      "ppen": 2881,
      "2009": 2882,
      "sist": 2883,
      "Sam": 2884,
      "government": 2885,
      "hj": 2886,
      "ek": 2887,
      "say": 2888,
      "uses": 2889,
      "2006": 2890,
      "bli": 2891,
      "innan": 2892,
      "hum": 2893,
      "ating": 2894,
      "total": 2895,
      "tidigare": 2896,
      "här": 2897,
      "ko": 2898,
      "much": 2899,
      "ler": 2900,
      "öst": 2901,
      "sammans": 2902,
      "0s": 2903,
      "Kar": 2904,
      "hy": 2905,
      "2000": 2906,
      "full": 2907,
      "trol": 2908,
      "beg": 2909,
      "lem": 2910,
      "blir": 2911,
      "family": 2912,
      "head": 2913,
      "death": 2914,
      "vet": 2915,
      "Fe": 2916,
      "less": 2917,
      "went": 2918,
      "children": 2919,
      "si": 2920,
      "varier": 2921,
      "kring": 2922,
      "lot": 2923,
      "2012": 2924,
      "import": 2925,
      "World": 2926,
      "ān": 2927,
      "utveck": 2928,
      "plat": 2929,
      "need": 2930,
      "alen": 2931,
      "Oc": 2932,
      "high": 2933,
      "Gen": 2934,
      "soci": 2935,
      "uth": 2936,
      "ök": 2937,
      "pris": 2938,
      "rest": 2939,
      "först": 2940,
      "fle": 2941,
      "began": 2942,
      "down": 2943,
      "lan": 2944,
      "test": 2945,
      "how": 2946,
      "natur": 2947,
      "ba": 2948,
      "Ph": 2949,
      "just": 2950,
      "line": 2951,
      "read": 2952,
      "ative": 2953,
      "season": 2954,
      "does": 2955,
      "several": 2956,
      "left": 2957,
      "lang": 2958,
      "svenska": 2959,
      "ular": 2960,
      "means": 2961,
      "dep": 2962,
      "while": 2963,
      "married": 2964,
      "January": 2965,
      "Som": 2966,
      "version": 2967,
      "ways": 2968,
      "orn": 2969,
      "får": 2970,
      "kvar": 2971,
      "ric": 2972,
      "ird": 2973,
      "care": 2974,
      "nation": 2975,
      "2013": 2976,
      "antal": 2977,
      "dd": 2978,
      "tj": 2979,
      "ultur": 2980,
      "open": 2981,
      "österut": 2982,
      "right": 2983,
      "ave": 2984,
      "ps": 2985,
      "lut": 2986,
      "rätt": 2987,
      "aint": 2988,
      "uni": 2989,
      "grupp": 2990,
      "kommun": 2991,
      "good": 2992,
      "Har": 2993,
      "mp": 2994,
      "Te": 2995,
      "2014": 2996,
      "sho": 2997,
      "set": 2998,
      "hela": 2999
    },
    "merges": [
      [
        "e",
        "r"
      ],
      [
        "e",
        "n"
      ],
      [
        "a",
        "n"
      ],
      [
        "i",
        "n"
      ],
      [
        "a",
        "r"
      ],
      [
        "h",
        "e"
      ],
      [
        "a",
        "t"
      ],
      [
        "s",
        "t"
      ],
      [
        "e",
        "t"
      ],
      [
        "o",
        "n"
      ],
      [
        "o",
        "r"
      ],
      [
        "e",
        "d"
      ],
      [
        "t",
        "he"
      ],
      [
        "o",
        "m"
      ],
      [
        "a",
        "l"
      ],
      [
        "e",
        "s"
      ],
      [
        "i",
        "s"
      ],
      [
        "ä",
        "r"
      ],
      [
        "a",
        "d"
      ],
      [
        "i",
        "l"
      ],
      [
        "u",
        "n"
      ],
      [
        "i",
        "t"
      ],
      [
        "a",
        "s"
      ],
      [
        "an",
        "d"
      ],
      [
        "c",
        "h"
      ],
      [
        "in",
        "g"
      ],
      [
        "e",
        "l"
      ],
      [
        "o",
        "f"
      ],
      [
        "i",
        "g"
      ],
      [
        "r",
        "e"
      ],
      [
        "a",
        "v"
      ],
      [
        "o",
        "l"
      ],
      [
        "a",
        "m"
      ],
      [
        "t",
        "o"
      ],
      [
        "t",
        "h"
      ],
      [
        "ö",
        "r"
      ],
      [
        "v",
        "er"
      ],
      [
        "o",
        "ch"
      ],
      [
        "u",
        "t"
      ],
      [
        "i",
        "on"
      ],
      [
        "i",
        "c"
      ],
      [
        "b",
        "e"
      ],
      [
        "ar",
        "e"
      ],
      [
        "l",
        "e"
      ],
      [
        "d",
        "e"
      ],
      [
        "s",
        "k"
      ],
      [
        "r",
        "o"
      ],
      [
        "m",
        "ed"
      ],
      [
        "at",
        "t"
      ],
      [
        "f",
        "ör"
      ],
      [
        "u",
        "r"
      ],
      [
        "il",
        "l"
      ],
      [
        "t",
        "er"
      ],
      [
        "ä",
        "n"
      ],
      [
        "p",
        "er"
      ],
      [
        "u",
        "s"
      ],
      [
        "i",
        "d"
      ],
      [
        "å",
        "n"
      ],
      [
        "un",
        "t"
      ],
      [
        "r",
        "a"
      ],
      [
        "en",
        "t"
      ],
      [
        "k",
        "t"
      ],
      [
        "et",
        "er"
      ],
      [
        "T",
        "he"
      ],
      [
        "c",
        "k"
      ],
      [
        "l",
        "a"
      ],
      [
        "s",
        "om"
      ],
      [
        "1",
        "9"
      ],
      [
        "f",
        "or"
      ],
      [
        "al",
        "l"
      ],
      [
        "o",
        "t"
      ],
      [
        "f",
        "r"
      ],
      [
        "p",
        "p"
      ],
      [
        "u",
        "l"
      ],
      [
        "i",
        "v"
      ],
      [
        "d",
        "en"
      ],
      [
        "w",
        "as"
      ],
      [
        "ad",
        "e"
      ],
      [
        "d",
        "et"
      ],
      [
        "i",
        "r"
      ],
      [
        "a",
        "g"
      ],
      [
        "d",
        "er"
      ],
      [
        "s",
        "e"
      ],
      [
        "2",
        "0"
      ],
      [
        "l",
        "ig"
      ],
      [
        "t",
        "ill"
      ],
      [
        "n",
        "a"
      ],
      [
        "i",
        "m"
      ],
      [
        "v",
        "ar"
      ],
      [
        "p",
        "å"
      ],
      [
        "g",
        "en"
      ],
      [
        "t",
        "e"
      ],
      [
        "a",
        "k"
      ],
      [
        "o",
        "w"
      ],
      [
        "h",
        "av"
      ],
      [
        "at",
        "ion"
      ],
      [
        "r",
        "i"
      ],
      [
        "n",
        "ing"
      ],
      [
        "e",
        "m"
      ],
      [
        "ö",
        "ver"
      ],
      [
        "c",
        "t"
      ],
      [
        "t",
        "en"
      ],
      [
        "s",
        "p"
      ],
      [
        "b",
        "er"
      ],
      [
        "r",
        "at"
      ],
      [
        "i",
        "st"
      ],
      [
        "in",
        "v"
      ],
      [
        "el",
        "l"
      ],
      [
        "u",
        "m"
      ],
      [
        "o",
        "p"
      ],
      [
        "b",
        "y"
      ],
      [
        "i",
        "k"
      ],
      [
        "f",
        "ol"
      ],
      [
        "st",
        "a"
      ],
      [
        "k",
        "v"
      ],
      [
        "sk",
        "a"
      ],
      [
        "c",
        "e"
      ],
      [
        "er",
        "e"
      ],
      [
        "w",
        "h"
      ],
      [
        "k",
        "il"
      ],
      [
        "l",
        "y"
      ],
      [
        "inv",
        "ån"
      ],
      [
        "om",
        "eter"
      ],
      [
        "invån",
        "are"
      ],
      [
        "kil",
        "ometer"
      ],
      [
        "m",
        "an"
      ],
      [
        "fol",
        "k"
      ],
      [
        "ar",
        "t"
      ],
      [
        "m",
        "eter"
      ],
      [
        "p",
        "l"
      ],
      [
        "r",
        "unt"
      ],
      [
        "be",
        "folk"
      ],
      [
        "v",
        "ä"
      ],
      [
        "n",
        "är"
      ],
      [
        "a",
        "y"
      ],
      [
        "n",
        "e"
      ],
      [
        "ad",
        "rat"
      ],
      [
        "kv",
        "adrat"
      ],
      [
        "kvadrat",
        "kilometer"
      ],
      [
        "t",
        "a"
      ],
      [
        "es",
        "s"
      ],
      [
        "m",
        "en"
      ],
      [
        "hav",
        "et"
      ],
      [
        "u",
        "d"
      ],
      [
        "å",
        "r"
      ],
      [
        "b",
        "o"
      ],
      [
        "d",
        "o"
      ],
      [
        "h",
        "is"
      ],
      [
        "it",
        "h"
      ],
      [
        "s",
        "o"
      ],
      [
        "kt",
        "en"
      ],
      [
        "ä",
        "t"
      ],
      [
        "I",
        "n"
      ],
      [
        "t",
        "r"
      ],
      [
        "h",
        "ar"
      ],
      [
        "b",
        "l"
      ],
      [
        "i",
        "f"
      ],
      [
        "an",
        "s"
      ],
      [
        "D",
        "en"
      ],
      [
        "m",
        "o"
      ],
      [
        "s",
        "am"
      ],
      [
        "th",
        "at"
      ],
      [
        "ä",
        "l"
      ],
      [
        "r",
        "än"
      ],
      [
        "et",
        "t"
      ],
      [
        "g",
        "er"
      ],
      [
        "h",
        "ö"
      ],
      [
        "c",
        "on"
      ],
      [
        "R",
        "unt"
      ],
      [
        "p",
        "r"
      ],
      [
        "o",
        "s"
      ],
      [
        "g",
        "r"
      ],
      [
        "w",
        "ith"
      ],
      [
        "befolk",
        "at"
      ],
      [
        "u",
        "pp"
      ],
      [
        "n",
        "or"
      ],
      [
        "un",
        "d"
      ],
      [
        "0",
        "0"
      ],
      [
        "f",
        "ter"
      ],
      [
        "k",
        "a"
      ],
      [
        "I",
        "t"
      ],
      [
        "T",
        "er"
      ],
      [
        "s",
        "y"
      ],
      [
        "å",
        "t"
      ],
      [
        "p",
        "ro"
      ],
      [
        "p",
        "e"
      ],
      [
        "H",
        "e"
      ],
      [
        "s",
        "on"
      ],
      [
        "u",
        "g"
      ],
      [
        "rän",
        "gen"
      ],
      [
        "Ter",
        "rängen"
      ],
      [
        "c",
        "o"
      ],
      [
        "an",
        "t"
      ],
      [
        "g",
        "an"
      ],
      [
        "s",
        "h"
      ],
      [
        "g",
        "l"
      ],
      [
        "st",
        "er"
      ],
      [
        "o",
        "d"
      ],
      [
        "c",
        "om"
      ],
      [
        "in",
        "d"
      ],
      [
        "m",
        "a"
      ],
      [
        "s",
        "l"
      ],
      [
        "m",
        "er"
      ],
      [
        "v",
        "en"
      ],
      [
        "h",
        "an"
      ],
      [
        "fr",
        "om"
      ],
      [
        "or",
        "t"
      ],
      [
        "hö",
        "g"
      ],
      [
        "g",
        "e"
      ],
      [
        "b",
        "r"
      ],
      [
        "e",
        "x"
      ],
      [
        "20",
        "1"
      ],
      [
        "o",
        "g"
      ],
      [
        "20",
        "0"
      ],
      [
        "b",
        "le"
      ],
      [
        "er",
        "s"
      ],
      [
        "he",
        "ten"
      ],
      [
        "st",
        "r"
      ],
      [
        "and",
        "e"
      ],
      [
        "i",
        "a"
      ],
      [
        "on",
        "e"
      ],
      [
        "e",
        "ar"
      ],
      [
        "l",
        "o"
      ],
      [
        "i",
        "es"
      ],
      [
        "i",
        "e"
      ],
      [
        "s",
        "er"
      ],
      [
        "h",
        "er"
      ],
      [
        "d",
        "a"
      ],
      [
        "p",
        "un"
      ],
      [
        "u",
        "p"
      ],
      [
        "un",
        "der"
      ],
      [
        "n",
        "ot"
      ],
      [
        "p",
        "la"
      ],
      [
        "b",
        "et"
      ],
      [
        "k",
        "m"
      ],
      [
        "1",
        "8"
      ],
      [
        "u",
        "per"
      ],
      [
        "hög",
        "sta"
      ],
      [
        "th",
        "er"
      ],
      [
        "ad",
        "es"
      ],
      [
        "d",
        "el"
      ],
      [
        "pun",
        "kten"
      ],
      [
        "s",
        "å"
      ],
      [
        "a",
        "c"
      ],
      [
        "h",
        "t"
      ],
      [
        "en",
        "s"
      ],
      [
        "ic",
        "k"
      ],
      [
        "k",
        "om"
      ],
      [
        "när",
        "heten"
      ],
      [
        "or",
        "d"
      ],
      [
        "s",
        "in"
      ],
      [
        "s",
        "ig"
      ],
      [
        "fr",
        "ån"
      ],
      [
        "o",
        "k"
      ],
      [
        "k",
        "uper"
      ],
      [
        "kuper",
        "ad"
      ],
      [
        "a",
        "p"
      ],
      [
        "it",
        "y"
      ],
      [
        "m",
        "ar"
      ],
      [
        "h",
        "as"
      ],
      [
        "w",
        "ere"
      ],
      [
        "c",
        "i"
      ],
      [
        "n",
        "s"
      ],
      [
        "f",
        "in"
      ],
      [
        "us",
        "e"
      ],
      [
        "at",
        "e"
      ],
      [
        "am",
        "e"
      ],
      [
        "t",
        "v"
      ],
      [
        "gan",
        "ska"
      ],
      [
        "t",
        "al"
      ],
      [
        "iv",
        "e"
      ],
      [
        "l",
        "and"
      ],
      [
        "m",
        "y"
      ],
      [
        "w",
        "o"
      ],
      [
        "ar",
        "d"
      ],
      [
        "h",
        "a"
      ],
      [
        "el",
        "e"
      ],
      [
        "d",
        "r"
      ],
      [
        "S",
        "t"
      ],
      [
        "ån",
        "g"
      ],
      [
        "d",
        "es"
      ],
      [
        "i",
        "ch"
      ],
      [
        "q",
        "u"
      ],
      [
        "gl",
        "es"
      ],
      [
        "an",
        "g"
      ],
      [
        "e",
        "st"
      ],
      [
        "al",
        "so"
      ],
      [
        "k",
        "an"
      ],
      [
        "t",
        "s"
      ],
      [
        ")",
        "."
      ],
      [
        "t",
        "id"
      ],
      [
        "f",
        "l"
      ],
      [
        "a",
        "st"
      ],
      [
        "gles",
        "befolkat"
      ],
      [
        "u",
        "st"
      ],
      [
        "ow",
        "n"
      ],
      [
        "op",
        "le"
      ],
      [
        "h",
        "u"
      ],
      [
        "o",
        "v"
      ],
      [
        "w",
        "or"
      ],
      [
        "i",
        "an"
      ],
      [
        "c",
        "an"
      ],
      [
        "g",
        "g"
      ],
      [
        "r",
        "es"
      ],
      [
        "å",
        "l"
      ],
      [
        "t",
        "ät"
      ],
      [
        "vä",
        "st"
      ],
      [
        "k",
        "n"
      ],
      [
        "s",
        "en"
      ],
      [
        "or",
        "e"
      ],
      [
        "at",
        "er"
      ],
      [
        "hav",
        "e"
      ],
      [
        "ä",
        "m"
      ],
      [
        "ell",
        "er"
      ],
      [
        "in",
        "te"
      ],
      [
        "an",
        "n"
      ],
      [
        "the",
        "y"
      ],
      [
        "v",
        "is"
      ],
      [
        "C",
        "h"
      ],
      [
        "v",
        "id"
      ],
      [
        "å",
        "g"
      ],
      [
        "c",
        "l"
      ],
      [
        "v",
        "e"
      ],
      [
        "b",
        "ar"
      ],
      [
        "s",
        "u"
      ],
      [
        "d",
        "i"
      ],
      [
        "it",
        "e"
      ],
      [
        "b",
        "ut"
      ],
      [
        "f",
        "o"
      ],
      [
        "all",
        "y"
      ],
      [
        "U",
        "n"
      ],
      [
        "tv",
        "å"
      ],
      [
        "pl",
        "att"
      ],
      [
        "f",
        "ir"
      ],
      [
        "on",
        "g"
      ],
      [
        "tät",
        "befolkat"
      ],
      [
        "k",
        "r"
      ],
      [
        "as",
        "s"
      ],
      [
        "it",
        "t"
      ],
      [
        "w",
        "e"
      ],
      [
        "f",
        "e"
      ],
      [
        "c",
        "a"
      ],
      [
        "pe",
        "ople"
      ],
      [
        "un",
        "g"
      ],
      [
        "A",
        "n"
      ],
      [
        "äl",
        "l"
      ],
      [
        "d",
        "u"
      ],
      [
        "ak",
        "e"
      ],
      [
        "p",
        "art"
      ],
      [
        "is",
        "ka"
      ],
      [
        "19",
        "9"
      ],
      [
        "o",
        "pp"
      ],
      [
        "T",
        "h"
      ],
      [
        "D",
        "e"
      ],
      [
        "e",
        "fter"
      ],
      [
        "o",
        "ck"
      ],
      [
        "ar",
        "y"
      ],
      [
        "h",
        "ade"
      ],
      [
        "lig",
        "en"
      ],
      [
        "d",
        "väst"
      ],
      [
        "o",
        "ther"
      ],
      [
        "A",
        "l"
      ],
      [
        "m",
        "ent"
      ],
      [
        "in",
        "e"
      ],
      [
        "h",
        "ad"
      ],
      [
        "k",
        "on"
      ],
      [
        "do",
        "st"
      ],
      [
        "hu",
        "v"
      ],
      [
        "s",
        "ak"
      ],
      [
        "T",
        "his"
      ],
      [
        "a",
        "in"
      ],
      [
        "t",
        "im"
      ],
      [
        "g",
        "o"
      ],
      [
        "a",
        "b"
      ],
      [
        "i",
        "o"
      ],
      [
        "E",
        "n"
      ],
      [
        "i",
        "er"
      ],
      [
        "en",
        "d"
      ],
      [
        "r",
        "y"
      ],
      [
        "it",
        "s"
      ],
      [
        "f",
        "er"
      ],
      [
        "D",
        "et"
      ],
      [
        "f",
        "ö"
      ],
      [
        "d",
        "är"
      ],
      [
        "s",
        "ö"
      ],
      [
        "fir",
        "st"
      ],
      [
        "i",
        "p"
      ],
      [
        "m",
        "e"
      ],
      [
        "huv",
        "ud"
      ],
      [
        "l",
        "d"
      ],
      [
        "is",
        "h"
      ],
      [
        "ag",
        "e"
      ],
      [
        "ber",
        "g"
      ],
      [
        "pla",
        "y"
      ],
      [
        "i",
        "de"
      ],
      [
        "ar",
        "na"
      ],
      [
        "wh",
        "ich"
      ],
      [
        "st",
        "or"
      ],
      [
        "the",
        "ir"
      ],
      [
        "s",
        "a"
      ],
      [
        "at",
        "ed"
      ],
      [
        "o",
        "u"
      ],
      [
        "n",
        "am"
      ],
      [
        "h",
        "on"
      ],
      [
        "j",
        "e"
      ],
      [
        "ul",
        "d"
      ],
      [
        "g",
        "et"
      ],
      [
        "t",
        "y"
      ],
      [
        "is",
        "k"
      ],
      [
        "ck",
        "et"
      ],
      [
        "he",
        "t"
      ],
      [
        "il",
        "d"
      ],
      [
        "l",
        "ar"
      ],
      [
        "a",
        "ck"
      ],
      [
        "ät",
        "t"
      ],
      [
        "em",
        "ber"
      ],
      [
        "r",
        "it"
      ],
      [
        "lig",
        "ger"
      ],
      [
        "v",
        "än"
      ],
      [
        "p",
        "ar"
      ],
      [
        "a",
        "ch"
      ],
      [
        "at",
        "s"
      ],
      [
        "T",
        "ra"
      ],
      [
        "F",
        "r"
      ],
      [
        "m",
        "in"
      ],
      [
        "ig",
        "ht"
      ],
      [
        "l",
        "ed"
      ],
      [
        "ing",
        "en"
      ],
      [
        "H",
        "an"
      ],
      [
        "ug",
        "h"
      ],
      [
        "b",
        "or"
      ],
      [
        "m",
        "ot"
      ],
      [
        "t",
        "t"
      ],
      [
        "o",
        "ut"
      ],
      [
        "k",
        "e"
      ],
      [
        "y",
        "ear"
      ],
      [
        "th",
        "is"
      ],
      [
        "c",
        "all"
      ],
      [
        "p",
        "o"
      ],
      [
        "a",
        "ct"
      ],
      [
        "The",
        "y"
      ],
      [
        "for",
        "m"
      ],
      [
        "när",
        "a"
      ],
      [
        "my",
        "cket"
      ],
      [
        "ning",
        "en"
      ],
      [
        "ver",
        "s"
      ],
      [
        "ä",
        "ven"
      ],
      [
        "f",
        "t"
      ],
      [
        "ing",
        "s"
      ],
      [
        "a",
        "bo"
      ],
      [
        "er",
        "a"
      ],
      [
        "it",
        "ion"
      ],
      [
        "u",
        "re"
      ],
      [
        "sp",
        "el"
      ],
      [
        "re",
        "e"
      ],
      [
        "s",
        "m"
      ],
      [
        "Tra",
        "kten"
      ],
      [
        "et",
        "s"
      ],
      [
        "ver",
        "k"
      ],
      [
        "ul",
        "t"
      ],
      [
        "y",
        "r"
      ],
      [
        "19",
        "8"
      ],
      [
        "s",
        "j"
      ],
      [
        "c",
        "he"
      ],
      [
        "c",
        "ent"
      ],
      [
        "ver",
        "y"
      ],
      [
        "v",
        "il"
      ],
      [
        "e",
        "p"
      ],
      [
        "i",
        "z"
      ],
      [
        "M",
        "ar"
      ],
      [
        "l",
        "ik"
      ],
      [
        "ic",
        "e"
      ],
      [
        "huvud",
        "sak"
      ],
      [
        "n",
        "y"
      ],
      [
        "ic",
        "al"
      ],
      [
        "us",
        "ed"
      ],
      [
        "\"",
        "."
      ],
      [
        "p",
        "ol"
      ],
      [
        "r",
        "å"
      ],
      [
        "h",
        "o"
      ],
      [
        "call",
        "ed"
      ],
      [
        "än",
        "g"
      ],
      [
        "S",
        "he"
      ],
      [
        "sp",
        "e"
      ],
      [
        "ol",
        "d"
      ],
      [
        "wor",
        "k"
      ],
      [
        "man",
        "y"
      ],
      [
        "m",
        "ind"
      ],
      [
        "19",
        "7"
      ],
      [
        "A",
        "r"
      ],
      [
        "r",
        "ed"
      ],
      [
        ")",
        ","
      ],
      [
        "am",
        "p"
      ],
      [
        "n",
        "er"
      ],
      [
        "w",
        "ay"
      ],
      [
        "k",
        "l"
      ],
      [
        "ble",
        "v"
      ],
      [
        "he",
        "l"
      ],
      [
        "st",
        "e"
      ],
      [
        "g",
        "ro"
      ],
      [
        "ct",
        "ion"
      ],
      [
        "1",
        "7"
      ],
      [
        "re",
        "g"
      ],
      [
        "u",
        "e"
      ],
      [
        "t",
        "ra"
      ],
      [
        "la",
        "g"
      ],
      [
        "huvudsak",
        "ligen"
      ],
      [
        "i",
        "en"
      ],
      [
        "abo",
        "ut"
      ],
      [
        "t",
        "wo"
      ],
      [
        "mind",
        "re"
      ],
      [
        "o",
        "b"
      ],
      [
        "and",
        "ra"
      ],
      [
        "lig",
        "a"
      ],
      [
        "wh",
        "o"
      ],
      [
        "m",
        "ore"
      ],
      [
        "by",
        "gg"
      ],
      [
        "mo",
        "st"
      ],
      [
        "u",
        "b"
      ],
      [
        "fr",
        "am"
      ],
      [
        "in",
        "s"
      ],
      [
        "h",
        "en"
      ],
      [
        "of",
        "f"
      ],
      [
        "tim",
        "e"
      ],
      [
        "an",
        "y"
      ],
      [
        "d",
        "å"
      ],
      [
        "opp",
        "en"
      ],
      [
        "m",
        "on"
      ],
      [
        "T",
        "oppen"
      ],
      [
        "th",
        "ere"
      ],
      [
        "mo",
        "v"
      ],
      [
        "fin",
        "ns"
      ],
      [
        "u",
        "k"
      ],
      [
        "19",
        "6"
      ],
      [
        "b",
        "el"
      ],
      [
        "per",
        "son"
      ],
      [
        "sl",
        "ut"
      ],
      [
        "lig",
        "t"
      ],
      [
        "p",
        "ort"
      ],
      [
        "n",
        "et"
      ],
      [
        "l",
        "iv"
      ],
      [
        "o",
        "ver"
      ],
      [
        "o",
        "ur"
      ],
      [
        "er",
        "na"
      ],
      [
        "in",
        "ter"
      ],
      [
        "u",
        "bl"
      ],
      [
        "m",
        "ade"
      ],
      [
        "K",
        "ū"
      ],
      [
        "h",
        "and"
      ],
      [
        "n",
        "ed"
      ],
      [
        "b",
        "ör"
      ],
      [
        "a",
        "pp"
      ],
      [
        "be",
        "en"
      ],
      [
        "ock",
        "så"
      ],
      [
        "d",
        "if"
      ],
      [
        "Kū",
        "h"
      ],
      [
        "ca",
        "use"
      ],
      [
        "i",
        "al"
      ],
      [
        "p",
        "t"
      ],
      [
        "m",
        "us"
      ],
      [
        "or",
        "y"
      ],
      [
        "gen",
        "om"
      ],
      [
        "kn",
        "own"
      ],
      [
        "b",
        "u"
      ],
      [
        "f",
        "f"
      ],
      [
        "re",
        "v"
      ],
      [
        "ik",
        "a"
      ],
      [
        "s",
        "he"
      ],
      [
        "1",
        "0"
      ],
      [
        "the",
        "m"
      ],
      [
        "x",
        "t"
      ],
      [
        "ska",
        "p"
      ],
      [
        "1",
        "5"
      ],
      [
        "1",
        "6"
      ],
      [
        "c",
        "ame"
      ],
      [
        "c",
        "es"
      ],
      [
        "f",
        "ly"
      ],
      [
        "com",
        "p"
      ],
      [
        "c",
        "er"
      ],
      [
        "in",
        "t"
      ],
      [
        "h",
        "im"
      ],
      [
        "ent",
        "s"
      ],
      [
        "d",
        "is"
      ],
      [
        "v",
        "är"
      ],
      [
        "k",
        "et"
      ],
      [
        "v",
        "al"
      ],
      [
        "ol",
        "l"
      ],
      [
        "n",
        "og"
      ],
      [
        "tal",
        "et"
      ],
      [
        "berg",
        "ig"
      ],
      [
        "b",
        "and"
      ],
      [
        "as",
        "ed"
      ],
      [
        "f",
        "am"
      ],
      [
        "ö",
        "d"
      ],
      [
        "s",
        "ed"
      ],
      [
        "st",
        "ad"
      ],
      [
        "wh",
        "en"
      ],
      [
        "pr",
        "es"
      ],
      [
        "in",
        "to"
      ],
      [
        "t",
        "re"
      ],
      [
        "ar",
        "bet"
      ],
      [
        "m",
        "at"
      ],
      [
        "or",
        "s"
      ],
      [
        "th",
        "o"
      ],
      [
        "an",
        "k"
      ],
      [
        "c",
        "re"
      ],
      [
        "ation",
        "al"
      ],
      [
        "för",
        "sta"
      ],
      [
        "n",
        "o"
      ],
      [
        "st",
        "art"
      ],
      [
        "g",
        "s"
      ],
      [
        "m",
        "un"
      ],
      [
        "00",
        "0"
      ],
      [
        "befolk",
        "ad"
      ],
      [
        "ic",
        "an"
      ],
      [
        "l",
        "j"
      ],
      [
        "an",
        "vän"
      ],
      [
        "sy",
        "dväst"
      ],
      [
        "a",
        "kt"
      ],
      [
        "en",
        "g"
      ],
      [
        "n",
        "åg"
      ],
      [
        "a",
        "h"
      ],
      [
        "n",
        "um"
      ],
      [
        "R",
        "e"
      ],
      [
        "f",
        "ul"
      ],
      [
        "p",
        "h"
      ],
      [
        "be",
        "st"
      ],
      [
        "n",
        "ad"
      ],
      [
        "a",
        "fter"
      ],
      [
        "pro",
        "du"
      ],
      [
        "b",
        "es"
      ],
      [
        "bör",
        "j"
      ],
      [
        "ion",
        "s"
      ],
      [
        "N",
        "e"
      ],
      [
        "ne",
        "w"
      ],
      [
        "sö",
        "der"
      ],
      [
        "r",
        "et"
      ],
      [
        "j",
        "or"
      ],
      [
        "c",
        "ed"
      ],
      [
        "A",
        "mer"
      ],
      [
        "c",
        "it"
      ],
      [
        "nor",
        "dost"
      ],
      [
        "c",
        "ol"
      ],
      [
        "nor",
        "r"
      ],
      [
        "h",
        "ål"
      ],
      [
        "on",
        "ly"
      ],
      [
        "r",
        "el"
      ],
      [
        "o",
        "befolkad"
      ],
      [
        "te",
        "m"
      ],
      [
        "L",
        "e"
      ],
      [
        "l",
        "ä"
      ],
      [
        "p",
        "op"
      ],
      [
        "s",
        "id"
      ],
      [
        "19",
        "5"
      ],
      [
        "ning",
        "ar"
      ],
      [
        "d",
        "ess"
      ],
      [
        "M",
        "o"
      ],
      [
        "om",
        "e"
      ],
      [
        "th",
        "an"
      ],
      [
        "ell",
        "an"
      ],
      [
        "il",
        "e"
      ],
      [
        "ation",
        "s"
      ],
      [
        "Th",
        "ere"
      ],
      [
        "g",
        "re"
      ],
      [
        "l",
        "ing"
      ],
      [
        "year",
        "s"
      ],
      [
        "ö",
        "ster"
      ],
      [
        "at",
        "h"
      ],
      [
        "som",
        "e"
      ],
      [
        "nor",
        "dväst"
      ],
      [
        "19",
        "4"
      ],
      [
        "al",
        "a"
      ],
      [
        "co",
        "unt"
      ],
      [
        "an",
        "ce"
      ],
      [
        "m",
        "et"
      ],
      [
        "L",
        "ake"
      ],
      [
        "d",
        "s"
      ],
      [
        "r",
        "u"
      ],
      [
        "he",
        "d"
      ],
      [
        "bl",
        "and"
      ],
      [
        "b",
        "ro"
      ],
      [
        "J",
        "o"
      ],
      [
        "ig",
        "a"
      ],
      [
        "sy",
        "dost"
      ],
      [
        "f",
        "ick"
      ],
      [
        "g",
        "iv"
      ],
      [
        "dif",
        "fer"
      ],
      [
        "d",
        "ay"
      ],
      [
        "sk",
        "ul"
      ],
      [
        "k",
        "s"
      ],
      [
        "st",
        "äll"
      ],
      [
        "b",
        "um"
      ],
      [
        "ch",
        "o"
      ],
      [
        "at",
        "es"
      ],
      [
        "k",
        "en"
      ],
      [
        "st",
        "ör"
      ],
      [
        "on",
        "s"
      ],
      [
        "at",
        "ur"
      ],
      [
        "ig",
        "t"
      ],
      [
        "il",
        "j"
      ],
      [
        "s",
        "ing"
      ],
      [
        "pop",
        "ul"
      ],
      [
        "w",
        "ard"
      ],
      [
        "s",
        "ä"
      ],
      [
        "ic",
        "t"
      ],
      [
        "N",
        "or"
      ],
      [
        "l",
        "ite"
      ],
      [
        "c",
        "ess"
      ],
      [
        "al",
        "s"
      ],
      [
        "Å",
        "r"
      ],
      [
        "ar",
        "en"
      ],
      [
        "k",
        "un"
      ],
      [
        "B",
        "e"
      ],
      [
        "A",
        "s"
      ],
      [
        "i",
        "re"
      ],
      [
        "y",
        "s"
      ],
      [
        "a",
        "ir"
      ],
      [
        "d",
        "ra"
      ],
      [
        "d",
        "ag"
      ],
      [
        "p",
        "os"
      ],
      [
        "ä",
        "st"
      ],
      [
        "in",
        "n"
      ],
      [
        "ö",
        "n"
      ],
      [
        "p",
        "ubl"
      ],
      [
        "en",
        "ce"
      ],
      [
        "1",
        "2"
      ],
      [
        "e",
        "ver"
      ],
      [
        "el",
        "y"
      ],
      [
        "h",
        "ans"
      ],
      [
        "3",
        "0"
      ],
      [
        "d",
        "om"
      ],
      [
        "s",
        "c"
      ],
      [
        "ar",
        "k"
      ],
      [
        "m",
        "ellan"
      ],
      [
        "w",
        "ill"
      ],
      [
        "ig",
        "h"
      ],
      [
        "vä",
        "ster"
      ],
      [
        "be",
        "came"
      ],
      [
        "ång",
        "a"
      ],
      [
        "ur",
        "ing"
      ],
      [
        "st",
        "em"
      ],
      [
        "n",
        "ame"
      ],
      [
        "r",
        "ele"
      ],
      [
        "be",
        "cause"
      ],
      [
        "m",
        "s"
      ],
      [
        "å",
        "ter"
      ],
      [
        "f",
        "il"
      ],
      [
        "h",
        "ist"
      ],
      [
        "differ",
        "ent"
      ],
      [
        "al",
        "bum"
      ],
      [
        "st",
        "ud"
      ],
      [
        "in",
        "a"
      ],
      [
        "v",
        "an"
      ],
      [
        "g",
        "år"
      ],
      [
        "id",
        "ent"
      ],
      [
        "wo",
        "uld"
      ],
      [
        "ä",
        "ck"
      ],
      [
        "pl",
        "an"
      ],
      [
        "ci",
        "al"
      ],
      [
        "skul",
        "le"
      ],
      [
        "do",
        "ck"
      ],
      [
        "is",
        "s"
      ],
      [
        "k",
        "än"
      ],
      [
        "1",
        "4"
      ],
      [
        "l",
        "es"
      ],
      [
        "v",
        "el"
      ],
      [
        "\"",
        ","
      ],
      [
        "t",
        "on"
      ],
      [
        "i",
        "x"
      ],
      [
        "sed",
        "an"
      ],
      [
        "O",
        "n"
      ],
      [
        "for",
        "e"
      ],
      [
        "sam",
        "t"
      ],
      [
        "en",
        "ter"
      ],
      [
        "ol",
        "og"
      ],
      [
        "l",
        "l"
      ],
      [
        "v",
        "ed"
      ],
      [
        "b",
        "ack"
      ],
      [
        "f",
        "ar"
      ],
      [
        "ol",
        "ika"
      ],
      [
        "ct",
        "ed"
      ],
      [
        "tr",
        "ä"
      ],
      [
        "C",
        "o"
      ],
      [
        "i",
        "et"
      ],
      [
        "h",
        "us"
      ],
      [
        "ma",
        "in"
      ],
      [
        "var",
        "a"
      ],
      [
        "g",
        "ör"
      ],
      [
        "th",
        "en"
      ],
      [
        "er",
        "ade"
      ],
      [
        "b",
        "ild"
      ],
      [
        "n",
        "as"
      ],
      [
        "v",
        "i"
      ],
      [
        "f",
        "är"
      ],
      [
        "R",
        "o"
      ],
      [
        "s",
        "s"
      ],
      [
        "al",
        "e"
      ],
      [
        "c",
        "y"
      ],
      [
        "u",
        "ro"
      ],
      [
        "i",
        "vers"
      ],
      [
        "gr",
        "und"
      ],
      [
        "B",
        "o"
      ],
      [
        "h",
        "ol"
      ],
      [
        "con",
        "d"
      ],
      [
        "u",
        "ally"
      ],
      [
        "c",
        "ord"
      ],
      [
        "sh",
        "ow"
      ],
      [
        "s",
        "itt"
      ],
      [
        "C",
        "on"
      ],
      [
        "F",
        "ör"
      ],
      [
        "lik",
        "e"
      ],
      [
        "it",
        "ed"
      ],
      [
        "ri",
        "st"
      ],
      [
        "n",
        "es"
      ],
      [
        "pol",
        "it"
      ],
      [
        "H",
        "on"
      ],
      [
        "sh",
        "ip"
      ],
      [
        "Un",
        "der"
      ],
      [
        "il",
        "y"
      ],
      [
        "k",
        "er"
      ],
      [
        "hål",
        "l"
      ],
      [
        "a",
        "u"
      ],
      [
        "sam",
        "man"
      ],
      [
        "in",
        "cl"
      ],
      [
        "k",
        "all"
      ],
      [
        "as",
        "e"
      ],
      [
        "d",
        "y"
      ],
      [
        "o",
        "us"
      ],
      [
        "S",
        "e"
      ],
      [
        "th",
        "ro"
      ],
      [
        "m",
        "än"
      ],
      [
        "c",
        "ar"
      ],
      [
        "al",
        "la"
      ],
      [
        "wh",
        "ere"
      ],
      [
        "i",
        "el"
      ],
      [
        "if",
        "e"
      ],
      [
        "cit",
        "ation"
      ],
      [
        "P",
        "r"
      ],
      [
        "str",
        "u"
      ],
      [
        "i",
        "ed"
      ],
      [
        "t",
        "ar"
      ],
      [
        "s",
        "v"
      ],
      [
        "1",
        "3"
      ],
      [
        "Amer",
        "ican"
      ],
      [
        "u",
        "ary"
      ],
      [
        "m",
        "ay"
      ],
      [
        "ä",
        "v"
      ],
      [
        "we",
        "en"
      ],
      [
        "fo",
        "und"
      ],
      [
        "s",
        "ol"
      ],
      [
        "w",
        "n"
      ],
      [
        "r",
        "an"
      ],
      [
        "m",
        "ö"
      ],
      [
        "f",
        "att"
      ],
      [
        "sin",
        "a"
      ],
      [
        "Ne",
        "w"
      ],
      [
        "in",
        "ne"
      ],
      [
        "j",
        "a"
      ],
      [
        "e",
        "v"
      ],
      [
        "l",
        "in"
      ],
      [
        "g",
        "u"
      ],
      [
        "n",
        "u"
      ],
      [
        "th",
        "ree"
      ],
      [
        "to",
        "g"
      ],
      [
        "ot",
        "t"
      ],
      [
        "k",
        "ar"
      ],
      [
        "j",
        "är"
      ],
      [
        "t",
        "ro"
      ],
      [
        "c",
        "ur"
      ],
      [
        "19",
        "3"
      ],
      [
        "l",
        "ow"
      ],
      [
        "p",
        "a"
      ],
      [
        "sy",
        "stem"
      ],
      [
        "lig",
        "het"
      ],
      [
        "num",
        "ber"
      ],
      [
        "g",
        "am"
      ],
      [
        "ist",
        "er"
      ],
      [
        "f",
        "all"
      ],
      [
        "ic",
        "s"
      ],
      [
        "ver",
        "ig"
      ],
      [
        "m",
        "ak"
      ],
      [
        "r",
        "ad"
      ],
      [
        "F",
        "or"
      ],
      [
        "a",
        "ble"
      ],
      [
        "C",
        "om"
      ],
      [
        "rele",
        "ased"
      ],
      [
        "p",
        "el"
      ],
      [
        "t",
        "ur"
      ],
      [
        "m",
        "ember"
      ],
      [
        "en",
        "de"
      ],
      [
        "S",
        "verig"
      ],
      [
        "sam",
        "ma"
      ],
      [
        "S",
        "h"
      ],
      [
        "y",
        "d"
      ],
      [
        "or",
        "gan"
      ],
      [
        "g",
        "ång"
      ],
      [
        "vil",
        "ket"
      ],
      [
        "2",
        "5"
      ],
      [
        "f",
        "a"
      ],
      [
        "fö",
        "re"
      ],
      [
        "w",
        "rit"
      ],
      [
        "gr",
        "am"
      ],
      [
        "di",
        "re"
      ],
      [
        "ri",
        "kt"
      ],
      [
        "s",
        "ven"
      ],
      [
        "ut",
        "an"
      ],
      [
        "l",
        "än"
      ],
      [
        "d",
        "id"
      ],
      [
        "ug",
        "ht"
      ],
      [
        "v",
        "a"
      ],
      [
        "kom",
        "mer"
      ],
      [
        "E",
        "l"
      ],
      [
        "n",
        "ar"
      ],
      [
        "fl",
        "era"
      ],
      [
        "201",
        "0"
      ],
      [
        "de",
        "c"
      ],
      [
        "ag",
        "ain"
      ],
      [
        "M",
        "an"
      ],
      [
        "ri",
        "ed"
      ],
      [
        "m",
        "ake"
      ],
      [
        "E",
        "fter"
      ],
      [
        "v",
        "in"
      ],
      [
        "det",
        "ta"
      ],
      [
        "bet",
        "ween"
      ],
      [
        "gro",
        "up"
      ],
      [
        "cho",
        "ol"
      ],
      [
        "st",
        "en"
      ],
      [
        "wor",
        "ld"
      ],
      [
        "g",
        "if"
      ],
      [
        "p",
        "re"
      ],
      [
        "u",
        "ch"
      ],
      [
        "L",
        "a"
      ],
      [
        "bor",
        "n"
      ],
      [
        "g",
        "av"
      ],
      [
        "unt",
        "il"
      ],
      [
        "M",
        "a"
      ],
      [
        "sp",
        "r"
      ],
      [
        "il",
        "t"
      ],
      [
        "em",
        "ent"
      ],
      [
        "w",
        "ell"
      ],
      [
        "ow",
        "ever"
      ],
      [
        "B",
        "r"
      ],
      [
        "s",
        "ur"
      ],
      [
        "C",
        "ar"
      ],
      [
        "b",
        "ur"
      ],
      [
        "m",
        "ål"
      ],
      [
        "te",
        "am"
      ],
      [
        "A",
        "t"
      ],
      [
        "play",
        "ed"
      ],
      [
        "d",
        "ist"
      ],
      [
        "is",
        "hed"
      ],
      [
        "l",
        "it"
      ],
      [
        "i",
        "b"
      ],
      [
        "ve",
        "ck"
      ],
      [
        "o",
        "c"
      ],
      [
        "b",
        "å"
      ],
      [
        "ge",
        "st"
      ],
      [
        "sam",
        "e"
      ],
      [
        "s",
        "var"
      ],
      [
        "n",
        "ational"
      ],
      [
        "l",
        "ö"
      ],
      [
        "o",
        "und"
      ],
      [
        "O",
        "r"
      ],
      [
        "sj",
        "äl"
      ],
      [
        "l",
        "ater"
      ],
      [
        "b",
        "ak"
      ],
      [
        "of",
        "ten"
      ],
      [
        "thro",
        "ugh"
      ],
      [
        "er",
        "al"
      ],
      [
        "t",
        "ag"
      ],
      [
        "as",
        "on"
      ],
      [
        "on",
        "d"
      ],
      [
        "sen",
        "are"
      ],
      [
        "ol",
        "e"
      ],
      [
        "P",
        "ar"
      ],
      [
        "w",
        "ar"
      ],
      [
        "H",
        "is"
      ],
      [
        "g",
        "ar"
      ],
      [
        "w",
        "on"
      ],
      [
        "he",
        "ter"
      ],
      [
        "c",
        "ity"
      ],
      [
        ".",
        "\""
      ],
      [
        "ver",
        "t"
      ],
      [
        "nam",
        "n"
      ],
      [
        "vä",
        "xt"
      ],
      [
        "el",
        "s"
      ],
      [
        "ann",
        "at"
      ],
      [
        "of",
        "ta"
      ],
      [
        "al",
        "t"
      ],
      [
        "the",
        "se"
      ],
      [
        "com",
        "e"
      ],
      [
        "bo",
        "ok"
      ],
      [
        "A",
        "fter"
      ],
      [
        "e",
        "f"
      ],
      [
        "kt",
        "ion"
      ],
      [
        "y",
        "n"
      ],
      [
        "ch",
        "ar"
      ],
      [
        "ic",
        "a"
      ],
      [
        "f",
        "em"
      ],
      [
        "mus",
        "ic"
      ],
      [
        "1",
        "1"
      ],
      [
        "ut",
        "om"
      ],
      [
        "P",
        "ro"
      ],
      [
        "5",
        "0"
      ],
      [
        "se",
        "cond"
      ],
      [
        "e",
        "ach"
      ],
      [
        "el",
        "la"
      ],
      [
        "m",
        "ånga"
      ],
      [
        "ow",
        "er"
      ],
      [
        "l",
        "ong"
      ],
      [
        "s",
        "n"
      ],
      [
        "fo",
        "ur"
      ],
      [
        "r",
        "iv"
      ],
      [
        "is",
        "kt"
      ],
      [
        "J",
        "an"
      ],
      [
        "tr",
        "y"
      ],
      [
        "u",
        "al"
      ],
      [
        "P",
        "e"
      ],
      [
        "G",
        "r"
      ],
      [
        "sm",
        "all"
      ],
      [
        "at",
        "iv"
      ],
      [
        "v",
        "att"
      ],
      [
        "in",
        "om"
      ],
      [
        "ug",
        "ust"
      ],
      [
        "W",
        "hen"
      ],
      [
        "to",
        "ber"
      ],
      [
        "f",
        "un"
      ],
      [
        "n",
        "en"
      ],
      [
        "ist",
        "s"
      ],
      [
        "ser",
        "v"
      ],
      [
        "g",
        "a"
      ],
      [
        "el",
        "se"
      ],
      [
        "j",
        "ur"
      ],
      [
        "l",
        "i"
      ],
      [
        "co",
        "uld"
      ],
      [
        "la",
        "st"
      ],
      [
        "tem",
        "ber"
      ],
      [
        "b",
        "b"
      ],
      [
        "fö",
        "lj"
      ],
      [
        "ap",
        "an"
      ],
      [
        "P",
        "å"
      ],
      [
        "t",
        "or"
      ],
      [
        "land",
        "s"
      ],
      [
        "incl",
        "ud"
      ],
      [
        "H",
        "er"
      ],
      [
        "B",
        "er"
      ],
      [
        "hel",
        "p"
      ],
      [
        "ar",
        "i"
      ],
      [
        "st",
        "ra"
      ],
      [
        "mov",
        "ie"
      ],
      [
        "be",
        "ing"
      ],
      [
        "io",
        "us"
      ],
      [
        "E",
        "uro"
      ],
      [
        "En",
        "gl"
      ],
      [
        "d",
        "an"
      ],
      [
        "I",
        "I"
      ],
      [
        "m",
        "il"
      ],
      [
        "o",
        "per"
      ],
      [
        "are",
        "a"
      ],
      [
        "s",
        "ätt"
      ],
      [
        "t",
        "ak"
      ],
      [
        "om",
        "an"
      ],
      [
        "ig",
        "in"
      ],
      [
        "p",
        "ut"
      ],
      [
        "d",
        "ig"
      ],
      [
        "k",
        "ill"
      ],
      [
        "l",
        "äng"
      ],
      [
        "ning",
        "s"
      ],
      [
        "start",
        "ed"
      ],
      [
        "d",
        "uring"
      ],
      [
        "B",
        "ar"
      ],
      [
        "ad",
        "er"
      ],
      [
        "ov",
        "ember"
      ],
      [
        "st",
        "at"
      ],
      [
        "h",
        "n"
      ],
      [
        "S",
        "an"
      ],
      [
        "it",
        "et"
      ],
      [
        "di",
        "ed"
      ],
      [
        "go",
        "ver"
      ],
      [
        "k",
        "yr"
      ],
      [
        "Al",
        "l"
      ],
      [
        "Sverig",
        "e"
      ],
      [
        "h",
        "am"
      ],
      [
        "om",
        "rå"
      ],
      [
        "sk",
        "ol"
      ],
      [
        "ö",
        "m"
      ],
      [
        "ter",
        "s"
      ],
      [
        "f",
        "an"
      ],
      [
        "h",
        "al"
      ],
      [
        "g",
        "y"
      ],
      [
        "l",
        "ång"
      ],
      [
        "he",
        "m"
      ],
      [
        "at",
        "her"
      ],
      [
        "en",
        "da"
      ],
      [
        "b",
        "en"
      ],
      [
        "ig",
        "n"
      ],
      [
        "pr",
        "il"
      ],
      [
        "ä",
        "g"
      ],
      [
        "H",
        "av"
      ],
      [
        "S",
        "p"
      ],
      [
        "b",
        "il"
      ],
      [
        "r",
        "en"
      ],
      [
        "on",
        "t"
      ],
      [
        "k",
        "or"
      ],
      [
        "w",
        "ater"
      ],
      [
        "v",
        "ill"
      ],
      [
        "off",
        "ic"
      ],
      [
        "hist",
        "or"
      ],
      [
        "bygg",
        "nad"
      ],
      [
        "c",
        "ir"
      ],
      [
        "W",
        "or"
      ],
      [
        "f",
        "y"
      ],
      [
        "a",
        "z"
      ],
      [
        "ig",
        "are"
      ],
      [
        "G",
        "er"
      ],
      [
        "s",
        "el"
      ],
      [
        "as",
        "h"
      ],
      [
        "il",
        "dr"
      ],
      [
        "ta",
        "in"
      ],
      [
        "be",
        "fore"
      ],
      [
        "at",
        "or"
      ],
      [
        "n",
        "ment"
      ],
      [
        "S",
        "ome"
      ],
      [
        "r",
        "ä"
      ],
      [
        "ut",
        "ion"
      ],
      [
        "ar",
        "s"
      ],
      [
        "im",
        "es"
      ],
      [
        "son",
        "g"
      ],
      [
        "g",
        "ick"
      ],
      [
        "sl",
        "ä"
      ],
      [
        "b",
        "as"
      ],
      [
        "g",
        "jor"
      ],
      [
        "om",
        "en"
      ],
      [
        "if",
        "ic"
      ],
      [
        "den",
        "na"
      ],
      [
        "ct",
        "s"
      ],
      [
        "sa",
        "id"
      ],
      [
        "19",
        "2"
      ],
      [
        "f",
        "å"
      ],
      [
        "in",
        "k"
      ],
      [
        "in",
        "es"
      ],
      [
        "r",
        "on"
      ],
      [
        "h",
        "ör"
      ],
      [
        "m",
        "it"
      ],
      [
        "ri",
        "k"
      ],
      [
        "y",
        "e"
      ],
      [
        "st",
        "ill"
      ],
      [
        "H",
        "owever"
      ],
      [
        "g",
        "ån"
      ],
      [
        "us",
        "ually"
      ],
      [
        "su",
        "ch"
      ],
      [
        "G",
        "u"
      ],
      [
        "The",
        "se"
      ],
      [
        "M",
        "ed"
      ],
      [
        "äm",
        "n"
      ],
      [
        "U",
        "S"
      ],
      [
        "b",
        "all"
      ],
      [
        "M",
        "ay"
      ],
      [
        "m",
        "or"
      ],
      [
        "bar",
        "a"
      ],
      [
        "ar",
        "ound"
      ],
      [
        "s",
        "ide"
      ],
      [
        "t",
        "it"
      ],
      [
        "norr",
        "ut"
      ],
      [
        "y",
        "t"
      ],
      [
        "In",
        "d"
      ],
      [
        "växt",
        "lighet"
      ],
      [
        "k",
        "ra"
      ],
      [
        "S",
        "o"
      ],
      [
        "kt",
        "bar"
      ],
      [
        "S",
        "k"
      ],
      [
        "ivers",
        "ity"
      ],
      [
        "b",
        "ol"
      ],
      [
        "b",
        "i"
      ],
      [
        "it",
        "al"
      ],
      [
        "st",
        "and"
      ],
      [
        "gjor",
        "de"
      ],
      [
        "is",
        "m"
      ],
      [
        "l",
        "et"
      ],
      [
        "se",
        "x"
      ],
      [
        "s",
        "im"
      ],
      [
        "st",
        "y"
      ],
      [
        "pr",
        "ess"
      ],
      [
        "200",
        "7"
      ],
      [
        "pla",
        "ce"
      ],
      [
        "c",
        "ap"
      ],
      [
        "of",
        "ru"
      ],
      [
        "ri",
        "es"
      ],
      [
        "stor",
        "a"
      ],
      [
        "b",
        "an"
      ],
      [
        "åt",
        "t"
      ],
      [
        "ant",
        "s"
      ],
      [
        "d",
        "am"
      ],
      [
        "Un",
        "ited"
      ],
      [
        "ofru",
        "ktbar"
      ],
      [
        "t",
        "in"
      ],
      [
        "st",
        "it"
      ],
      [
        "all",
        "t"
      ],
      [
        "dess",
        "a"
      ],
      [
        "spe",
        "c"
      ],
      [
        "mo",
        "der"
      ],
      [
        "C",
        "ol"
      ],
      [
        "c",
        "le"
      ],
      [
        "ch",
        "ang"
      ],
      [
        "i",
        "ver"
      ],
      [
        "p",
        "ass"
      ],
      [
        "nam",
        "ed"
      ],
      [
        "r",
        "um"
      ],
      [
        "at",
        "a"
      ],
      [
        "su",
        "b"
      ],
      [
        "e",
        "g"
      ],
      [
        "201",
        "1"
      ],
      [
        "ing",
        "ar"
      ],
      [
        "söder",
        "ut"
      ],
      [
        "j",
        "o"
      ],
      [
        "ad",
        "d"
      ],
      [
        "g",
        "ame"
      ],
      [
        "w",
        "ord"
      ],
      [
        "la",
        "ck"
      ],
      [
        "h",
        "ur"
      ],
      [
        "is",
        "e"
      ],
      [
        "J",
        "apan"
      ],
      [
        "ig",
        "en"
      ],
      [
        "l",
        "ife"
      ],
      [
        "N",
        "är"
      ],
      [
        "i",
        "um"
      ],
      [
        "Det",
        "ta"
      ],
      [
        "u",
        "str"
      ],
      [
        "m",
        "iss"
      ],
      [
        "con",
        "vert"
      ],
      [
        "us",
        "s"
      ],
      [
        "fr",
        "i"
      ],
      [
        "le",
        "y"
      ],
      [
        "ag",
        "es"
      ],
      [
        "se",
        "ver"
      ],
      [
        "pro",
        "gram"
      ],
      [
        "or",
        "igin"
      ],
      [
        "ildr",
        "en"
      ],
      [
        "m",
        "al"
      ],
      [
        "as",
        "k"
      ],
      [
        "pres",
        "ent"
      ],
      [
        "J",
        "ul"
      ],
      [
        "V",
        "id"
      ],
      [
        "själ",
        "v"
      ],
      [
        "Hav",
        "et"
      ],
      [
        "an",
        "ge"
      ],
      [
        "200",
        "8"
      ],
      [
        "n",
        "ow"
      ],
      [
        "ty",
        "p"
      ],
      [
        "lig",
        "ht"
      ],
      [
        "s",
        "upp"
      ],
      [
        "ex",
        "em"
      ],
      [
        "bu",
        "ild"
      ],
      [
        "B",
        "rit"
      ],
      [
        "publ",
        "ic"
      ],
      [
        "lo",
        "c"
      ],
      [
        "iv",
        "id"
      ],
      [
        "de",
        "m"
      ],
      [
        "l",
        "ist"
      ],
      [
        "re",
        "cord"
      ],
      [
        "hon",
        "om"
      ],
      [
        "som",
        "et"
      ],
      [
        "mat",
        "ch"
      ],
      [
        "ct",
        "or"
      ],
      [
        "bo",
        "th"
      ],
      [
        "kun",
        "de"
      ],
      [
        "2",
        "1"
      ],
      [
        "m",
        "ill"
      ],
      [
        "19",
        "0"
      ],
      [
        "W",
        "h"
      ],
      [
        "a",
        "w"
      ],
      [
        "un",
        "e"
      ],
      [
        "tho",
        "ugh"
      ],
      [
        "ö",
        "v"
      ],
      [
        "wh",
        "at"
      ],
      [
        "bar",
        "n"
      ],
      [
        "2",
        "4"
      ],
      [
        "su",
        "c"
      ],
      [
        "börj",
        "ade"
      ],
      [
        "ser",
        "ies"
      ],
      [
        "ny",
        "a"
      ],
      [
        "S",
        "to"
      ],
      [
        "s",
        "chool"
      ],
      [
        "a",
        "f"
      ],
      [
        "r",
        "un"
      ],
      [
        "d",
        "öd"
      ],
      [
        "p",
        "le"
      ],
      [
        "el",
        "n"
      ],
      [
        "stör",
        "re"
      ],
      [
        "mar",
        "k"
      ],
      [
        "w",
        "s"
      ],
      [
        "app",
        "ear"
      ],
      [
        "br",
        "uk"
      ],
      [
        "e",
        "very"
      ],
      [
        "ur",
        "y"
      ],
      [
        "b",
        "re"
      ],
      [
        "W",
        "e"
      ],
      [
        "pl",
        "ats"
      ],
      [
        "y",
        "o"
      ],
      [
        "Jo",
        "hn"
      ],
      [
        "pro",
        "ble"
      ],
      [
        "pp",
        "en"
      ],
      [
        "200",
        "9"
      ],
      [
        "s",
        "ist"
      ],
      [
        "S",
        "am"
      ],
      [
        "gover",
        "nment"
      ],
      [
        "h",
        "j"
      ],
      [
        "e",
        "k"
      ],
      [
        "s",
        "ay"
      ],
      [
        "us",
        "es"
      ],
      [
        "200",
        "6"
      ],
      [
        "bl",
        "i"
      ],
      [
        "inn",
        "an"
      ],
      [
        "h",
        "um"
      ],
      [
        "at",
        "ing"
      ],
      [
        "to",
        "tal"
      ],
      [
        "tid",
        "igare"
      ],
      [
        "h",
        "är"
      ],
      [
        "k",
        "o"
      ],
      [
        "m",
        "uch"
      ],
      [
        "l",
        "er"
      ],
      [
        "ö",
        "st"
      ],
      [
        "samman",
        "s"
      ],
      [
        "0",
        "s"
      ],
      [
        "K",
        "ar"
      ],
      [
        "h",
        "y"
      ],
      [
        "20",
        "00"
      ],
      [
        "ful",
        "l"
      ],
      [
        "tr",
        "ol"
      ],
      [
        "be",
        "g"
      ],
      [
        "le",
        "m"
      ],
      [
        "bl",
        "ir"
      ],
      [
        "fam",
        "ily"
      ],
      [
        "he",
        "ad"
      ],
      [
        "de",
        "ath"
      ],
      [
        "v",
        "et"
      ],
      [
        "F",
        "e"
      ],
      [
        "l",
        "ess"
      ],
      [
        "w",
        "ent"
      ],
      [
        "ch",
        "ildren"
      ],
      [
        "s",
        "i"
      ],
      [
        "var",
        "ier"
      ],
      [
        "kr",
        "ing"
      ],
      [
        "l",
        "ot"
      ],
      [
        "201",
        "2"
      ],
      [
        "im",
        "port"
      ],
      [
        "Wor",
        "ld"
      ],
      [
        "ā",
        "n"
      ],
      [
        "ut",
        "veck"
      ],
      [
        "pl",
        "at"
      ],
      [
        "ne",
        "ed"
      ],
      [
        "al",
        "en"
      ],
      [
        "O",
        "c"
      ],
      [
        "h",
        "igh"
      ],
      [
        "G",
        "en"
      ],
      [
        "so",
        "ci"
      ],
      [
        "u",
        "th"
      ],
      [
        "ö",
        "k"
      ],
      [
        "pr",
        "is"
      ],
      [
        "re",
        "st"
      ],
      [
        "för",
        "st"
      ],
      [
        "f",
        "le"
      ],
      [
        "be",
        "gan"
      ],
      [
        "d",
        "own"
      ],
      [
        "l",
        "an"
      ],
      [
        "te",
        "st"
      ],
      [
        "h",
        "ow"
      ],
      [
        "n",
        "atur"
      ],
      [
        "b",
        "a"
      ],
      [
        "P",
        "h"
      ],
      [
        "j",
        "ust"
      ],
      [
        "l",
        "ine"
      ],
      [
        "re",
        "ad"
      ],
      [
        "at",
        "ive"
      ],
      [
        "se",
        "ason"
      ],
      [
        "do",
        "es"
      ],
      [
        "sever",
        "al"
      ],
      [
        "le",
        "ft"
      ],
      [
        "l",
        "ang"
      ],
      [
        "sven",
        "ska"
      ],
      [
        "ul",
        "ar"
      ],
      [
        "me",
        "ans"
      ],
      [
        "de",
        "p"
      ],
      [
        "wh",
        "ile"
      ],
      [
        "mar",
        "ried"
      ],
      [
        "Jan",
        "uary"
      ],
      [
        "S",
        "om"
      ],
      [
        "vers",
        "ion"
      ],
      [
        "way",
        "s"
      ],
      [
        "or",
        "n"
      ],
      [
        "f",
        "år"
      ],
      [
        "k",
        "var"
      ],
      [
        "r",
        "ic"
      ],
      [
        "ir",
        "d"
      ],
      [
        "c",
        "are"
      ],
      [
        "n",
        "ation"
      ],
      [
        "201",
        "3"
      ],
      [
        "ant",
        "al"
      ],
      [
        "d",
        "d"
      ],
      [
        "t",
        "j"
      ],
      [
        "ult",
        "ur"
      ],
      [
        "op",
        "en"
      ],
      [
        "öster",
        "ut"
      ],
      [
        "r",
        "ight"
      ],
      [
        "av",
        "e"
      ],
      [
        "p",
        "s"
      ],
      [
        "l",
        "ut"
      ],
      [
        "r",
        "ätt"
      ],
      [
        "ain",
        "t"
      ],
      [
        "un",
        "i"
      ],
      [
        "gr",
        "upp"
      ],
      [
        "kom",
        "mun"
      ],
      [
        "go",
        "od"
      ],
      [
        "H",
        "ar"
      ],
      [
        "m",
        "p"
      ],
      [
        "T",
        "e"
      ],
      [
        "201",
        "4"
      ],
      [
        "sh",
        "o"
      ],
      [
        "s",
        "et"
      ],
      [
        "he",
        "la"
      ]
    ]
  }
}