{
  "version": "1.0",
  "truncation": null,
  "padding": null,
  "added_tokens": [
    {
      "id": 0,
      "content": "<UNK>",
      "single_word": false,
      "lstrip": false,
      "rstrip": false,
      "normalized": false,
      "special": true
    },
    {
      "id": 1,
      "content": "<SEP>",
      "single_word": false,
      "lstrip": false,
      "rstrip": false,
      "normalized": false,
      "special": true
    },
    {
      "id": 2,
      "content": "<MASK>",
      "single_word": false,
      "lstrip": false,
      "rstrip": false,
      "normalized": false,
      "special": true
    },
    {
      "id": 3,
      "content": "<CLS>",
      "single_word": false,
      "lstrip": false,
      "rstrip": false,
      "normalized": false,
      "special": true
    }
  ],
  "normalizer": null,
  "pre_tokenizer": {
    "type": "Whitespace"
  },
  "post_processor": null,
  "decoder": null,
  "model": {
    "type": "BPE",
    "dropout": null,
    "unk_token": "<UNK>",
    "continuing_subword_prefix": null,
    "end_of_word_suffix": null,
    "fuse_unk": false,
    "byte_fallback": false,
    "ignore_merges": false,
    "vocab": {
      "<UNK>": 0,
      "<SEP>": 1,
      "<MASK>": 2,
      "<CLS>": 3,
      "!": 4,
      "\"": 5,
      "$": 6,
      "%": 7,
      "&": 8,
      "'": 9,
      "(": 10,
      ")": 11,
      "*": 12,
      "+": 13,
      ",": 14,
      "-": 15,
      ".": 16,
      "/": 17,
      "0": 18,
      "1": 19,
      "2": 20,
      "3": 21,
      "4": 22,
      "5": 23,
      "6": 24,
      "7": 25,
      "8": 26,
      "9": 27,
      ":": 28,
      ";": 29,
      "<": 30,
      ">": 31,
      "?": 32,
      "A": 33,
      "B": 34,
      "C": 35,
      "D": 36,
      "E": 37,
      "F": 38,
      "G": 39,
      "H": 40,
      "I": 41,
      "J": 42,
      "K": 43,
      "L": 44,
      "M": 45,
      "N": 46,
      "O": 47,
      "P": 48,
      "Q": 49,
      "R": 50,
      "S": 51,
      "T": 52,
      "U": 53,
      "V": 54,
      "W": 55,
      "X": 56,
      "Y": 57,
      "Z": 58,
      "`": 59,
      "a": 60,
      "b": 61,
      "c": 62,
      "d": 63,
      "e": 64,
      "f": 65,
      "g": 66,
      "h": 67,
      "i": 68,
      "j": 69,
      "k": 70,
      "l": 71,
      "m": 72,
      "n": 73,
      "o": 74,
      "p": 75,
      "q": 76,
      "r": 77,
      "s": 78,
      "t": 79,
      "u": 80,
      "v": 81,
      "w": 82,
      "x": 83,
      "y": 84,
      "z": 85,
      "~": 86,
      "¡": 87,
      "£": 88,
      "¥": 89,
      "§": 90,
      "¨": 91,
      "«": 92,
      "®": 93,
      "°": 94,
      "±": 95,
      "²": 96,
      "³": 97,
      "´": 98,
      "µ": 99,
      "·": 100,
      "¸": 101,
      "¹": 102,
      "º": 103,
      "»": 104,
      "¼": 105,
      "½": 106,
      "¾": 107,
      "¿": 108,
      "À": 109,
      "Á": 110,
      "Ä": 111,
      "Å": 112,
      "Æ": 113,
      "Ç": 114,
      "È": 115,
      "É": 116,
      "Ê": 117,
      "Í": 118,
      "Î": 119,
      "Ð": 120,
      "Ñ": 121,
      "Ó": 122,
      "Ô": 123,
      "Õ": 124,
      "Ö": 125,
      "×": 126,
      "Ø": 127,
      "Ú": 128,
      "Ü": 129,
      "Ý": 130,
      "Þ": 131,
      "ß": 132,
      "à": 133,
      "á": 134,
      "â": 135,
      "ã": 136,
      "ä": 137,
      "å": 138,
      "æ": 139,
      "ç": 140,
      "è": 141,
      "é": 142,
      "ê": 143,
      "ë": 144,
      "ì": 145,
      "í": 146,
      "î": 147,
      "ï": 148,
      "ð": 149,
      "ñ": 150,
      "ò": 151,
      "ó": 152,
      "ô": 153,
      "õ": 154,
      "ö": 155,
      "ø": 156,
      "ù": 157,
      "ú": 158,
      "û": 159,
      "ü": 160,
      "ý": 161,
      "þ": 162,
      "ÿ": 163,
      "Ā": 164,
      "ā": 165,
      "ă": 166,
      "Ą": 167,
      "ą": 168,
      "Ć": 169,
      "ć": 170,
      "Č": 171,
      "č": 172,
      "Ď": 173,
      "ď": 174,
      "Đ": 175,
      "đ": 176,
      "Ē": 177,
      "ē": 178,
      "ĕ": 179,
      "ė": 180,
      "ę": 181,
      "ě": 182,
      "ĝ": 183,
      "ğ": 184,
      "ġ": 185,
      "Ħ": 186,
      "ħ": 187,
      "Ī": 188,
      "ī": 189,
      "ĭ": 190,
      "į": 191,
      "İ": 192,
      "ı": 193,
      "Ĵ": 194,
      "ķ": 195,
      "Ĺ": 196,
      "ļ": 197,
      "ľ": 198,
      "Ł": 199,
      "ł": 200,
      "ń": 201,
      "ņ": 202,
      "ň": 203,
      "ŋ": 204,
      "Ō": 205,
      "ō": 206,
      "Ŏ": 207,
      "ŏ": 208,
      "Ő": 209,
      "ő": 210,
      "Œ": 211,
      "œ": 212,
      "Ř": 213,
      "ř": 214,
      "Ś": 215,
      "ś": 216,
      "Ş": 217,
      "ş": 218,
      "Š": 219,
      "š": 220,
      "Ţ": 221,
      "ţ": 222,
      "ť": 223,
      "ŧ": 224,
      "Ū": 225,
      "ū": 226,
      "Ŭ": 227,
      "ŭ": 228,
      "ů": 229,
      "ű": 230,
      "ų": 231,
      "ŵ": 232,
      "Ź": 233,
      "ź": 234,
      "Ż": 235,
      "ż": 236,
      "Ž": 237,
      "ž": 238,
      "ſ": 239,
      "Ə": 240,
      "ƒ": 241,
      "ơ": 242,
      "ư": 243,
      "ǎ": 244,
      "ǒ": 245,
      "ǔ": 246,
      "ǫ": 247,
      "Ǵ": 248,
      "ǵ": 249,
      "ǻ": 250,
      "Ș": 251,
      "ș": 252,
      "Ț": 253,
      "ț": 254,
      "ȟ": 255,
      "ȯ": 256,
      "ɑ": 257,
      "ɕ": 258,
      "ə": 259,
      "ɛ": 260,
      "ɞ": 261,
      "ɪ": 262,
      "ʀ": 263,
      "ʃ": 264,
      "ʉ": 265,
      "ʊ": 266,
      "ʔ": 267,
      "ʙ": 268,
      "ʟ": 269,
      "ʰ": 270,
      "ʻ": 271,
      "ʿ": 272,
      "ˆ": 273,
      "ˈ": 274,
      "˚": 275,
      "̀": 276,
      "́": 277,
      "̄": 278,
      "̅": 279,
      "̆": 280,
      "̇": 281,
      "̈": 282,
      "̊": 283,
      "̍": 284,
      "̟": 285,
      "̣": 286,
      "̧": 287,
      "̱": 288,
      "̲": 289,
      "Ή": 290,
      "Α": 291,
      "Β": 292,
      "Δ": 293,
      "Ε": 294,
      "Η": 295,
      "Θ": 296,
      "Κ": 297,
      "Λ": 298,
      "Μ": 299,
      "Ρ": 300,
      "Σ": 301,
      "Υ": 302,
      "Φ": 303,
      "Χ": 304,
      "Ω": 305,
      "ά": 306,
      "ή": 307,
      "ί": 308,
      "α": 309,
      "β": 310,
      "γ": 311,
      "δ": 312,
      "ε": 313,
      "ζ": 314,
      "η": 315,
      "θ": 316,
      "ι": 317,
      "κ": 318,
      "λ": 319,
      "μ": 320,
      "ν": 321,
      "ξ": 322,
      "ο": 323,
      "π": 324,
      "ρ": 325,
      "ς": 326,
      "σ": 327,
      "τ": 328,
      "υ": 329,
      "φ": 330,
      "χ": 331,
      "ψ": 332,
      "ω": 333,
      "ό": 334,
      "ύ": 335,
      "ώ": 336,
      "А": 337,
      "Б": 338,
      "В": 339,
      "Г": 340,
      "Д": 341,
      "З": 342,
      "И": 343,
      "К": 344,
      "Л": 345,
      "М": 346,
      "Н": 347,
      "О": 348,
      "П": 349,
      "Р": 350,
      "С": 351,
      "Т": 352,
      "У": 353,
      "Ф": 354,
      "Ш": 355,
      "Э": 356,
      "Ю": 357,
      "Я": 358,
      "а": 359,
      "б": 360,
      "в": 361,
      "г": 362,
      "д": 363,
      "е": 364,
      "ж": 365,
      "з": 366,
      "и": 367,
      "й": 368,
      "к": 369,
      "л": 370,
      "м": 371,
      "н": 372,
      "о": 373,
      "п": 374,
      "р": 375,
      "с": 376,
      "т": 377,
      "у": 378,
      "ф": 379,
      "х": 380,
      "ц": 381,
      "ч": 382,
      "ш": 383,
      "щ": 384,
      "ъ": 385,
      "ы": 386,
      "ь": 387,
      "э": 388,
      "ю": 389,
      "я": 390,
      "ё": 391,
      "і": 392,
      "ѣ": 393,
      "Ү": 394,
      "ӕ": 395,
      "Ө": 396,
      "Օ": 397,
      "Ֆ": 398,
      "ֲ": 399,
      "ָ": 400,
      "ֹ": 401,
      "א": 402,
      "ב": 403,
      "ג": 404,
      "ד": 405,
      "ה": 406,
      "ו": 407,
      "ט": 408,
      "י": 409,
      "כ": 410,
      "ל": 411,
      "ם": 412,
      "מ": 413,
      "ן": 414,
      "נ": 415,
      "ס": 416,
      "ק": 417,
      "ר": 418,
      "ת": 419,
      "ء": 420,
      "ا": 421,
      "ب": 422,
      "ة": 423,
      "ج": 424,
      "د": 425,
      "ذ": 426,
      "ر": 427,
      "س": 428,
      "ش": 429,
      "ط": 430,
      "ع": 431,
      "ف": 432,
      "ق": 433,
      "ك": 434,
      "ل": 435,
      "م": 436,
      "ن": 437,
      "ه": 438,
      "و": 439,
      "ي": 440,
      "پ": 441,
      "ک": 442,
      "ی": 443,
      "ە": 444,
      "ܐ": 445,
      "ܒ": 446,
      "ܖ": 447,
      "ܚ": 448,
      "ܝ": 449,
      "ܡ": 450,
      "ܪ": 451,
      "ঁ": 452,
      "ই": 453,
      "গ": 454,
      "চ": 455,
      "ত": 456,
      "দ": 457,
      "ন": 458,
      "প": 459,
      "র": 460,
      "ল": 461,
      "স": 462,
      "া": 463,
      "ী": 464,
      "ু": 465,
      "ে": 466,
      "্": 467,
      "ஃ": 468,
      "இ": 469,
      "ஈ": 470,
      "க": 471,
      "ங": 472,
      "ட": 473,
      "ம": 474,
      "ர": 475,
      "ல": 476,
      "ழ": 477,
      "ு": 478,
      "ை": 479,
      "்": 480,
      "ก": 481,
      "ข": 482,
      "ง": 483,
      "ด": 484,
      "ท": 485,
      "น": 486,
      "ผ": 487,
      "พ": 488,
      "ม": 489,
      "ย": 490,
      "ร": 491,
      "ว": 492,
      "ษ": 493,
      "อ": 494,
      "ะ": 495,
      "ั": 496,
      "า": 497,
      "ิ": 498,
      "ี": 499,
      "ื": 500,
      "ุ": 501,
      "เ": 502,
      "แ": 503,
      "ใ": 504,
      "์": 505,
      "ᚦ": 506,
      "ᚨ": 507,
      "ᚱ": 508,
      "ᛁ": 509,
      "ᛊ": 510,
      "ᛚ": 511,
      "ន": 512,
      "ផ": 513,
      "យ": 514,
      "រ": 515,
      "ឝ": 516,
      "ឞ": 517,
      "ស": 518,
      "ិ": 519,
      "ំ": 520,
      "ៈ": 521,
      "័": 522,
      "្": 523,
      "ḍ": 524,
      "Ḏ": 525,
      "ḏ": 526,
      "Ḑ": 527,
      "ḑ": 528,
      "Ḥ": 529,
      "ḥ": 530,
      "Ḩ": 531,
      "ḩ": 532,
      "Ḫ": 533,
      "ḫ": 534,
      "ḯ": 535,
      "Ḱ": 536,
      "ḱ": 537,
      "Ḷ": 538,
      "ḷ": 539,
      "ḻ": 540,
      "ṃ": 541,
      "ṅ": 542,
      "ṇ": 543,
      "ṉ": 544,
      "Ṟ": 545,
      "ṟ": 546,
      "Ṣ": 547,
      "ṣ": 548,
      "Ṭ": 549,
      "ṭ": 550,
      "Ṯ": 551,
      "ṯ": 552,
      "ṷ": 553,
      "ẓ": 554,
      "Ẕ": 555,
      "ẕ": 556,
      "ẖ": 557,
      "ạ": 558,
      "ả": 559,
      "ấ": 560,
      "ắ": 561,
      "ẵ": 562,
      "ẽ": 563,
      "ề": 564,
      "ể": 565,
      "ễ": 566,
      "ệ": 567,
      "ị": 568,
      "ọ": 569,
      "ố": 570,
      "ổ": 571,
      "ỗ": 572,
      "ờ": 573,
      "ợ": 574,
      "ữ": 575,
      "ự": 576,
      "ἀ": 577,
      "ἐ": 578,
      "ᾶ": 579,
      "ῆ": 580,
      "ῖ": 581,
      "ῦ": 582,
      "Ῥ": 583,
      "ῶ": 584,
      "​": 585,
      "‐": 586,
      "‑": 587,
      "–": 588,
      "—": 589,
      "‘": 590,
      "’": 591,
      "‚": 592,
      "“": 593,
      "”": 594,
      "„": 595,
      "†": 596,
      "‡": 597,
      "•": 598,
      "…": 599,
      "‰": 600,
      "′": 601,
      "″": 602,
      "‹": 603,
      "›": 604,
      "※": 605,
      "⁷": 606,
      "⁸": 607,
      "ⁿ": 608,
      "₁": 609,
      "₂": 610,
      "₃": 611,
      "₄": 612,
      "₫": 613,
      "€": 614,
      "№": 615,
      "ℚ": 616,
      "ℝ": 617,
      "™": 618,
      "⅔": 619,
      "→": 620,
      "↔": 621,
      "⇄": 622,
      "⇌": 623,
      "∂": 624,
      "∆": 625,
      "∈": 626,
      "−": 627,
      "∨": 628,
      "∴": 629,
      "≤": 630,
      "≥": 631,
      "☆": 632,
      "♅": 633,
      "♠": 634,
      "♭": 635,
      "♯": 636,
      "⛢": 637,
      "⟨": 638,
      "⟩": 639,
      "々": 640,
      "「": 641,
      "」": 642,
      "う": 643,
      "お": 644,
      "が": 645,
      "き": 646,
      "ぎ": 647,
      "く": 648,
      "ぐ": 649,
      "け": 650,
      "ご": 651,
      "し": 652,
      "た": 653,
      "だ": 654,
      "ち": 655,
      "て": 656,
      "な": 657,
      "に": 658,
      "の": 659,
      "は": 660,
      "ぶ": 661,
      "み": 662,
      "も": 663,
      "ゅ": 664,
      "り": 665,
      "る": 666,
      "れ": 667,
      "ろ": 668,
      "ん": 669,
      "ア": 670,
      "イ": 671,
      "ウ": 672,
      "エ": 673,
      "カ": 674,
      "コ": 675,
      "ゴ": 676,
      "ジ": 677,
      "ス": 678,
      "ズ": 679,
      "セ": 680,
      "チ": 681,
      "ッ": 682,
      "デ": 683,
      "ト": 684,
      "ド": 685,
      "ナ": 686,
      "ハ": 687,
      "ボ": 688,
      "ム": 689,
      "メ": 690,
      "モ": 691,
      "ュ": 692,
      "ル": 693,
      "ヲ": 694,
      "ン": 695,
      "ー": 696,
      "一": 697,
      "七": 698,
      "万": 699,
      "三": 700,
      "上": 701,
      "业": 702,
      "中": 703,
      "丸": 704,
      "之": 705,
      "乐": 706,
      "书": 707,
      "五": 708,
      "井": 709,
      "人": 710,
      "亿": 711,
      "今": 712,
      "仏": 713,
      "伏": 714,
      "伟": 715,
      "伤": 716,
      "住": 717,
      "体": 718,
      "依": 719,
      "便": 720,
      "元": 721,
      "先": 722,
      "光": 723,
      "克": 724,
      "兰": 725,
      "共": 726,
      "典": 727,
      "内": 728,
      "准": 729,
      "凤": 730,
      "分": 731,
      "切": 732,
      "力": 733,
      "助": 734,
      "勝": 735,
      "勧": 736,
      "北": 737,
      "区": 738,
      "區": 739,
      "升": 740,
      "华": 741,
      "南": 742,
      "反": 743,
      "受": 744,
      "口": 745,
      "古": 746,
      "召": 747,
      "右": 748,
      "司": 749,
      "合": 750,
      "吉": 751,
      "君": 752,
      "吸": 753,
      "周": 754,
      "咆": 755,
      "和": 756,
      "哮": 757,
      "善": 758,
      "喚": 759,
      "器": 760,
      "四": 761,
      "国": 762,
      "土": 763,
      "地": 764,
      "城": 765,
      "外": 766,
      "夜": 767,
      "夢": 768,
      "大": 769,
      "天": 770,
      "太": 771,
      "夫": 772,
      "夭": 773,
      "奋": 774,
      "妓": 775,
      "子": 776,
      "字": 777,
      "宗": 778,
      "害": 779,
      "家": 780,
      "密": 781,
      "寺": 782,
      "寿": 783,
      "小": 784,
      "少": 785,
      "尾": 786,
      "山": 787,
      "川": 788,
      "工": 789,
      "左": 790,
      "巨": 791,
      "市": 792,
      "师": 793,
      "帝": 794,
      "師": 795,
      "帯": 796,
      "常": 797,
      "平": 798,
      "年": 799,
      "幼": 800,
      "廪": 801,
      "式": 802,
      "引": 803,
      "张": 804,
      "後": 805,
      "得": 806,
      "心": 807,
      "志": 808,
      "忠": 809,
      "情": 810,
      "想": 811,
      "感": 812,
      "成": 813,
      "房": 814,
      "手": 815,
      "抄": 816,
      "拳": 817,
      "振": 818,
      "提": 819,
      "撃": 820,
      "政": 821,
      "文": 822,
      "斗": 823,
      "新": 824,
      "方": 825,
      "族": 826,
      "日": 827,
      "时": 828,
      "昌": 829,
      "明": 830,
      "星": 831,
      "春": 832,
      "昭": 833,
      "暢": 834,
      "會": 835,
      "月": 836,
      "朝": 837,
      "木": 838,
      "李": 839,
      "松": 840,
      "林": 841,
      "柿": 842,
      "标": 843,
      "桜": 844,
      "森": 845,
      "椒": 846,
      "様": 847,
      "標": 848,
      "權": 849,
      "次": 850,
      "歌": 851,
      "步": 852,
      "武": 853,
      "死": 854,
      "毅": 855,
      "民": 856,
      "氣": 857,
      "水": 858,
      "永": 859,
      "汉": 860,
      "江": 861,
      "沒": 862,
      "沛": 863,
      "泉": 864,
      "波": 865,
      "泰": 866,
      "流": 867,
      "浄": 868,
      "深": 869,
      "渚": 870,
      "源": 871,
      "準": 872,
      "溶": 873,
      "澄": 874,
      "無": 875,
      "物": 876,
      "犩": 877,
      "狼": 878,
      "獄": 879,
      "獣": 880,
      "王": 881,
      "琛": 882,
      "瑞": 883,
      "田": 884,
      "申": 885,
      "电": 886,
      "畅": 887,
      "白": 888,
      "的": 889,
      "皇": 890,
      "相": 891,
      "着": 892,
      "石": 893,
      "破": 894,
      "示": 895,
      "社": 896,
      "祈": 897,
      "祖": 898,
      "神": 899,
      "禅": 900,
      "秋": 901,
      "秒": 902,
      "秦": 903,
      "稳": 904,
      "穆": 905,
      "穿": 906,
      "突": 907,
      "竹": 908,
      "筒": 909,
      "策": 910,
      "節": 911,
      "紅": 912,
      "級": 913,
      "統": 914,
      "綾": 915,
      "红": 916,
      "纪": 917,
      "美": 918,
      "育": 919,
      "脿": 920,
      "至": 921,
      "舞": 922,
      "花": 923,
      "茶": 924,
      "華": 925,
      "蔣": 926,
      "藤": 927,
      "蘭": 928,
      "虎": 929,
      "行": 930,
      "街": 931,
      "衛": 932,
      "襄": 933,
      "西": 934,
      "視": 935,
      "覚": 936,
      "親": 937,
      "览": 938,
      "解": 939,
      "試": 940,
      "語": 941,
      "论": 942,
      "话": 943,
      "语": 944,
      "说": 945,
      "贛": 946,
      "輝": 947,
      "远": 948,
      "速": 949,
      "進": 950,
      "遠": 951,
      "郑": 952,
      "都": 953,
      "鄭": 954,
      "酒": 955,
      "醒": 956,
      "里": 957,
      "録": 958,
      "银": 959,
      "門": 960,
      "闌": 961,
      "门": 962,
      "阳": 963,
      "陵": 964,
      "非": 965,
      "順": 966,
      "風": 967,
      "风": 968,
      "馆": 969,
      "首": 970,
      "馬": 971,
      "鳳": 972,
      "鹿": 973,
      "麦": 974,
      "龍": 975,
      "龙": 976,
      "ꯄ": 977,
      "ꯥ": 978,
      "ꯦ": 979,
      "ꯨ": 980,
      "가": 981,
      "거": 982,
      "경": 983,
      "교": 984,
      "구": 985,
      "국": 986,
      "김": 987,
      "달": 988,
      "대": 989,
      "더": 990,
      "동": 991,
      "등": 992,
      "뜨": 993,
      "루": 994,
      "만": 995,
      "무": 996,
      "문": 997,
      "박": 998,
      "밥": 999,
      "번": 1000,
      "보": 1001,
      "수": 1002,
      "스": 1003,
      "아": 1004,
      "연": 1005,
      "운": 1006,
      "의": 1007,
      "제": 1008,
      "축": 1009,
      "충": 1010,
      "토": 1011,
      "포": 1012,
      "피": 1013,
      "하": 1014,
      "학": 1015,
      "한": 1016,
      "화": 1017,
      "훈": 1018,
      "희": 1019,
      "ﬂ": 1020,
      "～": 1021,
      "er": 1022,
      "en": 1023,
      "et": 1024,
      "ar": 1025,
      "an": 1026,
      "in": 1027,
      "st": 1028,
      "är": 1029,
      "at": 1030,
      "om": 1031,
      "de": 1032,
      "ll": 1033,
      "un": 1034,
      "oc": 1035,
      "or": 1036,
      "ör": 1037,
      "sk": 1038,
      "ed": 1039,
      "av": 1040,
      "ig": 1041,
      "och": 1042,
      "on": 1043,
      "ti": 1044,
      "ad": 1045,
      "för": 1046,
      "än": 1047,
      "ing": 1048,
      "med": 1049,
      "att": 1050,
      "ån": 1051,
      "al": 1052,
      "il": 1053,
      "eter": 1054,
      "ol": 1055,
      "am": 1056,
      "ade": 1057,
      "kt": 1058,
      "ver": 1059,
      "den": 1060,
      "are": 1061,
      "unt": 1062,
      "det": 1063,
      "re": 1064,
      "per": 1065,
      "ut": 1066,
      "som": 1067,
      "be": 1068,
      "ra": 1069,
      "na": 1070,
      "till": 1071,
      "el": 1072,
      "på": 1073,
      "var": 1074,
      "lig": 1075,
      "ska": 1076,
      "gen": 1077,
      "it": 1078,
      "pp": 1079,
      "der": 1080,
      "ter": 1081,
      "ck": 1082,
      "över": 1083,
      "es": 1084,
      "ning": 1085,
      "ri": 1086,
      "as": 1087,
      "and": 1088,
      "inv": 1089,
      "kv": 1090,
      "sta": 1091,
      "rat": 1092,
      "olk": 1093,
      "invån": 1094,
      "kil": 1095,
      "invånare": 1096,
      "ometer": 1097,
      "kilometer": 1098,
      "vi": 1099,
      "fr": 1100,
      "folk": 1101,
      "ag": 1102,
      "men": 1103,
      "avet": 1104,
      "runt": 1105,
      "ot": 1106,
      "meter": 1107,
      "vä": 1108,
      "befolk": 1109,
      "när": 1110,
      "kvad": 1111,
      "kvadrat": 1112,
      "kvadratkilometer": 1113,
      "ak": 1114,
      "år": 1115,
      "havet": 1116,
      "ät": 1117,
      "het": 1118,
      "te": 1119,
      "kten": 1120,
      "19": 1121,
      "rän": 1122,
      "ell": 1123,
      "bl": 1124,
      "Den": 1125,
      "ett": 1126,
      "ur": 1127,
      "hö": 1128,
      "sl": 1129,
      "sp": 1130,
      "Runt": 1131,
      "åt": 1132,
      "befolkat": 1133,
      "han": 1134,
      "ro": 1135,
      "pl": 1136,
      "har": 1137,
      "Ter": 1138,
      "sam": 1139,
      "rängen": 1140,
      "Terrängen": 1141,
      "ka": 1142,
      "ss": 1143,
      "em": 1144,
      "upp": 1145,
      "00": 1146,
      "nor": 1147,
      "si": 1148,
      "da": 1149,
      "hög": 1150,
      "ku": 1151,
      "ta": 1152,
      "ger": 1153,
      "ber": 1154,
      "og": 1155,
      "ster": 1156,
      "gan": 1157,
      "del": 1158,
      "sy": 1159,
      "heten": 1160,
      "man": 1161,
      "hu": 1162,
      "gl": 1163,
      "all": 1164,
      "ven": 1165,
      "gr": 1166,
      "ud": 1167,
      "pun": 1168,
      "så": 1169,
      "fl": 1170,
      "ande": 1171,
      "tr": 1172,
      "ock": 1173,
      "högsta": 1174,
      "inn": 1175,
      "punkten": 1176,
      "fter": 1177,
      "kom": 1178,
      "närheten": 1179,
      "km": 1180,
      "ati": 1181,
      "ades": 1182,
      "från": 1183,
      "sen": 1184,
      "kuper": 1185,
      "kuperad": 1186,
      "kan": 1187,
      "se": 1188,
      "ser": 1189,
      "do": 1190,
      "ch": 1191,
      "ganska": 1192,
      "yg": 1193,
      "yck": 1194,
      "br": 1195,
      "vå": 1196,
      "tal": 1197,
      "ång": 1198,
      "sig": 1199,
      "sin": 1200,
      "under": 1201,
      "äll": 1202,
      "ma": 1203,
      "äl": 1204,
      "ul": 1205,
      "gles": 1206,
      "ort": 1207,
      "glesbefolkat": 1208,
      "gi": 1209,
      "fi": 1210,
      "tät": 1211,
      "um": 1212,
      "väst": 1213,
      "min": 1214,
      "äm": 1215,
      "kl": 1216,
      "ev": 1217,
      "mer": 1218,
      "eller": 1219,
      "platt": 1220,
      "inte": 1221,
      "två": 1222,
      "tätbefolkat": 1223,
      "20": 1224,
      "bet": 1225,
      "arna": 1226,
      "sö": 1227,
      "ation": 1228,
      "is": 1229,
      "ann": 1230,
      "bar": 1231,
      "efter": 1232,
      "hade": 1233,
      "id": 1234,
      "åg": 1235,
      "vid": 1236,
      "dväst": 1237,
      "ätt": 1238,
      "kon": 1239,
      "sak": 1240,
      "ligen": 1241,
      "huv": 1242,
      "dost": 1243,
      "opp": 1244,
      "tid": 1245,
      "där": 1246,
      "Han": 1247,
      "di": 1248,
      "huvud": 1249,
      "18": 1250,
      "des": 1251,
      "ten": 1252,
      "li": 1253,
      "änd": 1254,
      "ir": 1255,
      "berg": 1256,
      "mar": 1257,
      "und": 1258,
      "ingen": 1259,
      "son": 1260,
      "str": 1261,
      "ung": 1262,
      "ycket": 1263,
      "ligger": 1264,
      "kr": 1265,
      "rakten": 1266,
      "ningen": 1267,
      "dre": 1268,
      "stor": 1269,
      "spel": 1270,
      "for": 1271,
      "mycket": 1272,
      "nära": 1273,
      "os": 1274,
      "hon": 1275,
      "även": 1276,
      "sj": 1277,
      "od": 1278,
      "verk": 1279,
      "Trakten": 1280,
      "ft": 1281,
      "itt": 1282,
      "ens": 1283,
      "erna": 1284,
      "äng": 1285,
      "ha": 1286,
      "rå": 1287,
      "byg": 1288,
      "huvudsak": 1289,
      "yt": 1290,
      "slut": 1291,
      "us": 1292,
      "äg": 1293,
      "tion": 1294,
      "oli": 1295,
      "mot": 1296,
      "ok": 1297,
      "of": 1298,
      "200": 1299,
      "uk": 1300,
      "öd": 1301,
      "ull": 1302,
      "ill": 1303,
      "Det": 1304,
      "va": 1305,
      "era": 1306,
      "blev": 1307,
      "ats": 1308,
      "op": 1309,
      "ni": 1310,
      "liga": 1311,
      "huvudsakligen": 1312,
      "le": 1313,
      "edan": 1314,
      "St": 1315,
      "la": 1316,
      "mindre": 1317,
      "finn": 1318,
      "amn": 1319,
      "yr": 1320,
      "andra": 1321,
      "vis": 1322,
      "lit": 1323,
      "bygg": 1324,
      "bil": 1325,
      "talet": 1326,
      "oppen": 1327,
      "ex": 1328,
      "pro": 1329,
      "vil": 1330,
      "fram": 1331,
      "finns": 1332,
      "ste": 1333,
      "ov": 1334,
      "ord": 1335,
      "ställ": 1336,
      "ligt": 1337,
      "je": 1338,
      "Toppen": 1339,
      "ål": 1340,
      "201": 1341,
      "då": 1342,
      "land": 1343,
      "En": 1344,
      "par": 1345,
      "iska": 1346,
      "Kū": 1347,
      "De": 1348,
      "sm": 1349,
      "ken": 1350,
      "bör": 1351,
      "också": 1352,
      "nad": 1353,
      "Kūh": 1354,
      "ve": 1355,
      "led": 1356,
      "genom": 1357,
      "vär": 1358,
      "skap": 1359,
      "art": 1360,
      "ny": 1361,
      "bergig": 1362,
      "ans": 1363,
      "lj": 1364,
      "nog": 1365,
      "första": 1366,
      "ang": 1367,
      "ier": 1368,
      "arbet": 1369,
      "ön": 1370,
      "vän": 1371,
      "stad": 1372,
      "iga": 1373,
      "befolkad": 1374,
      "någ": 1375,
      "igt": 1376,
      "sydväst": 1377,
      "ker": 1378,
      "söder": 1379,
      "dr": 1380,
      "hå": 1381,
      "ne": 1382,
      "bli": 1383,
      "norr": 1384,
      "börj": 1385,
      "obefolkad": 1386,
      "nordost": 1387,
      "tre": 1388,
      "ningar": 1389,
      "håll": 1390,
      ").": 1391,
      "lag": 1392,
      "ellan": 1393,
      "pr": 1394,
      "nordväst": 1395,
      "öster": 1396,
      "fick": 1397,
      "isk": 1398,
      "sa": 1399,
      "sydost": 1400,
      "ket": 1401,
      "bland": 1402,
      "ake": 1403,
      "dess": 1404,
      "hel": 1405,
      "namn": 1406,
      "ia": 1407,
      "me": 1408,
      "stör": 1409,
      "ien": 1410,
      "ner": 1411,
      "väx": 1412,
      "År": 1413,
      "ge": 1414,
      "ant": 1415,
      "ling": 1416,
      "sten": 1417,
      "ab": 1418,
      "An": 1419,
      "kun": 1420,
      "ets": 1421,
      "ff": 1422,
      "he": 1423,
      "lite": 1424,
      "Lake": 1425,
      "väster": 1426,
      "ek": 1427,
      "mellan": 1428,
      "aren": 1429,
      "ilj": 1430,
      "jor": 1431,
      "skri": 1432,
      "ou": 1433,
      "cer": 1434,
      "ik": 1435,
      "äst": 1436,
      "bb": 1437,
      "går": 1438,
      "ott": 1439,
      "ånga": 1440,
      "äck": 1441,
      "ent": 1442,
      "du": 1443,
      "åter": 1444,
      "skull": 1445,
      "Un": 1446,
      "hi": 1447,
      "bo": 1448,
      "ala": 1449,
      "rik": 1450,
      "yn": 1451,
      "ci": 1452,
      "hans": 1453,
      "van": 1454,
      "In": 1455,
      "skulle": 1456,
      "dra": 1457,
      "val": 1458,
      "17": 1459,
      "dock": 1460,
      "sedan": 1461,
      "För": 1462,
      "fö": 1463,
      "vara": 1464,
      "kall": 1465,
      "dan": 1466,
      "eri": 1467,
      "gör": 1468,
      "fär": 1469,
      "samt": 1470,
      "eg": 1471,
      "olika": 1472,
      "Fr": 1473,
      "hand": 1474,
      "trä": 1475,
      "mat": 1476,
      "199": 1477,
      "ap": 1478,
      "bild": 1479,
      "hus": 1480,
      "vit": 1481,
      "ty": 1482,
      "sitt": 1483,
      "inne": 1484,
      "samman": 1485,
      "ukt": 1486,
      "ah": 1487,
      "sti": 1488,
      "grund": 1489,
      "Hon": 1490,
      "up": 1491,
      "öt": 1492,
      "fatt": 1493,
      "dag": 1494,
      "män": 1495,
      "ari": 1496,
      "mo": 1497,
      "akt": 1498,
      "po": 1499,
      "sina": 1500,
      "jär": 1501,
      "andet": 1502,
      "ug": 1503,
      "sä": 1504,
      "tog": 1505,
      "pre": 1506,
      "sätt": 1507,
      "bor": 1508,
      "ast": 1509,
      "kar": 1510,
      "samma": 1511,
      "ende": 1512,
      "hen": 1513,
      "verig": 1514,
      "Under": 1515,
      "fin": 1516,
      "vilket": 1517,
      "Sverig": 1518,
      "lighet": 1519,
      "alt": 1520,
      "äv": 1521,
      "cen": 1522,
      "satt": 1523,
      "ämn": 1524,
      "gång": 1525,
      "bel": 1526,
      "rikt": 1527,
      "kommer": 1528,
      "flera": 1529,
      "utan": 1530,
      "Ar": 1531,
      "Efter": 1532,
      "sven": 1533,
      "vet": 1534,
      "sion": 1535,
      "best": 1536,
      "vänd": 1537,
      "im": 1538,
      "16": 1539,
      "tar": 1540,
      "person": 1541,
      "veck": 1542,
      "ic": 1543,
      "detta": 1544,
      "gjor": 1545,
      "kän": 1546,
      "öj": 1547,
      "nu": 1548,
      "svar": 1549,
      "ac": 1550,
      "slag": 1551,
      "dom": 1552,
      "form": 1553,
      "alla": 1554,
      "läng": 1555,
      "nes": 1556,
      "öm": 1557,
      "före": 1558,
      "mu": 1559,
      "fy": 1560,
      "yd": 1561,
      "pen": 1562,
      "komm": 1563,
      "fil": 1564,
      "vin": 1565,
      "ark": 1566,
      "Ch": 1567,
      "kor": 1568,
      "själ": 1569,
      "vatt": 1570,
      "senare": 1571,
      "ytt": 1572,
      "ion": 1573,
      "15": 1574,
      "växt": 1575,
      "öst": 1576,
      "ofta": 1577,
      "bå": 1578,
      "ld": 1579,
      "erade": 1580,
      "annat": 1581,
      "ella": 1582,
      "läg": 1583,
      "rev": 1584,
      "197": 1585,
      "ay": 1586,
      "198": 1587,
      "pel": 1588,
      "sn": 1589,
      "ist": 1590,
      "heter": 1591,
      "ski": 1592,
      "hol": 1593,
      "sv": 1594,
      "bak": 1595,
      "skol": 1596,
      "mål": 1597,
      "många": 1598,
      "ass": 1599,
      "tur": 1600,
      "På": 1601,
      "ry": 1602,
      "använd": 1603,
      "frukt": 1604,
      "vill": 1605,
      "följ": 1606,
      "plan": 1607,
      "196": 1608,
      "fort": 1609,
      "bi": 1610,
      "inom": 1611,
      "tag": 1612,
      "Sverige": 1613,
      "000": 1614,
      "igare": 1615,
      "barn": 1616,
      "\".": 1617,
      "rä": 1618,
      "tor": 1619,
      "etta": 1620,
      "Al": 1621,
      "gick": 1622,
      "rätt": 1623,
      "väg": 1624,
      "far": 1625,
      "),": 1626,
      "kyr": 1627,
      "fri": 1628,
      "ja": 1629,
      "enda": 1630,
      "lång": 1631,
      "Mo": 1632,
      "områ": 1633,
      "byggnad": 1634,
      "ko": 1635,
      "10": 1636,
      "använ": 1637,
      "gel": 1638,
      "sson": 1639,
      "tt": 1640,
      "nings": 1641,
      "dem": 1642,
      "denna": 1643,
      "ce": 1644,
      "gån": 1645,
      "slä": 1646,
      "hör": 1647,
      "Mar": 1648,
      "ått": 1649,
      "hem": 1650,
      "ekt": 1651,
      "nas": 1652,
      "utom": 1653,
      "norrut": 1654,
      "Jo": 1655,
      "När": 1656,
      "fall": 1657,
      "by": 1658,
      "atur": 1659,
      "få": 1660,
      "gjorde": 1661,
      "tro": 1662,
      "öv": 1663,
      "söderut": 1664,
      "nar": 1665,
      "stora": 1666,
      "växtlighet": 1667,
      "fruktbar": 1668,
      "allt": 1669,
      "194": 1670,
      "ke": 1671,
      "spr": 1672,
      "ban": 1673,
      "Detta": 1674,
      "ofruktbar": 1675,
      "bara": 1676,
      "tra": 1677,
      "ingar": 1678,
      "dessa": 1679,
      "ju": 1680,
      "itet": 1681,
      "io": 1682,
      "uni": 1683,
      "gav": 1684,
      "ong": 1685,
      "tern": 1686,
      "ob": 1687,
      "ts": 1688,
      "Havet": 1689,
      "igen": 1690,
      "res": 1691,
      "kunde": 1692,
      "rad": 1693,
      "nya": 1694,
      "kra": 1695,
      "exem": 1696,
      "ack": 1697,
      "195": 1698,
      "skil": 1699,
      "ina": 1700,
      "hj": 1701,
      "ow": 1702,
      "gar": 1703,
      "död": 1704,
      "större": 1705,
      "själv": 1706,
      "mi": 1707,
      "plats": 1708,
      "innan": 1709,
      "ton": 1710,
      "bruk": 1711,
      "ater": 1712,
      "Br": 1713,
      "kring": 1714,
      "sh": 1715,
      "tidigare": 1716,
      "honom": 1717,
      "holm": 1718,
      "193": 1719,
      "mark": 1720,
      "ment": 1721,
      "fann": 1722,
      "blir": 1723,
      "ie": 1724,
      "här": 1725,
      "pri": 1726,
      "else": 1727,
      "Vid": 1728,
      "met": 1729,
      "band": 1730,
      "började": 1731,
      "utveck": 1732,
      "orna": 1733,
      "län": 1734,
      "Des": 1735,
      "derna": 1736,
      "lin": 1737,
      "skt": 1738,
      "lem": 1739,
      "öp": 1740,
      "först": 1741,
      "lä": 1742,
      "kvar": 1743,
      "12": 1744,
      "lu": 1745,
      "varier": 1746,
      "mär": 1747,
      "dj": 1748,
      "stri": 1749,
      "egen": 1750,
      "Nor": 1751,
      "histor": 1752,
      "svenska": 1753,
      "får": 1754,
      "eln": 1755,
      "poli": 1756,
      "liv": 1757,
      "red": 1758,
      "västerut": 1759,
      "konst": 1760,
      "klar": 1761,
      "her": 1762,
      "El": 1763,
      "ga": 1764,
      "österut": 1765,
      "hela": 1766,
      "ned": 1767,
      "ān": 1768,
      "Man": 1769,
      "net": 1770,
      "14": 1771,
      "tj": 1772,
      "gs": 1773,
      "musi": 1774,
      "ellt": 1775,
      "lar": 1776,
      "kte": 1777,
      "ssa": 1778,
      "vatten": 1779,
      "klu": 1780,
      "fyra": 1781,
      "grupp": 1782,
      "flyg": 1783,
      "nen": 1784,
      "tiden": 1785,
      "låt": 1786,
      "ember": 1787,
      "ds": 1788,
      "lik": 1789,
      "alen": 1790,
      "ationen": 1791,
      "tiv": 1792,
      "ske": 1793,
      "varit": 1794,
      "säson": 1795,
      "kommun": 1796,
      "Sk": 1797,
      "mor": 1798,
      "bok": 1799,
      "ali": 1800,
      "13": 1801,
      "sammans": 1802,
      "Ma": 1803,
      "Re": 1804,
      "La": 1805,
      "Där": 1806,
      "pu": 1807,
      "gre": 1808,
      "gam": 1809,
      "cir": 1810,
      "förb": 1811,
      "milj": 1812,
      "giv": 1813,
      "några": 1814,
      "est": 1815,
      "namnet": 1816,
      "gå": 1817,
      "fanns": 1818,
      "främ": 1819,
      "ök": 1820,
      "början": 1821,
      "stem": 1822,
      "medlem": 1823,
      "eh": 1824,
      "häll": 1825,
      "oner": 1826,
      "verksam": 1827,
      "lingen": 1828,
      "San": 1829,
      "största": 1830,
      "lev": 1831,
      "plat": 1832,
      "syn": 1833,
      "uari": 1834,
      "väl": 1835,
      "ef": 1836,
      "något": 1837,
      "både": 1838,
      "Gr": 1839,
      "någon": 1840,
      "oll": 1841,
      "föret": 1842,
      "ca": 1843,
      "fun": 1844,
      "tiska": 1845,
      "riktning": 1846,
      "exempel": 1847,
      "Stock": 1848,
      "alb": 1849,
      "fem": 1850,
      "hjäl": 1851,
      "bär": 1852,
      "full": 1853,
      "ick": 1854,
      "åren": 1855,
      "stån": 1856,
      "Ber": 1857,
      "föd": 1858,
      "hennes": 1859,
      "höj": 1860,
      "mest": 1861,
      "stat": 1862,
      "kul": 1863,
      "Stockholm": 1864,
      "ren": 1865,
      "ym": 1866,
      "arl": 1867,
      "endast": 1868,
      "deras": 1869,
      "sidan": 1870,
      "hal": 1871,
      "Sam": 1872,
      "hos": 1873,
      "ust": 1874,
      "ye": 1875,
      "skrev": 1876,
      "tem": 1877,
      "lan": 1878,
      "gul": 1879,
      "hur": 1880,
      "organ": 1881,
      "vikt": 1882,
      "rör": 1883,
      "ard": 1884,
      "ationer": 1885,
      "rel": 1886,
      "träd": 1887,
      "språ": 1888,
      "qu": 1889,
      "ader": 1890,
      "drag": 1891,
      "kri": 1892,
      "au": 1893,
      "olog": 1894,
      "ings": 1895,
      "pan": 1896,
      "dig": 1897,
      "Om": 1898,
      "ār": 1899,
      "kro": 1900,
      "gram": 1901,
      "nisk": 1902,
      "delar": 1903,
      "cirka": 1904,
      "samhäll": 1905,
      "50": 1906,
      "urop": 1907,
      "tillsammans": 1908,
      "kort": 1909,
      "san": 1910,
      "tit": 1911,
      "kter": 1912,
      "\",": 1913,
      "fam": 1914,
      "uktion": 1915,
      "gången": 1916,
      "Bar": 1917,
      "publi": 1918,
      "regi": 1919,
      "Le": 1920,
      "The": 1921,
      "försö": 1922,
      "bu": 1923,
      "192": 1924,
      "delen": 1925,
      "tidigt": 1926,
      "én": 1927,
      "orn": 1928,
      "pa": 1929,
      "port": 1930,
      "sex": 1931,
      "tik": 1932,
      "jan": 1933,
      "ben": 1934,
      "lade": 1935,
      "30": 1936,
      "Or": 1937,
      "stället": 1938,
      "medan": 1939,
      "iskt": 1940,
      "Tr": 1941,
      "fören": 1942,
      "ank": 1943,
      "lär": 1944,
      "ys": 1945,
      "match": 1946,
      "Ut": 1947,
      "varierad": 1948,
      "lö": 1949,
      "köp": 1950,
      "möj": 1951,
      "tu": 1952,
      "bol": 1953,
      "krig": 1954,
      "dri": 1955,
      "fe": 1956,
      "sprung": 1957,
      "täv": 1958,
      "centr": 1959,
      "Par": 1960,
      "aget": 1961,
      "parti": 1962,
      "dat": 1963,
      "gat": 1964,
      "Sh": 1965,
      "mö": 1966,
      "bas": 1967,
      "års": 1968,
      "Till": 1969,
      "int": 1970,
      "ba": 1971,
      "grän": 1972,
      "staden": 1973,
      "spe": 1974,
      "Ett": 1975,
      "Bo": 1976,
      "öpp": 1977,
      "slutet": 1978,
      "rum": 1979,
      "fördes": 1980,
      "num": 1981,
      "dens": 1982,
      "Ro": 1983,
      "co": 1984,
      "personer": 1985,
      "fler": 1986,
      "släpp": 1987,
      "album": 1988,
      "sol": 1989,
      "Fl": 1990,
      "vann": 1991,
      "ins": 1992,
      "borg": 1993,
      "nade": 1994,
      "hän": 1995,
      "må": 1996,
      "förs": 1997,
      "gu": 1998,
      "anska": 1999,
      "SA": 2000,
      "eftersom": 2001,
      "låg": 2002,
      "landet": 2003,
      "används": 2004,
      "terna": 2005,
      "familj": 2006,
      "ine": 2007,
      "190": 2008,
      "Sa": 2009,
      "indi": 2010,
      "flytt": 2011,
      "ningarna": 2012,
      "tjän": 2013,
      "fast": 2014,
      "iet": 2015,
      "skar": 2016,
      "Hans": 2017,
      "All": 2018,
      "göra": 2019,
      "kraft": 2020,
      "stra": 2021,
      "sträck": 2022,
      "Gu": 2023,
      "människ": 2024,
      "ots": 2025,
      "stånd": 2026,
      "ora": 2027,
      "rekt": 2028,
      "tes": 2029,
      "ursprung": 2030,
      "spelade": 2031,
      "lands": 2032,
      "ativ": 2033,
      "järn": 2034,
      "lok": 2035,
      "Med": 2036,
      "mör": 2037,
      "kel": 2038,
      "stort": 2039,
      "höll": 2040,
      "sluttar": 2041,
      "antal": 2042,
      "gift": 2043,
      "sista": 2044,
      "musik": 2045,
      "Gun": 2046,
      "Be": 2047,
      "mån": 2048,
      "rådet": 2049,
      "ckt": 2050,
      "erad": 2051,
      "Men": 2052,
      "skog": 2053,
      "lyck": 2054,
      "omfatt": 2055,
      "rist": 2056,
      "fot": 2057,
      "onen": 2058,
      "vs": 2059,
      "kropp": 2060,
      "värl": 2061,
      "håller": 2062,
      "natur": 2063,
      "lades": 2064,
      "dal": 2065,
      "består": 2066,
      "mon": 2067,
      "star": 2068,
      "sing": 2069,
      "varje": 2070,
      "11": 2071,
      "stu": 2072,
      "kvin": 2073,
      "helt": 2074,
      "Li": 2075,
      "alj": 2076,
      "bety": 2077,
      "vad": 2078,
      "Ne": 2079,
      "ligare": 2080,
      "mil": 2081,
      "dot": 2082,
      "ästa": 2083,
      "produ": 2084,
      "lämn": 2085,
      "språk": 2086,
      "Vi": 2087,
      "varande": 2088,
      "2010": 2089,
      "tot": 2090,
      "ult": 2091,
      "huset": 2092,
      "our": 2093,
      "höjd": 2094,
      "ian": 2095,
      "eras": 2096,
      "ström": 2097,
      "fte": 2098,
      "ition": 2099,
      "las": 2100,
      "roll": 2101,
      "tv": 2102,
      "Även": 2103,
      "åd": 2104,
      "upper": 2105,
      "su": 2106,
      "ovan": 2107,
      "kam": 2108,
      "satte": 2109,
      "ns": 2110,
      "samling": 2111,
      "presen": 2112,
      "Ta": 2113,
      "bred": 2114,
      "Som": 2115,
      "ey": 2116,
      "sna": 2117,
      "djur": 2118,
      "ften": 2119,
      "vers": 2120,
      "redan": 2121,
      "lat": 2122,
      "sär": 2123,
      "opul": 2124,
      "brun": 2125,
      "henne": 2126,
      "ister": 2127,
      "skr": 2128,
      "proc": 2129,
      "ameri": 2130,
      "skyd": 2131,
      "Lag": 2132,
      "äster": 2133,
      "ers": 2134,
      "området": 2135,
      "ående": 2136,
      "system": 2137,
      "styr": 2138,
      "elsen": 2139,
      "189": 2140,
      "gj": 2141,
      "räk": 2142,
      "reger": 2143,
      "ei": 2144,
      "utbild": 2145,
      "därför": 2146,
      "Ri": 2147,
      "gård": 2148,
      "USA": 2149,
      "grav": 2150,
      "mit": 2151,
      "orter": 2152,
      "Från": 2153,
      "ytter": 2154,
      "Mount": 2155,
      "Kō": 2156,
      "fart": 2157,
      "cker": 2158,
      "Denna": 2159,
      "rom": 2160,
      "omkring": 2161,
      "ons": 2162,
      "Per": 2163,
      "skad": 2164,
      "medel": 2165,
      "speci": 2166,
      "fäl": 2167,
      "tillbak": 2168,
      "arm": 2169,
      "25": 2170,
      "sch": 2171,
      "ly": 2172,
      "sjuk": 2173,
      "Kh": 2174,
      "off": 2175,
      "Mon": 2176,
      "ktion": 2177,
      "värld": 2178,
      "tryck": 2179,
      "gäll": 2180,
      "vat": 2181,
      "vissa": 2182,
      "Dessa": 2183,
      "hår": 2184,
      "dagen": 2185,
      "ätta": 2186,
      "kap": 2187,
      "arbete": 2188,
      "kallas": 2189,
      "oci": 2190,
      "teck": 2191,
      "nytt": 2192,
      "akti": 2193,
      "sommar": 2194,
      "ach": 2195,
      "stud": 2196,
      "ind": 2197,
      "tex": 2198,
      "gamla": 2199,
      "färg": 2200,
      "Po": 2201,
      "ele": 2202,
      "står": 2203,
      "ober": 2204,
      "aden": 2205,
      "mm": 2206,
      "ras": 2207,
      "ogra": 2208,
      "sty": 2209,
      "cm": 2210,
      "ändr": 2211,
      "start": 2212,
      "40": 2213,
      "båda": 2214,
      "sid": 2215,
      "säsongen": 2216,
      "Hen": 2217,
      "nämn": 2218,
      "fråg": 2219,
      "ighet": 2220,
      "maj": 2221,
      "sök": 2222,
      "Sch": 2223,
      "syd": 2224,
      "övr": 2225,
      "dotter": 2226,
      "äder": 2227,
      "ternation": 2228,
      "klubb": 2229,
      "II": 2230,
      "mal": 2231,
      "Mu": 2232,
      "idag": 2233,
      "stod": 2234,
      "god": 2235,
      "188": 2236,
      "konom": 2237,
      "Sven": 2238,
      "hjälp": 2239,
      "Mor": 2240,
      "slutade": 2241,
      "rid": 2242,
      "sep": 2243,
      "ljus": 2244,
      "blivit": 2245,
      "svensk": 2246,
      "tillverk": 2247,
      "program": 2248,
      "små": 2249,
      "bort": 2250,
      "annan": 2251,
      "såg": 2252,
      "jul": 2253,
      "cember": 2254,
      "känd": 2255,
      "nov": 2256,
      "iner": 2257,
      "forsk": 2258,
      "yl": 2259,
      "främst": 2260,
      "kni": 2261,
      "to": 2262,
      "eder": 2263,
      "Se": 2264,
      "arr": 2265,
      "Gunung": 2266,
      "stads": 2267,
      "tress": 2268,
      "kunna": 2269,
      "hamn": 2270,
      "pla": 2271,
      "duktion": 2272,
      "skatt": 2273,
      "elser": 2274,
      "2000": 2275,
      "Mal": 2276,
      "Pro": 2277,
      "assi": 2278,
      "fäll": 2279,
      "itu": 2280,
      "pol": 2281,
      "tred": 2282,
      "måste": 2283,
      "jord": 2284,
      "eck": 2285,
      "berätt": 2286,
      "hov": 2287,
      "eta": 2288,
      "ära": 2289,
      "dell": 2290,
      "snabb": 2291,
      "näst": 2292,
      "därefter": 2293,
      "ibland": 2294,
      "lo": 2295,
      "cerade": 2296,
      "märk": 2297,
      "juni": 2298,
      "popul": 2299,
      "författ": 2300,
      "tillbaka": 2301,
      "december": 2302,
      "nord": 2303,
      "nation": 2304,
      "framgång": 2305,
      "lägg": 2306,
      "sjö": 2307,
      "kyrkan": 2308,
      "januari": 2309,
      "allmän": 2310,
      "byggdes": 2311,
      "fått": 2312,
      "mars": 2313,
      "jekt": 2314,
      "lek": 2315,
      "drig": 2316,
      "nit": 2317,
      "ugu": 2318,
      "äs": 2319,
      "rak": 2320,
      "stru": 2321,
      "esta": 2322,
      "ena": 2323,
      "lever": 2324,
      "enligt": 2325,
      "ond": 2326,
      "amp": 2327,
      "särskil": 2328,
      "Air": 2329,
      "ara": 2330,
      "säg": 2331,
      "organis": 2332,
      "brit": 2333,
      "kat": 2334,
      "Europ": 2335,
      "dern": 2336,
      "farande": 2337,
      "gande": 2338,
      "hy": 2339,
      "rag": 2340,
      "60": 2341,
      "arten": 2342,
      "nande": 2343,
      "ledde": 2344,
      "svår": 2345,
      "beskri": 2346,
      "ekonom": 2347,
      "vägen": 2348,
      "gånger": 2349,
      "visar": 2350,
      "Tan": 2351,
      "dels": 2352,
      "Dan": 2353,
      "bur": 2354,
      "kör": 2355,
      "spelare": 2356,
      "delse": 2357,
      "Ko": 2358,
      "Ti": 2359,
      "bö": 2360,
      "hit": 2361,
      "ori": 2362,
      "aldrig": 2363,
      "sju": 2364,
      "intress": 2365,
      "ya": 2366,
      "ög": 2367,
      "äldre": 2368,
      "Hel": 2369,
      "film": 2370,
      "Mi": 2371,
      "vidare": 2372,
      "rar": 2373,
      "längre": 2374,
      "version": 2375,
      "okt": 2376,
      "länder": 2377,
      "erat": 2378,
      "ess": 2379,
      "fortfarande": 2380,
      "amerikan": 2381,
      "bra": 2382,
      "Johan": 2383,
      "världen": 2384,
      "pe": 2385,
      "agen": 2386,
      "året": 2387,
      "formen": 2388,
      "gh": 2389,
      "tredje": 2390,
      "187": 2391,
      "vilken": 2392,
      "jung": 2393,
      "sland": 2394,
      "omgiv": 2395,
      "sida": 2396,
      "riär": 2397,
      "Gö": 2398,
      "förekommer": 2399,
      "ständ": 2400,
      "flesta": 2401,
      "no": 2402,
      "dö": 2403,
      "anden": 2404,
      "kron": 2405,
      "lor": 2406,
      "inga": 2407,
      "direkt": 2408,
      "vision": 2409,
      "träff": 2410,
      "cy": 2411,
      "blem": 2412,
      "offi": 2413,
      "bro": 2414,
      "brott": 2415,
      "skolan": 2416,
      "tember": 2417,
      "Hu": 2418,
      "az": 2419,
      "tä": 2420,
      "Sedan": 2421,
      "fo": 2422,
      "vilka": 2423,
      "peri": 2424,
      "pass": 2425,
      "Kōh": 2426,
      "Ty": 2427,
      "go": 2428,
      "oper": 2429,
      "uppe": 2430,
      "snitt": 2431,
      "fik": 2432,
      "framför": 2433,
      "engel": 2434,
      "deb": 2435,
      "istället": 2436,
      "sål": 2437,
      "pril": 2438,
      "född": 2439,
      "handling": 2440,
      "emot": 2441,
      "drar": 2442,
      "ville": 2443,
      "verksamhet": 2444,
      "serien": 2445,
      "dagar": 2446,
      "september": 2447,
      "kultur": 2448,
      "Th": 2449,
      "ux": 2450,
      "unge": 2451,
      "kvinnor": 2452,
      "stan": 2453,
      "omm": 2454,
      "tan": 2455,
      "erar": 2456,
      "maste": 2457,
      "2011": 2458,
      "miljoner": 2459,
      "företag": 2460,
      "bebygg": 2461,
      "ängd": 2462,
      "hn": 2463,
      "poäng": 2464,
      "troll": 2465,
      "Kon": 2466,
      "människor": 2467,
      "april": 2468,
      "kur": 2469,
      "spå": 2470,
      "förande": 2471,
      "bestäm": 2472,
      "bid": 2473,
      "innebär": 2474,
      "stöd": 2475,
      "Bu": 2476,
      "una": 2477,
      "skall": 2478,
      "augu": 2479,
      "kär": 2480,
      "gener": 2481,
      "gruppen": 2482,
      "Tall": 2483,
      "skill": 2484,
      "jäm": 2485,
      "augusti": 2486,
      "eng": 2487,
      "naden": 2488,
      "tän": 2489,
      "bart": 2490,
      "bed": 2491,
      "fer": 2492,
      "ret": 2493,
      "aw": 2494,
      "Gen": 2495,
      "ini": 2496,
      "ytterligare": 2497,
      "kung": 2498,
      "komma": 2499,
      "aler": 2500,
      "boll": 2501,
      "100": 2502,
      "hot": 2503,
      "oktober": 2504,
      "Cre": 2505,
      "Kr": 2506,
      "sett": 2507,
      "Si": 2508,
      "terade": 2509,
      "veten": 2510,
      "räd": 2511,
      "gjort": 2512,
      "inför": 2513,
      "gren": 2514,
      "ställning": 2515,
      "Di": 2516,
      "november": 2517,
      "Fil": 2518,
      "hålla": 2519,
      "produktion": 2520,
      "2009": 2521,
      "gräns": 2522,
      "gär": 2523,
      "kol": 2524,
      "läm": 2525,
      "Har": 2526,
      "platser": 2527,
      "Cer": 2528,
      "totalt": 2529,
      "Airport": 2530,
      "get": 2531,
      "nom": 2532,
      "äd": 2533,
      "områden": 2534,
      "24": 2535,
      "Ph": 2536,
      "Ser": 2537,
      "vår": 2538,
      "arti": 2539,
      "posi": 2540,
      "igheter": 2541,
      "riks": 2542,
      "abal": 2543,
      "fly": 2544,
      "Fin": 2545,
      "gården": 2546,
      "erades": 2547,
      "Pe": 2548,
      "dam": 2549,
      "därmed": 2550,
      "Enligt": 2551,
      "iser": 2552,
      "grupper": 2553,
      "arnas": 2554,
      "22": 2555,
      "iv": 2556,
      "soci": 2557,
      "flyt": 2558,
      "ering": 2559,
      "ip": 2560,
      "länd": 2561,
      "långa": 2562,
      "internation": 2563,
      "platsen": 2564,
      "Tor": 2565,
      "tillhör": 2566,
      "miss": 2567,
      "Var": 2568,
      "set": 2569,
      "äkt": 2570,
      "TV": 2571,
      "Co": 2572,
      "lika": 2573,
      "ash": 2574,
      "juli": 2575,
      "bot": 2576,
      "rike": 2577,
      "eff": 2578,
      "ars": 2579,
      "innehåller": 2580,
      "Av": 2581,
      "Upp": 2582,
      "gemen": 2583,
      "togs": 2584,
      "Dess": 2585,
      "21": 2586,
      "indu": 2587,
      "sikt": 2588,
      "problem": 2589,
      "nere": 2590,
      "svart": 2591,
      "sked": 2592,
      "af": 2593,
      "rym": 2594,
      "sträcker": 2595,
      "anger": 2596,
      "lla": 2597,
      "sågs": 2598,
      "2013": 2599,
      "Då": 2600,
      "unta": 2601,
      "23": 2602,
      "tim": 2603,
      "bästa": 2604,
      "2008": 2605,
      "Karl": 2606,
      "jer": 2607,
      "skapet": 2608,
      "bin": 2609,
      "āh": 2610,
      "Stor": 2611,
      "sän": 2612,
      "Kar": 2613,
      "båt": 2614,
      "karriär": 2615,
      "spek": 2616,
      "kallade": 2617,
      "skick": 2618,
      "por": 2619,
      "trad": 2620,
      "2007": 2621,
      "milit": 2622,
      "ultat": 2623,
      "Jabal": 2624,
      "Pa": 2625,
      "ygg": 2626,
      "motor": 2627,
      "mis": 2628,
      "1800": 2629,
      "samband": 2630,
      "hav": 2631,
      "ru": 2632,
      "ada": 2633,
      "medlemmar": 2634,
      "byggnaden": 2635,
      "tio": 2636,
      "ålder": 2637,
      "2014": 2638,
      "dent": 2639,
      "sjön": 2640,
      "1900": 2641,
      "Te": 2642,
      "āl": 2643,
      "kn": 2644,
      "oende": 2645,
      "2012": 2646,
      "vik": 2647,
      "myn": 2648,
      "procent": 2649,
      "stil": 2650,
      "2006": 2651,
      "laget": 2652,
      "Qu": 2653,
      "vån": 2654,
      "erial": 2655,
      "Me": 2656,
      "rit": 2657,
      "represen": 2658,
      "1990": 2659,
      "eld": 2660,
      "sättning": 2661,
      "rakt": 2662,
      "ration": 2663,
      "ött": 2664,
      "Göte": 2665,
      "ungefär": 2666,
      "nästan": 2667,
      "historia": 2668,
      "Punta": 2669,
      "gifte": 2670,
      "2015": 2671,
      "återvän": 2672,
      "varandra": 2673,
      "ote": 2674,
      "gavs": 2675,
      "lätt": 2676,
      "tekni": 2677,
      "samhället": 2678,
      "stam": 2679,
      "matcher": 2680,
      "Utöver": 2681,
      "samtidigt": 2682,
      "kända": 2683,
      "dar": 2684,
      "häl": 2685,
      "trän": 2686,
      "bruari": 2687,
      "fartyg": 2688,
      "vetenskap": 2689,
      "bandet": 2690,
      "ham": 2691,
      "univers": 2692,
      "Creek": 2693,
      "tyska": 2694,
      "ses": 2695,
      "februari": 2696,
      "lämnade": 2697,
      "So": 2698,
      "kallad": 2699,
      "skola": 2700,
      "förhåll": 2701,
      "placer": 2702,
      "jag": 2703,
      "Sveriges": 2704,
      "slaget": 2705,
      "ai": 2706,
      "the": 2707,
      "Gar": 2708,
      "Her": 2709,
      "ho": 2710,
      "vist": 2711,
      "1970": 2712,
      "fält": 2713,
      "mande": 2714,
      "tisk": 2715,
      "säll": 2716,
      "vapen": 2717,
      "egna": 2718,
      "AB": 2719,
      "öl": 2720,
      "trakten": 2721,
      "Cerro": 2722,
      "Su": 2723,
      "utför": 2724,
      "jör": 2725,
      "västlig": 2726,
      "råd": 2727,
      "spelar": 2728,
      "sattes": 2729,
      "jut": 2730,
      "användes": 2731,
      "Dar": 2732,
      "minst": 2733,
      "försvar": 2734,
      "disk": 2735,
      "lad": 2736,
      "spelet": 2737,
      "hund": 2738,
      "grå": 2739,
      "186": 2740,
      "arbetade": 2741,
      "äss": 2742,
      "tradition": 2743,
      "Europa": 2744,
      "Am": 2745,
      "Frank": 2746,
      "skilj": 2747,
      "mask": 2748,
      "liten": 2749,
      "tillfäll": 2750,
      "hop": 2751,
      "He": 2752,
      "mitten": 2753,
      "hitt": 2754,
      "åde": 2755,
      "Ge": 2756,
      "blad": 2757,
      "öts": 2758,
      "guld": 2759,
      "oftast": 2760,
      "ås": 2761,
      "tida": 2762,
      "inat": 2763,
      "fred": 2764,
      "tionen": 2765,
      "typ": 2766,
      "särskilt": 2767,
      "haft": 2768,
      "bildades": 2769,
      "26": 2770,
      "Ver": 2771,
      "dy": 2772,
      "2005": 2773,
      "Sj": 2774,
      "Con": 2775,
      "sång": 2776,
      "For": 2777,
      "rö": 2778,
      "kli": 2779,
      "själva": 2780,
      "filmen": 2781,
      "Res": 2782,
      "uss": 2783,
      "inter": 2784,
      "ād": 2785,
      "täckt": 2786,
      "ps": 2787,
      "komp": 2788,
      "fortsatte": 2789,
      ".\"": 2790,
      "släkt": 2791,
      "Bro": 2792,
      "roman": 2793,
      "skär": 2794,
      "Sp": 2795,
      "varav": 2796,
      "via": 2797,
      "sydlig": 2798,
      "häst": 2799,
      "ernas": 2800,
      "beslut": 2801,
      "karakt": 2802,
      "släpptes": 2803,
      "Tysk": 2804,
      "visade": 2805,
      "28": 2806,
      "Car": 2807,
      "förklar": 2808,
      "sym": 2809,
      "1980": 2810,
      "kh": 2811,
      "ägg": 2812,
      "djup": 2813,
      "lopp": 2814,
      "orsak": 2815,
      "käll": 2816,
      "27": 2817,
      "illa": 2818,
      "vanligt": 2819,
      "böcker": 2820,
      "2016": 2821,
      "inner": 2822,
      "Kam": 2823,
      "pas": 2824,
      "serna": 2825,
      "2018": 2826,
      "ordförande": 2827,
      "tills": 2828,
      "användas": 2829,
      "chef": 2830,
      "modell": 2831,
      "utanför": 2832,
      "New": 2833,
      "mäst": 2834,
      "ram": 2835,
      "2017": 2836,
      "Tanjung": 2837,
      "gatan": 2838,
      "ron": 2839,
      "bit": 2840,
      "ana": 2841,
      "sport": 2842,
      "1960": 2843,
      "jud": 2844,
      "vare": 2845,
      "nuvarande": 2846,
      "Hill": 2847,
      "gifter": 2848,
      "spela": 2849,
      "Sar": 2850,
      "rog": 2851,
      "kontroll": 2852,
      "John": 2853,
      "Lu": 2854,
      "ng": 2855,
      "förlor": 2856,
      "Carl": 2857,
      "unga": 2858,
      "fisk": 2859,
      "verket": 2860,
      "hopp": 2861,
      "Tid": 2862,
      "sil": 2863,
      "trol": 2864,
      "halv": 2865,
      "Namn": 2866,
      "ej": 2867,
      "ital": 2868,
      "mera": 2869,
      "resultat": 2870,
      "fta": 2871,
      "mag": 2872,
      "we": 2873,
      "takt": 2874,
      "älj": 2875,
      "börjar": 2876,
      "utveckling": 2877,
      "ges": 2878,
      "skon": 2879,
      "vanliga": 2880,
      "tävling": 2881,
      "bal": 2882,
      "ris": 2883,
      "övriga": 2884,
      "Här": 2885,
      "Sc": 2886,
      "stjär": 2887,
      "risk": 2888,
      "Kal": 2889,
      "ätter": 2890,
      "Mag": 2891,
      "sområdet": 2892,
      "anses": 2893,
      "nat": 2894,
      "stol": 2895,
      "offici": 2896,
      "spår": 2897,
      "ide": 2898,
      "gjordes": 2899,
      "aff": 2900,
      "hin": 2901,
      "förm": 2902,
      "ativt": 2903,
      "ännu": 2904,
      "cher": 2905,
      "80": 2906,
      "medalj": 2907,
      "sådan": 2908,
      "Col": 2909,
      "arter": 2910,
      "Ben": 2911,
      "antalet": 2912,
      "sområ": 2913,
      "material": 2914,
      "funktion": 2915,
      "Aï": 2916,
      "ata": 2917,
      "ordning": 2918,
      "säker": 2919,
      "Ste": 2920,
      "stående": 2921,
      "betyd": 2922,
      "Je": 2923,
      "ring": 2924,
      "undet": 2925,
      "tagit": 2926,
      "Ol": 2927,
      "södra": 2928,
      "politiska": 2929,
      "viss": 2930,
      "lyckades": 2931,
      "lös": 2932,
      "aste": 2933,
      "igh": 2934,
      "tjänst": 2935,
      "Park": 2936,
      "za": 2937,
      "konstnär": 2938,
      "fen": 2939,
      "lam": 2940,
      "Dje": 2941,
      "Sen": 2942,
      "fjär": 2943,
      "tive": 2944,
      "föräl": 2945,
      "kommit": 2946,
      "fj": 2947,
      "muse": 2948,
      "Ham": 2949,
      "delade": 2950,
      "Ra": 2951,
      "ford": 2952,
      "använda": 2953,
      "fel": 2954,
      "tak": 2955,
      "högre": 2956,
      "utbildning": 2957,
      "zi": 2958,
      "unda": 2959,
      "tyd": 2960,
      "bolag": 2961,
      "fas": 2962,
      "vand": 2963,
      "trots": 2964,
      "engelska": 2965,
      "städer": 2966,
      "visa": 2967,
      "Bland": 2968,
      "Nu": 2969,
      "ansvar": 2970,
      "vor": 2971,
      "vattnet": 2972,
      "funger": 2973,
      "blå": 2974,
      "alltid": 2975,
      "litter": 2976,
      "skydd": 2977,
      "bod": 2978,
      "kopp": 2979,
      "one": 2980,
      "age": 2981,
      "2004": 2982,
      "stift": 2983,
      "lät": 2984,
      "ón": 2985,
      "cep": 2986,
      "styrel": 2987,
      "skillnad": 2988,
      "ckte": 2989,
      "dog": 2990,
      "sko": 2991,
      "Djebel": 2992,
      "röd": 2993,
      "scen": 2994,
      "185": 2995,
      "tran": 2996,
      "29": 2997,
      "back": 2998,
      "ations": 2999
    },
    "merges": [
      [
        "e",
        "r"
      ],
      [
        "e",
        "n"
      ],
      [
        "e",
        "t"
      ],
      [
        "a",
        "r"
      ],
      [
        "a",
        "n"
      ],
      [
        "i",
        "n"
      ],
      [
        "s",
        "t"
      ],
      [
        "ä",
        "r"
      ],
      [
        "a",
        "t"
      ],
      [
        "o",
        "m"
      ],
      [
        "d",
        "e"
      ],
      [
        "l",
        "l"
      ],
      [
        "u",
        "n"
      ],
      [
        "o",
        "c"
      ],
      [
        "o",
        "r"
      ],
      [
        "ö",
        "r"
      ],
      [
        "s",
        "k"
      ],
      [
        "e",
        "d"
      ],
      [
        "a",
        "v"
      ],
      [
        "i",
        "g"
      ],
      [
        "oc",
        "h"
      ],
      [
        "o",
        "n"
      ],
      [
        "t",
        "i"
      ],
      [
        "a",
        "d"
      ],
      [
        "f",
        "ör"
      ],
      [
        "ä",
        "n"
      ],
      [
        "in",
        "g"
      ],
      [
        "m",
        "ed"
      ],
      [
        "at",
        "t"
      ],
      [
        "å",
        "n"
      ],
      [
        "a",
        "l"
      ],
      [
        "i",
        "l"
      ],
      [
        "et",
        "er"
      ],
      [
        "o",
        "l"
      ],
      [
        "a",
        "m"
      ],
      [
        "a",
        "de"
      ],
      [
        "k",
        "t"
      ],
      [
        "v",
        "er"
      ],
      [
        "d",
        "en"
      ],
      [
        "ar",
        "e"
      ],
      [
        "un",
        "t"
      ],
      [
        "d",
        "et"
      ],
      [
        "r",
        "e"
      ],
      [
        "p",
        "er"
      ],
      [
        "u",
        "t"
      ],
      [
        "s",
        "om"
      ],
      [
        "b",
        "e"
      ],
      [
        "r",
        "a"
      ],
      [
        "n",
        "a"
      ],
      [
        "ti",
        "ll"
      ],
      [
        "e",
        "l"
      ],
      [
        "p",
        "å"
      ],
      [
        "v",
        "ar"
      ],
      [
        "l",
        "ig"
      ],
      [
        "sk",
        "a"
      ],
      [
        "g",
        "en"
      ],
      [
        "i",
        "t"
      ],
      [
        "p",
        "p"
      ],
      [
        "d",
        "er"
      ],
      [
        "t",
        "er"
      ],
      [
        "c",
        "k"
      ],
      [
        "ö",
        "ver"
      ],
      [
        "e",
        "s"
      ],
      [
        "n",
        "ing"
      ],
      [
        "r",
        "i"
      ],
      [
        "a",
        "s"
      ],
      [
        "an",
        "d"
      ],
      [
        "in",
        "v"
      ],
      [
        "k",
        "v"
      ],
      [
        "st",
        "a"
      ],
      [
        "r",
        "at"
      ],
      [
        "ol",
        "k"
      ],
      [
        "inv",
        "ån"
      ],
      [
        "k",
        "il"
      ],
      [
        "invån",
        "are"
      ],
      [
        "om",
        "eter"
      ],
      [
        "kil",
        "ometer"
      ],
      [
        "v",
        "i"
      ],
      [
        "f",
        "r"
      ],
      [
        "f",
        "olk"
      ],
      [
        "a",
        "g"
      ],
      [
        "m",
        "en"
      ],
      [
        "av",
        "et"
      ],
      [
        "r",
        "unt"
      ],
      [
        "o",
        "t"
      ],
      [
        "m",
        "eter"
      ],
      [
        "v",
        "ä"
      ],
      [
        "be",
        "folk"
      ],
      [
        "n",
        "är"
      ],
      [
        "kv",
        "ad"
      ],
      [
        "kvad",
        "rat"
      ],
      [
        "kvadrat",
        "kilometer"
      ],
      [
        "a",
        "k"
      ],
      [
        "å",
        "r"
      ],
      [
        "h",
        "avet"
      ],
      [
        "ä",
        "t"
      ],
      [
        "h",
        "et"
      ],
      [
        "t",
        "e"
      ],
      [
        "kt",
        "en"
      ],
      [
        "1",
        "9"
      ],
      [
        "r",
        "än"
      ],
      [
        "e",
        "ll"
      ],
      [
        "b",
        "l"
      ],
      [
        "D",
        "en"
      ],
      [
        "et",
        "t"
      ],
      [
        "u",
        "r"
      ],
      [
        "h",
        "ö"
      ],
      [
        "s",
        "l"
      ],
      [
        "s",
        "p"
      ],
      [
        "R",
        "unt"
      ],
      [
        "å",
        "t"
      ],
      [
        "befolk",
        "at"
      ],
      [
        "h",
        "an"
      ],
      [
        "r",
        "o"
      ],
      [
        "p",
        "l"
      ],
      [
        "h",
        "ar"
      ],
      [
        "T",
        "er"
      ],
      [
        "s",
        "am"
      ],
      [
        "rän",
        "gen"
      ],
      [
        "Ter",
        "rängen"
      ],
      [
        "k",
        "a"
      ],
      [
        "s",
        "s"
      ],
      [
        "e",
        "m"
      ],
      [
        "u",
        "pp"
      ],
      [
        "0",
        "0"
      ],
      [
        "n",
        "or"
      ],
      [
        "s",
        "i"
      ],
      [
        "d",
        "a"
      ],
      [
        "hö",
        "g"
      ],
      [
        "k",
        "u"
      ],
      [
        "t",
        "a"
      ],
      [
        "g",
        "er"
      ],
      [
        "b",
        "er"
      ],
      [
        "o",
        "g"
      ],
      [
        "st",
        "er"
      ],
      [
        "g",
        "an"
      ],
      [
        "de",
        "l"
      ],
      [
        "s",
        "y"
      ],
      [
        "het",
        "en"
      ],
      [
        "m",
        "an"
      ],
      [
        "h",
        "u"
      ],
      [
        "g",
        "l"
      ],
      [
        "a",
        "ll"
      ],
      [
        "v",
        "en"
      ],
      [
        "g",
        "r"
      ],
      [
        "u",
        "d"
      ],
      [
        "p",
        "un"
      ],
      [
        "s",
        "å"
      ],
      [
        "f",
        "l"
      ],
      [
        "an",
        "de"
      ],
      [
        "t",
        "r"
      ],
      [
        "oc",
        "k"
      ],
      [
        "hög",
        "sta"
      ],
      [
        "in",
        "n"
      ],
      [
        "pun",
        "kten"
      ],
      [
        "f",
        "ter"
      ],
      [
        "k",
        "om"
      ],
      [
        "när",
        "heten"
      ],
      [
        "k",
        "m"
      ],
      [
        "at",
        "i"
      ],
      [
        "ade",
        "s"
      ],
      [
        "fr",
        "ån"
      ],
      [
        "s",
        "en"
      ],
      [
        "ku",
        "per"
      ],
      [
        "kuper",
        "ad"
      ],
      [
        "k",
        "an"
      ],
      [
        "s",
        "e"
      ],
      [
        "s",
        "er"
      ],
      [
        "d",
        "o"
      ],
      [
        "c",
        "h"
      ],
      [
        "gan",
        "ska"
      ],
      [
        "y",
        "g"
      ],
      [
        "y",
        "ck"
      ],
      [
        "b",
        "r"
      ],
      [
        "v",
        "å"
      ],
      [
        "t",
        "al"
      ],
      [
        "ån",
        "g"
      ],
      [
        "s",
        "ig"
      ],
      [
        "s",
        "in"
      ],
      [
        "un",
        "der"
      ],
      [
        "ä",
        "ll"
      ],
      [
        "m",
        "a"
      ],
      [
        "ä",
        "l"
      ],
      [
        "u",
        "l"
      ],
      [
        "gl",
        "es"
      ],
      [
        "or",
        "t"
      ],
      [
        "gles",
        "befolkat"
      ],
      [
        "g",
        "i"
      ],
      [
        "f",
        "i"
      ],
      [
        "t",
        "ät"
      ],
      [
        "u",
        "m"
      ],
      [
        "vä",
        "st"
      ],
      [
        "m",
        "in"
      ],
      [
        "ä",
        "m"
      ],
      [
        "k",
        "l"
      ],
      [
        "e",
        "v"
      ],
      [
        "m",
        "er"
      ],
      [
        "ell",
        "er"
      ],
      [
        "pl",
        "att"
      ],
      [
        "in",
        "te"
      ],
      [
        "t",
        "vå"
      ],
      [
        "tät",
        "befolkat"
      ],
      [
        "2",
        "0"
      ],
      [
        "b",
        "et"
      ],
      [
        "ar",
        "na"
      ],
      [
        "s",
        "ö"
      ],
      [
        "ati",
        "on"
      ],
      [
        "i",
        "s"
      ],
      [
        "an",
        "n"
      ],
      [
        "b",
        "ar"
      ],
      [
        "e",
        "fter"
      ],
      [
        "h",
        "ade"
      ],
      [
        "i",
        "d"
      ],
      [
        "å",
        "g"
      ],
      [
        "vi",
        "d"
      ],
      [
        "d",
        "väst"
      ],
      [
        "ät",
        "t"
      ],
      [
        "k",
        "on"
      ],
      [
        "s",
        "ak"
      ],
      [
        "lig",
        "en"
      ],
      [
        "hu",
        "v"
      ],
      [
        "do",
        "st"
      ],
      [
        "o",
        "pp"
      ],
      [
        "ti",
        "d"
      ],
      [
        "d",
        "är"
      ],
      [
        "H",
        "an"
      ],
      [
        "d",
        "i"
      ],
      [
        "huv",
        "ud"
      ],
      [
        "1",
        "8"
      ],
      [
        "de",
        "s"
      ],
      [
        "t",
        "en"
      ],
      [
        "l",
        "i"
      ],
      [
        "än",
        "d"
      ],
      [
        "i",
        "r"
      ],
      [
        "ber",
        "g"
      ],
      [
        "m",
        "ar"
      ],
      [
        "un",
        "d"
      ],
      [
        "ing",
        "en"
      ],
      [
        "s",
        "on"
      ],
      [
        "st",
        "r"
      ],
      [
        "un",
        "g"
      ],
      [
        "yck",
        "et"
      ],
      [
        "lig",
        "ger"
      ],
      [
        "k",
        "r"
      ],
      [
        "ra",
        "kten"
      ],
      [
        "ning",
        "en"
      ],
      [
        "d",
        "re"
      ],
      [
        "st",
        "or"
      ],
      [
        "sp",
        "el"
      ],
      [
        "f",
        "or"
      ],
      [
        "m",
        "ycket"
      ],
      [
        "när",
        "a"
      ],
      [
        "o",
        "s"
      ],
      [
        "h",
        "on"
      ],
      [
        "ä",
        "ven"
      ],
      [
        "s",
        "j"
      ],
      [
        "o",
        "d"
      ],
      [
        "ver",
        "k"
      ],
      [
        "T",
        "rakten"
      ],
      [
        "f",
        "t"
      ],
      [
        "it",
        "t"
      ],
      [
        "en",
        "s"
      ],
      [
        "er",
        "na"
      ],
      [
        "än",
        "g"
      ],
      [
        "h",
        "a"
      ],
      [
        "r",
        "å"
      ],
      [
        "b",
        "yg"
      ],
      [
        "huvud",
        "sak"
      ],
      [
        "y",
        "t"
      ],
      [
        "sl",
        "ut"
      ],
      [
        "u",
        "s"
      ],
      [
        "ä",
        "g"
      ],
      [
        "ti",
        "on"
      ],
      [
        "ol",
        "i"
      ],
      [
        "m",
        "ot"
      ],
      [
        "o",
        "k"
      ],
      [
        "o",
        "f"
      ],
      [
        "2",
        "00"
      ],
      [
        "u",
        "k"
      ],
      [
        "ö",
        "d"
      ],
      [
        "u",
        "ll"
      ],
      [
        "i",
        "ll"
      ],
      [
        "D",
        "et"
      ],
      [
        "v",
        "a"
      ],
      [
        "er",
        "a"
      ],
      [
        "bl",
        "ev"
      ],
      [
        "at",
        "s"
      ],
      [
        "o",
        "p"
      ],
      [
        "n",
        "i"
      ],
      [
        "lig",
        "a"
      ],
      [
        "huvudsak",
        "ligen"
      ],
      [
        "l",
        "e"
      ],
      [
        "ed",
        "an"
      ],
      [
        "S",
        "t"
      ],
      [
        "l",
        "a"
      ],
      [
        "min",
        "dre"
      ],
      [
        "f",
        "inn"
      ],
      [
        "am",
        "n"
      ],
      [
        "y",
        "r"
      ],
      [
        "and",
        "ra"
      ],
      [
        "vi",
        "s"
      ],
      [
        "l",
        "it"
      ],
      [
        "byg",
        "g"
      ],
      [
        "b",
        "il"
      ],
      [
        "tal",
        "et"
      ],
      [
        "opp",
        "en"
      ],
      [
        "e",
        "x"
      ],
      [
        "p",
        "ro"
      ],
      [
        "v",
        "il"
      ],
      [
        "fr",
        "am"
      ],
      [
        "finn",
        "s"
      ],
      [
        "st",
        "e"
      ],
      [
        "o",
        "v"
      ],
      [
        "or",
        "d"
      ],
      [
        "st",
        "äll"
      ],
      [
        "lig",
        "t"
      ],
      [
        "j",
        "e"
      ],
      [
        "T",
        "oppen"
      ],
      [
        "å",
        "l"
      ],
      [
        "20",
        "1"
      ],
      [
        "d",
        "å"
      ],
      [
        "l",
        "and"
      ],
      [
        "E",
        "n"
      ],
      [
        "p",
        "ar"
      ],
      [
        "i",
        "ska"
      ],
      [
        "K",
        "ū"
      ],
      [
        "D",
        "e"
      ],
      [
        "s",
        "m"
      ],
      [
        "k",
        "en"
      ],
      [
        "b",
        "ör"
      ],
      [
        "ock",
        "så"
      ],
      [
        "n",
        "ad"
      ],
      [
        "Kū",
        "h"
      ],
      [
        "v",
        "e"
      ],
      [
        "l",
        "ed"
      ],
      [
        "gen",
        "om"
      ],
      [
        "v",
        "är"
      ],
      [
        "ska",
        "p"
      ],
      [
        "ar",
        "t"
      ],
      [
        "n",
        "y"
      ],
      [
        "berg",
        "ig"
      ],
      [
        "an",
        "s"
      ],
      [
        "l",
        "j"
      ],
      [
        "n",
        "og"
      ],
      [
        "för",
        "sta"
      ],
      [
        "an",
        "g"
      ],
      [
        "i",
        "er"
      ],
      [
        "ar",
        "bet"
      ],
      [
        "ö",
        "n"
      ],
      [
        "v",
        "än"
      ],
      [
        "st",
        "ad"
      ],
      [
        "ig",
        "a"
      ],
      [
        "befolk",
        "ad"
      ],
      [
        "n",
        "åg"
      ],
      [
        "ig",
        "t"
      ],
      [
        "sy",
        "dväst"
      ],
      [
        "k",
        "er"
      ],
      [
        "sö",
        "der"
      ],
      [
        "d",
        "r"
      ],
      [
        "h",
        "å"
      ],
      [
        "n",
        "e"
      ],
      [
        "bl",
        "i"
      ],
      [
        "nor",
        "r"
      ],
      [
        "bör",
        "j"
      ],
      [
        "o",
        "befolkad"
      ],
      [
        "nor",
        "dost"
      ],
      [
        "t",
        "re"
      ],
      [
        "ning",
        "ar"
      ],
      [
        "hå",
        "ll"
      ],
      [
        ")",
        "."
      ],
      [
        "l",
        "ag"
      ],
      [
        "ell",
        "an"
      ],
      [
        "p",
        "r"
      ],
      [
        "nor",
        "dväst"
      ],
      [
        "ö",
        "ster"
      ],
      [
        "fi",
        "ck"
      ],
      [
        "i",
        "sk"
      ],
      [
        "s",
        "a"
      ],
      [
        "sy",
        "dost"
      ],
      [
        "k",
        "et"
      ],
      [
        "bl",
        "and"
      ],
      [
        "ak",
        "e"
      ],
      [
        "de",
        "ss"
      ],
      [
        "h",
        "el"
      ],
      [
        "n",
        "amn"
      ],
      [
        "i",
        "a"
      ],
      [
        "m",
        "e"
      ],
      [
        "st",
        "ör"
      ],
      [
        "i",
        "en"
      ],
      [
        "n",
        "er"
      ],
      [
        "vä",
        "x"
      ],
      [
        "Å",
        "r"
      ],
      [
        "g",
        "e"
      ],
      [
        "an",
        "t"
      ],
      [
        "l",
        "ing"
      ],
      [
        "st",
        "en"
      ],
      [
        "a",
        "b"
      ],
      [
        "A",
        "n"
      ],
      [
        "k",
        "un"
      ],
      [
        "et",
        "s"
      ],
      [
        "f",
        "f"
      ],
      [
        "h",
        "e"
      ],
      [
        "lit",
        "e"
      ],
      [
        "L",
        "ake"
      ],
      [
        "vä",
        "ster"
      ],
      [
        "e",
        "k"
      ],
      [
        "m",
        "ellan"
      ],
      [
        "ar",
        "en"
      ],
      [
        "il",
        "j"
      ],
      [
        "j",
        "or"
      ],
      [
        "sk",
        "ri"
      ],
      [
        "o",
        "u"
      ],
      [
        "c",
        "er"
      ],
      [
        "i",
        "k"
      ],
      [
        "ä",
        "st"
      ],
      [
        "b",
        "b"
      ],
      [
        "g",
        "år"
      ],
      [
        "ot",
        "t"
      ],
      [
        "ång",
        "a"
      ],
      [
        "ä",
        "ck"
      ],
      [
        "en",
        "t"
      ],
      [
        "d",
        "u"
      ],
      [
        "å",
        "ter"
      ],
      [
        "sk",
        "ull"
      ],
      [
        "U",
        "n"
      ],
      [
        "h",
        "i"
      ],
      [
        "b",
        "o"
      ],
      [
        "al",
        "a"
      ],
      [
        "ri",
        "k"
      ],
      [
        "y",
        "n"
      ],
      [
        "c",
        "i"
      ],
      [
        "han",
        "s"
      ],
      [
        "v",
        "an"
      ],
      [
        "I",
        "n"
      ],
      [
        "skull",
        "e"
      ],
      [
        "d",
        "ra"
      ],
      [
        "v",
        "al"
      ],
      [
        "1",
        "7"
      ],
      [
        "d",
        "ock"
      ],
      [
        "s",
        "edan"
      ],
      [
        "F",
        "ör"
      ],
      [
        "f",
        "ö"
      ],
      [
        "var",
        "a"
      ],
      [
        "ka",
        "ll"
      ],
      [
        "d",
        "an"
      ],
      [
        "er",
        "i"
      ],
      [
        "g",
        "ör"
      ],
      [
        "f",
        "är"
      ],
      [
        "sam",
        "t"
      ],
      [
        "e",
        "g"
      ],
      [
        "oli",
        "ka"
      ],
      [
        "F",
        "r"
      ],
      [
        "h",
        "and"
      ],
      [
        "tr",
        "ä"
      ],
      [
        "m",
        "at"
      ],
      [
        "19",
        "9"
      ],
      [
        "a",
        "p"
      ],
      [
        "bil",
        "d"
      ],
      [
        "hu",
        "s"
      ],
      [
        "v",
        "it"
      ],
      [
        "t",
        "y"
      ],
      [
        "s",
        "itt"
      ],
      [
        "inn",
        "e"
      ],
      [
        "sam",
        "man"
      ],
      [
        "u",
        "kt"
      ],
      [
        "a",
        "h"
      ],
      [
        "st",
        "i"
      ],
      [
        "gr",
        "und"
      ],
      [
        "H",
        "on"
      ],
      [
        "u",
        "p"
      ],
      [
        "ö",
        "t"
      ],
      [
        "f",
        "att"
      ],
      [
        "d",
        "ag"
      ],
      [
        "m",
        "än"
      ],
      [
        "ar",
        "i"
      ],
      [
        "m",
        "o"
      ],
      [
        "a",
        "kt"
      ],
      [
        "p",
        "o"
      ],
      [
        "sin",
        "a"
      ],
      [
        "j",
        "är"
      ],
      [
        "an",
        "det"
      ],
      [
        "u",
        "g"
      ],
      [
        "s",
        "ä"
      ],
      [
        "t",
        "og"
      ],
      [
        "p",
        "re"
      ],
      [
        "s",
        "ätt"
      ],
      [
        "b",
        "or"
      ],
      [
        "a",
        "st"
      ],
      [
        "k",
        "ar"
      ],
      [
        "sam",
        "ma"
      ],
      [
        "en",
        "de"
      ],
      [
        "h",
        "en"
      ],
      [
        "ver",
        "ig"
      ],
      [
        "Un",
        "der"
      ],
      [
        "f",
        "in"
      ],
      [
        "vil",
        "ket"
      ],
      [
        "S",
        "verig"
      ],
      [
        "lig",
        "het"
      ],
      [
        "al",
        "t"
      ],
      [
        "ä",
        "v"
      ],
      [
        "c",
        "en"
      ],
      [
        "s",
        "att"
      ],
      [
        "äm",
        "n"
      ],
      [
        "g",
        "ång"
      ],
      [
        "be",
        "l"
      ],
      [
        "ri",
        "kt"
      ],
      [
        "kom",
        "mer"
      ],
      [
        "fl",
        "era"
      ],
      [
        "ut",
        "an"
      ],
      [
        "A",
        "r"
      ],
      [
        "E",
        "fter"
      ],
      [
        "s",
        "ven"
      ],
      [
        "v",
        "et"
      ],
      [
        "si",
        "on"
      ],
      [
        "be",
        "st"
      ],
      [
        "v",
        "änd"
      ],
      [
        "i",
        "m"
      ],
      [
        "1",
        "6"
      ],
      [
        "t",
        "ar"
      ],
      [
        "per",
        "son"
      ],
      [
        "ve",
        "ck"
      ],
      [
        "i",
        "c"
      ],
      [
        "det",
        "ta"
      ],
      [
        "g",
        "jor"
      ],
      [
        "k",
        "än"
      ],
      [
        "ö",
        "j"
      ],
      [
        "n",
        "u"
      ],
      [
        "s",
        "var"
      ],
      [
        "a",
        "c"
      ],
      [
        "sl",
        "ag"
      ],
      [
        "d",
        "om"
      ],
      [
        "for",
        "m"
      ],
      [
        "all",
        "a"
      ],
      [
        "l",
        "äng"
      ],
      [
        "n",
        "es"
      ],
      [
        "ö",
        "m"
      ],
      [
        "för",
        "e"
      ],
      [
        "m",
        "u"
      ],
      [
        "f",
        "y"
      ],
      [
        "y",
        "d"
      ],
      [
        "p",
        "en"
      ],
      [
        "kom",
        "m"
      ],
      [
        "f",
        "il"
      ],
      [
        "v",
        "in"
      ],
      [
        "ar",
        "k"
      ],
      [
        "C",
        "h"
      ],
      [
        "k",
        "or"
      ],
      [
        "sj",
        "äl"
      ],
      [
        "v",
        "att"
      ],
      [
        "sen",
        "are"
      ],
      [
        "yt",
        "t"
      ],
      [
        "i",
        "on"
      ],
      [
        "1",
        "5"
      ],
      [
        "väx",
        "t"
      ],
      [
        "ö",
        "st"
      ],
      [
        "of",
        "ta"
      ],
      [
        "b",
        "å"
      ],
      [
        "l",
        "d"
      ],
      [
        "er",
        "ade"
      ],
      [
        "ann",
        "at"
      ],
      [
        "ell",
        "a"
      ],
      [
        "l",
        "äg"
      ],
      [
        "re",
        "v"
      ],
      [
        "19",
        "7"
      ],
      [
        "a",
        "y"
      ],
      [
        "19",
        "8"
      ],
      [
        "p",
        "el"
      ],
      [
        "s",
        "n"
      ],
      [
        "i",
        "st"
      ],
      [
        "h",
        "eter"
      ],
      [
        "sk",
        "i"
      ],
      [
        "h",
        "ol"
      ],
      [
        "s",
        "v"
      ],
      [
        "b",
        "ak"
      ],
      [
        "sk",
        "ol"
      ],
      [
        "m",
        "ål"
      ],
      [
        "m",
        "ånga"
      ],
      [
        "as",
        "s"
      ],
      [
        "t",
        "ur"
      ],
      [
        "P",
        "å"
      ],
      [
        "r",
        "y"
      ],
      [
        "an",
        "vänd"
      ],
      [
        "fr",
        "ukt"
      ],
      [
        "vi",
        "ll"
      ],
      [
        "fö",
        "lj"
      ],
      [
        "pl",
        "an"
      ],
      [
        "19",
        "6"
      ],
      [
        "f",
        "ort"
      ],
      [
        "b",
        "i"
      ],
      [
        "in",
        "om"
      ],
      [
        "t",
        "ag"
      ],
      [
        "Sverig",
        "e"
      ],
      [
        "00",
        "0"
      ],
      [
        "ig",
        "are"
      ],
      [
        "bar",
        "n"
      ],
      [
        "\"",
        "."
      ],
      [
        "r",
        "ä"
      ],
      [
        "t",
        "or"
      ],
      [
        "ett",
        "a"
      ],
      [
        "A",
        "l"
      ],
      [
        "gi",
        "ck"
      ],
      [
        "r",
        "ätt"
      ],
      [
        "vä",
        "g"
      ],
      [
        "f",
        "ar"
      ],
      [
        ")",
        ","
      ],
      [
        "k",
        "yr"
      ],
      [
        "f",
        "ri"
      ],
      [
        "j",
        "a"
      ],
      [
        "en",
        "da"
      ],
      [
        "l",
        "ång"
      ],
      [
        "M",
        "o"
      ],
      [
        "om",
        "rå"
      ],
      [
        "bygg",
        "nad"
      ],
      [
        "k",
        "o"
      ],
      [
        "1",
        "0"
      ],
      [
        "an",
        "vän"
      ],
      [
        "g",
        "el"
      ],
      [
        "ss",
        "on"
      ],
      [
        "t",
        "t"
      ],
      [
        "ning",
        "s"
      ],
      [
        "de",
        "m"
      ],
      [
        "den",
        "na"
      ],
      [
        "c",
        "e"
      ],
      [
        "g",
        "ån"
      ],
      [
        "sl",
        "ä"
      ],
      [
        "h",
        "ör"
      ],
      [
        "M",
        "ar"
      ],
      [
        "åt",
        "t"
      ],
      [
        "h",
        "em"
      ],
      [
        "e",
        "kt"
      ],
      [
        "na",
        "s"
      ],
      [
        "ut",
        "om"
      ],
      [
        "norr",
        "ut"
      ],
      [
        "J",
        "o"
      ],
      [
        "N",
        "är"
      ],
      [
        "f",
        "all"
      ],
      [
        "b",
        "y"
      ],
      [
        "at",
        "ur"
      ],
      [
        "f",
        "å"
      ],
      [
        "gjor",
        "de"
      ],
      [
        "t",
        "ro"
      ],
      [
        "ö",
        "v"
      ],
      [
        "söder",
        "ut"
      ],
      [
        "n",
        "ar"
      ],
      [
        "stor",
        "a"
      ],
      [
        "växt",
        "lighet"
      ],
      [
        "frukt",
        "bar"
      ],
      [
        "all",
        "t"
      ],
      [
        "19",
        "4"
      ],
      [
        "k",
        "e"
      ],
      [
        "sp",
        "r"
      ],
      [
        "b",
        "an"
      ],
      [
        "D",
        "etta"
      ],
      [
        "o",
        "fruktbar"
      ],
      [
        "bar",
        "a"
      ],
      [
        "t",
        "ra"
      ],
      [
        "ing",
        "ar"
      ],
      [
        "dess",
        "a"
      ],
      [
        "j",
        "u"
      ],
      [
        "it",
        "et"
      ],
      [
        "i",
        "o"
      ],
      [
        "un",
        "i"
      ],
      [
        "g",
        "av"
      ],
      [
        "on",
        "g"
      ],
      [
        "ter",
        "n"
      ],
      [
        "o",
        "b"
      ],
      [
        "t",
        "s"
      ],
      [
        "H",
        "avet"
      ],
      [
        "ig",
        "en"
      ],
      [
        "re",
        "s"
      ],
      [
        "kun",
        "de"
      ],
      [
        "r",
        "ad"
      ],
      [
        "ny",
        "a"
      ],
      [
        "k",
        "ra"
      ],
      [
        "ex",
        "em"
      ],
      [
        "a",
        "ck"
      ],
      [
        "19",
        "5"
      ],
      [
        "sk",
        "il"
      ],
      [
        "in",
        "a"
      ],
      [
        "h",
        "j"
      ],
      [
        "o",
        "w"
      ],
      [
        "g",
        "ar"
      ],
      [
        "d",
        "öd"
      ],
      [
        "stör",
        "re"
      ],
      [
        "själ",
        "v"
      ],
      [
        "m",
        "i"
      ],
      [
        "pl",
        "ats"
      ],
      [
        "inn",
        "an"
      ],
      [
        "t",
        "on"
      ],
      [
        "br",
        "uk"
      ],
      [
        "at",
        "er"
      ],
      [
        "B",
        "r"
      ],
      [
        "kr",
        "ing"
      ],
      [
        "s",
        "h"
      ],
      [
        "tid",
        "igare"
      ],
      [
        "hon",
        "om"
      ],
      [
        "hol",
        "m"
      ],
      [
        "19",
        "3"
      ],
      [
        "mar",
        "k"
      ],
      [
        "men",
        "t"
      ],
      [
        "f",
        "ann"
      ],
      [
        "bl",
        "ir"
      ],
      [
        "i",
        "e"
      ],
      [
        "h",
        "är"
      ],
      [
        "p",
        "ri"
      ],
      [
        "el",
        "se"
      ],
      [
        "V",
        "id"
      ],
      [
        "m",
        "et"
      ],
      [
        "b",
        "and"
      ],
      [
        "börj",
        "ade"
      ],
      [
        "ut",
        "veck"
      ],
      [
        "or",
        "na"
      ],
      [
        "l",
        "än"
      ],
      [
        "D",
        "es"
      ],
      [
        "der",
        "na"
      ],
      [
        "l",
        "in"
      ],
      [
        "sk",
        "t"
      ],
      [
        "l",
        "em"
      ],
      [
        "ö",
        "p"
      ],
      [
        "för",
        "st"
      ],
      [
        "l",
        "ä"
      ],
      [
        "k",
        "var"
      ],
      [
        "1",
        "2"
      ],
      [
        "l",
        "u"
      ],
      [
        "var",
        "ier"
      ],
      [
        "m",
        "är"
      ],
      [
        "d",
        "j"
      ],
      [
        "st",
        "ri"
      ],
      [
        "e",
        "gen"
      ],
      [
        "N",
        "or"
      ],
      [
        "hi",
        "stor"
      ],
      [
        "sven",
        "ska"
      ],
      [
        "f",
        "år"
      ],
      [
        "el",
        "n"
      ],
      [
        "p",
        "oli"
      ],
      [
        "li",
        "v"
      ],
      [
        "r",
        "ed"
      ],
      [
        "väster",
        "ut"
      ],
      [
        "kon",
        "st"
      ],
      [
        "kl",
        "ar"
      ],
      [
        "h",
        "er"
      ],
      [
        "E",
        "l"
      ],
      [
        "g",
        "a"
      ],
      [
        "öster",
        "ut"
      ],
      [
        "hel",
        "a"
      ],
      [
        "n",
        "ed"
      ],
      [
        "ā",
        "n"
      ],
      [
        "M",
        "an"
      ],
      [
        "n",
        "et"
      ],
      [
        "1",
        "4"
      ],
      [
        "t",
        "j"
      ],
      [
        "g",
        "s"
      ],
      [
        "mu",
        "si"
      ],
      [
        "ell",
        "t"
      ],
      [
        "l",
        "ar"
      ],
      [
        "kt",
        "e"
      ],
      [
        "ss",
        "a"
      ],
      [
        "vatt",
        "en"
      ],
      [
        "kl",
        "u"
      ],
      [
        "fy",
        "ra"
      ],
      [
        "gr",
        "upp"
      ],
      [
        "fl",
        "yg"
      ],
      [
        "n",
        "en"
      ],
      [
        "ti",
        "den"
      ],
      [
        "l",
        "åt"
      ],
      [
        "em",
        "ber"
      ],
      [
        "d",
        "s"
      ],
      [
        "li",
        "k"
      ],
      [
        "al",
        "en"
      ],
      [
        "ation",
        "en"
      ],
      [
        "ti",
        "v"
      ],
      [
        "sk",
        "e"
      ],
      [
        "var",
        "it"
      ],
      [
        "sä",
        "son"
      ],
      [
        "komm",
        "un"
      ],
      [
        "S",
        "k"
      ],
      [
        "m",
        "or"
      ],
      [
        "b",
        "ok"
      ],
      [
        "al",
        "i"
      ],
      [
        "1",
        "3"
      ],
      [
        "samman",
        "s"
      ],
      [
        "M",
        "a"
      ],
      [
        "R",
        "e"
      ],
      [
        "L",
        "a"
      ],
      [
        "D",
        "är"
      ],
      [
        "p",
        "u"
      ],
      [
        "g",
        "re"
      ],
      [
        "g",
        "am"
      ],
      [
        "c",
        "ir"
      ],
      [
        "för",
        "b"
      ],
      [
        "m",
        "ilj"
      ],
      [
        "gi",
        "v"
      ],
      [
        "någ",
        "ra"
      ],
      [
        "e",
        "st"
      ],
      [
        "namn",
        "et"
      ],
      [
        "g",
        "å"
      ],
      [
        "fann",
        "s"
      ],
      [
        "fr",
        "äm"
      ],
      [
        "ö",
        "k"
      ],
      [
        "börj",
        "an"
      ],
      [
        "st",
        "em"
      ],
      [
        "med",
        "lem"
      ],
      [
        "e",
        "h"
      ],
      [
        "h",
        "äll"
      ],
      [
        "on",
        "er"
      ],
      [
        "verk",
        "sam"
      ],
      [
        "l",
        "ingen"
      ],
      [
        "S",
        "an"
      ],
      [
        "stör",
        "sta"
      ],
      [
        "l",
        "ev"
      ],
      [
        "pl",
        "at"
      ],
      [
        "sy",
        "n"
      ],
      [
        "u",
        "ari"
      ],
      [
        "vä",
        "l"
      ],
      [
        "e",
        "f"
      ],
      [
        "någ",
        "ot"
      ],
      [
        "bå",
        "de"
      ],
      [
        "G",
        "r"
      ],
      [
        "någ",
        "on"
      ],
      [
        "o",
        "ll"
      ],
      [
        "för",
        "et"
      ],
      [
        "c",
        "a"
      ],
      [
        "f",
        "un"
      ],
      [
        "ti",
        "ska"
      ],
      [
        "rikt",
        "ning"
      ],
      [
        "exem",
        "pel"
      ],
      [
        "St",
        "ock"
      ],
      [
        "al",
        "b"
      ],
      [
        "f",
        "em"
      ],
      [
        "hj",
        "äl"
      ],
      [
        "b",
        "är"
      ],
      [
        "f",
        "ull"
      ],
      [
        "i",
        "ck"
      ],
      [
        "år",
        "en"
      ],
      [
        "st",
        "ån"
      ],
      [
        "B",
        "er"
      ],
      [
        "f",
        "öd"
      ],
      [
        "hen",
        "nes"
      ],
      [
        "hö",
        "j"
      ],
      [
        "me",
        "st"
      ],
      [
        "st",
        "at"
      ],
      [
        "ku",
        "l"
      ],
      [
        "Stock",
        "holm"
      ],
      [
        "r",
        "en"
      ],
      [
        "y",
        "m"
      ],
      [
        "ar",
        "l"
      ],
      [
        "enda",
        "st"
      ],
      [
        "der",
        "as"
      ],
      [
        "si",
        "dan"
      ],
      [
        "h",
        "al"
      ],
      [
        "S",
        "am"
      ],
      [
        "h",
        "os"
      ],
      [
        "u",
        "st"
      ],
      [
        "y",
        "e"
      ],
      [
        "sk",
        "rev"
      ],
      [
        "te",
        "m"
      ],
      [
        "l",
        "an"
      ],
      [
        "g",
        "ul"
      ],
      [
        "h",
        "ur"
      ],
      [
        "or",
        "gan"
      ],
      [
        "vi",
        "kt"
      ],
      [
        "r",
        "ör"
      ],
      [
        "ar",
        "d"
      ],
      [
        "ation",
        "er"
      ],
      [
        "re",
        "l"
      ],
      [
        "trä",
        "d"
      ],
      [
        "sp",
        "rå"
      ],
      [
        "q",
        "u"
      ],
      [
        "ad",
        "er"
      ],
      [
        "dra",
        "g"
      ],
      [
        "k",
        "ri"
      ],
      [
        "a",
        "u"
      ],
      [
        "ol",
        "og"
      ],
      [
        "ing",
        "s"
      ],
      [
        "p",
        "an"
      ],
      [
        "d",
        "ig"
      ],
      [
        "O",
        "m"
      ],
      [
        "ā",
        "r"
      ],
      [
        "k",
        "ro"
      ],
      [
        "gr",
        "am"
      ],
      [
        "ni",
        "sk"
      ],
      [
        "del",
        "ar"
      ],
      [
        "cir",
        "ka"
      ],
      [
        "sam",
        "häll"
      ],
      [
        "5",
        "0"
      ],
      [
        "ur",
        "op"
      ],
      [
        "till",
        "sammans"
      ],
      [
        "k",
        "ort"
      ],
      [
        "s",
        "an"
      ],
      [
        "ti",
        "t"
      ],
      [
        "kt",
        "er"
      ],
      [
        "\"",
        ","
      ],
      [
        "f",
        "am"
      ],
      [
        "uk",
        "tion"
      ],
      [
        "gån",
        "gen"
      ],
      [
        "B",
        "ar"
      ],
      [
        "pu",
        "bli"
      ],
      [
        "re",
        "gi"
      ],
      [
        "L",
        "e"
      ],
      [
        "T",
        "he"
      ],
      [
        "för",
        "sö"
      ],
      [
        "b",
        "u"
      ],
      [
        "19",
        "2"
      ],
      [
        "del",
        "en"
      ],
      [
        "tid",
        "igt"
      ],
      [
        "é",
        "n"
      ],
      [
        "or",
        "n"
      ],
      [
        "p",
        "a"
      ],
      [
        "p",
        "ort"
      ],
      [
        "se",
        "x"
      ],
      [
        "ti",
        "k"
      ],
      [
        "j",
        "an"
      ],
      [
        "b",
        "en"
      ],
      [
        "l",
        "ade"
      ],
      [
        "3",
        "0"
      ],
      [
        "O",
        "r"
      ],
      [
        "ställ",
        "et"
      ],
      [
        "med",
        "an"
      ],
      [
        "isk",
        "t"
      ],
      [
        "T",
        "r"
      ],
      [
        "för",
        "en"
      ],
      [
        "an",
        "k"
      ],
      [
        "l",
        "är"
      ],
      [
        "y",
        "s"
      ],
      [
        "mat",
        "ch"
      ],
      [
        "U",
        "t"
      ],
      [
        "varier",
        "ad"
      ],
      [
        "l",
        "ö"
      ],
      [
        "k",
        "öp"
      ],
      [
        "m",
        "öj"
      ],
      [
        "t",
        "u"
      ],
      [
        "b",
        "ol"
      ],
      [
        "kr",
        "ig"
      ],
      [
        "d",
        "ri"
      ],
      [
        "f",
        "e"
      ],
      [
        "spr",
        "ung"
      ],
      [
        "t",
        "äv"
      ],
      [
        "cen",
        "tr"
      ],
      [
        "P",
        "ar"
      ],
      [
        "ag",
        "et"
      ],
      [
        "par",
        "ti"
      ],
      [
        "d",
        "at"
      ],
      [
        "g",
        "at"
      ],
      [
        "S",
        "h"
      ],
      [
        "m",
        "ö"
      ],
      [
        "b",
        "as"
      ],
      [
        "år",
        "s"
      ],
      [
        "T",
        "ill"
      ],
      [
        "in",
        "t"
      ],
      [
        "b",
        "a"
      ],
      [
        "g",
        "rän"
      ],
      [
        "stad",
        "en"
      ],
      [
        "sp",
        "e"
      ],
      [
        "E",
        "tt"
      ],
      [
        "B",
        "o"
      ],
      [
        "ö",
        "pp"
      ],
      [
        "slut",
        "et"
      ],
      [
        "r",
        "um"
      ],
      [
        "för",
        "des"
      ],
      [
        "n",
        "um"
      ],
      [
        "den",
        "s"
      ],
      [
        "R",
        "o"
      ],
      [
        "c",
        "o"
      ],
      [
        "person",
        "er"
      ],
      [
        "fl",
        "er"
      ],
      [
        "slä",
        "pp"
      ],
      [
        "alb",
        "um"
      ],
      [
        "s",
        "ol"
      ],
      [
        "F",
        "l"
      ],
      [
        "v",
        "ann"
      ],
      [
        "in",
        "s"
      ],
      [
        "bor",
        "g"
      ],
      [
        "n",
        "ade"
      ],
      [
        "h",
        "än"
      ],
      [
        "m",
        "å"
      ],
      [
        "för",
        "s"
      ],
      [
        "g",
        "u"
      ],
      [
        "an",
        "ska"
      ],
      [
        "S",
        "A"
      ],
      [
        "efter",
        "som"
      ],
      [
        "l",
        "åg"
      ],
      [
        "l",
        "andet"
      ],
      [
        "använd",
        "s"
      ],
      [
        "ter",
        "na"
      ],
      [
        "fam",
        "ilj"
      ],
      [
        "in",
        "e"
      ],
      [
        "19",
        "0"
      ],
      [
        "S",
        "a"
      ],
      [
        "in",
        "di"
      ],
      [
        "fl",
        "ytt"
      ],
      [
        "ning",
        "arna"
      ],
      [
        "tj",
        "än"
      ],
      [
        "f",
        "ast"
      ],
      [
        "i",
        "et"
      ],
      [
        "sk",
        "ar"
      ],
      [
        "Han",
        "s"
      ],
      [
        "A",
        "ll"
      ],
      [
        "gör",
        "a"
      ],
      [
        "kra",
        "ft"
      ],
      [
        "st",
        "ra"
      ],
      [
        "str",
        "äck"
      ],
      [
        "G",
        "u"
      ],
      [
        "män",
        "nisk"
      ],
      [
        "ot",
        "s"
      ],
      [
        "stån",
        "d"
      ],
      [
        "or",
        "a"
      ],
      [
        "re",
        "kt"
      ],
      [
        "t",
        "es"
      ],
      [
        "ur",
        "sprung"
      ],
      [
        "spel",
        "ade"
      ],
      [
        "land",
        "s"
      ],
      [
        "ati",
        "v"
      ],
      [
        "jär",
        "n"
      ],
      [
        "l",
        "ok"
      ],
      [
        "M",
        "ed"
      ],
      [
        "m",
        "ör"
      ],
      [
        "k",
        "el"
      ],
      [
        "st",
        "ort"
      ],
      [
        "hö",
        "ll"
      ],
      [
        "slut",
        "tar"
      ],
      [
        "an",
        "tal"
      ],
      [
        "gi",
        "ft"
      ],
      [
        "si",
        "sta"
      ],
      [
        "musi",
        "k"
      ],
      [
        "G",
        "un"
      ],
      [
        "B",
        "e"
      ],
      [
        "m",
        "ån"
      ],
      [
        "rå",
        "det"
      ],
      [
        "c",
        "kt"
      ],
      [
        "er",
        "ad"
      ],
      [
        "M",
        "en"
      ],
      [
        "sk",
        "og"
      ],
      [
        "l",
        "yck"
      ],
      [
        "om",
        "fatt"
      ],
      [
        "ri",
        "st"
      ],
      [
        "f",
        "ot"
      ],
      [
        "on",
        "en"
      ],
      [
        "v",
        "s"
      ],
      [
        "kro",
        "pp"
      ],
      [
        "vär",
        "l"
      ],
      [
        "håll",
        "er"
      ],
      [
        "n",
        "atur"
      ],
      [
        "l",
        "ades"
      ],
      [
        "d",
        "al"
      ],
      [
        "best",
        "år"
      ],
      [
        "m",
        "on"
      ],
      [
        "st",
        "ar"
      ],
      [
        "s",
        "ing"
      ],
      [
        "var",
        "je"
      ],
      [
        "1",
        "1"
      ],
      [
        "st",
        "u"
      ],
      [
        "kv",
        "in"
      ],
      [
        "hel",
        "t"
      ],
      [
        "L",
        "i"
      ],
      [
        "al",
        "j"
      ],
      [
        "bet",
        "y"
      ],
      [
        "v",
        "ad"
      ],
      [
        "N",
        "e"
      ],
      [
        "lig",
        "are"
      ],
      [
        "m",
        "il"
      ],
      [
        "d",
        "ot"
      ],
      [
        "ä",
        "sta"
      ],
      [
        "pro",
        "du"
      ],
      [
        "l",
        "ämn"
      ],
      [
        "språ",
        "k"
      ],
      [
        "V",
        "i"
      ],
      [
        "var",
        "ande"
      ],
      [
        "201",
        "0"
      ],
      [
        "t",
        "ot"
      ],
      [
        "ul",
        "t"
      ],
      [
        "hus",
        "et"
      ],
      [
        "o",
        "ur"
      ],
      [
        "höj",
        "d"
      ],
      [
        "i",
        "an"
      ],
      [
        "er",
        "as"
      ],
      [
        "str",
        "öm"
      ],
      [
        "f",
        "te"
      ],
      [
        "i",
        "tion"
      ],
      [
        "l",
        "as"
      ],
      [
        "ro",
        "ll"
      ],
      [
        "t",
        "v"
      ],
      [
        "Ä",
        "ven"
      ],
      [
        "å",
        "d"
      ],
      [
        "up",
        "per"
      ],
      [
        "s",
        "u"
      ],
      [
        "ov",
        "an"
      ],
      [
        "k",
        "am"
      ],
      [
        "satt",
        "e"
      ],
      [
        "n",
        "s"
      ],
      [
        "sam",
        "ling"
      ],
      [
        "pre",
        "sen"
      ],
      [
        "T",
        "a"
      ],
      [
        "br",
        "ed"
      ],
      [
        "S",
        "om"
      ],
      [
        "e",
        "y"
      ],
      [
        "s",
        "na"
      ],
      [
        "dj",
        "ur"
      ],
      [
        "f",
        "ten"
      ],
      [
        "ver",
        "s"
      ],
      [
        "r",
        "edan"
      ],
      [
        "l",
        "at"
      ],
      [
        "s",
        "är"
      ],
      [
        "op",
        "ul"
      ],
      [
        "br",
        "un"
      ],
      [
        "hen",
        "ne"
      ],
      [
        "i",
        "ster"
      ],
      [
        "sk",
        "r"
      ],
      [
        "pr",
        "oc"
      ],
      [
        "am",
        "eri"
      ],
      [
        "sk",
        "yd"
      ],
      [
        "L",
        "ag"
      ],
      [
        "ä",
        "ster"
      ],
      [
        "er",
        "s"
      ],
      [
        "områ",
        "det"
      ],
      [
        "å",
        "ende"
      ],
      [
        "sy",
        "stem"
      ],
      [
        "st",
        "yr"
      ],
      [
        "el",
        "sen"
      ],
      [
        "18",
        "9"
      ],
      [
        "g",
        "j"
      ],
      [
        "rä",
        "k"
      ],
      [
        "re",
        "ger"
      ],
      [
        "e",
        "i"
      ],
      [
        "ut",
        "bild"
      ],
      [
        "där",
        "för"
      ],
      [
        "R",
        "i"
      ],
      [
        "går",
        "d"
      ],
      [
        "U",
        "SA"
      ],
      [
        "gr",
        "av"
      ],
      [
        "m",
        "it"
      ],
      [
        "or",
        "ter"
      ],
      [
        "Fr",
        "ån"
      ],
      [
        "yt",
        "ter"
      ],
      [
        "Mo",
        "unt"
      ],
      [
        "K",
        "ō"
      ],
      [
        "f",
        "art"
      ],
      [
        "ck",
        "er"
      ],
      [
        "Den",
        "na"
      ],
      [
        "r",
        "om"
      ],
      [
        "om",
        "kring"
      ],
      [
        "on",
        "s"
      ],
      [
        "P",
        "er"
      ],
      [
        "sk",
        "ad"
      ],
      [
        "me",
        "del"
      ],
      [
        "spe",
        "ci"
      ],
      [
        "f",
        "äl"
      ],
      [
        "till",
        "bak"
      ],
      [
        "ar",
        "m"
      ],
      [
        "2",
        "5"
      ],
      [
        "s",
        "ch"
      ],
      [
        "l",
        "y"
      ],
      [
        "sj",
        "uk"
      ],
      [
        "K",
        "h"
      ],
      [
        "of",
        "f"
      ],
      [
        "M",
        "on"
      ],
      [
        "k",
        "tion"
      ],
      [
        "vär",
        "ld"
      ],
      [
        "tr",
        "yck"
      ],
      [
        "g",
        "äll"
      ],
      [
        "v",
        "at"
      ],
      [
        "vi",
        "ssa"
      ],
      [
        "Des",
        "sa"
      ],
      [
        "h",
        "år"
      ],
      [
        "da",
        "gen"
      ],
      [
        "ät",
        "ta"
      ],
      [
        "ka",
        "p"
      ],
      [
        "arbet",
        "e"
      ],
      [
        "kall",
        "as"
      ],
      [
        "oc",
        "i"
      ],
      [
        "te",
        "ck"
      ],
      [
        "n",
        "ytt"
      ],
      [
        "ak",
        "ti"
      ],
      [
        "som",
        "mar"
      ],
      [
        "a",
        "ch"
      ],
      [
        "st",
        "ud"
      ],
      [
        "in",
        "d"
      ],
      [
        "te",
        "x"
      ],
      [
        "gam",
        "la"
      ],
      [
        "fär",
        "g"
      ],
      [
        "P",
        "o"
      ],
      [
        "el",
        "e"
      ],
      [
        "st",
        "år"
      ],
      [
        "o",
        "ber"
      ],
      [
        "ad",
        "en"
      ],
      [
        "m",
        "m"
      ],
      [
        "ra",
        "s"
      ],
      [
        "og",
        "ra"
      ],
      [
        "st",
        "y"
      ],
      [
        "c",
        "m"
      ],
      [
        "änd",
        "r"
      ],
      [
        "st",
        "art"
      ],
      [
        "4",
        "0"
      ],
      [
        "bå",
        "da"
      ],
      [
        "si",
        "d"
      ],
      [
        "säson",
        "gen"
      ],
      [
        "H",
        "en"
      ],
      [
        "n",
        "ämn"
      ],
      [
        "fr",
        "åg"
      ],
      [
        "ig",
        "het"
      ],
      [
        "ma",
        "j"
      ],
      [
        "sö",
        "k"
      ],
      [
        "S",
        "ch"
      ],
      [
        "sy",
        "d"
      ],
      [
        "öv",
        "r"
      ],
      [
        "dot",
        "ter"
      ],
      [
        "ä",
        "der"
      ],
      [
        "tern",
        "ation"
      ],
      [
        "klu",
        "bb"
      ],
      [
        "I",
        "I"
      ],
      [
        "m",
        "al"
      ],
      [
        "M",
        "u"
      ],
      [
        "id",
        "ag"
      ],
      [
        "st",
        "od"
      ],
      [
        "g",
        "od"
      ],
      [
        "18",
        "8"
      ],
      [
        "kon",
        "om"
      ],
      [
        "S",
        "ven"
      ],
      [
        "hjäl",
        "p"
      ],
      [
        "M",
        "or"
      ],
      [
        "slut",
        "ade"
      ],
      [
        "ri",
        "d"
      ],
      [
        "se",
        "p"
      ],
      [
        "lj",
        "us"
      ],
      [
        "bli",
        "vit"
      ],
      [
        "sven",
        "sk"
      ],
      [
        "till",
        "verk"
      ],
      [
        "pro",
        "gram"
      ],
      [
        "sm",
        "å"
      ],
      [
        "b",
        "ort"
      ],
      [
        "ann",
        "an"
      ],
      [
        "så",
        "g"
      ],
      [
        "j",
        "ul"
      ],
      [
        "c",
        "ember"
      ],
      [
        "k",
        "änd"
      ],
      [
        "n",
        "ov"
      ],
      [
        "in",
        "er"
      ],
      [
        "for",
        "sk"
      ],
      [
        "y",
        "l"
      ],
      [
        "främ",
        "st"
      ],
      [
        "k",
        "ni"
      ],
      [
        "t",
        "o"
      ],
      [
        "ed",
        "er"
      ],
      [
        "S",
        "e"
      ],
      [
        "ar",
        "r"
      ],
      [
        "Gun",
        "ung"
      ],
      [
        "stad",
        "s"
      ],
      [
        "tre",
        "ss"
      ],
      [
        "kun",
        "na"
      ],
      [
        "h",
        "amn"
      ],
      [
        "pl",
        "a"
      ],
      [
        "d",
        "uktion"
      ],
      [
        "sk",
        "att"
      ],
      [
        "el",
        "ser"
      ],
      [
        "200",
        "0"
      ],
      [
        "M",
        "al"
      ],
      [
        "P",
        "ro"
      ],
      [
        "as",
        "si"
      ],
      [
        "f",
        "äll"
      ],
      [
        "it",
        "u"
      ],
      [
        "p",
        "ol"
      ],
      [
        "tr",
        "ed"
      ],
      [
        "må",
        "ste"
      ],
      [
        "j",
        "ord"
      ],
      [
        "e",
        "ck"
      ],
      [
        "ber",
        "ätt"
      ],
      [
        "h",
        "ov"
      ],
      [
        "et",
        "a"
      ],
      [
        "är",
        "a"
      ],
      [
        "de",
        "ll"
      ],
      [
        "sna",
        "bb"
      ],
      [
        "n",
        "äst"
      ],
      [
        "där",
        "efter"
      ],
      [
        "i",
        "bland"
      ],
      [
        "l",
        "o"
      ],
      [
        "cer",
        "ade"
      ],
      [
        "mär",
        "k"
      ],
      [
        "j",
        "uni"
      ],
      [
        "p",
        "opul"
      ],
      [
        "för",
        "fatt"
      ],
      [
        "tillbak",
        "a"
      ],
      [
        "de",
        "cember"
      ],
      [
        "nor",
        "d"
      ],
      [
        "n",
        "ation"
      ],
      [
        "fram",
        "gång"
      ],
      [
        "läg",
        "g"
      ],
      [
        "sj",
        "ö"
      ],
      [
        "kyr",
        "kan"
      ],
      [
        "jan",
        "uari"
      ],
      [
        "all",
        "män"
      ],
      [
        "bygg",
        "des"
      ],
      [
        "f",
        "ått"
      ],
      [
        "mar",
        "s"
      ],
      [
        "je",
        "kt"
      ],
      [
        "le",
        "k"
      ],
      [
        "dr",
        "ig"
      ],
      [
        "n",
        "it"
      ],
      [
        "ug",
        "u"
      ],
      [
        "ä",
        "s"
      ],
      [
        "ra",
        "k"
      ],
      [
        "str",
        "u"
      ],
      [
        "e",
        "sta"
      ],
      [
        "en",
        "a"
      ],
      [
        "le",
        "ver"
      ],
      [
        "en",
        "ligt"
      ],
      [
        "on",
        "d"
      ],
      [
        "am",
        "p"
      ],
      [
        "sär",
        "skil"
      ],
      [
        "A",
        "ir"
      ],
      [
        "ar",
        "a"
      ],
      [
        "s",
        "äg"
      ],
      [
        "organ",
        "is"
      ],
      [
        "br",
        "it"
      ],
      [
        "k",
        "at"
      ],
      [
        "E",
        "urop"
      ],
      [
        "der",
        "n"
      ],
      [
        "far",
        "ande"
      ],
      [
        "gan",
        "de"
      ],
      [
        "h",
        "y"
      ],
      [
        "ra",
        "g"
      ],
      [
        "6",
        "0"
      ],
      [
        "ar",
        "ten"
      ],
      [
        "n",
        "ande"
      ],
      [
        "led",
        "de"
      ],
      [
        "sv",
        "år"
      ],
      [
        "be",
        "skri"
      ],
      [
        "e",
        "konom"
      ],
      [
        "vä",
        "gen"
      ],
      [
        "gån",
        "ger"
      ],
      [
        "vis",
        "ar"
      ],
      [
        "T",
        "an"
      ],
      [
        "del",
        "s"
      ],
      [
        "D",
        "an"
      ],
      [
        "b",
        "ur"
      ],
      [
        "k",
        "ör"
      ],
      [
        "spel",
        "are"
      ],
      [
        "del",
        "se"
      ],
      [
        "K",
        "o"
      ],
      [
        "T",
        "i"
      ],
      [
        "b",
        "ö"
      ],
      [
        "h",
        "it"
      ],
      [
        "or",
        "i"
      ],
      [
        "al",
        "drig"
      ],
      [
        "sj",
        "u"
      ],
      [
        "in",
        "tress"
      ],
      [
        "y",
        "a"
      ],
      [
        "ö",
        "g"
      ],
      [
        "äl",
        "dre"
      ],
      [
        "H",
        "el"
      ],
      [
        "fil",
        "m"
      ],
      [
        "M",
        "i"
      ],
      [
        "vid",
        "are"
      ],
      [
        "r",
        "ar"
      ],
      [
        "läng",
        "re"
      ],
      [
        "ver",
        "sion"
      ],
      [
        "o",
        "kt"
      ],
      [
        "län",
        "der"
      ],
      [
        "er",
        "at"
      ],
      [
        "es",
        "s"
      ],
      [
        "fort",
        "farande"
      ],
      [
        "ameri",
        "kan"
      ],
      [
        "b",
        "ra"
      ],
      [
        "Jo",
        "han"
      ],
      [
        "värl",
        "den"
      ],
      [
        "p",
        "e"
      ],
      [
        "a",
        "gen"
      ],
      [
        "år",
        "et"
      ],
      [
        "for",
        "men"
      ],
      [
        "g",
        "h"
      ],
      [
        "tred",
        "je"
      ],
      [
        "18",
        "7"
      ],
      [
        "vil",
        "ken"
      ],
      [
        "j",
        "ung"
      ],
      [
        "sl",
        "and"
      ],
      [
        "om",
        "giv"
      ],
      [
        "si",
        "da"
      ],
      [
        "ri",
        "är"
      ],
      [
        "G",
        "ö"
      ],
      [
        "före",
        "kommer"
      ],
      [
        "st",
        "änd"
      ],
      [
        "fl",
        "esta"
      ],
      [
        "n",
        "o"
      ],
      [
        "d",
        "ö"
      ],
      [
        "an",
        "den"
      ],
      [
        "kr",
        "on"
      ],
      [
        "l",
        "or"
      ],
      [
        "ing",
        "a"
      ],
      [
        "di",
        "rekt"
      ],
      [
        "vi",
        "sion"
      ],
      [
        "trä",
        "ff"
      ],
      [
        "c",
        "y"
      ],
      [
        "bl",
        "em"
      ],
      [
        "of",
        "fi"
      ],
      [
        "b",
        "ro"
      ],
      [
        "br",
        "ott"
      ],
      [
        "skol",
        "an"
      ],
      [
        "tem",
        "ber"
      ],
      [
        "H",
        "u"
      ],
      [
        "a",
        "z"
      ],
      [
        "t",
        "ä"
      ],
      [
        "S",
        "edan"
      ],
      [
        "f",
        "o"
      ],
      [
        "vil",
        "ka"
      ],
      [
        "per",
        "i"
      ],
      [
        "p",
        "ass"
      ],
      [
        "Kō",
        "h"
      ],
      [
        "T",
        "y"
      ],
      [
        "g",
        "o"
      ],
      [
        "o",
        "per"
      ],
      [
        "upp",
        "e"
      ],
      [
        "sn",
        "itt"
      ],
      [
        "fi",
        "k"
      ],
      [
        "fram",
        "för"
      ],
      [
        "en",
        "gel"
      ],
      [
        "de",
        "b"
      ],
      [
        "i",
        "stället"
      ],
      [
        "så",
        "l"
      ],
      [
        "pr",
        "il"
      ],
      [
        "föd",
        "d"
      ],
      [
        "hand",
        "ling"
      ],
      [
        "em",
        "ot"
      ],
      [
        "dr",
        "ar"
      ],
      [
        "vill",
        "e"
      ],
      [
        "verksam",
        "het"
      ],
      [
        "ser",
        "ien"
      ],
      [
        "dag",
        "ar"
      ],
      [
        "sep",
        "tember"
      ],
      [
        "kul",
        "tur"
      ],
      [
        "T",
        "h"
      ],
      [
        "u",
        "x"
      ],
      [
        "ung",
        "e"
      ],
      [
        "kvin",
        "nor"
      ],
      [
        "st",
        "an"
      ],
      [
        "om",
        "m"
      ],
      [
        "t",
        "an"
      ],
      [
        "er",
        "ar"
      ],
      [
        "ma",
        "ste"
      ],
      [
        "201",
        "1"
      ],
      [
        "milj",
        "oner"
      ],
      [
        "föret",
        "ag"
      ],
      [
        "be",
        "bygg"
      ],
      [
        "äng",
        "d"
      ],
      [
        "h",
        "n"
      ],
      [
        "po",
        "äng"
      ],
      [
        "tro",
        "ll"
      ],
      [
        "K",
        "on"
      ],
      [
        "människ",
        "or"
      ],
      [
        "a",
        "pril"
      ],
      [
        "k",
        "ur"
      ],
      [
        "s",
        "på"
      ],
      [
        "för",
        "ande"
      ],
      [
        "best",
        "äm"
      ],
      [
        "b",
        "id"
      ],
      [
        "inne",
        "bär"
      ],
      [
        "st",
        "öd"
      ],
      [
        "B",
        "u"
      ],
      [
        "un",
        "a"
      ],
      [
        "ska",
        "ll"
      ],
      [
        "a",
        "ugu"
      ],
      [
        "k",
        "är"
      ],
      [
        "gen",
        "er"
      ],
      [
        "grupp",
        "en"
      ],
      [
        "T",
        "all"
      ],
      [
        "sk",
        "ill"
      ],
      [
        "j",
        "äm"
      ],
      [
        "augu",
        "sti"
      ],
      [
        "en",
        "g"
      ],
      [
        "nad",
        "en"
      ],
      [
        "t",
        "än"
      ],
      [
        "bar",
        "t"
      ],
      [
        "b",
        "ed"
      ],
      [
        "f",
        "er"
      ],
      [
        "r",
        "et"
      ],
      [
        "a",
        "w"
      ],
      [
        "G",
        "en"
      ],
      [
        "in",
        "i"
      ],
      [
        "ytter",
        "ligare"
      ],
      [
        "k",
        "ung"
      ],
      [
        "kom",
        "ma"
      ],
      [
        "al",
        "er"
      ],
      [
        "bo",
        "ll"
      ],
      [
        "1",
        "00"
      ],
      [
        "h",
        "ot"
      ],
      [
        "okt",
        "ober"
      ],
      [
        "C",
        "re"
      ],
      [
        "K",
        "r"
      ],
      [
        "s",
        "ett"
      ],
      [
        "S",
        "i"
      ],
      [
        "ter",
        "ade"
      ],
      [
        "vet",
        "en"
      ],
      [
        "rä",
        "d"
      ],
      [
        "gj",
        "ort"
      ],
      [
        "in",
        "för"
      ],
      [
        "gr",
        "en"
      ],
      [
        "ställ",
        "ning"
      ],
      [
        "D",
        "i"
      ],
      [
        "nov",
        "ember"
      ],
      [
        "F",
        "il"
      ],
      [
        "håll",
        "a"
      ],
      [
        "pro",
        "duktion"
      ],
      [
        "200",
        "9"
      ],
      [
        "grän",
        "s"
      ],
      [
        "g",
        "är"
      ],
      [
        "k",
        "ol"
      ],
      [
        "l",
        "äm"
      ],
      [
        "H",
        "ar"
      ],
      [
        "plat",
        "ser"
      ],
      [
        "C",
        "er"
      ],
      [
        "tot",
        "alt"
      ],
      [
        "Air",
        "port"
      ],
      [
        "g",
        "et"
      ],
      [
        "n",
        "om"
      ],
      [
        "ä",
        "d"
      ],
      [
        "områ",
        "den"
      ],
      [
        "2",
        "4"
      ],
      [
        "P",
        "h"
      ],
      [
        "S",
        "er"
      ],
      [
        "v",
        "år"
      ],
      [
        "ar",
        "ti"
      ],
      [
        "po",
        "si"
      ],
      [
        "ig",
        "heter"
      ],
      [
        "rik",
        "s"
      ],
      [
        "ab",
        "al"
      ],
      [
        "fl",
        "y"
      ],
      [
        "F",
        "in"
      ],
      [
        "går",
        "den"
      ],
      [
        "er",
        "ades"
      ],
      [
        "P",
        "e"
      ],
      [
        "d",
        "am"
      ],
      [
        "där",
        "med"
      ],
      [
        "En",
        "ligt"
      ],
      [
        "i",
        "ser"
      ],
      [
        "gr",
        "upper"
      ],
      [
        "arna",
        "s"
      ],
      [
        "2",
        "2"
      ],
      [
        "i",
        "v"
      ],
      [
        "s",
        "oci"
      ],
      [
        "fl",
        "yt"
      ],
      [
        "er",
        "ing"
      ],
      [
        "i",
        "p"
      ],
      [
        "l",
        "änd"
      ],
      [
        "l",
        "ånga"
      ],
      [
        "in",
        "ternation"
      ],
      [
        "plat",
        "sen"
      ],
      [
        "T",
        "or"
      ],
      [
        "till",
        "hör"
      ],
      [
        "mi",
        "ss"
      ],
      [
        "V",
        "ar"
      ],
      [
        "s",
        "et"
      ],
      [
        "ä",
        "kt"
      ],
      [
        "T",
        "V"
      ],
      [
        "C",
        "o"
      ],
      [
        "li",
        "ka"
      ],
      [
        "as",
        "h"
      ],
      [
        "jul",
        "i"
      ],
      [
        "b",
        "ot"
      ],
      [
        "rik",
        "e"
      ],
      [
        "e",
        "ff"
      ],
      [
        "ar",
        "s"
      ],
      [
        "inne",
        "håller"
      ],
      [
        "A",
        "v"
      ],
      [
        "U",
        "pp"
      ],
      [
        "ge",
        "men"
      ],
      [
        "tog",
        "s"
      ],
      [
        "Des",
        "s"
      ],
      [
        "2",
        "1"
      ],
      [
        "in",
        "du"
      ],
      [
        "si",
        "kt"
      ],
      [
        "pro",
        "blem"
      ],
      [
        "ner",
        "e"
      ],
      [
        "svar",
        "t"
      ],
      [
        "sk",
        "ed"
      ],
      [
        "a",
        "f"
      ],
      [
        "ry",
        "m"
      ],
      [
        "sträck",
        "er"
      ],
      [
        "an",
        "ger"
      ],
      [
        "ll",
        "a"
      ],
      [
        "så",
        "gs"
      ],
      [
        "201",
        "3"
      ],
      [
        "D",
        "å"
      ],
      [
        "unt",
        "a"
      ],
      [
        "2",
        "3"
      ],
      [
        "ti",
        "m"
      ],
      [
        "b",
        "ästa"
      ],
      [
        "200",
        "8"
      ],
      [
        "K",
        "arl"
      ],
      [
        "j",
        "er"
      ],
      [
        "skap",
        "et"
      ],
      [
        "b",
        "in"
      ],
      [
        "ā",
        "h"
      ],
      [
        "St",
        "or"
      ],
      [
        "s",
        "än"
      ],
      [
        "K",
        "ar"
      ],
      [
        "b",
        "åt"
      ],
      [
        "kar",
        "riär"
      ],
      [
        "sp",
        "ek"
      ],
      [
        "kall",
        "ade"
      ],
      [
        "ski",
        "ck"
      ],
      [
        "p",
        "or"
      ],
      [
        "tr",
        "ad"
      ],
      [
        "200",
        "7"
      ],
      [
        "mil",
        "it"
      ],
      [
        "ult",
        "at"
      ],
      [
        "J",
        "abal"
      ],
      [
        "P",
        "a"
      ],
      [
        "yg",
        "g"
      ],
      [
        "mot",
        "or"
      ],
      [
        "m",
        "is"
      ],
      [
        "18",
        "00"
      ],
      [
        "sam",
        "band"
      ],
      [
        "h",
        "av"
      ],
      [
        "r",
        "u"
      ],
      [
        "ad",
        "a"
      ],
      [
        "medlem",
        "mar"
      ],
      [
        "byggnad",
        "en"
      ],
      [
        "ti",
        "o"
      ],
      [
        "ål",
        "der"
      ],
      [
        "201",
        "4"
      ],
      [
        "den",
        "t"
      ],
      [
        "sj",
        "ön"
      ],
      [
        "19",
        "00"
      ],
      [
        "T",
        "e"
      ],
      [
        "ā",
        "l"
      ],
      [
        "k",
        "n"
      ],
      [
        "o",
        "ende"
      ],
      [
        "201",
        "2"
      ],
      [
        "vi",
        "k"
      ],
      [
        "m",
        "yn"
      ],
      [
        "proc",
        "ent"
      ],
      [
        "st",
        "il"
      ],
      [
        "200",
        "6"
      ],
      [
        "lag",
        "et"
      ],
      [
        "Q",
        "u"
      ],
      [
        "v",
        "ån"
      ],
      [
        "eri",
        "al"
      ],
      [
        "M",
        "e"
      ],
      [
        "r",
        "it"
      ],
      [
        "re",
        "presen"
      ],
      [
        "199",
        "0"
      ],
      [
        "el",
        "d"
      ],
      [
        "sätt",
        "ning"
      ],
      [
        "ra",
        "kt"
      ],
      [
        "rat",
        "ion"
      ],
      [
        "öt",
        "t"
      ],
      [
        "Gö",
        "te"
      ],
      [
        "unge",
        "fär"
      ],
      [
        "näst",
        "an"
      ],
      [
        "histor",
        "ia"
      ],
      [
        "P",
        "unta"
      ],
      [
        "gi",
        "fte"
      ],
      [
        "201",
        "5"
      ],
      [
        "åter",
        "vän"
      ],
      [
        "var",
        "andra"
      ],
      [
        "ot",
        "e"
      ],
      [
        "gav",
        "s"
      ],
      [
        "l",
        "ätt"
      ],
      [
        "te",
        "kni"
      ],
      [
        "samhäll",
        "et"
      ],
      [
        "st",
        "am"
      ],
      [
        "match",
        "er"
      ],
      [
        "Ut",
        "över"
      ],
      [
        "sam",
        "tidigt"
      ],
      [
        "kän",
        "da"
      ],
      [
        "d",
        "ar"
      ],
      [
        "h",
        "äl"
      ],
      [
        "t",
        "rän"
      ],
      [
        "br",
        "uari"
      ],
      [
        "fart",
        "yg"
      ],
      [
        "veten",
        "skap"
      ],
      [
        "b",
        "andet"
      ],
      [
        "h",
        "am"
      ],
      [
        "uni",
        "vers"
      ],
      [
        "Cre",
        "ek"
      ],
      [
        "ty",
        "ska"
      ],
      [
        "s",
        "es"
      ],
      [
        "fe",
        "bruari"
      ],
      [
        "lämn",
        "ade"
      ],
      [
        "S",
        "o"
      ],
      [
        "kall",
        "ad"
      ],
      [
        "skol",
        "a"
      ],
      [
        "för",
        "håll"
      ],
      [
        "pla",
        "cer"
      ],
      [
        "j",
        "ag"
      ],
      [
        "Sverig",
        "es"
      ],
      [
        "slag",
        "et"
      ],
      [
        "a",
        "i"
      ],
      [
        "t",
        "he"
      ],
      [
        "G",
        "ar"
      ],
      [
        "H",
        "er"
      ],
      [
        "h",
        "o"
      ],
      [
        "vi",
        "st"
      ],
      [
        "197",
        "0"
      ],
      [
        "fäl",
        "t"
      ],
      [
        "man",
        "de"
      ],
      [
        "ti",
        "sk"
      ],
      [
        "s",
        "äll"
      ],
      [
        "va",
        "pen"
      ],
      [
        "eg",
        "na"
      ],
      [
        "A",
        "B"
      ],
      [
        "ö",
        "l"
      ],
      [
        "t",
        "rakten"
      ],
      [
        "Cer",
        "ro"
      ],
      [
        "S",
        "u"
      ],
      [
        "ut",
        "för"
      ],
      [
        "j",
        "ör"
      ],
      [
        "väst",
        "lig"
      ],
      [
        "rå",
        "d"
      ],
      [
        "spel",
        "ar"
      ],
      [
        "satt",
        "es"
      ],
      [
        "j",
        "ut"
      ],
      [
        "använ",
        "des"
      ],
      [
        "D",
        "ar"
      ],
      [
        "min",
        "st"
      ],
      [
        "för",
        "svar"
      ],
      [
        "di",
        "sk"
      ],
      [
        "l",
        "ad"
      ],
      [
        "spel",
        "et"
      ],
      [
        "h",
        "und"
      ],
      [
        "gr",
        "å"
      ],
      [
        "18",
        "6"
      ],
      [
        "arbet",
        "ade"
      ],
      [
        "ä",
        "ss"
      ],
      [
        "trad",
        "ition"
      ],
      [
        "Europ",
        "a"
      ],
      [
        "A",
        "m"
      ],
      [
        "Fr",
        "ank"
      ],
      [
        "sk",
        "ilj"
      ],
      [
        "ma",
        "sk"
      ],
      [
        "lit",
        "en"
      ],
      [
        "till",
        "fäll"
      ],
      [
        "h",
        "op"
      ],
      [
        "H",
        "e"
      ],
      [
        "mit",
        "ten"
      ],
      [
        "h",
        "itt"
      ],
      [
        "å",
        "de"
      ],
      [
        "G",
        "e"
      ],
      [
        "bl",
        "ad"
      ],
      [
        "öt",
        "s"
      ],
      [
        "gul",
        "d"
      ],
      [
        "ofta",
        "st"
      ],
      [
        "å",
        "s"
      ],
      [
        "ti",
        "da"
      ],
      [
        "in",
        "at"
      ],
      [
        "fr",
        "ed"
      ],
      [
        "tion",
        "en"
      ],
      [
        "ty",
        "p"
      ],
      [
        "särskil",
        "t"
      ],
      [
        "ha",
        "ft"
      ],
      [
        "bild",
        "ades"
      ],
      [
        "2",
        "6"
      ],
      [
        "V",
        "er"
      ],
      [
        "d",
        "y"
      ],
      [
        "200",
        "5"
      ],
      [
        "S",
        "j"
      ],
      [
        "C",
        "on"
      ],
      [
        "s",
        "ång"
      ],
      [
        "F",
        "or"
      ],
      [
        "r",
        "ö"
      ],
      [
        "kl",
        "i"
      ],
      [
        "själ",
        "va"
      ],
      [
        "fil",
        "men"
      ],
      [
        "R",
        "es"
      ],
      [
        "u",
        "ss"
      ],
      [
        "in",
        "ter"
      ],
      [
        "ā",
        "d"
      ],
      [
        "tä",
        "ckt"
      ],
      [
        "p",
        "s"
      ],
      [
        "kom",
        "p"
      ],
      [
        "fort",
        "satte"
      ],
      [
        ".",
        "\""
      ],
      [
        "slä",
        "kt"
      ],
      [
        "B",
        "ro"
      ],
      [
        "rom",
        "an"
      ],
      [
        "sk",
        "är"
      ],
      [
        "S",
        "p"
      ],
      [
        "var",
        "av"
      ],
      [
        "vi",
        "a"
      ],
      [
        "syd",
        "lig"
      ],
      [
        "h",
        "äst"
      ],
      [
        "erna",
        "s"
      ],
      [
        "be",
        "slut"
      ],
      [
        "kar",
        "akt"
      ],
      [
        "släpp",
        "tes"
      ],
      [
        "Ty",
        "sk"
      ],
      [
        "vis",
        "ade"
      ],
      [
        "2",
        "8"
      ],
      [
        "C",
        "ar"
      ],
      [
        "för",
        "klar"
      ],
      [
        "sy",
        "m"
      ],
      [
        "198",
        "0"
      ],
      [
        "k",
        "h"
      ],
      [
        "äg",
        "g"
      ],
      [
        "dj",
        "up"
      ],
      [
        "l",
        "opp"
      ],
      [
        "or",
        "sak"
      ],
      [
        "k",
        "äll"
      ],
      [
        "2",
        "7"
      ],
      [
        "ill",
        "a"
      ],
      [
        "van",
        "ligt"
      ],
      [
        "bö",
        "cker"
      ],
      [
        "201",
        "6"
      ],
      [
        "inn",
        "er"
      ],
      [
        "K",
        "am"
      ],
      [
        "p",
        "as"
      ],
      [
        "ser",
        "na"
      ],
      [
        "20",
        "18"
      ],
      [
        "ord",
        "förande"
      ],
      [
        "till",
        "s"
      ],
      [
        "använd",
        "as"
      ],
      [
        "ch",
        "ef"
      ],
      [
        "mo",
        "dell"
      ],
      [
        "utan",
        "för"
      ],
      [
        "Ne",
        "w"
      ],
      [
        "m",
        "äst"
      ],
      [
        "r",
        "am"
      ],
      [
        "201",
        "7"
      ],
      [
        "Tan",
        "jung"
      ],
      [
        "gat",
        "an"
      ],
      [
        "r",
        "on"
      ],
      [
        "b",
        "it"
      ],
      [
        "an",
        "a"
      ],
      [
        "sp",
        "ort"
      ],
      [
        "196",
        "0"
      ],
      [
        "j",
        "ud"
      ],
      [
        "v",
        "are"
      ],
      [
        "nu",
        "varande"
      ],
      [
        "H",
        "ill"
      ],
      [
        "gi",
        "fter"
      ],
      [
        "spel",
        "a"
      ],
      [
        "S",
        "ar"
      ],
      [
        "ro",
        "g"
      ],
      [
        "kon",
        "troll"
      ],
      [
        "Jo",
        "hn"
      ],
      [
        "L",
        "u"
      ],
      [
        "n",
        "g"
      ],
      [
        "för",
        "lor"
      ],
      [
        "C",
        "arl"
      ],
      [
        "ung",
        "a"
      ],
      [
        "fi",
        "sk"
      ],
      [
        "verk",
        "et"
      ],
      [
        "h",
        "opp"
      ],
      [
        "T",
        "id"
      ],
      [
        "s",
        "il"
      ],
      [
        "tr",
        "ol"
      ],
      [
        "hal",
        "v"
      ],
      [
        "N",
        "amn"
      ],
      [
        "e",
        "j"
      ],
      [
        "it",
        "al"
      ],
      [
        "mer",
        "a"
      ],
      [
        "res",
        "ultat"
      ],
      [
        "f",
        "ta"
      ],
      [
        "m",
        "ag"
      ],
      [
        "w",
        "e"
      ],
      [
        "ta",
        "kt"
      ],
      [
        "äl",
        "j"
      ],
      [
        "börj",
        "ar"
      ],
      [
        "utveck",
        "ling"
      ],
      [
        "g",
        "es"
      ],
      [
        "sk",
        "on"
      ],
      [
        "van",
        "liga"
      ],
      [
        "täv",
        "ling"
      ],
      [
        "b",
        "al"
      ],
      [
        "ri",
        "s"
      ],
      [
        "övr",
        "iga"
      ],
      [
        "H",
        "är"
      ],
      [
        "S",
        "c"
      ],
      [
        "st",
        "jär"
      ],
      [
        "ri",
        "sk"
      ],
      [
        "K",
        "al"
      ],
      [
        "ät",
        "ter"
      ],
      [
        "M",
        "ag"
      ],
      [
        "som",
        "rådet"
      ],
      [
        "ans",
        "es"
      ],
      [
        "n",
        "at"
      ],
      [
        "st",
        "ol"
      ],
      [
        "offi",
        "ci"
      ],
      [
        "spå",
        "r"
      ],
      [
        "i",
        "de"
      ],
      [
        "gjor",
        "des"
      ],
      [
        "a",
        "ff"
      ],
      [
        "h",
        "in"
      ],
      [
        "för",
        "m"
      ],
      [
        "ativ",
        "t"
      ],
      [
        "än",
        "nu"
      ],
      [
        "ch",
        "er"
      ],
      [
        "8",
        "0"
      ],
      [
        "med",
        "alj"
      ],
      [
        "så",
        "dan"
      ],
      [
        "C",
        "ol"
      ],
      [
        "ar",
        "ter"
      ],
      [
        "B",
        "en"
      ],
      [
        "an",
        "talet"
      ],
      [
        "som",
        "rå"
      ],
      [
        "mat",
        "erial"
      ],
      [
        "fun",
        "ktion"
      ],
      [
        "A",
        "ï"
      ],
      [
        "at",
        "a"
      ],
      [
        "ord",
        "ning"
      ],
      [
        "sä",
        "ker"
      ],
      [
        "S",
        "te"
      ],
      [
        "st",
        "ående"
      ],
      [
        "bet",
        "yd"
      ],
      [
        "J",
        "e"
      ],
      [
        "r",
        "ing"
      ],
      [
        "un",
        "det"
      ],
      [
        "tag",
        "it"
      ],
      [
        "O",
        "l"
      ],
      [
        "sö",
        "dra"
      ],
      [
        "poli",
        "tiska"
      ],
      [
        "vi",
        "ss"
      ],
      [
        "lyck",
        "ades"
      ],
      [
        "lö",
        "s"
      ],
      [
        "a",
        "ste"
      ],
      [
        "ig",
        "h"
      ],
      [
        "tjän",
        "st"
      ],
      [
        "P",
        "ark"
      ],
      [
        "z",
        "a"
      ],
      [
        "konst",
        "när"
      ],
      [
        "f",
        "en"
      ],
      [
        "l",
        "am"
      ],
      [
        "D",
        "je"
      ],
      [
        "S",
        "en"
      ],
      [
        "f",
        "jär"
      ],
      [
        "ti",
        "ve"
      ],
      [
        "för",
        "äl"
      ],
      [
        "komm",
        "it"
      ],
      [
        "f",
        "j"
      ],
      [
        "mu",
        "se"
      ],
      [
        "H",
        "am"
      ],
      [
        "del",
        "ade"
      ],
      [
        "R",
        "a"
      ],
      [
        "for",
        "d"
      ],
      [
        "använ",
        "da"
      ],
      [
        "f",
        "el"
      ],
      [
        "t",
        "ak"
      ],
      [
        "hög",
        "re"
      ],
      [
        "utbild",
        "ning"
      ],
      [
        "z",
        "i"
      ],
      [
        "un",
        "da"
      ],
      [
        "ty",
        "d"
      ],
      [
        "bol",
        "ag"
      ],
      [
        "f",
        "as"
      ],
      [
        "v",
        "and"
      ],
      [
        "tr",
        "ots"
      ],
      [
        "engel",
        "ska"
      ],
      [
        "st",
        "äder"
      ],
      [
        "vis",
        "a"
      ],
      [
        "B",
        "land"
      ],
      [
        "N",
        "u"
      ],
      [
        "ans",
        "var"
      ],
      [
        "v",
        "or"
      ],
      [
        "vatt",
        "net"
      ],
      [
        "fun",
        "ger"
      ],
      [
        "bl",
        "å"
      ],
      [
        "all",
        "tid"
      ],
      [
        "lit",
        "ter"
      ],
      [
        "skyd",
        "d"
      ],
      [
        "b",
        "od"
      ],
      [
        "k",
        "opp"
      ],
      [
        "on",
        "e"
      ],
      [
        "ag",
        "e"
      ],
      [
        "200",
        "4"
      ],
      [
        "sti",
        "ft"
      ],
      [
        "l",
        "ät"
      ],
      [
        "ó",
        "n"
      ],
      [
        "ce",
        "p"
      ],
      [
        "sty",
        "rel"
      ],
      [
        "skill",
        "nad"
      ],
      [
        "c",
        "kte"
      ],
      [
        "d",
        "og"
      ],
      [
        "sk",
        "o"
      ],
      [
        "Dje",
        "bel"
      ],
      [
        "r",
        "öd"
      ],
      [
        "s",
        "cen"
      ],
      [
        "18",
        "5"
      ],
      [
        "tr",
        "an"
      ],
      [
        "2",
        "9"
      ],
      [
        "b",
        "ack"
      ],
      [
        "ation",
        "s"
      ]
    ]
  }
}