{
  "version": "1.0",
  "truncation": null,
  "padding": null,
  "added_tokens": [
    {
      "id": 0,
      "content": "<UNK>",
      "single_word": false,
      "lstrip": false,
      "rstrip": false,
      "normalized": false,
      "special": true
    },
    {
      "id": 1,
      "content": "<SEP>",
      "single_word": false,
      "lstrip": false,
      "rstrip": false,
      "normalized": false,
      "special": true
    },
    {
      "id": 2,
      "content": "<MASK>",
      "single_word": false,
      "lstrip": false,
      "rstrip": false,
      "normalized": false,
      "special": true
    },
    {
      "id": 3,
      "content": "<CLS>",
      "single_word": false,
      "lstrip": false,
      "rstrip": false,
      "normalized": false,
      "special": true
    }
  ],
  "normalizer": null,
  "pre_tokenizer": {
    "type": "Whitespace"
  },
  "post_processor": null,
  "decoder": null,
  "model": {
    "type": "BPE",
    "dropout": null,
    "unk_token": "<UNK>",
    "continuing_subword_prefix": null,
    "end_of_word_suffix": null,
    "fuse_unk": false,
    "byte_fallback": false,
    "ignore_merges": false,
    "vocab": {
      "<UNK>": 0,
      "<SEP>": 1,
      "<MASK>": 2,
      "<CLS>": 3,
      "!": 4,
      "\"": 5,
      "$": 6,
      "%": 7,
      "&": 8,
      "'": 9,
      "(": 10,
      ")": 11,
      "*": 12,
      "+": 13,
      ",": 14,
      "-": 15,
      ".": 16,
      "/": 17,
      "0": 18,
      "1": 19,
      "2": 20,
      "3": 21,
      "4": 22,
      "5": 23,
      "6": 24,
      "7": 25,
      "8": 26,
      "9": 27,
      ":": 28,
      ";": 29,
      "<": 30,
      ">": 31,
      "?": 32,
      "A": 33,
      "B": 34,
      "C": 35,
      "D": 36,
      "E": 37,
      "F": 38,
      "G": 39,
      "H": 40,
      "I": 41,
      "J": 42,
      "K": 43,
      "L": 44,
      "M": 45,
      "N": 46,
      "O": 47,
      "P": 48,
      "Q": 49,
      "R": 50,
      "S": 51,
      "T": 52,
      "U": 53,
      "V": 54,
      "W": 55,
      "X": 56,
      "Y": 57,
      "Z": 58,
      "`": 59,
      "a": 60,
      "b": 61,
      "c": 62,
      "d": 63,
      "e": 64,
      "f": 65,
      "g": 66,
      "h": 67,
      "i": 68,
      "j": 69,
      "k": 70,
      "l": 71,
      "m": 72,
      "n": 73,
      "o": 74,
      "p": 75,
      "q": 76,
      "r": 77,
      "s": 78,
      "t": 79,
      "u": 80,
      "v": 81,
      "w": 82,
      "x": 83,
      "y": 84,
      "z": 85,
      "~": 86,
      "¡": 87,
      "¢": 88,
      "£": 89,
      "¥": 90,
      "§": 91,
      "¨": 92,
      "ª": 93,
      "«": 94,
      "¬": 95,
      "®": 96,
      "°": 97,
      "±": 98,
      "²": 99,
      "³": 100,
      "´": 101,
      "µ": 102,
      "·": 103,
      "¹": 104,
      "º": 105,
      "»": 106,
      "¼": 107,
      "½": 108,
      "¾": 109,
      "¿": 110,
      "À": 111,
      "Á": 112,
      "Ä": 113,
      "Å": 114,
      "Æ": 115,
      "Ç": 116,
      "È": 117,
      "É": 118,
      "Ê": 119,
      "Ì": 120,
      "Í": 121,
      "Î": 122,
      "Ð": 123,
      "Ñ": 124,
      "Ó": 125,
      "Ô": 126,
      "Õ": 127,
      "Ö": 128,
      "×": 129,
      "Ø": 130,
      "Ú": 131,
      "Ü": 132,
      "Þ": 133,
      "ß": 134,
      "à": 135,
      "á": 136,
      "â": 137,
      "ã": 138,
      "ä": 139,
      "å": 140,
      "æ": 141,
      "ç": 142,
      "è": 143,
      "é": 144,
      "ê": 145,
      "ë": 146,
      "ì": 147,
      "í": 148,
      "î": 149,
      "ï": 150,
      "ð": 151,
      "ñ": 152,
      "ò": 153,
      "ó": 154,
      "ô": 155,
      "õ": 156,
      "ö": 157,
      "ø": 158,
      "ù": 159,
      "ú": 160,
      "û": 161,
      "ü": 162,
      "ý": 163,
      "þ": 164,
      "ÿ": 165,
      "Ā": 166,
      "ā": 167,
      "ă": 168,
      "ą": 169,
      "Ć": 170,
      "ć": 171,
      "Č": 172,
      "č": 173,
      "ď": 174,
      "Đ": 175,
      "đ": 176,
      "Ē": 177,
      "ē": 178,
      "ė": 179,
      "Ę": 180,
      "ę": 181,
      "ě": 182,
      "ğ": 183,
      "ġ": 184,
      "ħ": 185,
      "ĩ": 186,
      "ī": 187,
      "ĭ": 188,
      "į": 189,
      "İ": 190,
      "ı": 191,
      "ĺ": 192,
      "ľ": 193,
      "ŀ": 194,
      "Ł": 195,
      "ł": 196,
      "ń": 197,
      "ņ": 198,
      "ň": 199,
      "ŋ": 200,
      "Ō": 201,
      "ō": 202,
      "ŏ": 203,
      "Ő": 204,
      "ő": 205,
      "Œ": 206,
      "œ": 207,
      "ŗ": 208,
      "Ř": 209,
      "ř": 210,
      "Ś": 211,
      "ś": 212,
      "Ş": 213,
      "ş": 214,
      "Š": 215,
      "š": 216,
      "Ţ": 217,
      "ţ": 218,
      "ť": 219,
      "ũ": 220,
      "ū": 221,
      "ů": 222,
      "ű": 223,
      "ų": 224,
      "ŵ": 225,
      "Ŷ": 226,
      "ŷ": 227,
      "Ź": 228,
      "ź": 229,
      "Ż": 230,
      "ż": 231,
      "Ž": 232,
      "ž": 233,
      "ſ": 234,
      "Ɔ": 235,
      "ơ": 236,
      "ư": 237,
      "ǎ": 238,
      "ǐ": 239,
      "ǒ": 240,
      "ǔ": 241,
      "ǚ": 242,
      "ǧ": 243,
      "ǫ": 244,
      "Ș": 245,
      "ș": 246,
      "ț": 247,
      "ɑ": 248,
      "ɔ": 249,
      "ɗ": 250,
      "ə": 251,
      "ɛ": 252,
      "ɤ": 253,
      "ɪ": 254,
      "ɫ": 255,
      "ɬ": 256,
      "ɹ": 257,
      "ʂ": 258,
      "ʃ": 259,
      "ʊ": 260,
      "ʌ": 261,
      "ʒ": 262,
      "ʳ": 263,
      "ʷ": 264,
      "ʻ": 265,
      "ʼ": 266,
      "ʾ": 267,
      "ʿ": 268,
      "ˇ": 269,
      "ˈ": 270,
      "ˉ": 271,
      "ˊ": 272,
      "ˌ": 273,
      "ː": 274,
      "˚": 275,
      "ˤ": 276,
      "́": 277,
      "̄": 278,
      "̈": 279,
      "̉": 280,
      "̝": 281,
      "̱": 282,
      "̲": 283,
      "Α": 284,
      "Β": 285,
      "Δ": 286,
      "Ε": 287,
      "Η": 288,
      "Θ": 289,
      "Ι": 290,
      "Κ": 291,
      "Λ": 292,
      "Μ": 293,
      "Ν": 294,
      "Ο": 295,
      "Π": 296,
      "Ρ": 297,
      "Σ": 298,
      "Τ": 299,
      "Υ": 300,
      "Φ": 301,
      "Ψ": 302,
      "Ω": 303,
      "ά": 304,
      "έ": 305,
      "ή": 306,
      "ί": 307,
      "α": 308,
      "β": 309,
      "γ": 310,
      "δ": 311,
      "ε": 312,
      "ζ": 313,
      "η": 314,
      "θ": 315,
      "ι": 316,
      "κ": 317,
      "λ": 318,
      "μ": 319,
      "ν": 320,
      "ξ": 321,
      "ο": 322,
      "π": 323,
      "ρ": 324,
      "ς": 325,
      "σ": 326,
      "τ": 327,
      "υ": 328,
      "φ": 329,
      "χ": 330,
      "ψ": 331,
      "ω": 332,
      "ϊ": 333,
      "ό": 334,
      "ύ": 335,
      "ώ": 336,
      "А": 337,
      "Б": 338,
      "В": 339,
      "Г": 340,
      "Д": 341,
      "Е": 342,
      "Ж": 343,
      "З": 344,
      "И": 345,
      "К": 346,
      "Л": 347,
      "М": 348,
      "Н": 349,
      "О": 350,
      "П": 351,
      "Р": 352,
      "С": 353,
      "Т": 354,
      "У": 355,
      "Ф": 356,
      "Ц": 357,
      "Ч": 358,
      "Ш": 359,
      "Э": 360,
      "Ю": 361,
      "Я": 362,
      "а": 363,
      "б": 364,
      "в": 365,
      "г": 366,
      "д": 367,
      "е": 368,
      "ж": 369,
      "з": 370,
      "и": 371,
      "й": 372,
      "к": 373,
      "л": 374,
      "м": 375,
      "н": 376,
      "о": 377,
      "п": 378,
      "р": 379,
      "с": 380,
      "т": 381,
      "у": 382,
      "ф": 383,
      "х": 384,
      "ц": 385,
      "ч": 386,
      "ш": 387,
      "щ": 388,
      "ы": 389,
      "ь": 390,
      "э": 391,
      "ю": 392,
      "я": 393,
      "ё": 394,
      "і": 395,
      "ї": 396,
      "љ": 397,
      "ћ": 398,
      "҆": 399,
      "ӏ": 400,
      "Ա": 401,
      "Կ": 402,
      "Ձ": 403,
      "Պ": 404,
      "Ջ": 405,
      "ա": 406,
      "գ": 407,
      "դ": 408,
      "ե": 409,
      "ի": 410,
      "խ": 411,
      "կ": 412,
      "ղ": 413,
      "մ": 414,
      "յ": 415,
      "ն": 416,
      "պ": 417,
      "ռ": 418,
      "ր": 419,
      "ְ": 420,
      "ָ": 421,
      "ֹ": 422,
      "א": 423,
      "ב": 424,
      "ד": 425,
      "ה": 426,
      "ו": 427,
      "ז": 428,
      "ח": 429,
      "י": 430,
      "כ": 431,
      "ל": 432,
      "מ": 433,
      "ן": 434,
      "נ": 435,
      "ס": 436,
      "ע": 437,
      "פ": 438,
      "ץ": 439,
      "צ": 440,
      "ק": 441,
      "ר": 442,
      "ש": 443,
      "ת": 444,
      "آ": 445,
      "أ": 446,
      "إ": 447,
      "ا": 448,
      "ب": 449,
      "ة": 450,
      "ت": 451,
      "ث": 452,
      "ج": 453,
      "ح": 454,
      "خ": 455,
      "د": 456,
      "ر": 457,
      "س": 458,
      "ش": 459,
      "ص": 460,
      "ض": 461,
      "ط": 462,
      "ظ": 463,
      "ع": 464,
      "غ": 465,
      "ـ": 466,
      "ف": 467,
      "ق": 468,
      "ك": 469,
      "ل": 470,
      "م": 471,
      "ن": 472,
      "ه": 473,
      "و": 474,
      "ي": 475,
      "ُ": 476,
      "ْ": 477,
      "پ": 478,
      "چ": 479,
      "ڠ": 480,
      "گ": 481,
      "ں": 482,
      "ھ": 483,
      "ہ": 484,
      "ی": 485,
      "ܐ": 486,
      "ܓ": 487,
      "ܢ": 488,
      "ܬ": 489,
      "ं": 490,
      "इ": 491,
      "ख": 492,
      "ग": 493,
      "च": 494,
      "ज": 495,
      "ट": 496,
      "द": 497,
      "न": 498,
      "प": 499,
      "फ": 500,
      "भ": 501,
      "म": 502,
      "य": 503,
      "र": 504,
      "ल": 505,
      "व": 506,
      "श": 507,
      "ष": 508,
      "स": 509,
      "ा": 510,
      "ि": 511,
      "ी": 512,
      "ु": 513,
      "ू": 514,
      "े": 515,
      "ो": 516,
      "्": 517,
      "।": 518,
      "আ": 519,
      "উ": 520,
      "এ": 521,
      "ক": 522,
      "ঙ": 523,
      "চ": 524,
      "ত": 525,
      "দ": 526,
      "ন": 527,
      "প": 528,
      "ফ": 529,
      "ব": 530,
      "ম": 531,
      "য": 532,
      "র": 533,
      "ল": 534,
      "শ": 535,
      "হ": 536,
      "া": 537,
      "ি": 538,
      "ী": 539,
      "ে": 540,
      "্": 541,
      "அ": 542,
      "உ": 543,
      "க": 544,
      "ச": 545,
      "ஜ": 546,
      "ட": 547,
      "த": 548,
      "ந": 549,
      "ப": 550,
      "ம": 551,
      "ர": 552,
      "ல": 553,
      "ழ": 554,
      "வ": 555,
      "ா": 556,
      "ி": 557,
      "ு": 558,
      "ூ": 559,
      "ே": 560,
      "ை": 561,
      "ோ": 562,
      "்": 563,
      "ം": 564,
      "ഇ": 565,
      "ട": 566,
      "ത": 567,
      "ല": 568,
      "വ": 569,
      "අ": 570,
      "ද": 571,
      "න": 572,
      "ල": 573,
      "ව": 574,
      "ා": 575,
      "ැ": 576,
      "ි": 577,
      "ෝ": 578,
      "ก": 579,
      "ข": 580,
      "ค": 581,
      "ง": 582,
      "จ": 583,
      "ช": 584,
      "ซ": 585,
      "ฒ": 586,
      "ณ": 587,
      "ด": 588,
      "ต": 589,
      "ถ": 590,
      "ท": 591,
      "ธ": 592,
      "น": 593,
      "บ": 594,
      "ป": 595,
      "ผ": 596,
      "พ": 597,
      "ฟ": 598,
      "ภ": 599,
      "ม": 600,
      "ย": 601,
      "ร": 602,
      "ล": 603,
      "ว": 604,
      "ศ": 605,
      "ษ": 606,
      "ส": 607,
      "ห": 608,
      "อ": 609,
      "ะ": 610,
      "ั": 611,
      "า": 612,
      "ำ": 613,
      "ิ": 614,
      "ี": 615,
      "ึ": 616,
      "ื": 617,
      "ุ": 618,
      "ู": 619,
      "฿": 620,
      "เ": 621,
      "แ": 622,
      "โ": 623,
      "ไ": 624,
      "่": 625,
      "้": 626,
      "๊": 627,
      "์": 628,
      "་": 629,
      "ད": 630,
      "བ": 631,
      "ོ": 632,
      "တ": 633,
      "န": 634,
      "ပ": 635,
      "ရ": 636,
      "သ": 637,
      "ူ": 638,
      "်": 639,
      "ၐ": 640,
      "ၑ": 641,
      "ა": 642,
      "ე": 643,
      "ზ": 644,
      "ი": 645,
      "ლ": 646,
      "ქ": 647,
      "ყ": 648,
      "წ": 649,
      "ᐯ": 650,
      "ᐸ": 651,
      "ᑐ": 652,
      "ᘅ": 653,
      "ᵉ": 654,
      "ḇ": 655,
      "ḍ": 656,
      "Ḥ": 657,
      "ḥ": 658,
      "ḫ": 659,
      "ḳ": 660,
      "ḵ": 661,
      "ḷ": 662,
      "ḻ": 663,
      "ṃ": 664,
      "ṅ": 665,
      "ṇ": 666,
      "ṉ": 667,
      "ṛ": 668,
      "ṟ": 669,
      "Ṣ": 670,
      "ṣ": 671,
      "Ṭ": 672,
      "ṭ": 673,
      "ṯ": 674,
      "ẞ": 675,
      "ạ": 676,
      "ả": 677,
      "ầ": 678,
      "ẩ": 679,
      "ắ": 680,
      "ằ": 681,
      "ẻ": 682,
      "ẽ": 683,
      "ế": 684,
      "ề": 685,
      "ễ": 686,
      "ệ": 687,
      "ị": 688,
      "Ọ": 689,
      "ọ": 690,
      "ố": 691,
      "ồ": 692,
      "ổ": 693,
      "ộ": 694,
      "ớ": 695,
      "ờ": 696,
      "ở": 697,
      "ợ": 698,
      "ủ": 699,
      "ứ": 700,
      "ử": 701,
      "ἀ": 702,
      "ἄ": 703,
      "ἐ": 704,
      "ἑ": 705,
      "ἔ": 706,
      "ἰ": 707,
      "ὀ": 708,
      "ὁ": 709,
      "ὅ": 710,
      "ὑ": 711,
      "ὸ": 712,
      "ῥ": 713,
      "ῦ": 714,
      "ῶ": 715,
      "​": 716,
      "‍": 717,
      "‎": 718,
      "‐": 719,
      "‑": 720,
      "–": 721,
      "—": 722,
      "―": 723,
      "‘": 724,
      "’": 725,
      "‛": 726,
      "“": 727,
      "”": 728,
      "„": 729,
      "†": 730,
      "‡": 731,
      "•": 732,
      "…": 733,
      "‰": 734,
      "′": 735,
      "″": 736,
      "‹": 737,
      "›": 738,
      "⁄": 739,
      "⁵": 740,
      "⁹": 741,
      "⁻": 742,
      "₡": 743,
      "₤": 744,
      "₩": 745,
      "€": 746,
      "₱": 747,
      "₹": 748,
      "℃": 749,
      "ℓ": 750,
      "№": 751,
      "™": 752,
      "⅓": 753,
      "⅔": 754,
      "⅕": 755,
      "⅛": 756,
      "⅜": 757,
      "Ⅲ": 758,
      "Ⅹ": 759,
      "→": 760,
      "↵": 761,
      "∂": 762,
      "∆": 763,
      "−": 764,
      "∙": 765,
      "∞": 766,
      "∧": 767,
      "∩": 768,
      "∪": 769,
      "∴": 770,
      "≈": 771,
      "≠": 772,
      "≡": 773,
      "≤": 774,
      "≥": 775,
      "≪": 776,
      "≫": 777,
      "⋅": 778,
      "─": 779,
      "┬": 780,
      "□": 781,
      "☆": 782,
      "☉": 783,
      "♘": 784,
      "♡": 785,
      "♭": 786,
      "⟨": 787,
      "⟩": 788,
      "⿱": 789,
      "、": 790,
      "。": 791,
      "々": 792,
      "〈": 793,
      "〉": 794,
      "《": 795,
      "》": 796,
      "「": 797,
      "」": 798,
      "『": 799,
      "』": 800,
      "〔": 801,
      "〕": 802,
      "あ": 803,
      "い": 804,
      "う": 805,
      "え": 806,
      "お": 807,
      "か": 808,
      "き": 809,
      "ぎ": 810,
      "く": 811,
      "け": 812,
      "こ": 813,
      "ご": 814,
      "さ": 815,
      "し": 816,
      "じ": 817,
      "す": 818,
      "ず": 819,
      "せ": 820,
      "ぞ": 821,
      "た": 822,
      "だ": 823,
      "ち": 824,
      "っ": 825,
      "つ": 826,
      "づ": 827,
      "て": 828,
      "で": 829,
      "と": 830,
      "ど": 831,
      "な": 832,
      "に": 833,
      "の": 834,
      "へ": 835,
      "ぼ": 836,
      "ま": 837,
      "み": 838,
      "む": 839,
      "ゃ": 840,
      "ら": 841,
      "り": 842,
      "わ": 843,
      "を": 844,
      "ん": 845,
      "゜": 846,
      "ア": 847,
      "ィ": 848,
      "イ": 849,
      "ウ": 850,
      "ェ": 851,
      "エ": 852,
      "ォ": 853,
      "オ": 854,
      "カ": 855,
      "ガ": 856,
      "キ": 857,
      "ギ": 858,
      "ク": 859,
      "グ": 860,
      "ゲ": 861,
      "サ": 862,
      "シ": 863,
      "ジ": 864,
      "ス": 865,
      "ズ": 866,
      "セ": 867,
      "ゼ": 868,
      "ソ": 869,
      "タ": 870,
      "ダ": 871,
      "チ": 872,
      "ッ": 873,
      "ツ": 874,
      "デ": 875,
      "ト": 876,
      "ド": 877,
      "ニ": 878,
      "ヌ": 879,
      "ノ": 880,
      "ハ": 881,
      "バ": 882,
      "パ": 883,
      "ヒ": 884,
      "ビ": 885,
      "フ": 886,
      "ブ": 887,
      "プ": 888,
      "ベ": 889,
      "ボ": 890,
      "マ": 891,
      "ミ": 892,
      "ム": 893,
      "メ": 894,
      "モ": 895,
      "ャ": 896,
      "ヤ": 897,
      "ュ": 898,
      "ユ": 899,
      "ョ": 900,
      "ヨ": 901,
      "ラ": 902,
      "リ": 903,
      "ル": 904,
      "レ": 905,
      "ロ": 906,
      "ン": 907,
      "ヴ": 908,
      "・": 909,
      "ー": 910,
      "ㄌ": 911,
      "ㄘ": 912,
      "ㄣ": 913,
      "ㄧ": 914,
      "ㄨ": 915,
      "一": 916,
      "万": 917,
      "三": 918,
      "上": 919,
      "下": 920,
      "世": 921,
      "东": 922,
      "两": 923,
      "中": 924,
      "丸": 925,
      "主": 926,
      "乃": 927,
      "之": 928,
      "乙": 929,
      "九": 930,
      "乡": 931,
      "书": 932,
      "亂": 933,
      "事": 934,
      "二": 935,
      "于": 936,
      "井": 937,
      "亜": 938,
      "交": 939,
      "京": 940,
      "人": 941,
      "什": 942,
      "仁": 943,
      "今": 944,
      "仝": 945,
      "代": 946,
      "令": 947,
      "仰": 948,
      "任": 949,
      "伊": 950,
      "伏": 951,
      "伐": 952,
      "会": 953,
      "传": 954,
      "伯": 955,
      "伸": 956,
      "佐": 957,
      "体": 958,
      "何": 959,
      "佛": 960,
      "作": 961,
      "你": 962,
      "使": 963,
      "侯": 964,
      "倉": 965,
      "偕": 966,
      "偵": 967,
      "像": 968,
      "儿": 969,
      "元": 970,
      "先": 971,
      "光": 972,
      "克": 973,
      "內": 974,
      "全": 975,
      "八": 976,
      "公": 977,
      "共": 978,
      "典": 979,
      "内": 980,
      "再": 981,
      "冒": 982,
      "军": 983,
      "冠": 984,
      "凍": 985,
      "処": 986,
      "出": 987,
      "切": 988,
      "列": 989,
      "別": 990,
      "到": 991,
      "前": 992,
      "剣": 993,
      "剧": 994,
      "劇": 995,
      "力": 996,
      "加": 997,
      "动": 998,
      "助": 999,
      "動": 1000,
      "勝": 1001,
      "勿": 1002,
      "北": 1003,
      "区": 1004,
      "十": 1005,
      "千": 1006,
      "半": 1007,
      "協": 1008,
      "南": 1009,
      "博": 1010,
      "卫": 1011,
      "厂": 1012,
      "历": 1013,
      "原": 1014,
      "厲": 1015,
      "县": 1016,
      "又": 1017,
      "友": 1018,
      "取": 1019,
      "口": 1020,
      "台": 1021,
      "史": 1022,
      "右": 1023,
      "号": 1024,
      "司": 1025,
      "吃": 1026,
      "合": 1027,
      "吉": 1028,
      "同": 1029,
      "名": 1030,
      "后": 1031,
      "向": 1032,
      "君": 1033,
      "吸": 1034,
      "吹": 1035,
      "吾": 1036,
      "告": 1037,
      "味": 1038,
      "呼": 1039,
      "命": 1040,
      "和": 1041,
      "咲": 1042,
      "品": 1043,
      "哪": 1044,
      "唱": 1045,
      "喃": 1046,
      "喜": 1047,
      "單": 1048,
      "嘉": 1049,
      "噂": 1050,
      "四": 1051,
      "回": 1052,
      "园": 1053,
      "囯": 1054,
      "国": 1055,
      "圆": 1056,
      "國": 1057,
      "園": 1058,
      "土": 1059,
      "在": 1060,
      "坂": 1061,
      "垣": 1062,
      "城": 1063,
      "基": 1064,
      "埼": 1065,
      "堀": 1066,
      "報": 1067,
      "塔": 1068,
      "塼": 1069,
      "塽": 1070,
      "壮": 1071,
      "壯": 1072,
      "声": 1073,
      "夏": 1074,
      "外": 1075,
      "多": 1076,
      "夢": 1077,
      "大": 1078,
      "天": 1079,
      "太": 1080,
      "夫": 1081,
      "失": 1082,
      "头": 1083,
      "奄": 1084,
      "奇": 1085,
      "奈": 1086,
      "奉": 1087,
      "奎": 1088,
      "女": 1089,
      "好": 1090,
      "妃": 1091,
      "妻": 1092,
      "始": 1093,
      "委": 1094,
      "威": 1095,
      "婉": 1096,
      "孁": 1097,
      "子": 1098,
      "字": 1099,
      "孝": 1100,
      "孤": 1101,
      "学": 1102,
      "學": 1103,
      "宁": 1104,
      "安": 1105,
      "完": 1106,
      "宓": 1107,
      "宗": 1108,
      "官": 1109,
      "宝": 1110,
      "実": 1111,
      "宣": 1112,
      "宵": 1113,
      "家": 1114,
      "寄": 1115,
      "密": 1116,
      "寓": 1117,
      "察": 1118,
      "實": 1119,
      "寺": 1120,
      "寿": 1121,
      "將": 1122,
      "尉": 1123,
      "小": 1124,
      "尔": 1125,
      "尖": 1126,
      "局": 1127,
      "屐": 1128,
      "屑": 1129,
      "履": 1130,
      "屬": 1131,
      "山": 1132,
      "岳": 1133,
      "峡": 1134,
      "島": 1135,
      "川": 1136,
      "州": 1137,
      "巢": 1138,
      "左": 1139,
      "己": 1140,
      "已": 1141,
      "巳": 1142,
      "巴": 1143,
      "市": 1144,
      "帅": 1145,
      "希": 1146,
      "幣": 1147,
      "平": 1148,
      "年": 1149,
      "幽": 1150,
      "广": 1151,
      "店": 1152,
      "府": 1153,
      "度": 1154,
      "庫": 1155,
      "庭": 1156,
      "庵": 1157,
      "廉": 1158,
      "廢": 1159,
      "延": 1160,
      "建": 1161,
      "式": 1162,
      "弓": 1163,
      "弘": 1164,
      "弩": 1165,
      "强": 1166,
      "形": 1167,
      "徐": 1168,
      "微": 1169,
      "徳": 1170,
      "德": 1171,
      "徽": 1172,
      "心": 1173,
      "志": 1174,
      "念": 1175,
      "性": 1176,
      "恋": 1177,
      "恪": 1178,
      "息": 1179,
      "恵": 1180,
      "悲": 1181,
      "惠": 1182,
      "想": 1183,
      "意": 1184,
      "愛": 1185,
      "慎": 1186,
      "戈": 1187,
      "成": 1188,
      "我": 1189,
      "戦": 1190,
      "户": 1191,
      "戸": 1192,
      "手": 1193,
      "打": 1194,
      "拓": 1195,
      "拥": 1196,
      "拱": 1197,
      "持": 1198,
      "挂": 1199,
      "按": 1200,
      "捕": 1201,
      "掌": 1202,
      "探": 1203,
      "揚": 1204,
      "握": 1205,
      "收": 1206,
      "政": 1207,
      "教": 1208,
      "文": 1209,
      "斗": 1210,
      "料": 1211,
      "斥": 1212,
      "斯": 1213,
      "新": 1214,
      "方": 1215,
      "施": 1216,
      "族": 1217,
      "既": 1218,
      "日": 1219,
      "早": 1220,
      "明": 1221,
      "星": 1222,
      "春": 1223,
      "晁": 1224,
      "景": 1225,
      "暗": 1226,
      "暦": 1227,
      "暫": 1228,
      "曲": 1229,
      "曳": 1230,
      "書": 1231,
      "最": 1232,
      "會": 1233,
      "月": 1234,
      "有": 1235,
      "朐": 1236,
      "朗": 1237,
      "朝": 1238,
      "朧": 1239,
      "木": 1240,
      "未": 1241,
      "本": 1242,
      "术": 1243,
      "朱": 1244,
      "杉": 1245,
      "李": 1246,
      "材": 1247,
      "村": 1248,
      "条": 1249,
      "杨": 1250,
      "東": 1251,
      "松": 1252,
      "林": 1253,
      "果": 1254,
      "校": 1255,
      "根": 1256,
      "格": 1257,
      "桂": 1258,
      "案": 1259,
      "桜": 1260,
      "梅": 1261,
      "梓": 1262,
      "梨": 1263,
      "森": 1264,
      "楊": 1265,
      "楽": 1266,
      "榮": 1267,
      "樊": 1268,
      "橋": 1269,
      "橘": 1270,
      "橫": 1271,
      "檀": 1272,
      "次": 1273,
      "歌": 1274,
      "止": 1275,
      "正": 1276,
      "武": 1277,
      "歩": 1278,
      "段": 1279,
      "殺": 1280,
      "氏": 1281,
      "民": 1282,
      "气": 1283,
      "水": 1284,
      "氵": 1285,
      "永": 1286,
      "汉": 1287,
      "江": 1288,
      "池": 1289,
      "汤": 1290,
      "汪": 1291,
      "沤": 1292,
      "河": 1293,
      "治": 1294,
      "沼": 1295,
      "泉": 1296,
      "波": 1297,
      "泰": 1298,
      "泳": 1299,
      "洋": 1300,
      "洛": 1301,
      "洪": 1302,
      "活": 1303,
      "浜": 1304,
      "浩": 1305,
      "浮": 1306,
      "海": 1307,
      "涌": 1308,
      "润": 1309,
      "渝": 1310,
      "渡": 1311,
      "湖": 1312,
      "湾": 1313,
      "源": 1314,
      "溪": 1315,
      "演": 1316,
      "漢": 1317,
      "潤": 1318,
      "濟": 1319,
      "瀬": 1320,
      "炊": 1321,
      "炜": 1322,
      "為": 1323,
      "烈": 1324,
      "烏": 1325,
      "照": 1326,
      "煮": 1327,
      "熊": 1328,
      "爱": 1329,
      "父": 1330,
      "特": 1331,
      "狩": 1332,
      "狼": 1333,
      "献": 1334,
      "玄": 1335,
      "玉": 1336,
      "王": 1337,
      "珍": 1338,
      "班": 1339,
      "理": 1340,
      "瑶": 1341,
      "璇": 1342,
      "生": 1343,
      "田": 1344,
      "由": 1345,
      "电": 1346,
      "町": 1347,
      "畅": 1348,
      "痴": 1349,
      "瘋": 1350,
      "癲": 1351,
      "白": 1352,
      "百": 1353,
      "的": 1354,
      "皇": 1355,
      "皋": 1356,
      "皮": 1357,
      "盛": 1358,
      "目": 1359,
      "相": 1360,
      "眞": 1361,
      "真": 1362,
      "矢": 1363,
      "知": 1364,
      "短": 1365,
      "石": 1366,
      "碣": 1367,
      "社": 1368,
      "神": 1369,
      "秀": 1370,
      "私": 1371,
      "秈": 1372,
      "种": 1373,
      "科": 1374,
      "秘": 1375,
      "移": 1376,
      "稔": 1377,
      "種": 1378,
      "穆": 1379,
      "立": 1380,
      "章": 1381,
      "第": 1382,
      "筆": 1383,
      "篇": 1384,
      "築": 1385,
      "簡": 1386,
      "糖": 1387,
      "糸": 1388,
      "紀": 1389,
      "約": 1390,
      "紅": 1391,
      "紙": 1392,
      "級": 1393,
      "素": 1394,
      "紫": 1395,
      "紹": 1396,
      "絡": 1397,
      "統": 1398,
      "絶": 1399,
      "絹": 1400,
      "經": 1401,
      "綬": 1402,
      "維": 1403,
      "綿": 1404,
      "総": 1405,
      "線": 1406,
      "縱": 1407,
      "總": 1408,
      "绍": 1409,
      "署": 1410,
      "羅": 1411,
      "美": 1412,
      "義": 1413,
      "羽": 1414,
      "翁": 1415,
      "翠": 1416,
      "老": 1417,
      "者": 1418,
      "而": 1419,
      "职": 1420,
      "联": 1421,
      "聯": 1422,
      "肅": 1423,
      "脳": 1424,
      "腐": 1425,
      "膏": 1426,
      "臓": 1427,
      "自": 1428,
      "與": 1429,
      "航": 1430,
      "船": 1431,
      "良": 1432,
      "色": 1433,
      "艺": 1434,
      "节": 1435,
      "花": 1436,
      "苗": 1437,
      "英": 1438,
      "茜": 1439,
      "華": 1440,
      "萌": 1441,
      "葬": 1442,
      "蔵": 1443,
      "薰": 1444,
      "藤": 1445,
      "藺": 1446,
      "蘋": 1447,
      "蘭": 1448,
      "蜀": 1449,
      "蜂": 1450,
      "行": 1451,
      "衍": 1452,
      "術": 1453,
      "衣": 1454,
      "表": 1455,
      "裁": 1456,
      "裕": 1457,
      "裸": 1458,
      "製": 1459,
      "褒": 1460,
      "襄": 1461,
      "西": 1462,
      "要": 1463,
      "覆": 1464,
      "親": 1465,
      "觀": 1466,
      "见": 1467,
      "视": 1468,
      "角": 1469,
      "言": 1470,
      "訖": 1471,
      "記": 1472,
      "証": 1473,
      "詐": 1474,
      "語": 1475,
      "説": 1476,
      "誰": 1477,
      "調": 1478,
      "諧": 1479,
      "諸": 1480,
      "諾": 1481,
      "謀": 1482,
      "謎": 1483,
      "講": 1484,
      "謝": 1485,
      "謡": 1486,
      "譜": 1487,
      "警": 1488,
      "讃": 1489,
      "记": 1490,
      "讲": 1491,
      "豆": 1492,
      "豫": 1493,
      "貫": 1494,
      "責": 1495,
      "貴": 1496,
      "賢": 1497,
      "贵": 1498,
      "赤": 1499,
      "走": 1500,
      "起": 1501,
      "超": 1502,
      "越": 1503,
      "趙": 1504,
      "跡": 1505,
      "路": 1506,
      "身": 1507,
      "車": 1508,
      "軍": 1509,
      "軒": 1510,
      "辛": 1511,
      "辞": 1512,
      "达": 1513,
      "辿": 1514,
      "迅": 1515,
      "过": 1516,
      "追": 1517,
      "通": 1518,
      "進": 1519,
      "逸": 1520,
      "運": 1521,
      "道": 1522,
      "達": 1523,
      "遺": 1524,
      "邑": 1525,
      "邡": 1526,
      "那": 1527,
      "郎": 1528,
      "郑": 1529,
      "郡": 1530,
      "部": 1531,
      "都": 1532,
      "鄠": 1533,
      "鄰": 1534,
      "酒": 1535,
      "醂": 1536,
      "醉": 1537,
      "里": 1538,
      "重": 1539,
      "金": 1540,
      "鋒": 1541,
      "錢": 1542,
      "铃": 1543,
      "镇": 1544,
      "长": 1545,
      "門": 1546,
      "閃": 1547,
      "開": 1548,
      "間": 1549,
      "関": 1550,
      "關": 1551,
      "阿": 1552,
      "陛": 1553,
      "院": 1554,
      "陳": 1555,
      "険": 1556,
      "陽": 1557,
      "隆": 1558,
      "隐": 1559,
      "際": 1560,
      "雄": 1561,
      "雛": 1562,
      "雞": 1563,
      "難": 1564,
      "雨": 1565,
      "雪": 1566,
      "霸": 1567,
      "靖": 1568,
      "面": 1569,
      "革": 1570,
      "鞮": 1571,
      "韓": 1572,
      "韦": 1573,
      "音": 1574,
      "順": 1575,
      "願": 1576,
      "风": 1577,
      "飛": 1578,
      "食": 1579,
      "飾": 1580,
      "餠": 1581,
      "馨": 1582,
      "馬": 1583,
      "駅": 1584,
      "驟": 1585,
      "骨": 1586,
      "高": 1587,
      "鱒": 1588,
      "鲁": 1589,
      "鲤": 1590,
      "鳥": 1591,
      "鳳": 1592,
      "鴨": 1593,
      "鶴": 1594,
      "鸟": 1595,
      "鸡": 1596,
      "鸭": 1597,
      "黃": 1598,
      "黄": 1599,
      "黒": 1600,
      "黨": 1601,
      "龍": 1602,
      "龐": 1603,
      "龙": 1604,
      "Ꝣ": 1605,
      "ꝣ": 1606,
      "ꯀ": 1607,
      "ꯂ": 1608,
      "ꯃ": 1609,
      "ꯄ": 1610,
      "ꯅ": 1611,
      "ꯈ": 1612,
      "ꯉ": 1613,
      "ꯊ": 1614,
      "ꯔ": 1615,
      "ꯛ": 1616,
      "ꯜ": 1617,
      "ꯡ": 1618,
      "ꯣ": 1619,
      "ꯤ": 1620,
      "ꯥ": 1621,
      "ꯦ": 1622,
      "ꯧ": 1623,
      "ꯨ": 1624,
      "ꯩ": 1625,
      "가": 1626,
      "강": 1627,
      "개": 1628,
      "결": 1629,
      "경": 1630,
      "계": 1631,
      "고": 1632,
      "곡": 1633,
      "공": 1634,
      "과": 1635,
      "교": 1636,
      "국": 1637,
      "군": 1638,
      "궁": 1639,
      "규": 1640,
      "그": 1641,
      "글": 1642,
      "기": 1643,
      "길": 1644,
      "김": 1645,
      "나": 1646,
      "난": 1647,
      "낮": 1648,
      "내": 1649,
      "너": 1650,
      "널": 1651,
      "누": 1652,
      "니": 1653,
      "다": 1654,
      "단": 1655,
      "당": 1656,
      "대": 1657,
      "데": 1658,
      "도": 1659,
      "동": 1660,
      "따": 1661,
      "때": 1662,
      "라": 1663,
      "랑": 1664,
      "례": 1665,
      "로": 1666,
      "룹": 1667,
      "류": 1668,
      "리": 1669,
      "마": 1670,
      "만": 1671,
      "먼": 1672,
      "무": 1673,
      "문": 1674,
      "물": 1675,
      "뮤": 1676,
      "미": 1677,
      "민": 1678,
      "밀": 1679,
      "박": 1680,
      "밤": 1681,
      "방": 1682,
      "백": 1683,
      "뱅": 1684,
      "번": 1685,
      "벌": 1686,
      "본": 1687,
      "부": 1688,
      "북": 1689,
      "뷔": 1690,
      "비": 1691,
      "빌": 1692,
      "뻐": 1693,
      "뿌": 1694,
      "사": 1695,
      "산": 1696,
      "새": 1697,
      "생": 1698,
      "서": 1699,
      "선": 1700,
      "설": 1701,
      "성": 1702,
      "세": 1703,
      "수": 1704,
      "숙": 1705,
      "스": 1706,
      "시": 1707,
      "식": 1708,
      "신": 1709,
      "심": 1710,
      "쌈": 1711,
      "아": 1712,
      "안": 1713,
      "알": 1714,
      "암": 1715,
      "앤": 1716,
      "약": 1717,
      "양": 1718,
      "에": 1719,
      "엔": 1720,
      "엣": 1721,
      "여": 1722,
      "연": 1723,
      "예": 1724,
      "옹": 1725,
      "왕": 1726,
      "외": 1727,
      "요": 1728,
      "욕": 1729,
      "용": 1730,
      "우": 1731,
      "운": 1732,
      "원": 1733,
      "위": 1734,
      "유": 1735,
      "을": 1736,
      "음": 1737,
      "의": 1738,
      "이": 1739,
      "인": 1740,
      "자": 1741,
      "장": 1742,
      "재": 1743,
      "쟁": 1744,
      "전": 1745,
      "젓": 1746,
      "정": 1747,
      "제": 1748,
      "조": 1749,
      "종": 1750,
      "좌": 1751,
      "주": 1752,
      "줄": 1753,
      "중": 1754,
      "지": 1755,
      "직": 1756,
      "진": 1757,
      "찌": 1758,
      "찬": 1759,
      "천": 1760,
      "쳐": 1761,
      "출": 1762,
      "컴": 1763,
      "코": 1764,
      "쿵": 1765,
      "크": 1766,
      "타": 1767,
      "태": 1768,
      "터": 1769,
      "테": 1770,
      "토": 1771,
      "트": 1772,
      "티": 1773,
      "틱": 1774,
      "파": 1775,
      "판": 1776,
      "퍼": 1777,
      "평": 1778,
      "폐": 1779,
      "포": 1780,
      "하": 1781,
      "학": 1782,
      "한": 1783,
      "해": 1784,
      "행": 1785,
      "향": 1786,
      "헌": 1787,
      "현": 1788,
      "호": 1789,
      "혹": 1790,
      "회": 1791,
      "횡": 1792,
      "훈": 1793,
      "휘": 1794,
      "흘": 1795,
      "흥": 1796,
      "": 1797,
      "ﬁ": 1798,
      "ﬂ": 1799,
      "︠": 1800,
      "︡": 1801,
      "ﺍ": 1802,
      "ﺏ": 1803,
      "ﺤ": 1804,
      "ﺩ": 1805,
      "ﻫ": 1806,
      "！": 1807,
      "（": 1808,
      "）": 1809,
      "，": 1810,
      "７": 1811,
      "：": 1812,
      "｢": 1813,
      "￼": 1814,
      "de": 1815,
      "en": 1816,
      "er": 1817,
      "es": 1818,
      "an": 1819,
      "on": 1820,
      "ar": 1821,
      "in": 1822,
      "as": 1823,
      "or": 1824,
      "os": 1825,
      "th": 1826,
      "al": 1827,
      "la": 1828,
      "ci": 1829,
      "el": 1830,
      "is": 1831,
      "re": 1832,
      "ti": 1833,
      "ad": 1834,
      "the": 1835,
      "un": 1836,
      "te": 1837,
      "to": 1838,
      "ue": 1839,
      "tr": 1840,
      "om": 1841,
      "se": 1842,
      "ta": 1843,
      "ic": 1844,
      "le": 1845,
      "con": 1846,
      "and": 1847,
      "of": 1848,
      "que": 1849,
      "ed": 1850,
      "pr": 1851,
      "am": 1852,
      "su": 1853,
      "ón": 1854,
      "at": 1855,
      "he": 1856,
      "ur": 1857,
      "ol": 1858,
      "id": 1859,
      "ing": 1860,
      "it": 1861,
      "ent": 1862,
      "ac": 1863,
      "il": 1864,
      "par": 1865,
      "los": 1866,
      "ab": 1867,
      "com": 1868,
      "di": 1869,
      "lo": 1870,
      "ter": 1871,
      "por": 1872,
      "ch": 1873,
      "ción": 1874,
      "im": 1875,
      "cu": 1876,
      "del": 1877,
      "ig": 1878,
      "ir": 1879,
      "us": 1880,
      "no": 1881,
      "ma": 1882,
      "per": 1883,
      "do": 1884,
      "for": 1885,
      "las": 1886,
      "em": 1887,
      "ver": 1888,
      "The": 1889,
      "ec": 1890,
      "ado": 1891,
      "19": 1892,
      "des": 1893,
      "20": 1894,
      "ente": 1895,
      "po": 1896,
      "una": 1897,
      "gr": 1898,
      "was": 1899,
      "pro": 1900,
      "tion": 1901,
      "ou": 1902,
      "est": 1903,
      "ca": 1904,
      "ía": 1905,
      "ve": 1906,
      "pe": 1907,
      "co": 1908,
      "io": 1909,
      "ia": 1910,
      "be": 1911,
      "st": 1912,
      "pu": 1913,
      "si": 1914,
      "so": 1915,
      "para": 1916,
      "mo": 1917,
      "go": 1918,
      "li": 1919,
      "qu": 1920,
      "ro": 1921,
      "ha": 1922,
      "cion": 1923,
      "ex": 1924,
      "ce": 1925,
      "man": 1926,
      "vi": 1927,
      "ra": 1928,
      "ada": 1929,
      "pa": 1930,
      "ly": 1931,
      "tu": 1932,
      "ien": 1933,
      "ten": 1934,
      "da": 1935,
      "fr": 1936,
      "tor": 1937,
      "are": 1938,
      "ere": 1939,
      "res": 1940,
      "his": 1941,
      "den": 1942,
      "El": 1943,
      "ás": 1944,
      "En": 1945,
      "bi": 1946,
      "tra": 1947,
      "wh": 1948,
      "ted": 1949,
      "der": 1950,
      "me": 1951,
      "ica": 1952,
      "ul": 1953,
      "ne": 1954,
      "ag": 1955,
      "um": 1956,
      "ri": 1957,
      "son": 1958,
      "In": 1959,
      "cia": 1960,
      "como": 1961,
      "era": 1962,
      "bre": 1963,
      "ales": 1964,
      "más": 1965,
      "ser": 1966,
      "op": 1967,
      "ant": 1968,
      "La": 1969,
      "iz": 1970,
      "mu": 1971,
      "ith": 1972,
      "lu": 1973,
      "vo": 1974,
      "dis": 1975,
      "ando": 1976,
      "ber": 1977,
      "ts": 1978,
      "fue": 1979,
      "that": 1980,
      "pos": 1981,
      "can": 1982,
      "cal": 1983,
      "car": 1984,
      "ge": 1985,
      "pres": 1986,
      "ay": 1987,
      "dos": 1988,
      "mente": 1989,
      "ido": 1990,
      "with": 1991,
      "br": 1992,
      "uc": 1993,
      "ados": 1994,
      "ciones": 1995,
      "by": 1996,
      "200": 1997,
      "ante": 1998,
      "bu": 1999,
      "lar": 2000,
      "esta": 2001,
      "has": 2002,
      "ther": 2003,
      "cas": 2004,
      "201": 2005,
      "tro": 2006,
      "na": 2007,
      "He": 2008,
      "sus": 2009,
      "It": 2010,
      "bl": 2011,
      "aj": 2012,
      "ici": 2013,
      "all": 2014,
      "idad": 2015,
      "pla": 2016,
      "00": 2017,
      "pl": 2018,
      "ni": 2019,
      "gu": 2020,
      "ho": 2021,
      "ke": 2022,
      "én": 2023,
      "pi": 2024,
      "fer": 2025,
      "ven": 2026,
      "one": 2027,
      "va": 2028,
      "hi": 2029,
      "ces": 2030,
      "ida": 2031,
      "from": 2032,
      "au": 2033,
      "pre": 2034,
      "añ": 2035,
      "bo": 2036,
      "mar": 2037,
      "Es": 2038,
      "ble": 2039,
      "cor": 2040,
      "tur": 2041,
      "ero": 2042,
      "ación": 2043,
      "igh": 2044,
      "ame": 2045,
      "fin": 2046,
      "cre": 2047,
      "fu": 2048,
      "wn": 2049,
      "és": 2050,
      "min": 2051,
      "ari": 2052,
      "án": 2053,
      "tos": 2054,
      "fe": 2055,
      "hab": 2056,
      "med": 2057,
      "ion": 2058,
      "vis": 2059,
      "ico": 2060,
      "les": 2061,
      "ob": 2062,
      "prim": 2063,
      "tem": 2064,
      "ud": 2065,
      "her": 2066,
      "ador": 2067,
      "eron": 2068,
      "gen": 2069,
      "ap": 2070,
      "not": 2071,
      "und": 2072,
      "ele": 2073,
      "men": 2074,
      "ome": 2075,
      "Se": 2076,
      "out": 2077,
      "ear": 2078,
      "ty": 2079,
      "ld": 2080,
      ").": 2081,
      "Al": 2082,
      "18": 2083,
      "ans": 2084,
      "bién": 2085,
      "ist": 2086,
      "wor": 2087,
      "ded": 2088,
      "ill": 2089,
      "tam": 2090,
      "were": 2091,
      "ina": 2092,
      "led": 2093,
      "tar": 2094,
      "za": 2095,
      "we": 2096,
      "fir": 2097,
      "cam": 2098,
      "inter": 2099,
      "gan": 2100,
      "ión": 2101,
      "mi": 2102,
      "ba": 2103,
      "qui": 2104,
      "mis": 2105,
      "ple": 2106,
      "cen": 2107,
      "tri": 2108,
      "tiv": 2109,
      "ich": 2110,
      "gar": 2111,
      "sig": 2112,
      "jo": 2113,
      "tras": 2114,
      "gh": 2115,
      "mos": 2116,
      "ard": 2117,
      "Th": 2118,
      "mer": 2119,
      "olo": 2120,
      "ment": 2121,
      "cr": 2122,
      "fic": 2123,
      "ine": 2124,
      "entre": 2125,
      "iento": 2126,
      "cho": 2127,
      "ga": 2128,
      "tes": 2129,
      "fi": 2130,
      "also": 2131,
      "use": 2132,
      "may": 2133,
      "fo": 2134,
      "almente": 2135,
      "ish": 2136,
      "sti": 2137,
      "Ch": 2138,
      "ople": 2139,
      "ese": 2140,
      "rec": 2141,
      "gun": 2142,
      "pue": 2143,
      "ers": 2144,
      "adas": 2145,
      "tien": 2146,
      "199": 2147,
      "od": 2148,
      "parti": 2149,
      "ell": 2150,
      "amente": 2151,
      "str": 2152,
      "bar": 2153,
      "ong": 2154,
      "red": 2155,
      "cer": 2156,
      "tan": 2157,
      "have": 2158,
      "clu": 2159,
      "antes": 2160,
      "tal": 2161,
      "pen": 2162,
      "Con": 2163,
      "af": 2164,
      "ore": 2165,
      "they": 2166,
      "ie": 2167,
      "tin": 2168,
      "Mar": 2169,
      "person": 2170,
      "sin": 2171,
      "pas": 2172,
      "An": 2173,
      "aron": 2174,
      "people": 2175,
      "other": 2176,
      "ran": 2177,
      "ity": 2178,
      "vel": 2179,
      "Re": 2180,
      "ior": 2181,
      "cos": 2182,
      "entes": 2183,
      "prod": 2184,
      "vers": 2185,
      "dur": 2186,
      "mon": 2187,
      "también": 2188,
      "este": 2189,
      "ves": 2190,
      "ally": 2191,
      "ck": 2192,
      "col": 2193,
      "ún": 2194,
      "Los": 2195,
      "bas": 2196,
      "lle": 2197,
      "had": 2198,
      "\".": 2199,
      "años": 2200,
      "ach": 2201,
      "),": 2202,
      "cuen": 2203,
      "et": 2204,
      "pero": 2205,
      "This": 2206,
      "play": 2207,
      "don": 2208,
      "aliz": 2209,
      "ight": 2210,
      "tros": 2211,
      "ok": 2212,
      "Ar": 2213,
      "port": 2214,
      "but": 2215,
      "dr": 2216,
      "first": 2217,
      "ough": 2218,
      "reg": 2219,
      "oci": 2220,
      "lan": 2221,
      "De": 2222,
      "je": 2223,
      "bor": 2224,
      "forma": 2225,
      "which": 2226,
      "cri": 2227,
      "peci": 2228,
      "sa": 2229,
      "pol": 2230,
      "Par": 2231,
      "ved": 2232,
      "ían": 2233,
      "posi": 2234,
      "their": 2235,
      "sobre": 2236,
      "wo": 2237,
      "Su": 2238,
      "tions": 2239,
      "mas": 2240,
      "ary": 2241,
      "iden": 2242,
      "bec": 2243,
      "ace": 2244,
      "ya": 2245,
      "pon": 2246,
      "gran": 2247,
      "rit": 2248,
      "vol": 2249,
      "nue": 2250,
      "contr": 2251,
      "inci": 2252,
      "cur": 2253,
      "ones": 2254,
      "sta": 2255,
      "tas": 2256,
      "ano": 2257,
      "up": 2258,
      "its": 2259,
      "198": 2260,
      "pués": 2261,
      "ind": 2262,
      "this": 2263,
      "mun": 2264,
      "fam": 2265,
      "year": 2266,
      "arr": 2267,
      "They": 2268,
      "low": 2269,
      "if": 2270,
      "aba": 2271,
      "av": 2272,
      "Com": 2273,
      "ang": 2274,
      "ould": 2275,
      "art": 2276,
      "mes": 2277,
      "elec": 2278,
      "ater": 2279,
      "hasta": 2280,
      "very": 2281,
      "nom": 2282,
      "ana": 2283,
      "hu": 2284,
      "encia": 2285,
      "ario": 2286,
      "Uni": 2287,
      "endo": 2288,
      "udi": 2289,
      "ice": 2290,
      "ores": 2291,
      "ins": 2292,
      "pañ": 2293,
      "No": 2294,
      "til": 2295,
      "inclu": 2296,
      "parte": 2297,
      "sh": 2298,
      "publ": 2299,
      "ió": 2300,
      "año": 2301,
      "pal": 2302,
      "sol": 2303,
      "some": 2304,
      "ug": 2305,
      "land": 2306,
      "tic": 2307,
      "dif": 2308,
      "197": 2309,
      "produc": 2310,
      "called": 2311,
      "mil": 2312,
      "work": 2313,
      "ak": 2314,
      "cional": 2315,
      "sen": 2316,
      "ree": 2317,
      "many": 2318,
      "abaj": 2319,
      "kno": 2320,
      "val": 2321,
      "sal": 2322,
      "ies": 2323,
      "ds": 2324,
      "tiem": 2325,
      "ys": 2326,
      "entos": 2327,
      "She": 2328,
      "ton": 2329,
      "tiene": 2330,
      "ack": 2331,
      "cl": 2332,
      "way": 2333,
      "primer": 2334,
      "time": 2335,
      "ical": 2336,
      "jun": 2337,
      "who": 2338,
      "ej": 2339,
      "ps": 2340,
      "form": 2341,
      "cha": 2342,
      "used": 2343,
      "ér": 2344,
      "more": 2345,
      "ino": 2346,
      "As": 2347,
      "ember": 2348,
      "ding": 2349,
      "Est": 2350,
      "vari": 2351,
      "pec": 2352,
      "two": 2353,
      "about": 2354,
      "gi": 2355,
      "most": 2356,
      "ting": 2357,
      "10": 2358,
      "ess": 2359,
      "cio": 2360,
      "able": 2361,
      "ican": 2362,
      "princi": 2363,
      "trabaj": 2364,
      "Un": 2365,
      "made": 2366,
      "nor": 2367,
      "oc": 2368,
      "Le": 2369,
      "tura": 2370,
      "ista": 2371,
      "any": 2372,
      "mus": 2373,
      "cul": 2374,
      "Co": 2375,
      "there": 2376,
      "donde": 2377,
      "desde": 2378,
      "how": 2379,
      "deci": 2380,
      "direc": 2381,
      "tre": 2382,
      "atur": 2383,
      "rela": 2384,
      "Las": 2385,
      "ren": 2386,
      "15": 2387,
      "ís": 2388,
      "196": 2389,
      "mayor": 2390,
      "ban": 2391,
      "ual": 2392,
      "das": 2393,
      "ño": 2394,
      "está": 2395,
      "sion": 2396,
      "udad": 2397,
      "ef": 2398,
      "pel": 2399,
      "ento": 2400,
      "ew": 2401,
      "tional": 2402,
      "much": 2403,
      "famil": 2404,
      "cap": 2405,
      "han": 2406,
      "después": 2407,
      "age": 2408,
      "bro": 2409,
      "tivo": 2410,
      "Des": 2411,
      "\",": 2412,
      "cada": 2413,
      "000": 2414,
      "into": 2415,
      "idos": 2416,
      "ide": 2417,
      "enta": 2418,
      "cias": 2419,
      "17": 2420,
      "tica": 2421,
      "been": 2422,
      "over": 2423,
      "terior": 2424,
      "ios": 2425,
      "icos": 2426,
      "trans": 2427,
      "ías": 2428,
      "Na": 2429,
      "lla": 2430,
      "gener": 2431,
      "histor": 2432,
      "dad": 2433,
      "conoci": 2434,
      "durante": 2435,
      "known": 2436,
      "ora": 2437,
      "San": 2438,
      "vil": 2439,
      "part": 2440,
      "ja": 2441,
      "cuando": 2442,
      "embar": 2443,
      "puede": 2444,
      "him": 2445,
      "baj": 2446,
      "sis": 2447,
      "them": 2448,
      "tó": 2449,
      "arse": 2450,
      "ras": 2451,
      "bum": 2452,
      "orig": 2453,
      "había": 2454,
      "uego": 2455,
      "fueron": 2456,
      "pes": 2457,
      "coun": 2458,
      "fa": 2459,
      "she": 2460,
      "when": 2461,
      "idades": 2462,
      "muy": 2463,
      "especi": 2464,
      "than": 2465,
      "Ro": 2466,
      "esto": 2467,
      "ced": 2468,
      "ciudad": 2469,
      "reci": 2470,
      "16": 2471,
      "ali": 2472,
      "actu": 2473,
      "zo": 2474,
      "mismo": 2475,
      "stitu": 2476,
      "sim": 2477,
      "constr": 2478,
      "ped": 2479,
      "Sin": 2480,
      "demás": 2481,
      "tive": 2482,
      "zó": 2483,
      "realiz": 2484,
      "cond": 2485,
      "primera": 2486,
      "equi": 2487,
      "num": 2488,
      "vir": 2489,
      "plan": 2490,
      "yo": 2491,
      "uno": 2492,
      "gram": 2493,
      "int": 2494,
      "ause": 2495,
      "after": 2496,
      "ning": 2497,
      "lí": 2498,
      "apar": 2499,
      "Amer": 2500,
      "bla": 2501,
      "ep": 2502,
      "popu": 2503,
      "ona": 2504,
      "comple": 2505,
      "adores": 2506,
      "cual": 2507,
      "tres": 2508,
      "vez": 2509,
      "adi": 2510,
      "sur": 2511,
      "new": 2512,
      "12": 2513,
      "fun": 2514,
      "eros": 2515,
      "uel": 2516,
      "only": 2517,
      "Por": 2518,
      "embargo": 2519,
      "úl": 2520,
      "ru": 2521,
      "tation": 2522,
      "hom": 2523,
      "tir": 2524,
      "side": 2525,
      "eces": 2526,
      "tec": 2527,
      "ícu": 2528,
      "ella": 2529,
      "There": 2530,
      "ick": 2531,
      "Ho": 2532,
      "sión": 2533,
      "uso": 2534,
      "years": 2535,
      "gru": 2536,
      "cial": 2537,
      "lugar": 2538,
      "cab": 2539,
      "ult": 2540,
      "II": 2541,
      "cil": 2542,
      "encuen": 2543,
      "195": 2544,
      "estr": 2545,
      "present": 2546,
      "30": 2547,
      "band": 2548,
      "ín": 2549,
      "olog": 2550,
      "icas": 2551,
      "king": 2552,
      "hel": 2553,
      "uti": 2554,
      "últi": 2555,
      "otros": 2556,
      "anti": 2557,
      "todo": 2558,
      "differ": 2559,
      "unque": 2560,
      "che": 2561,
      "algun": 2562,
      "import": 2563,
      "edad": 2564,
      "jor": 2565,
      "tiempo": 2566,
      "194": 2567,
      "itar": 2568,
      "día": 2569,
      "uro": 2570,
      "ast": 2571,
      "contin": 2572,
      "deb": 2573,
      "acer": 2574,
      "organ": 2575,
      "nam": 2576,
      "ph": 2577,
      "ale": 2578,
      "vent": 2579,
      "Tam": 2580,
      "14": 2581,
      "bel": 2582,
      "Car": 2583,
      "rele": 2584,
      "estudi": 2585,
      "leg": 2586,
      "ció": 2587,
      "fuer": 2588,
      "nombre": 2589,
      "tiva": 2590,
      "To": 2591,
      "inf": 2592,
      "contra": 2593,
      "sub": 2594,
      "jer": 2595,
      "entr": 2596,
      "Bo": 2597,
      "bus": 2598,
      "sigu": 2599,
      "bier": 2600,
      "erra": 2601,
      "prof": 2602,
      "Jo": 2603,
      "super": 2604,
      "long": 2605,
      "end": 2606,
      "public": 2607,
      "ial": 2608,
      "ena": 2609,
      "ua": 2610,
      "sido": 2611,
      "estos": 2612,
      "termin": 2613,
      "él": 2614,
      "ign": 2615,
      "ientras": 2616,
      "try": 2617,
      "pun": 2618,
      "ings": 2619,
      "ters": 2620,
      "star": 2621,
      "difer": 2622,
      "cep": 2623,
      "Pr": 2624,
      "solo": 2625,
      "ál": 2626,
      "tle": 2627,
      "ain": 2628,
      "ust": 2629,
      "ward": 2630,
      "ory": 2631,
      "became": 2632,
      "icación": 2633,
      "tuvo": 2634,
      "will": 2635,
      "ley": 2636,
      "ital": 2637,
      "bet": 2638,
      "day": 2639,
      "name": 2640,
      "ger": 2641,
      "old": 2642,
      "ving": 2643,
      "because": 2644,
      "ons": 2645,
      "lado": 2646,
      "Cu": 2647,
      "His": 2648,
      "Ju": 2649,
      "utili": 2650,
      "tación": 2651,
      "For": 2652,
      "ased": 2653,
      "lec": 2654,
      "origin": 2655,
      "ío": 2656,
      "oper": 2657,
      "would": 2658,
      "fici": 2659,
      "arrol": 2660,
      "different": 2661,
      "buil": 2662,
      "sing": 2663,
      "ase": 2664,
      "esti": 2665,
      "ath": 2666,
      "pan": 2667,
      "gro": 2668,
      "blo": 2669,
      "Nor": 2670,
      "25": 2671,
      "On": 2672,
      "program": 2673,
      "tener": 2674,
      "segun": 2675,
      "miento": 2676,
      "ks": 2677,
      "También": 2678,
      "fore": 2679,
      "ful": 2680,
      "iones": 2681,
      "ut": 2682,
      "ah": 2683,
      "ure": 2684,
      "Fran": 2685,
      "Pe": 2686,
      "conver": 2687,
      "usu": 2688,
      "ance": 2689,
      "13": 2690,
      "then": 2691,
      "llam": 2692,
      "iti": 2693,
      "show": 2694,
      "zar": 2695,
      "todos": 2696,
      "gra": 2697,
      "istas": 2698,
      "ely": 2699,
      "later": 2700,
      "vida": 2701,
      "cent": 2702,
      "depen": 2703,
      "main": 2704,
      "tico": 2705,
      "final": 2706,
      "atro": 2707,
      "arios": 2708,
      "Dur": 2709,
      "Univers": 2710,
      "ence": 2711,
      "gres": 2712,
      "iv": 2713,
      "Wh": 2714,
      "like": 2715,
      "char": 2716,
      "times": 2717,
      "desarrol": 2718,
      "tempor": 2719,
      "did": 2720,
      "ms": 2721,
      "país": 2722,
      "ator": 2723,
      "Mo": 2724,
      "bil": 2725,
      "clas": 2726,
      "ll": 2727,
      "así": 2728,
      "cir": 2729,
      "uni": 2730,
      "sec": 2731,
      "tain": 2732,
      "fil": 2733,
      "under": 2734,
      "mujer": 2735,
      "llev": 2736,
      "úbl": 2737,
      "bres": 2738,
      "adre": 2739,
      "ura": 2740,
      "where": 2741,
      "plo": 2742,
      "rig": 2743,
      "xim": 2744,
      "American": 2745,
      "dic": 2746,
      "Fue": 2747,
      "tema": 2748,
      "aban": 2749,
      "gre": 2750,
      "ener": 2751,
      "chil": 2752,
      "Este": 2753,
      "gos": 2754,
      "local": 2755,
      "embre": 2756,
      "sit": 2757,
      "citation": 2758,
      "minis": 2759,
      "dio": 2760,
      "ismo": 2761,
      "serv": 2762,
      "quien": 2763,
      "ween": 2764,
      "junto": 2765,
      "though": 2766,
      "Gu": 2767,
      "ros": 2768,
      "movi": 2769,
      "encontr": 2770,
      "du": 2771,
      "uary": 2772,
      "acter": 2773,
      "amiento": 2774,
      "bol": 2775,
      "Sta": 2776,
      "ísti": 2777,
      "ses": 2778,
      "top": 2779,
      "mal": 2780,
      "193": 2781,
      "pio": 2782,
      "my": 2783,
      "2010": 2784,
      "three": 2785,
      "respon": 2786,
      "div": 2787,
      "ft": 2788,
      "iendo": 2789,
      "back": 2790,
      "rel": 2791,
      "nuevo": 2792,
      "az": 2793,
      "prom": 2794,
      "war": 2795,
      "muer": 2796,
      "gún": 2797,
      "bió": 2798,
      "bra": 2799,
      "Pro": 2800,
      "tivos": 2801,
      "Be": 2802,
      "New": 2803,
      "abr": 2804,
      "number": 2805,
      "proces": 2806,
      "tanto": 2807,
      "At": 2808,
      "yec": 2809,
      "titu": 2810,
      "human": 2811,
      "tió": 2812,
      "ated": 2813,
      "dom": 2814,
      "hip": 2815,
      "ños": 2816,
      "eng": 2817,
      "bur": 2818,
      "estas": 2819,
      "bajo": 2820,
      "ris": 2821,
      "fac": 2822,
      "públ": 2823,
      "sm": 2824,
      "Di": 2825,
      "Li": 2826,
      "released": 2827,
      "rough": 2828,
      "Esta": 2829,
      "éx": 2830,
      "member": 2831,
      "tribu": 2832,
      "có": 2833,
      "ose": 2834,
      "Af": 2835,
      "team": 2836,
      "recor": 2837,
      "ús": 2838,
      "via": 2839,
      "nú": 2840,
      "ned": 2841,
      "cin": 2842,
      "mat": 2843,
      "partici": 2844,
      "ita": 2845,
      "well": 2846,
      "hor": 2847,
      "comun": 2848,
      "Man": 2849,
      "writ": 2850,
      "11": 2851,
      "ece": 2852,
      "estado": 2853,
      "dar": 2854,
      "real": 2855,
      "cla": 2856,
      "ña": 2857,
      "carr": 2858,
      "chool": 2859,
      "Fe": 2860,
      "ito": 2861,
      "ias": 2862,
      "get": 2863,
      "jug": 2864,
      "popular": 2865,
      "zas": 2866,
      "eran": 2867,
      "mit": 2868,
      "speci": 2869,
      "aunque": 2870,
      "pueden": 2871,
      "mientras": 2872,
      "grupo": 2873,
      "ect": 2874,
      "again": 2875,
      "high": 2876,
      "Ma": 2877,
      "ile": 2878,
      "als": 2879,
      "sel": 2880,
      "jos": 2881,
      "rom": 2882,
      "wer": 2883,
      "grou": 2884,
      "Col": 2885,
      "Lo": 2886,
      "organiz": 2887,
      "ye": 2888,
      "proble": 2889,
      "comen": 2890,
      "ement": 2891,
      "between": 2892,
      "world": 2893,
      "ture": 2894,
      "Some": 2895,
      "born": 2896,
      "aje": 2897,
      "aria": 2898,
      "total": 2899,
      "dy": 2900,
      "aro": 2901,
      "icio": 2902,
      "tores": 2903,
      "estaba": 2904,
      "50": 2905,
      "peque": 2906,
      "come": 2907,
      "err": 2908,
      "presiden": 2909,
      "sider": 2910,
      "ustr": 2911,
      "until": 2912,
      "pobla": 2913,
      "din": 2914,
      "city": 2915,
      "24": 2916,
      "bierno": 2917,
      "anim": 2918,
      "presenta": 2919,
      "wever": 2920,
      "vesti": 2921,
      "Po": 2922,
      "fica": 2923,
      "están": 2924,
      "vin": 2925,
      "Is": 2926,
      "fen": 2927,
      "played": 2928,
      "make": 2929,
      "idas": 2930,
      "ata": 2931,
      "tran": 2932,
      "ished": 2933,
      "own": 2934,
      "control": 2935,
      "ung": 2936,
      "iso": 2937,
      "ellos": 2938,
      "21": 2939,
      "Ac": 2940,
      "ous": 2941,
      "cios": 2942,
      "general": 2943,
      "ucción": 2944,
      "song": 2945,
      "ner": 2946,
      "descri": 2947,
      ".\"": 2948,
      "dió": 2949,
      "tom": 2950,
      "produ": 2951,
      "same": 2952,
      "outh": 2953,
      "clar": 2954,
      "mom": 2955,
      "vas": 2956,
      "ular": 2957,
      "kes": 2958,
      "consider": 2959,
      "medi": 2960,
      "tele": 2961,
      "bal": 2962,
      "exper": 2963,
      "polí": 2964,
      "nacional": 2965,
      "hacia": 2966,
      "tí": 2967,
      "cuenta": 2968,
      "uer": 2969,
      "inten": 2970,
      "ara": 2971,
      "labor": 2972,
      "mejor": 2973,
      "sigui": 2974,
      "illa": 2975,
      "often": 2976,
      "gas": 2977,
      "equipo": 2978,
      "Mon": 2979,
      "through": 2980,
      "Cor": 2981,
      "ason": 2982,
      "alla": 2983,
      "ju": 2984,
      "ches": 2985,
      "hay": 2986,
      "Pa": 2987,
      "aciones": 2988,
      "ation": 2989,
      "book": 2990,
      "tern": 2991,
      "exis": 2992,
      "otras": 2993,
      "bir": 2994,
      "cuer": 2995,
      "ames": 2996,
      "ier": 2997,
      "bos": 2998,
      "won": 2999
    },
    "merges": [
      [
        "d",
        "e"
      ],
      [
        "e",
        "n"
      ],
      [
        "e",
        "r"
      ],
      [
        "e",
        "s"
      ],
      [
        "a",
        "n"
      ],
      [
        "o",
        "n"
      ],
      [
        "a",
        "r"
      ],
      [
        "i",
        "n"
      ],
      [
        "a",
        "s"
      ],
      [
        "o",
        "r"
      ],
      [
        "o",
        "s"
      ],
      [
        "t",
        "h"
      ],
      [
        "a",
        "l"
      ],
      [
        "l",
        "a"
      ],
      [
        "c",
        "i"
      ],
      [
        "e",
        "l"
      ],
      [
        "i",
        "s"
      ],
      [
        "r",
        "e"
      ],
      [
        "t",
        "i"
      ],
      [
        "a",
        "d"
      ],
      [
        "th",
        "e"
      ],
      [
        "u",
        "n"
      ],
      [
        "t",
        "e"
      ],
      [
        "t",
        "o"
      ],
      [
        "u",
        "e"
      ],
      [
        "t",
        "r"
      ],
      [
        "o",
        "m"
      ],
      [
        "s",
        "e"
      ],
      [
        "t",
        "a"
      ],
      [
        "i",
        "c"
      ],
      [
        "l",
        "e"
      ],
      [
        "c",
        "on"
      ],
      [
        "an",
        "d"
      ],
      [
        "o",
        "f"
      ],
      [
        "q",
        "ue"
      ],
      [
        "e",
        "d"
      ],
      [
        "p",
        "r"
      ],
      [
        "a",
        "m"
      ],
      [
        "s",
        "u"
      ],
      [
        "ó",
        "n"
      ],
      [
        "a",
        "t"
      ],
      [
        "h",
        "e"
      ],
      [
        "u",
        "r"
      ],
      [
        "o",
        "l"
      ],
      [
        "i",
        "d"
      ],
      [
        "in",
        "g"
      ],
      [
        "i",
        "t"
      ],
      [
        "en",
        "t"
      ],
      [
        "a",
        "c"
      ],
      [
        "i",
        "l"
      ],
      [
        "p",
        "ar"
      ],
      [
        "l",
        "os"
      ],
      [
        "a",
        "b"
      ],
      [
        "c",
        "om"
      ],
      [
        "d",
        "i"
      ],
      [
        "l",
        "o"
      ],
      [
        "t",
        "er"
      ],
      [
        "p",
        "or"
      ],
      [
        "c",
        "h"
      ],
      [
        "ci",
        "ón"
      ],
      [
        "i",
        "m"
      ],
      [
        "c",
        "u"
      ],
      [
        "de",
        "l"
      ],
      [
        "i",
        "g"
      ],
      [
        "i",
        "r"
      ],
      [
        "u",
        "s"
      ],
      [
        "n",
        "o"
      ],
      [
        "m",
        "a"
      ],
      [
        "p",
        "er"
      ],
      [
        "d",
        "o"
      ],
      [
        "f",
        "or"
      ],
      [
        "l",
        "as"
      ],
      [
        "e",
        "m"
      ],
      [
        "v",
        "er"
      ],
      [
        "T",
        "he"
      ],
      [
        "e",
        "c"
      ],
      [
        "ad",
        "o"
      ],
      [
        "1",
        "9"
      ],
      [
        "de",
        "s"
      ],
      [
        "2",
        "0"
      ],
      [
        "en",
        "te"
      ],
      [
        "p",
        "o"
      ],
      [
        "un",
        "a"
      ],
      [
        "g",
        "r"
      ],
      [
        "w",
        "as"
      ],
      [
        "pr",
        "o"
      ],
      [
        "ti",
        "on"
      ],
      [
        "o",
        "u"
      ],
      [
        "es",
        "t"
      ],
      [
        "c",
        "a"
      ],
      [
        "í",
        "a"
      ],
      [
        "v",
        "e"
      ],
      [
        "p",
        "e"
      ],
      [
        "c",
        "o"
      ],
      [
        "i",
        "o"
      ],
      [
        "i",
        "a"
      ],
      [
        "b",
        "e"
      ],
      [
        "s",
        "t"
      ],
      [
        "p",
        "u"
      ],
      [
        "s",
        "i"
      ],
      [
        "s",
        "o"
      ],
      [
        "par",
        "a"
      ],
      [
        "m",
        "o"
      ],
      [
        "g",
        "o"
      ],
      [
        "l",
        "i"
      ],
      [
        "q",
        "u"
      ],
      [
        "r",
        "o"
      ],
      [
        "h",
        "a"
      ],
      [
        "ci",
        "on"
      ],
      [
        "e",
        "x"
      ],
      [
        "c",
        "e"
      ],
      [
        "m",
        "an"
      ],
      [
        "v",
        "i"
      ],
      [
        "r",
        "a"
      ],
      [
        "ad",
        "a"
      ],
      [
        "p",
        "a"
      ],
      [
        "l",
        "y"
      ],
      [
        "t",
        "u"
      ],
      [
        "i",
        "en"
      ],
      [
        "t",
        "en"
      ],
      [
        "d",
        "a"
      ],
      [
        "f",
        "r"
      ],
      [
        "t",
        "or"
      ],
      [
        "ar",
        "e"
      ],
      [
        "er",
        "e"
      ],
      [
        "r",
        "es"
      ],
      [
        "h",
        "is"
      ],
      [
        "de",
        "n"
      ],
      [
        "E",
        "l"
      ],
      [
        "á",
        "s"
      ],
      [
        "E",
        "n"
      ],
      [
        "b",
        "i"
      ],
      [
        "tr",
        "a"
      ],
      [
        "w",
        "h"
      ],
      [
        "te",
        "d"
      ],
      [
        "de",
        "r"
      ],
      [
        "m",
        "e"
      ],
      [
        "ic",
        "a"
      ],
      [
        "u",
        "l"
      ],
      [
        "n",
        "e"
      ],
      [
        "a",
        "g"
      ],
      [
        "u",
        "m"
      ],
      [
        "r",
        "i"
      ],
      [
        "s",
        "on"
      ],
      [
        "I",
        "n"
      ],
      [
        "ci",
        "a"
      ],
      [
        "com",
        "o"
      ],
      [
        "er",
        "a"
      ],
      [
        "b",
        "re"
      ],
      [
        "al",
        "es"
      ],
      [
        "m",
        "ás"
      ],
      [
        "s",
        "er"
      ],
      [
        "o",
        "p"
      ],
      [
        "an",
        "t"
      ],
      [
        "L",
        "a"
      ],
      [
        "i",
        "z"
      ],
      [
        "m",
        "u"
      ],
      [
        "i",
        "th"
      ],
      [
        "l",
        "u"
      ],
      [
        "v",
        "o"
      ],
      [
        "d",
        "is"
      ],
      [
        "and",
        "o"
      ],
      [
        "b",
        "er"
      ],
      [
        "t",
        "s"
      ],
      [
        "f",
        "ue"
      ],
      [
        "th",
        "at"
      ],
      [
        "p",
        "os"
      ],
      [
        "c",
        "an"
      ],
      [
        "c",
        "al"
      ],
      [
        "c",
        "ar"
      ],
      [
        "g",
        "e"
      ],
      [
        "pr",
        "es"
      ],
      [
        "a",
        "y"
      ],
      [
        "d",
        "os"
      ],
      [
        "m",
        "ente"
      ],
      [
        "id",
        "o"
      ],
      [
        "w",
        "ith"
      ],
      [
        "b",
        "r"
      ],
      [
        "u",
        "c"
      ],
      [
        "ad",
        "os"
      ],
      [
        "cion",
        "es"
      ],
      [
        "b",
        "y"
      ],
      [
        "20",
        "0"
      ],
      [
        "an",
        "te"
      ],
      [
        "b",
        "u"
      ],
      [
        "l",
        "ar"
      ],
      [
        "es",
        "ta"
      ],
      [
        "h",
        "as"
      ],
      [
        "th",
        "er"
      ],
      [
        "c",
        "as"
      ],
      [
        "20",
        "1"
      ],
      [
        "tr",
        "o"
      ],
      [
        "n",
        "a"
      ],
      [
        "H",
        "e"
      ],
      [
        "su",
        "s"
      ],
      [
        "I",
        "t"
      ],
      [
        "b",
        "l"
      ],
      [
        "a",
        "j"
      ],
      [
        "i",
        "ci"
      ],
      [
        "al",
        "l"
      ],
      [
        "id",
        "ad"
      ],
      [
        "p",
        "la"
      ],
      [
        "0",
        "0"
      ],
      [
        "p",
        "l"
      ],
      [
        "n",
        "i"
      ],
      [
        "g",
        "u"
      ],
      [
        "h",
        "o"
      ],
      [
        "k",
        "e"
      ],
      [
        "é",
        "n"
      ],
      [
        "p",
        "i"
      ],
      [
        "f",
        "er"
      ],
      [
        "v",
        "en"
      ],
      [
        "on",
        "e"
      ],
      [
        "v",
        "a"
      ],
      [
        "h",
        "i"
      ],
      [
        "c",
        "es"
      ],
      [
        "id",
        "a"
      ],
      [
        "fr",
        "om"
      ],
      [
        "a",
        "u"
      ],
      [
        "p",
        "re"
      ],
      [
        "a",
        "ñ"
      ],
      [
        "b",
        "o"
      ],
      [
        "m",
        "ar"
      ],
      [
        "E",
        "s"
      ],
      [
        "b",
        "le"
      ],
      [
        "c",
        "or"
      ],
      [
        "t",
        "ur"
      ],
      [
        "er",
        "o"
      ],
      [
        "a",
        "ción"
      ],
      [
        "ig",
        "h"
      ],
      [
        "am",
        "e"
      ],
      [
        "f",
        "in"
      ],
      [
        "c",
        "re"
      ],
      [
        "f",
        "u"
      ],
      [
        "w",
        "n"
      ],
      [
        "é",
        "s"
      ],
      [
        "m",
        "in"
      ],
      [
        "ar",
        "i"
      ],
      [
        "á",
        "n"
      ],
      [
        "t",
        "os"
      ],
      [
        "f",
        "e"
      ],
      [
        "h",
        "ab"
      ],
      [
        "m",
        "ed"
      ],
      [
        "i",
        "on"
      ],
      [
        "v",
        "is"
      ],
      [
        "ic",
        "o"
      ],
      [
        "l",
        "es"
      ],
      [
        "o",
        "b"
      ],
      [
        "pr",
        "im"
      ],
      [
        "te",
        "m"
      ],
      [
        "u",
        "d"
      ],
      [
        "h",
        "er"
      ],
      [
        "ad",
        "or"
      ],
      [
        "er",
        "on"
      ],
      [
        "g",
        "en"
      ],
      [
        "a",
        "p"
      ],
      [
        "no",
        "t"
      ],
      [
        "un",
        "d"
      ],
      [
        "el",
        "e"
      ],
      [
        "m",
        "en"
      ],
      [
        "om",
        "e"
      ],
      [
        "S",
        "e"
      ],
      [
        "ou",
        "t"
      ],
      [
        "e",
        "ar"
      ],
      [
        "t",
        "y"
      ],
      [
        "l",
        "d"
      ],
      [
        ")",
        "."
      ],
      [
        "A",
        "l"
      ],
      [
        "1",
        "8"
      ],
      [
        "an",
        "s"
      ],
      [
        "bi",
        "én"
      ],
      [
        "is",
        "t"
      ],
      [
        "w",
        "or"
      ],
      [
        "de",
        "d"
      ],
      [
        "il",
        "l"
      ],
      [
        "ta",
        "m"
      ],
      [
        "w",
        "ere"
      ],
      [
        "in",
        "a"
      ],
      [
        "le",
        "d"
      ],
      [
        "t",
        "ar"
      ],
      [
        "z",
        "a"
      ],
      [
        "w",
        "e"
      ],
      [
        "f",
        "ir"
      ],
      [
        "c",
        "am"
      ],
      [
        "in",
        "ter"
      ],
      [
        "g",
        "an"
      ],
      [
        "i",
        "ón"
      ],
      [
        "m",
        "i"
      ],
      [
        "b",
        "a"
      ],
      [
        "qu",
        "i"
      ],
      [
        "m",
        "is"
      ],
      [
        "p",
        "le"
      ],
      [
        "c",
        "en"
      ],
      [
        "tr",
        "i"
      ],
      [
        "ti",
        "v"
      ],
      [
        "ic",
        "h"
      ],
      [
        "g",
        "ar"
      ],
      [
        "s",
        "ig"
      ],
      [
        "j",
        "o"
      ],
      [
        "tr",
        "as"
      ],
      [
        "g",
        "h"
      ],
      [
        "m",
        "os"
      ],
      [
        "ar",
        "d"
      ],
      [
        "T",
        "h"
      ],
      [
        "m",
        "er"
      ],
      [
        "ol",
        "o"
      ],
      [
        "m",
        "ent"
      ],
      [
        "c",
        "r"
      ],
      [
        "f",
        "ic"
      ],
      [
        "in",
        "e"
      ],
      [
        "ent",
        "re"
      ],
      [
        "ien",
        "to"
      ],
      [
        "ch",
        "o"
      ],
      [
        "g",
        "a"
      ],
      [
        "t",
        "es"
      ],
      [
        "f",
        "i"
      ],
      [
        "al",
        "so"
      ],
      [
        "u",
        "se"
      ],
      [
        "ma",
        "y"
      ],
      [
        "f",
        "o"
      ],
      [
        "al",
        "mente"
      ],
      [
        "is",
        "h"
      ],
      [
        "s",
        "ti"
      ],
      [
        "C",
        "h"
      ],
      [
        "op",
        "le"
      ],
      [
        "es",
        "e"
      ],
      [
        "re",
        "c"
      ],
      [
        "g",
        "un"
      ],
      [
        "p",
        "ue"
      ],
      [
        "er",
        "s"
      ],
      [
        "ad",
        "as"
      ],
      [
        "ti",
        "en"
      ],
      [
        "19",
        "9"
      ],
      [
        "o",
        "d"
      ],
      [
        "par",
        "ti"
      ],
      [
        "el",
        "l"
      ],
      [
        "am",
        "ente"
      ],
      [
        "s",
        "tr"
      ],
      [
        "b",
        "ar"
      ],
      [
        "on",
        "g"
      ],
      [
        "re",
        "d"
      ],
      [
        "c",
        "er"
      ],
      [
        "t",
        "an"
      ],
      [
        "ha",
        "ve"
      ],
      [
        "c",
        "lu"
      ],
      [
        "ant",
        "es"
      ],
      [
        "t",
        "al"
      ],
      [
        "p",
        "en"
      ],
      [
        "C",
        "on"
      ],
      [
        "a",
        "f"
      ],
      [
        "or",
        "e"
      ],
      [
        "the",
        "y"
      ],
      [
        "i",
        "e"
      ],
      [
        "t",
        "in"
      ],
      [
        "M",
        "ar"
      ],
      [
        "per",
        "son"
      ],
      [
        "s",
        "in"
      ],
      [
        "p",
        "as"
      ],
      [
        "A",
        "n"
      ],
      [
        "ar",
        "on"
      ],
      [
        "pe",
        "ople"
      ],
      [
        "o",
        "ther"
      ],
      [
        "r",
        "an"
      ],
      [
        "it",
        "y"
      ],
      [
        "v",
        "el"
      ],
      [
        "R",
        "e"
      ],
      [
        "i",
        "or"
      ],
      [
        "c",
        "os"
      ],
      [
        "ent",
        "es"
      ],
      [
        "pro",
        "d"
      ],
      [
        "ver",
        "s"
      ],
      [
        "d",
        "ur"
      ],
      [
        "m",
        "on"
      ],
      [
        "tam",
        "bién"
      ],
      [
        "es",
        "te"
      ],
      [
        "v",
        "es"
      ],
      [
        "al",
        "ly"
      ],
      [
        "c",
        "k"
      ],
      [
        "c",
        "ol"
      ],
      [
        "ú",
        "n"
      ],
      [
        "L",
        "os"
      ],
      [
        "b",
        "as"
      ],
      [
        "l",
        "le"
      ],
      [
        "h",
        "ad"
      ],
      [
        "\"",
        "."
      ],
      [
        "añ",
        "os"
      ],
      [
        "ac",
        "h"
      ],
      [
        ")",
        ","
      ],
      [
        "cu",
        "en"
      ],
      [
        "e",
        "t"
      ],
      [
        "per",
        "o"
      ],
      [
        "T",
        "his"
      ],
      [
        "pla",
        "y"
      ],
      [
        "d",
        "on"
      ],
      [
        "al",
        "iz"
      ],
      [
        "igh",
        "t"
      ],
      [
        "tr",
        "os"
      ],
      [
        "o",
        "k"
      ],
      [
        "A",
        "r"
      ],
      [
        "por",
        "t"
      ],
      [
        "bu",
        "t"
      ],
      [
        "d",
        "r"
      ],
      [
        "fir",
        "st"
      ],
      [
        "ou",
        "gh"
      ],
      [
        "re",
        "g"
      ],
      [
        "o",
        "ci"
      ],
      [
        "l",
        "an"
      ],
      [
        "D",
        "e"
      ],
      [
        "j",
        "e"
      ],
      [
        "b",
        "or"
      ],
      [
        "for",
        "ma"
      ],
      [
        "wh",
        "ich"
      ],
      [
        "c",
        "ri"
      ],
      [
        "pe",
        "ci"
      ],
      [
        "s",
        "a"
      ],
      [
        "p",
        "ol"
      ],
      [
        "P",
        "ar"
      ],
      [
        "v",
        "ed"
      ],
      [
        "í",
        "an"
      ],
      [
        "pos",
        "i"
      ],
      [
        "the",
        "ir"
      ],
      [
        "so",
        "bre"
      ],
      [
        "w",
        "o"
      ],
      [
        "S",
        "u"
      ],
      [
        "tion",
        "s"
      ],
      [
        "m",
        "as"
      ],
      [
        "ar",
        "y"
      ],
      [
        "i",
        "den"
      ],
      [
        "b",
        "ec"
      ],
      [
        "ac",
        "e"
      ],
      [
        "y",
        "a"
      ],
      [
        "p",
        "on"
      ],
      [
        "gr",
        "an"
      ],
      [
        "r",
        "it"
      ],
      [
        "v",
        "ol"
      ],
      [
        "n",
        "ue"
      ],
      [
        "con",
        "tr"
      ],
      [
        "in",
        "ci"
      ],
      [
        "c",
        "ur"
      ],
      [
        "on",
        "es"
      ],
      [
        "s",
        "ta"
      ],
      [
        "t",
        "as"
      ],
      [
        "an",
        "o"
      ],
      [
        "u",
        "p"
      ],
      [
        "it",
        "s"
      ],
      [
        "19",
        "8"
      ],
      [
        "pu",
        "és"
      ],
      [
        "in",
        "d"
      ],
      [
        "th",
        "is"
      ],
      [
        "m",
        "un"
      ],
      [
        "f",
        "am"
      ],
      [
        "y",
        "ear"
      ],
      [
        "ar",
        "r"
      ],
      [
        "The",
        "y"
      ],
      [
        "lo",
        "w"
      ],
      [
        "i",
        "f"
      ],
      [
        "ab",
        "a"
      ],
      [
        "a",
        "v"
      ],
      [
        "C",
        "om"
      ],
      [
        "an",
        "g"
      ],
      [
        "ou",
        "ld"
      ],
      [
        "ar",
        "t"
      ],
      [
        "m",
        "es"
      ],
      [
        "el",
        "ec"
      ],
      [
        "at",
        "er"
      ],
      [
        "has",
        "ta"
      ],
      [
        "ver",
        "y"
      ],
      [
        "n",
        "om"
      ],
      [
        "an",
        "a"
      ],
      [
        "h",
        "u"
      ],
      [
        "en",
        "cia"
      ],
      [
        "ar",
        "io"
      ],
      [
        "U",
        "ni"
      ],
      [
        "en",
        "do"
      ],
      [
        "u",
        "di"
      ],
      [
        "ic",
        "e"
      ],
      [
        "or",
        "es"
      ],
      [
        "in",
        "s"
      ],
      [
        "pa",
        "ñ"
      ],
      [
        "N",
        "o"
      ],
      [
        "ti",
        "l"
      ],
      [
        "in",
        "clu"
      ],
      [
        "par",
        "te"
      ],
      [
        "s",
        "h"
      ],
      [
        "pu",
        "bl"
      ],
      [
        "i",
        "ó"
      ],
      [
        "añ",
        "o"
      ],
      [
        "p",
        "al"
      ],
      [
        "s",
        "ol"
      ],
      [
        "s",
        "ome"
      ],
      [
        "u",
        "g"
      ],
      [
        "l",
        "and"
      ],
      [
        "ti",
        "c"
      ],
      [
        "di",
        "f"
      ],
      [
        "19",
        "7"
      ],
      [
        "prod",
        "uc"
      ],
      [
        "cal",
        "led"
      ],
      [
        "m",
        "il"
      ],
      [
        "wor",
        "k"
      ],
      [
        "a",
        "k"
      ],
      [
        "cion",
        "al"
      ],
      [
        "s",
        "en"
      ],
      [
        "re",
        "e"
      ],
      [
        "man",
        "y"
      ],
      [
        "ab",
        "aj"
      ],
      [
        "k",
        "no"
      ],
      [
        "v",
        "al"
      ],
      [
        "s",
        "al"
      ],
      [
        "i",
        "es"
      ],
      [
        "d",
        "s"
      ],
      [
        "ti",
        "em"
      ],
      [
        "y",
        "s"
      ],
      [
        "ent",
        "os"
      ],
      [
        "S",
        "he"
      ],
      [
        "t",
        "on"
      ],
      [
        "tien",
        "e"
      ],
      [
        "ac",
        "k"
      ],
      [
        "c",
        "l"
      ],
      [
        "w",
        "ay"
      ],
      [
        "prim",
        "er"
      ],
      [
        "ti",
        "me"
      ],
      [
        "ic",
        "al"
      ],
      [
        "j",
        "un"
      ],
      [
        "wh",
        "o"
      ],
      [
        "e",
        "j"
      ],
      [
        "p",
        "s"
      ],
      [
        "for",
        "m"
      ],
      [
        "ch",
        "a"
      ],
      [
        "use",
        "d"
      ],
      [
        "é",
        "r"
      ],
      [
        "m",
        "ore"
      ],
      [
        "in",
        "o"
      ],
      [
        "A",
        "s"
      ],
      [
        "em",
        "ber"
      ],
      [
        "d",
        "ing"
      ],
      [
        "E",
        "st"
      ],
      [
        "v",
        "ari"
      ],
      [
        "p",
        "ec"
      ],
      [
        "t",
        "wo"
      ],
      [
        "ab",
        "out"
      ],
      [
        "g",
        "i"
      ],
      [
        "mos",
        "t"
      ],
      [
        "t",
        "ing"
      ],
      [
        "1",
        "0"
      ],
      [
        "es",
        "s"
      ],
      [
        "ci",
        "o"
      ],
      [
        "ab",
        "le"
      ],
      [
        "ic",
        "an"
      ],
      [
        "pr",
        "inci"
      ],
      [
        "tr",
        "abaj"
      ],
      [
        "U",
        "n"
      ],
      [
        "ma",
        "de"
      ],
      [
        "n",
        "or"
      ],
      [
        "o",
        "c"
      ],
      [
        "L",
        "e"
      ],
      [
        "tur",
        "a"
      ],
      [
        "is",
        "ta"
      ],
      [
        "an",
        "y"
      ],
      [
        "m",
        "us"
      ],
      [
        "cu",
        "l"
      ],
      [
        "C",
        "o"
      ],
      [
        "th",
        "ere"
      ],
      [
        "don",
        "de"
      ],
      [
        "des",
        "de"
      ],
      [
        "ho",
        "w"
      ],
      [
        "de",
        "ci"
      ],
      [
        "di",
        "rec"
      ],
      [
        "t",
        "re"
      ],
      [
        "at",
        "ur"
      ],
      [
        "re",
        "la"
      ],
      [
        "L",
        "as"
      ],
      [
        "r",
        "en"
      ],
      [
        "1",
        "5"
      ],
      [
        "í",
        "s"
      ],
      [
        "19",
        "6"
      ],
      [
        "may",
        "or"
      ],
      [
        "b",
        "an"
      ],
      [
        "u",
        "al"
      ],
      [
        "d",
        "as"
      ],
      [
        "ñ",
        "o"
      ],
      [
        "est",
        "á"
      ],
      [
        "si",
        "on"
      ],
      [
        "ud",
        "ad"
      ],
      [
        "e",
        "f"
      ],
      [
        "p",
        "el"
      ],
      [
        "en",
        "to"
      ],
      [
        "e",
        "w"
      ],
      [
        "tion",
        "al"
      ],
      [
        "mu",
        "ch"
      ],
      [
        "fam",
        "il"
      ],
      [
        "ca",
        "p"
      ],
      [
        "h",
        "an"
      ],
      [
        "des",
        "pués"
      ],
      [
        "ag",
        "e"
      ],
      [
        "b",
        "ro"
      ],
      [
        "ti",
        "vo"
      ],
      [
        "D",
        "es"
      ],
      [
        "\"",
        ","
      ],
      [
        "c",
        "ada"
      ],
      [
        "00",
        "0"
      ],
      [
        "in",
        "to"
      ],
      [
        "id",
        "os"
      ],
      [
        "i",
        "de"
      ],
      [
        "en",
        "ta"
      ],
      [
        "ci",
        "as"
      ],
      [
        "1",
        "7"
      ],
      [
        "ti",
        "ca"
      ],
      [
        "be",
        "en"
      ],
      [
        "o",
        "ver"
      ],
      [
        "ter",
        "ior"
      ],
      [
        "i",
        "os"
      ],
      [
        "ic",
        "os"
      ],
      [
        "tr",
        "ans"
      ],
      [
        "í",
        "as"
      ],
      [
        "N",
        "a"
      ],
      [
        "l",
        "la"
      ],
      [
        "gen",
        "er"
      ],
      [
        "his",
        "tor"
      ],
      [
        "d",
        "ad"
      ],
      [
        "con",
        "oci"
      ],
      [
        "dur",
        "ante"
      ],
      [
        "kno",
        "wn"
      ],
      [
        "or",
        "a"
      ],
      [
        "S",
        "an"
      ],
      [
        "v",
        "il"
      ],
      [
        "par",
        "t"
      ],
      [
        "j",
        "a"
      ],
      [
        "cu",
        "ando"
      ],
      [
        "em",
        "bar"
      ],
      [
        "pue",
        "de"
      ],
      [
        "h",
        "im"
      ],
      [
        "b",
        "aj"
      ],
      [
        "s",
        "is"
      ],
      [
        "the",
        "m"
      ],
      [
        "t",
        "ó"
      ],
      [
        "ar",
        "se"
      ],
      [
        "r",
        "as"
      ],
      [
        "b",
        "um"
      ],
      [
        "or",
        "ig"
      ],
      [
        "hab",
        "ía"
      ],
      [
        "ue",
        "go"
      ],
      [
        "fu",
        "eron"
      ],
      [
        "p",
        "es"
      ],
      [
        "co",
        "un"
      ],
      [
        "f",
        "a"
      ],
      [
        "s",
        "he"
      ],
      [
        "wh",
        "en"
      ],
      [
        "ida",
        "des"
      ],
      [
        "mu",
        "y"
      ],
      [
        "es",
        "peci"
      ],
      [
        "th",
        "an"
      ],
      [
        "R",
        "o"
      ],
      [
        "es",
        "to"
      ],
      [
        "c",
        "ed"
      ],
      [
        "ci",
        "udad"
      ],
      [
        "re",
        "ci"
      ],
      [
        "1",
        "6"
      ],
      [
        "al",
        "i"
      ],
      [
        "ac",
        "tu"
      ],
      [
        "z",
        "o"
      ],
      [
        "mis",
        "mo"
      ],
      [
        "sti",
        "tu"
      ],
      [
        "s",
        "im"
      ],
      [
        "con",
        "str"
      ],
      [
        "p",
        "ed"
      ],
      [
        "S",
        "in"
      ],
      [
        "de",
        "más"
      ],
      [
        "ti",
        "ve"
      ],
      [
        "z",
        "ó"
      ],
      [
        "re",
        "aliz"
      ],
      [
        "con",
        "d"
      ],
      [
        "prim",
        "era"
      ],
      [
        "e",
        "qui"
      ],
      [
        "n",
        "um"
      ],
      [
        "v",
        "ir"
      ],
      [
        "pl",
        "an"
      ],
      [
        "y",
        "o"
      ],
      [
        "un",
        "o"
      ],
      [
        "gr",
        "am"
      ],
      [
        "in",
        "t"
      ],
      [
        "au",
        "se"
      ],
      [
        "af",
        "ter"
      ],
      [
        "n",
        "ing"
      ],
      [
        "l",
        "í"
      ],
      [
        "a",
        "par"
      ],
      [
        "A",
        "mer"
      ],
      [
        "b",
        "la"
      ],
      [
        "e",
        "p"
      ],
      [
        "po",
        "pu"
      ],
      [
        "on",
        "a"
      ],
      [
        "com",
        "ple"
      ],
      [
        "ador",
        "es"
      ],
      [
        "cu",
        "al"
      ],
      [
        "tr",
        "es"
      ],
      [
        "ve",
        "z"
      ],
      [
        "ad",
        "i"
      ],
      [
        "su",
        "r"
      ],
      [
        "ne",
        "w"
      ],
      [
        "1",
        "2"
      ],
      [
        "f",
        "un"
      ],
      [
        "er",
        "os"
      ],
      [
        "u",
        "el"
      ],
      [
        "on",
        "ly"
      ],
      [
        "P",
        "or"
      ],
      [
        "embar",
        "go"
      ],
      [
        "ú",
        "l"
      ],
      [
        "r",
        "u"
      ],
      [
        "ta",
        "tion"
      ],
      [
        "h",
        "om"
      ],
      [
        "ti",
        "r"
      ],
      [
        "si",
        "de"
      ],
      [
        "ec",
        "es"
      ],
      [
        "te",
        "c"
      ],
      [
        "í",
        "cu"
      ],
      [
        "el",
        "la"
      ],
      [
        "Th",
        "ere"
      ],
      [
        "ic",
        "k"
      ],
      [
        "H",
        "o"
      ],
      [
        "si",
        "ón"
      ],
      [
        "us",
        "o"
      ],
      [
        "year",
        "s"
      ],
      [
        "gr",
        "u"
      ],
      [
        "ci",
        "al"
      ],
      [
        "lu",
        "gar"
      ],
      [
        "c",
        "ab"
      ],
      [
        "ul",
        "t"
      ],
      [
        "I",
        "I"
      ],
      [
        "ci",
        "l"
      ],
      [
        "en",
        "cuen"
      ],
      [
        "19",
        "5"
      ],
      [
        "es",
        "tr"
      ],
      [
        "pres",
        "ent"
      ],
      [
        "3",
        "0"
      ],
      [
        "b",
        "and"
      ],
      [
        "í",
        "n"
      ],
      [
        "olo",
        "g"
      ],
      [
        "ic",
        "as"
      ],
      [
        "k",
        "ing"
      ],
      [
        "h",
        "el"
      ],
      [
        "u",
        "ti"
      ],
      [
        "úl",
        "ti"
      ],
      [
        "o",
        "tros"
      ],
      [
        "an",
        "ti"
      ],
      [
        "to",
        "do"
      ],
      [
        "dif",
        "fer"
      ],
      [
        "un",
        "que"
      ],
      [
        "c",
        "he"
      ],
      [
        "al",
        "gun"
      ],
      [
        "im",
        "port"
      ],
      [
        "ed",
        "ad"
      ],
      [
        "j",
        "or"
      ],
      [
        "tiem",
        "po"
      ],
      [
        "19",
        "4"
      ],
      [
        "it",
        "ar"
      ],
      [
        "d",
        "ía"
      ],
      [
        "ur",
        "o"
      ],
      [
        "as",
        "t"
      ],
      [
        "con",
        "tin"
      ],
      [
        "de",
        "b"
      ],
      [
        "ac",
        "er"
      ],
      [
        "or",
        "gan"
      ],
      [
        "n",
        "am"
      ],
      [
        "p",
        "h"
      ],
      [
        "al",
        "e"
      ],
      [
        "v",
        "ent"
      ],
      [
        "T",
        "am"
      ],
      [
        "1",
        "4"
      ],
      [
        "b",
        "el"
      ],
      [
        "C",
        "ar"
      ],
      [
        "r",
        "ele"
      ],
      [
        "est",
        "udi"
      ],
      [
        "le",
        "g"
      ],
      [
        "ci",
        "ó"
      ],
      [
        "fu",
        "er"
      ],
      [
        "nom",
        "bre"
      ],
      [
        "ti",
        "va"
      ],
      [
        "T",
        "o"
      ],
      [
        "in",
        "f"
      ],
      [
        "con",
        "tra"
      ],
      [
        "su",
        "b"
      ],
      [
        "j",
        "er"
      ],
      [
        "en",
        "tr"
      ],
      [
        "B",
        "o"
      ],
      [
        "b",
        "us"
      ],
      [
        "sig",
        "u"
      ],
      [
        "bi",
        "er"
      ],
      [
        "er",
        "ra"
      ],
      [
        "pr",
        "of"
      ],
      [
        "J",
        "o"
      ],
      [
        "su",
        "per"
      ],
      [
        "l",
        "ong"
      ],
      [
        "en",
        "d"
      ],
      [
        "publ",
        "ic"
      ],
      [
        "i",
        "al"
      ],
      [
        "en",
        "a"
      ],
      [
        "u",
        "a"
      ],
      [
        "s",
        "ido"
      ],
      [
        "est",
        "os"
      ],
      [
        "ter",
        "min"
      ],
      [
        "é",
        "l"
      ],
      [
        "ig",
        "n"
      ],
      [
        "ien",
        "tras"
      ],
      [
        "tr",
        "y"
      ],
      [
        "p",
        "un"
      ],
      [
        "ing",
        "s"
      ],
      [
        "ter",
        "s"
      ],
      [
        "st",
        "ar"
      ],
      [
        "di",
        "fer"
      ],
      [
        "ce",
        "p"
      ],
      [
        "P",
        "r"
      ],
      [
        "s",
        "olo"
      ],
      [
        "á",
        "l"
      ],
      [
        "t",
        "le"
      ],
      [
        "a",
        "in"
      ],
      [
        "us",
        "t"
      ],
      [
        "w",
        "ard"
      ],
      [
        "or",
        "y"
      ],
      [
        "bec",
        "ame"
      ],
      [
        "ica",
        "ción"
      ],
      [
        "tu",
        "vo"
      ],
      [
        "w",
        "ill"
      ],
      [
        "le",
        "y"
      ],
      [
        "it",
        "al"
      ],
      [
        "be",
        "t"
      ],
      [
        "da",
        "y"
      ],
      [
        "n",
        "ame"
      ],
      [
        "g",
        "er"
      ],
      [
        "ol",
        "d"
      ],
      [
        "v",
        "ing"
      ],
      [
        "bec",
        "ause"
      ],
      [
        "on",
        "s"
      ],
      [
        "la",
        "do"
      ],
      [
        "C",
        "u"
      ],
      [
        "H",
        "is"
      ],
      [
        "J",
        "u"
      ],
      [
        "uti",
        "li"
      ],
      [
        "ta",
        "ción"
      ],
      [
        "F",
        "or"
      ],
      [
        "as",
        "ed"
      ],
      [
        "le",
        "c"
      ],
      [
        "orig",
        "in"
      ],
      [
        "í",
        "o"
      ],
      [
        "o",
        "per"
      ],
      [
        "w",
        "ould"
      ],
      [
        "f",
        "ici"
      ],
      [
        "arr",
        "ol"
      ],
      [
        "differ",
        "ent"
      ],
      [
        "bu",
        "il"
      ],
      [
        "s",
        "ing"
      ],
      [
        "as",
        "e"
      ],
      [
        "es",
        "ti"
      ],
      [
        "a",
        "th"
      ],
      [
        "p",
        "an"
      ],
      [
        "gr",
        "o"
      ],
      [
        "b",
        "lo"
      ],
      [
        "N",
        "or"
      ],
      [
        "2",
        "5"
      ],
      [
        "O",
        "n"
      ],
      [
        "pro",
        "gram"
      ],
      [
        "ten",
        "er"
      ],
      [
        "se",
        "gun"
      ],
      [
        "m",
        "iento"
      ],
      [
        "k",
        "s"
      ],
      [
        "Tam",
        "bién"
      ],
      [
        "for",
        "e"
      ],
      [
        "f",
        "ul"
      ],
      [
        "ion",
        "es"
      ],
      [
        "u",
        "t"
      ],
      [
        "a",
        "h"
      ],
      [
        "u",
        "re"
      ],
      [
        "F",
        "ran"
      ],
      [
        "P",
        "e"
      ],
      [
        "con",
        "ver"
      ],
      [
        "u",
        "su"
      ],
      [
        "an",
        "ce"
      ],
      [
        "1",
        "3"
      ],
      [
        "th",
        "en"
      ],
      [
        "lla",
        "m"
      ],
      [
        "i",
        "ti"
      ],
      [
        "s",
        "how"
      ],
      [
        "z",
        "ar"
      ],
      [
        "to",
        "dos"
      ],
      [
        "gr",
        "a"
      ],
      [
        "ist",
        "as"
      ],
      [
        "el",
        "y"
      ],
      [
        "la",
        "ter"
      ],
      [
        "v",
        "ida"
      ],
      [
        "c",
        "ent"
      ],
      [
        "de",
        "pen"
      ],
      [
        "ma",
        "in"
      ],
      [
        "ti",
        "co"
      ],
      [
        "fin",
        "al"
      ],
      [
        "a",
        "tro"
      ],
      [
        "ari",
        "os"
      ],
      [
        "D",
        "ur"
      ],
      [
        "Uni",
        "vers"
      ],
      [
        "en",
        "ce"
      ],
      [
        "gr",
        "es"
      ],
      [
        "i",
        "v"
      ],
      [
        "W",
        "h"
      ],
      [
        "li",
        "ke"
      ],
      [
        "ch",
        "ar"
      ],
      [
        "ti",
        "mes"
      ],
      [
        "des",
        "arrol"
      ],
      [
        "tem",
        "por"
      ],
      [
        "d",
        "id"
      ],
      [
        "m",
        "s"
      ],
      [
        "pa",
        "ís"
      ],
      [
        "at",
        "or"
      ],
      [
        "M",
        "o"
      ],
      [
        "b",
        "il"
      ],
      [
        "c",
        "las"
      ],
      [
        "l",
        "l"
      ],
      [
        "as",
        "í"
      ],
      [
        "ci",
        "r"
      ],
      [
        "un",
        "i"
      ],
      [
        "se",
        "c"
      ],
      [
        "ta",
        "in"
      ],
      [
        "f",
        "il"
      ],
      [
        "un",
        "der"
      ],
      [
        "mu",
        "jer"
      ],
      [
        "lle",
        "v"
      ],
      [
        "ú",
        "bl"
      ],
      [
        "b",
        "res"
      ],
      [
        "ad",
        "re"
      ],
      [
        "ur",
        "a"
      ],
      [
        "wh",
        "ere"
      ],
      [
        "p",
        "lo"
      ],
      [
        "r",
        "ig"
      ],
      [
        "x",
        "im"
      ],
      [
        "Amer",
        "ican"
      ],
      [
        "d",
        "ic"
      ],
      [
        "F",
        "ue"
      ],
      [
        "te",
        "ma"
      ],
      [
        "ab",
        "an"
      ],
      [
        "g",
        "re"
      ],
      [
        "en",
        "er"
      ],
      [
        "ch",
        "il"
      ],
      [
        "Es",
        "te"
      ],
      [
        "g",
        "os"
      ],
      [
        "lo",
        "cal"
      ],
      [
        "em",
        "bre"
      ],
      [
        "s",
        "it"
      ],
      [
        "ci",
        "tation"
      ],
      [
        "min",
        "is"
      ],
      [
        "di",
        "o"
      ],
      [
        "is",
        "mo"
      ],
      [
        "ser",
        "v"
      ],
      [
        "qu",
        "ien"
      ],
      [
        "we",
        "en"
      ],
      [
        "jun",
        "to"
      ],
      [
        "th",
        "ough"
      ],
      [
        "G",
        "u"
      ],
      [
        "r",
        "os"
      ],
      [
        "mo",
        "vi"
      ],
      [
        "en",
        "contr"
      ],
      [
        "d",
        "u"
      ],
      [
        "u",
        "ary"
      ],
      [
        "ac",
        "ter"
      ],
      [
        "am",
        "iento"
      ],
      [
        "b",
        "ol"
      ],
      [
        "S",
        "ta"
      ],
      [
        "í",
        "sti"
      ],
      [
        "s",
        "es"
      ],
      [
        "to",
        "p"
      ],
      [
        "m",
        "al"
      ],
      [
        "19",
        "3"
      ],
      [
        "p",
        "io"
      ],
      [
        "m",
        "y"
      ],
      [
        "201",
        "0"
      ],
      [
        "th",
        "ree"
      ],
      [
        "res",
        "pon"
      ],
      [
        "di",
        "v"
      ],
      [
        "f",
        "t"
      ],
      [
        "ien",
        "do"
      ],
      [
        "b",
        "ack"
      ],
      [
        "r",
        "el"
      ],
      [
        "nue",
        "vo"
      ],
      [
        "a",
        "z"
      ],
      [
        "pr",
        "om"
      ],
      [
        "w",
        "ar"
      ],
      [
        "mu",
        "er"
      ],
      [
        "g",
        "ún"
      ],
      [
        "bi",
        "ó"
      ],
      [
        "b",
        "ra"
      ],
      [
        "P",
        "ro"
      ],
      [
        "tiv",
        "os"
      ],
      [
        "B",
        "e"
      ],
      [
        "N",
        "ew"
      ],
      [
        "ab",
        "r"
      ],
      [
        "num",
        "ber"
      ],
      [
        "pro",
        "ces"
      ],
      [
        "tan",
        "to"
      ],
      [
        "A",
        "t"
      ],
      [
        "y",
        "ec"
      ],
      [
        "ti",
        "tu"
      ],
      [
        "hu",
        "man"
      ],
      [
        "ti",
        "ó"
      ],
      [
        "a",
        "ted"
      ],
      [
        "d",
        "om"
      ],
      [
        "hi",
        "p"
      ],
      [
        "ñ",
        "os"
      ],
      [
        "en",
        "g"
      ],
      [
        "b",
        "ur"
      ],
      [
        "est",
        "as"
      ],
      [
        "baj",
        "o"
      ],
      [
        "r",
        "is"
      ],
      [
        "f",
        "ac"
      ],
      [
        "p",
        "úbl"
      ],
      [
        "s",
        "m"
      ],
      [
        "D",
        "i"
      ],
      [
        "L",
        "i"
      ],
      [
        "rele",
        "ased"
      ],
      [
        "r",
        "ough"
      ],
      [
        "Es",
        "ta"
      ],
      [
        "é",
        "x"
      ],
      [
        "m",
        "ember"
      ],
      [
        "tri",
        "bu"
      ],
      [
        "c",
        "ó"
      ],
      [
        "os",
        "e"
      ],
      [
        "A",
        "f"
      ],
      [
        "te",
        "am"
      ],
      [
        "re",
        "cor"
      ],
      [
        "ú",
        "s"
      ],
      [
        "v",
        "ia"
      ],
      [
        "n",
        "ú"
      ],
      [
        "n",
        "ed"
      ],
      [
        "c",
        "in"
      ],
      [
        "m",
        "at"
      ],
      [
        "parti",
        "ci"
      ],
      [
        "i",
        "ta"
      ],
      [
        "w",
        "ell"
      ],
      [
        "h",
        "or"
      ],
      [
        "com",
        "un"
      ],
      [
        "M",
        "an"
      ],
      [
        "w",
        "rit"
      ],
      [
        "1",
        "1"
      ],
      [
        "ec",
        "e"
      ],
      [
        "est",
        "ado"
      ],
      [
        "d",
        "ar"
      ],
      [
        "re",
        "al"
      ],
      [
        "c",
        "la"
      ],
      [
        "ñ",
        "a"
      ],
      [
        "car",
        "r"
      ],
      [
        "cho",
        "ol"
      ],
      [
        "F",
        "e"
      ],
      [
        "i",
        "to"
      ],
      [
        "i",
        "as"
      ],
      [
        "ge",
        "t"
      ],
      [
        "j",
        "ug"
      ],
      [
        "popu",
        "lar"
      ],
      [
        "z",
        "as"
      ],
      [
        "er",
        "an"
      ],
      [
        "m",
        "it"
      ],
      [
        "s",
        "peci"
      ],
      [
        "a",
        "unque"
      ],
      [
        "pue",
        "den"
      ],
      [
        "m",
        "ientras"
      ],
      [
        "gru",
        "po"
      ],
      [
        "ec",
        "t"
      ],
      [
        "ag",
        "ain"
      ],
      [
        "h",
        "igh"
      ],
      [
        "M",
        "a"
      ],
      [
        "i",
        "le"
      ],
      [
        "al",
        "s"
      ],
      [
        "s",
        "el"
      ],
      [
        "j",
        "os"
      ],
      [
        "r",
        "om"
      ],
      [
        "w",
        "er"
      ],
      [
        "gr",
        "ou"
      ],
      [
        "C",
        "ol"
      ],
      [
        "L",
        "o"
      ],
      [
        "organ",
        "iz"
      ],
      [
        "y",
        "e"
      ],
      [
        "pro",
        "ble"
      ],
      [
        "com",
        "en"
      ],
      [
        "em",
        "ent"
      ],
      [
        "bet",
        "ween"
      ],
      [
        "wor",
        "ld"
      ],
      [
        "tu",
        "re"
      ],
      [
        "S",
        "ome"
      ],
      [
        "bor",
        "n"
      ],
      [
        "aj",
        "e"
      ],
      [
        "ar",
        "ia"
      ],
      [
        "to",
        "tal"
      ],
      [
        "d",
        "y"
      ],
      [
        "ar",
        "o"
      ],
      [
        "ici",
        "o"
      ],
      [
        "tor",
        "es"
      ],
      [
        "esta",
        "ba"
      ],
      [
        "5",
        "0"
      ],
      [
        "pe",
        "que"
      ],
      [
        "com",
        "e"
      ],
      [
        "er",
        "r"
      ],
      [
        "pres",
        "iden"
      ],
      [
        "si",
        "der"
      ],
      [
        "us",
        "tr"
      ],
      [
        "un",
        "til"
      ],
      [
        "po",
        "bla"
      ],
      [
        "d",
        "in"
      ],
      [
        "ci",
        "ty"
      ],
      [
        "2",
        "4"
      ],
      [
        "bier",
        "no"
      ],
      [
        "an",
        "im"
      ],
      [
        "pres",
        "enta"
      ],
      [
        "we",
        "ver"
      ],
      [
        "ves",
        "ti"
      ],
      [
        "P",
        "o"
      ],
      [
        "f",
        "ica"
      ],
      [
        "est",
        "án"
      ],
      [
        "v",
        "in"
      ],
      [
        "I",
        "s"
      ],
      [
        "f",
        "en"
      ],
      [
        "play",
        "ed"
      ],
      [
        "ma",
        "ke"
      ],
      [
        "id",
        "as"
      ],
      [
        "a",
        "ta"
      ],
      [
        "tr",
        "an"
      ],
      [
        "ish",
        "ed"
      ],
      [
        "o",
        "wn"
      ],
      [
        "contr",
        "ol"
      ],
      [
        "un",
        "g"
      ],
      [
        "is",
        "o"
      ],
      [
        "el",
        "los"
      ],
      [
        "2",
        "1"
      ],
      [
        "A",
        "c"
      ],
      [
        "o",
        "us"
      ],
      [
        "ci",
        "os"
      ],
      [
        "gener",
        "al"
      ],
      [
        "uc",
        "ción"
      ],
      [
        "son",
        "g"
      ],
      [
        "n",
        "er"
      ],
      [
        "des",
        "cri"
      ],
      [
        ".",
        "\""
      ],
      [
        "di",
        "ó"
      ],
      [
        "to",
        "m"
      ],
      [
        "prod",
        "u"
      ],
      [
        "s",
        "ame"
      ],
      [
        "ou",
        "th"
      ],
      [
        "c",
        "lar"
      ],
      [
        "m",
        "om"
      ],
      [
        "v",
        "as"
      ],
      [
        "ul",
        "ar"
      ],
      [
        "k",
        "es"
      ],
      [
        "con",
        "sider"
      ],
      [
        "med",
        "i"
      ],
      [
        "t",
        "ele"
      ],
      [
        "b",
        "al"
      ],
      [
        "ex",
        "per"
      ],
      [
        "pol",
        "í"
      ],
      [
        "na",
        "cional"
      ],
      [
        "ha",
        "cia"
      ],
      [
        "t",
        "í"
      ],
      [
        "cuen",
        "ta"
      ],
      [
        "u",
        "er"
      ],
      [
        "in",
        "ten"
      ],
      [
        "ar",
        "a"
      ],
      [
        "la",
        "bor"
      ],
      [
        "me",
        "jor"
      ],
      [
        "sigu",
        "i"
      ],
      [
        "il",
        "la"
      ],
      [
        "of",
        "ten"
      ],
      [
        "g",
        "as"
      ],
      [
        "equi",
        "po"
      ],
      [
        "M",
        "on"
      ],
      [
        "th",
        "rough"
      ],
      [
        "C",
        "or"
      ],
      [
        "as",
        "on"
      ],
      [
        "al",
        "la"
      ],
      [
        "j",
        "u"
      ],
      [
        "ch",
        "es"
      ],
      [
        "ha",
        "y"
      ],
      [
        "P",
        "a"
      ],
      [
        "a",
        "ciones"
      ],
      [
        "a",
        "tion"
      ],
      [
        "bo",
        "ok"
      ],
      [
        "ter",
        "n"
      ],
      [
        "ex",
        "is"
      ],
      [
        "o",
        "tras"
      ],
      [
        "b",
        "ir"
      ],
      [
        "cu",
        "er"
      ],
      [
        "am",
        "es"
      ],
      [
        "i",
        "er"
      ],
      [
        "b",
        "os"
      ],
      [
        "w",
        "on"
      ]
    ]
  }
}