{
  "version": "1.0",
  "truncation": null,
  "padding": null,
  "added_tokens": [
    {
      "id": 0,
      "content": "<UNK>",
      "single_word": false,
      "lstrip": false,
      "rstrip": false,
      "normalized": false,
      "special": true
    },
    {
      "id": 1,
      "content": "<SEP>",
      "single_word": false,
      "lstrip": false,
      "rstrip": false,
      "normalized": false,
      "special": true
    },
    {
      "id": 2,
      "content": "<MASK>",
      "single_word": false,
      "lstrip": false,
      "rstrip": false,
      "normalized": false,
      "special": true
    },
    {
      "id": 3,
      "content": "<CLS>",
      "single_word": false,
      "lstrip": false,
      "rstrip": false,
      "normalized": false,
      "special": true
    }
  ],
  "normalizer": null,
  "pre_tokenizer": {
    "type": "Whitespace"
  },
  "post_processor": null,
  "decoder": null,
  "model": {
    "type": "BPE",
    "dropout": null,
    "unk_token": "<UNK>",
    "continuing_subword_prefix": null,
    "end_of_word_suffix": null,
    "fuse_unk": false,
    "byte_fallback": false,
    "ignore_merges": false,
    "vocab": {
      "<UNK>": 0,
      "<SEP>": 1,
      "<MASK>": 2,
      "<CLS>": 3,
      "!": 4,
      "\"": 5,
      "$": 6,
      "%": 7,
      "&": 8,
      "'": 9,
      "(": 10,
      ")": 11,
      "*": 12,
      "+": 13,
      ",": 14,
      "-": 15,
      ".": 16,
      "/": 17,
      "0": 18,
      "1": 19,
      "2": 20,
      "3": 21,
      "4": 22,
      "5": 23,
      "6": 24,
      "7": 25,
      "8": 26,
      "9": 27,
      ":": 28,
      ";": 29,
      "<": 30,
      ">": 31,
      "?": 32,
      "A": 33,
      "B": 34,
      "C": 35,
      "D": 36,
      "E": 37,
      "F": 38,
      "G": 39,
      "H": 40,
      "I": 41,
      "J": 42,
      "K": 43,
      "L": 44,
      "M": 45,
      "N": 46,
      "O": 47,
      "P": 48,
      "Q": 49,
      "R": 50,
      "S": 51,
      "T": 52,
      "U": 53,
      "V": 54,
      "W": 55,
      "X": 56,
      "Y": 57,
      "Z": 58,
      "`": 59,
      "a": 60,
      "b": 61,
      "c": 62,
      "d": 63,
      "e": 64,
      "f": 65,
      "g": 66,
      "h": 67,
      "i": 68,
      "j": 69,
      "k": 70,
      "l": 71,
      "m": 72,
      "n": 73,
      "o": 74,
      "p": 75,
      "q": 76,
      "r": 77,
      "s": 78,
      "t": 79,
      "u": 80,
      "v": 81,
      "w": 82,
      "x": 83,
      "y": 84,
      "z": 85,
      "~": 86,
      "¡": 87,
      "¢": 88,
      "£": 89,
      "¥": 90,
      "§": 91,
      "¨": 92,
      "ª": 93,
      "«": 94,
      "¬": 95,
      "®": 96,
      "°": 97,
      "±": 98,
      "²": 99,
      "³": 100,
      "´": 101,
      "µ": 102,
      "¶": 103,
      "·": 104,
      "¹": 105,
      "º": 106,
      "»": 107,
      "¼": 108,
      "½": 109,
      "¾": 110,
      "¿": 111,
      "À": 112,
      "Á": 113,
      "Ä": 114,
      "Å": 115,
      "Æ": 116,
      "Ç": 117,
      "È": 118,
      "É": 119,
      "Ê": 120,
      "Ì": 121,
      "Í": 122,
      "Î": 123,
      "Ï": 124,
      "Ð": 125,
      "Ñ": 126,
      "Ó": 127,
      "Ö": 128,
      "×": 129,
      "Ø": 130,
      "Ú": 131,
      "Û": 132,
      "Ü": 133,
      "Þ": 134,
      "ß": 135,
      "à": 136,
      "á": 137,
      "â": 138,
      "ã": 139,
      "ä": 140,
      "å": 141,
      "æ": 142,
      "ç": 143,
      "è": 144,
      "é": 145,
      "ê": 146,
      "ë": 147,
      "ì": 148,
      "í": 149,
      "î": 150,
      "ï": 151,
      "ð": 152,
      "ñ": 153,
      "ò": 154,
      "ó": 155,
      "ô": 156,
      "õ": 157,
      "ö": 158,
      "ø": 159,
      "ù": 160,
      "ú": 161,
      "û": 162,
      "ü": 163,
      "ý": 164,
      "þ": 165,
      "ÿ": 166,
      "Ā": 167,
      "ā": 168,
      "ă": 169,
      "ą": 170,
      "Ć": 171,
      "ć": 172,
      "ċ": 173,
      "Č": 174,
      "č": 175,
      "Ď": 176,
      "Đ": 177,
      "đ": 178,
      "ē": 179,
      "ė": 180,
      "Ę": 181,
      "ę": 182,
      "ě": 183,
      "Ğ": 184,
      "ğ": 185,
      "ġ": 186,
      "ħ": 187,
      "ī": 188,
      "į": 189,
      "İ": 190,
      "ı": 191,
      "ķ": 192,
      "ĺ": 193,
      "Ľ": 194,
      "ľ": 195,
      "ŀ": 196,
      "Ł": 197,
      "ł": 198,
      "ń": 199,
      "ņ": 200,
      "ň": 201,
      "ŋ": 202,
      "Ō": 203,
      "ō": 204,
      "ŏ": 205,
      "Ő": 206,
      "ő": 207,
      "Œ": 208,
      "œ": 209,
      "ŕ": 210,
      "ŗ": 211,
      "Ř": 212,
      "ř": 213,
      "Ś": 214,
      "ś": 215,
      "Ş": 216,
      "ş": 217,
      "Š": 218,
      "š": 219,
      "Ţ": 220,
      "ţ": 221,
      "ť": 222,
      "ū": 223,
      "ů": 224,
      "ű": 225,
      "ŵ": 226,
      "Ŷ": 227,
      "ŷ": 228,
      "Ź": 229,
      "ź": 230,
      "Ż": 231,
      "ż": 232,
      "Ž": 233,
      "ž": 234,
      "ƒ": 235,
      "ơ": 236,
      "ư": 237,
      "ǎ": 238,
      "ǐ": 239,
      "ǒ": 240,
      "ǔ": 241,
      "ǚ": 242,
      "ǜ": 243,
      "Ǧ": 244,
      "ǧ": 245,
      "ǫ": 246,
      "Ș": 247,
      "ș": 248,
      "ț": 249,
      "ȟ": 250,
      "Ƀ": 251,
      "ɐ": 252,
      "ɑ": 253,
      "ɗ": 254,
      "ə": 255,
      "ɛ": 256,
      "ɡ": 257,
      "ɪ": 258,
      "ɵ": 259,
      "ʂ": 260,
      "ʃ": 261,
      "ʌ": 262,
      "ʲ": 263,
      "ʳ": 264,
      "ʷ": 265,
      "ʹ": 266,
      "ʻ": 267,
      "ʼ": 268,
      "ʽ": 269,
      "ʾ": 270,
      "ʿ": 271,
      "ˈ": 272,
      "ˉ": 273,
      "ː": 274,
      "˚": 275,
      "́": 276,
      "̈": 277,
      "̉": 278,
      "̟": 279,
      "̱": 280,
      "̲": 281,
      "Ά": 282,
      "Ό": 283,
      "Α": 284,
      "Γ": 285,
      "Δ": 286,
      "Ε": 287,
      "Η": 288,
      "Θ": 289,
      "Ι": 290,
      "Κ": 291,
      "Λ": 292,
      "Μ": 293,
      "Ν": 294,
      "Ο": 295,
      "Π": 296,
      "Ρ": 297,
      "Σ": 298,
      "Τ": 299,
      "Υ": 300,
      "Φ": 301,
      "Χ": 302,
      "Ψ": 303,
      "Ω": 304,
      "ά": 305,
      "έ": 306,
      "ή": 307,
      "ί": 308,
      "α": 309,
      "β": 310,
      "γ": 311,
      "δ": 312,
      "ε": 313,
      "ζ": 314,
      "η": 315,
      "θ": 316,
      "ι": 317,
      "κ": 318,
      "λ": 319,
      "μ": 320,
      "ν": 321,
      "ξ": 322,
      "ο": 323,
      "π": 324,
      "ρ": 325,
      "ς": 326,
      "σ": 327,
      "τ": 328,
      "υ": 329,
      "φ": 330,
      "χ": 331,
      "ψ": 332,
      "ω": 333,
      "ό": 334,
      "ύ": 335,
      "ώ": 336,
      "І": 337,
      "Ћ": 338,
      "А": 339,
      "Б": 340,
      "В": 341,
      "Г": 342,
      "Д": 343,
      "Е": 344,
      "Ж": 345,
      "З": 346,
      "И": 347,
      "К": 348,
      "Л": 349,
      "М": 350,
      "Н": 351,
      "О": 352,
      "П": 353,
      "Р": 354,
      "С": 355,
      "Т": 356,
      "У": 357,
      "Ф": 358,
      "Х": 359,
      "Ц": 360,
      "Ч": 361,
      "Ш": 362,
      "Ь": 363,
      "Э": 364,
      "Ю": 365,
      "Я": 366,
      "а": 367,
      "б": 368,
      "в": 369,
      "г": 370,
      "д": 371,
      "е": 372,
      "ж": 373,
      "з": 374,
      "и": 375,
      "й": 376,
      "к": 377,
      "л": 378,
      "м": 379,
      "н": 380,
      "о": 381,
      "п": 382,
      "р": 383,
      "с": 384,
      "т": 385,
      "у": 386,
      "ф": 387,
      "х": 388,
      "ц": 389,
      "ч": 390,
      "ш": 391,
      "щ": 392,
      "ъ": 393,
      "ы": 394,
      "ь": 395,
      "ю": 396,
      "я": 397,
      "ё": 398,
      "і": 399,
      "ї": 400,
      "ј": 401,
      "љ": 402,
      "ћ": 403,
      "ў": 404,
      "ӏ": 405,
      "Ա": 406,
      "Կ": 407,
      "Ձ": 408,
      "Պ": 409,
      "Ս": 410,
      "ա": 411,
      "դ": 412,
      "ե": 413,
      "զ": 414,
      "ի": 415,
      "կ": 416,
      "հ": 417,
      "ղ": 418,
      "մ": 419,
      "ն": 420,
      "ո": 421,
      "պ": 422,
      "ռ": 423,
      "տ": 424,
      "ր": 425,
      "ւ": 426,
      "ְ": 427,
      "ִ": 428,
      "ֵ": 429,
      "ָ": 430,
      "ֹ": 431,
      "ֺ": 432,
      "א": 433,
      "ב": 434,
      "ג": 435,
      "ד": 436,
      "ה": 437,
      "ו": 438,
      "ז": 439,
      "ח": 440,
      "ט": 441,
      "י": 442,
      "ך": 443,
      "כ": 444,
      "ל": 445,
      "ם": 446,
      "מ": 447,
      "ן": 448,
      "נ": 449,
      "ס": 450,
      "ע": 451,
      "פ": 452,
      "צ": 453,
      "ק": 454,
      "ר": 455,
      "ש": 456,
      "ת": 457,
      "ؚ": 458,
      "آ": 459,
      "أ": 460,
      "إ": 461,
      "ا": 462,
      "ب": 463,
      "ة": 464,
      "ت": 465,
      "ج": 466,
      "ح": 467,
      "خ": 468,
      "د": 469,
      "ر": 470,
      "س": 471,
      "ش": 472,
      "ص": 473,
      "ض": 474,
      "ظ": 475,
      "ع": 476,
      "غ": 477,
      "ـ": 478,
      "ف": 479,
      "ق": 480,
      "ك": 481,
      "ل": 482,
      "م": 483,
      "ن": 484,
      "ه": 485,
      "و": 486,
      "ى": 487,
      "ي": 488,
      "َ": 489,
      "ُ": 490,
      "ِ": 491,
      "ّ": 492,
      "ْ": 493,
      "پ": 494,
      "ڈ": 495,
      "ک": 496,
      "ھ": 497,
      "ی": 498,
      "ܐ": 499,
      "ܓ": 500,
      "ܢ": 501,
      "ܬ": 502,
      "ं": 503,
      "ग": 504,
      "च": 505,
      "ज": 506,
      "ण": 507,
      "त": 508,
      "द": 509,
      "न": 510,
      "प": 511,
      "भ": 512,
      "म": 513,
      "य": 514,
      "र": 515,
      "व": 516,
      "ष": 517,
      "स": 518,
      "ा": 519,
      "ि": 520,
      "ी": 521,
      "ु": 522,
      "ू": 523,
      "े": 524,
      "्": 525,
      "এ": 526,
      "ক": 527,
      "চ": 528,
      "ন": 529,
      "ব": 530,
      "র": 531,
      "ল": 532,
      "া": 533,
      "ি": 534,
      "ী": 535,
      "্": 536,
      "ค": 537,
      "ช": 538,
      "ณ": 539,
      "ด": 540,
      "ต": 541,
      "น": 542,
      "บ": 543,
      "พ": 544,
      "ม": 545,
      "ย": 546,
      "ร": 547,
      "ล": 548,
      "ว": 549,
      "ส": 550,
      "ห": 551,
      "ั": 552,
      "า": 553,
      "ิ": 554,
      "ุ": 555,
      "฿": 556,
      "เ": 557,
      "แ": 558,
      "๖": 559,
      "་": 560,
      "ད": 561,
      "བ": 562,
      "ོ": 563,
      "ა": 564,
      "დ": 565,
      "ე": 566,
      "ზ": 567,
      "ი": 568,
      "ლ": 569,
      "მ": 570,
      "რ": 571,
      "ქ": 572,
      "ყ": 573,
      "წ": 574,
      "ხ": 575,
      "჻": 576,
      "ᜎ": 577,
      "ᜒ": 578,
      "ᜓ": 579,
      "ᵉ": 580,
      "ḇ": 581,
      "ḍ": 582,
      "Ḥ": 583,
      "ḥ": 584,
      "ḫ": 585,
      "ḳ": 586,
      "ḵ": 587,
      "ḿ": 588,
      "ṃ": 589,
      "ṅ": 590,
      "ṇ": 591,
      "ṛ": 592,
      "Ṣ": 593,
      "ṣ": 594,
      "ṭ": 595,
      "ṯ": 596,
      "ạ": 597,
      "ả": 598,
      "ấ": 599,
      "ầ": 600,
      "ậ": 601,
      "ắ": 602,
      "ẻ": 603,
      "ế": 604,
      "ề": 605,
      "ễ": 606,
      "ệ": 607,
      "ị": 608,
      "Ọ": 609,
      "ọ": 610,
      "ố": 611,
      "ồ": 612,
      "ộ": 613,
      "ờ": 614,
      "ở": 615,
      "ợ": 616,
      "ủ": 617,
      "ứ": 618,
      "ừ": 619,
      "ử": 620,
      "ữ": 621,
      "ἄ": 622,
      "ἐ": 623,
      "ἑ": 624,
      "ἔ": 625,
      "ἠ": 626,
      "ἰ": 627,
      "ὀ": 628,
      "ὁ": 629,
      "ὅ": 630,
      "Ὀ": 631,
      "ὐ": 632,
      "ὰ": 633,
      "ὲ": 634,
      "ῖ": 635,
      "ῦ": 636,
      "ῶ": 637,
      "​": 638,
      "‍": 639,
      "‎": 640,
      "‑": 641,
      "‒": 642,
      "–": 643,
      "—": 644,
      "―": 645,
      "‘": 646,
      "’": 647,
      "“": 648,
      "”": 649,
      "„": 650,
      "†": 651,
      "•": 652,
      "…": 653,
      "‰": 654,
      "′": 655,
      "″": 656,
      "‹": 657,
      "›": 658,
      "⁄": 659,
      "⁵": 660,
      "⁹": 661,
      "⁻": 662,
      "₂": 663,
      "₡": 664,
      "₩": 665,
      "€": 666,
      "₱": 667,
      "₲": 668,
      "₹": 669,
      "℃": 670,
      "℉": 671,
      "ℓ": 672,
      "№": 673,
      "™": 674,
      "⅓": 675,
      "⅔": 676,
      "⅜": 677,
      "Ⅲ": 678,
      "Ⅹ": 679,
      "→": 680,
      "↔": 681,
      "↵": 682,
      "∆": 683,
      "∇": 684,
      "−": 685,
      "∙": 686,
      "∧": 687,
      "∩": 688,
      "∪": 689,
      "≈": 690,
      "≠": 691,
      "≡": 692,
      "≤": 693,
      "≥": 694,
      "≪": 695,
      "≫": 696,
      "⋅": 697,
      "─": 698,
      "┬": 699,
      "□": 700,
      "▪": 701,
      "★": 702,
      "☆": 703,
      "☉": 704,
      "♠": 705,
      "♦": 706,
      "♭": 707,
      "♯": 708,
      "❏": 709,
      "⟨": 710,
      "⟩": 711,
      "ⴰ": 712,
      "ⴷ": 713,
      "ⴻ": 714,
      "ⵀ": 715,
      "ⵃ": 716,
      "ⵉ": 717,
      "ⵎ": 718,
      "ⵏ": 719,
      "ⵓ": 720,
      "ⵙ": 721,
      "ⵛ": 722,
      "ⵜ": 723,
      "、": 724,
      "。": 725,
      "《": 726,
      "》": 727,
      "「": 728,
      "」": 729,
      "『": 730,
      "』": 731,
      "〜": 732,
      "〡": 733,
      "〢": 734,
      "〣": 735,
      "ぁ": 736,
      "あ": 737,
      "い": 738,
      "う": 739,
      "え": 740,
      "お": 741,
      "か": 742,
      "が": 743,
      "き": 744,
      "さ": 745,
      "し": 746,
      "じ": 747,
      "す": 748,
      "ず": 749,
      "せ": 750,
      "ぞ": 751,
      "だ": 752,
      "っ": 753,
      "づ": 754,
      "て": 755,
      "で": 756,
      "と": 757,
      "ど": 758,
      "な": 759,
      "に": 760,
      "の": 761,
      "は": 762,
      "ぼ": 763,
      "ま": 764,
      "み": 765,
      "む": 766,
      "も": 767,
      "ゃ": 768,
      "や": 769,
      "ら": 770,
      "り": 771,
      "る": 772,
      "を": 773,
      "ん": 774,
      "ア": 775,
      "ィ": 776,
      "イ": 777,
      "ウ": 778,
      "ェ": 779,
      "エ": 780,
      "オ": 781,
      "カ": 782,
      "ガ": 783,
      "キ": 784,
      "ギ": 785,
      "ク": 786,
      "グ": 787,
      "ゲ": 788,
      "サ": 789,
      "シ": 790,
      "ジ": 791,
      "ス": 792,
      "ズ": 793,
      "セ": 794,
      "タ": 795,
      "ダ": 796,
      "チ": 797,
      "ッ": 798,
      "ツ": 799,
      "テ": 800,
      "デ": 801,
      "ト": 802,
      "ド": 803,
      "ナ": 804,
      "ニ": 805,
      "ヌ": 806,
      "ノ": 807,
      "ハ": 808,
      "バ": 809,
      "ヒ": 810,
      "ビ": 811,
      "フ": 812,
      "ブ": 813,
      "プ": 814,
      "ボ": 815,
      "マ": 816,
      "ミ": 817,
      "ム": 818,
      "メ": 819,
      "モ": 820,
      "ャ": 821,
      "ヤ": 822,
      "ュ": 823,
      "ユ": 824,
      "ョ": 825,
      "ヨ": 826,
      "ラ": 827,
      "リ": 828,
      "ル": 829,
      "レ": 830,
      "ロ": 831,
      "ン": 832,
      "ヴ": 833,
      "ヶ": 834,
      "・": 835,
      "ー": 836,
      "一": 837,
      "万": 838,
      "三": 839,
      "下": 840,
      "不": 841,
      "世": 842,
      "丙": 843,
      "东": 844,
      "中": 845,
      "丸": 846,
      "之": 847,
      "乙": 848,
      "也": 849,
      "书": 850,
      "亂": 851,
      "事": 852,
      "二": 853,
      "于": 854,
      "交": 855,
      "产": 856,
      "京": 857,
      "人": 858,
      "仁": 859,
      "仕": 860,
      "仙": 861,
      "代": 862,
      "令": 863,
      "任": 864,
      "伊": 865,
      "会": 866,
      "传": 867,
      "伯": 868,
      "佐": 869,
      "体": 870,
      "佛": 871,
      "使": 872,
      "侯": 873,
      "信": 874,
      "倒": 875,
      "倡": 876,
      "儀": 877,
      "光": 878,
      "內": 879,
      "全": 880,
      "八": 881,
      "公": 882,
      "六": 883,
      "共": 884,
      "兴": 885,
      "典": 886,
      "内": 887,
      "再": 888,
      "军": 889,
      "冠": 890,
      "処": 891,
      "出": 892,
      "切": 893,
      "別": 894,
      "到": 895,
      "則": 896,
      "前": 897,
      "剣": 898,
      "剧": 899,
      "割": 900,
      "劇": 901,
      "动": 902,
      "助": 903,
      "動": 904,
      "務": 905,
      "勝": 906,
      "勿": 907,
      "包": 908,
      "化": 909,
      "北": 910,
      "区": 911,
      "十": 912,
      "千": 913,
      "半": 914,
      "华": 915,
      "南": 916,
      "卜": 917,
      "卫": 918,
      "原": 919,
      "厲": 920,
      "去": 921,
      "县": 922,
      "又": 923,
      "友": 924,
      "口": 925,
      "可": 926,
      "台": 927,
      "史": 928,
      "号": 929,
      "司": 930,
      "吃": 931,
      "吉": 932,
      "名": 933,
      "后": 934,
      "君": 935,
      "吳": 936,
      "吸": 937,
      "呂": 938,
      "告": 939,
      "周": 940,
      "呼": 941,
      "命": 942,
      "和": 943,
      "咲": 944,
      "員": 945,
      "唐": 946,
      "唯": 947,
      "唱": 948,
      "單": 949,
      "嘉": 950,
      "四": 951,
      "図": 952,
      "国": 953,
      "國": 954,
      "園": 955,
      "坚": 956,
      "坪": 957,
      "垣": 958,
      "城": 959,
      "基": 960,
      "塔": 961,
      "壬": 962,
      "壮": 963,
      "外": 964,
      "夢": 965,
      "大": 966,
      "天": 967,
      "夫": 968,
      "失": 969,
      "头": 970,
      "奄": 971,
      "奈": 972,
      "奏": 973,
      "女": 974,
      "妃": 975,
      "妻": 976,
      "始": 977,
      "姓": 978,
      "委": 979,
      "子": 980,
      "孙": 981,
      "学": 982,
      "學": 983,
      "宇": 984,
      "宗": 985,
      "官": 986,
      "宣": 987,
      "宮": 988,
      "家": 989,
      "寂": 990,
      "寺": 991,
      "寿": 992,
      "將": 993,
      "尉": 994,
      "尊": 995,
      "小": 996,
      "少": 997,
      "尖": 998,
      "就": 999,
      "局": 1000,
      "屋": 1001,
      "屐": 1002,
      "屑": 1003,
      "履": 1004,
      "屬": 1005,
      "山": 1006,
      "岩": 1007,
      "岸": 1008,
      "峨": 1009,
      "島": 1010,
      "川": 1011,
      "州": 1012,
      "左": 1013,
      "巨": 1014,
      "己": 1015,
      "已": 1016,
      "巳": 1017,
      "市": 1018,
      "师": 1019,
      "帛": 1020,
      "師": 1021,
      "幣": 1022,
      "广": 1023,
      "店": 1024,
      "府": 1025,
      "座": 1026,
      "庫": 1027,
      "庭": 1028,
      "廢": 1029,
      "弁": 1030,
      "式": 1031,
      "弩": 1032,
      "張": 1033,
      "强": 1034,
      "形": 1035,
      "彦": 1036,
      "影": 1037,
      "律": 1038,
      "徽": 1039,
      "心": 1040,
      "性": 1041,
      "怪": 1042,
      "恋": 1043,
      "恵": 1044,
      "想": 1045,
      "意": 1046,
      "愛": 1047,
      "戈": 1048,
      "成": 1049,
      "戦": 1050,
      "戸": 1051,
      "房": 1052,
      "所": 1053,
      "手": 1054,
      "扶": 1055,
      "找": 1056,
      "抄": 1057,
      "拓": 1058,
      "拔": 1059,
      "拜": 1060,
      "拥": 1061,
      "拱": 1062,
      "捕": 1063,
      "掌": 1064,
      "掩": 1065,
      "提": 1066,
      "揚": 1067,
      "握": 1068,
      "摇": 1069,
      "收": 1070,
      "教": 1071,
      "文": 1072,
      "新": 1073,
      "族": 1074,
      "日": 1075,
      "早": 1076,
      "明": 1077,
      "易": 1078,
      "星": 1079,
      "春": 1080,
      "是": 1081,
      "時": 1082,
      "晃": 1083,
      "曲": 1084,
      "書": 1085,
      "最": 1086,
      "會": 1087,
      "月": 1088,
      "有": 1089,
      "朐": 1090,
      "望": 1091,
      "朝": 1092,
      "朧": 1093,
      "木": 1094,
      "本": 1095,
      "村": 1096,
      "条": 1097,
      "杨": 1098,
      "東": 1099,
      "松": 1100,
      "林": 1101,
      "果": 1102,
      "校": 1103,
      "株": 1104,
      "核": 1105,
      "案": 1106,
      "梅": 1107,
      "梓": 1108,
      "森": 1109,
      "楊": 1110,
      "榮": 1111,
      "樓": 1112,
      "橋": 1113,
      "次": 1114,
      "止": 1115,
      "正": 1116,
      "步": 1117,
      "段": 1118,
      "殿": 1119,
      "毛": 1120,
      "民": 1121,
      "气": 1122,
      "気": 1123,
      "氣": 1124,
      "水": 1125,
      "氵": 1126,
      "永": 1127,
      "汉": 1128,
      "江": 1129,
      "治": 1130,
      "泉": 1131,
      "波": 1132,
      "洋": 1133,
      "津": 1134,
      "洪": 1135,
      "洲": 1136,
      "流": 1137,
      "浙": 1138,
      "浜": 1139,
      "浩": 1140,
      "浮": 1141,
      "海": 1142,
      "润": 1143,
      "涪": 1144,
      "淸": 1145,
      "清": 1146,
      "湾": 1147,
      "溪": 1148,
      "溫": 1149,
      "滅": 1150,
      "演": 1151,
      "漢": 1152,
      "潤": 1153,
      "潯": 1154,
      "炎": 1155,
      "為": 1156,
      "烈": 1157,
      "烏": 1158,
      "照": 1159,
      "爨": 1160,
      "爱": 1161,
      "爲": 1162,
      "物": 1163,
      "狩": 1164,
      "狼": 1165,
      "獨": 1166,
      "玉": 1167,
      "王": 1168,
      "理": 1169,
      "琛": 1170,
      "璇": 1171,
      "璋": 1172,
      "生": 1173,
      "田": 1174,
      "电": 1175,
      "畅": 1176,
      "疏": 1177,
      "瘋": 1178,
      "癲": 1179,
      "百": 1180,
      "的": 1181,
      "皇": 1182,
      "皋": 1183,
      "皮": 1184,
      "目": 1185,
      "相": 1186,
      "看": 1187,
      "県": 1188,
      "真": 1189,
      "眠": 1190,
      "石": 1191,
      "砂": 1192,
      "社": 1193,
      "祐": 1194,
      "神": 1195,
      "禁": 1196,
      "禄": 1197,
      "秀": 1198,
      "私": 1199,
      "秈": 1200,
      "秉": 1201,
      "种": 1202,
      "科": 1203,
      "租": 1204,
      "稔": 1205,
      "稽": 1206,
      "立": 1207,
      "站": 1208,
      "章": 1209,
      "第": 1210,
      "筆": 1211,
      "篇": 1212,
      "类": 1213,
      "粮": 1214,
      "紘": 1215,
      "級": 1216,
      "紫": 1217,
      "紹": 1218,
      "統": 1219,
      "線": 1220,
      "縣": 1221,
      "總": 1222,
      "级": 1223,
      "经": 1224,
      "维": 1225,
      "美": 1226,
      "義": 1227,
      "翠": 1228,
      "翰": 1229,
      "老": 1230,
      "而": 1231,
      "职": 1232,
      "聖": 1233,
      "聚": 1234,
      "肅": 1235,
      "自": 1236,
      "興": 1237,
      "舎": 1238,
      "舞": 1239,
      "良": 1240,
      "色": 1241,
      "节": 1242,
      "芒": 1243,
      "芦": 1244,
      "花": 1245,
      "苗": 1246,
      "英": 1247,
      "茂": 1248,
      "茶": 1249,
      "草": 1250,
      "荣": 1251,
      "菩": 1252,
      "萃": 1253,
      "萌": 1254,
      "营": 1255,
      "葬": 1256,
      "蒲": 1257,
      "蓮": 1258,
      "蔓": 1259,
      "蔵": 1260,
      "藩": 1261,
      "藺": 1262,
      "虎": 1263,
      "蜂": 1264,
      "行": 1265,
      "衍": 1266,
      "表": 1267,
      "衰": 1268,
      "裁": 1269,
      "裕": 1270,
      "製": 1271,
      "襄": 1272,
      "西": 1273,
      "要": 1274,
      "覆": 1275,
      "見": 1276,
      "親": 1277,
      "觀": 1278,
      "视": 1279,
      "訖": 1280,
      "記": 1281,
      "詐": 1282,
      "語": 1283,
      "説": 1284,
      "談": 1285,
      "諧": 1286,
      "諸": 1287,
      "謀": 1288,
      "謎": 1289,
      "謝": 1290,
      "謳": 1291,
      "議": 1292,
      "记": 1293,
      "谷": 1294,
      "貴": 1295,
      "貿": 1296,
      "賦": 1297,
      "贵": 1298,
      "资": 1299,
      "赵": 1300,
      "超": 1301,
      "趙": 1302,
      "身": 1303,
      "車": 1304,
      "軌": 1305,
      "辛": 1306,
      "达": 1307,
      "辿": 1308,
      "这": 1309,
      "追": 1310,
      "退": 1311,
      "通": 1312,
      "速": 1313,
      "進": 1314,
      "逸": 1315,
      "遊": 1316,
      "運": 1317,
      "道": 1318,
      "達": 1319,
      "遠": 1320,
      "那": 1321,
      "郎": 1322,
      "郡": 1323,
      "部": 1324,
      "郭": 1325,
      "都": 1326,
      "里": 1327,
      "重": 1328,
      "金": 1329,
      "鉄": 1330,
      "鋒": 1331,
      "鋼": 1332,
      "铃": 1333,
      "长": 1334,
      "門": 1335,
      "閃": 1336,
      "開": 1337,
      "關": 1338,
      "间": 1339,
      "阪": 1340,
      "阳": 1341,
      "陈": 1342,
      "限": 1343,
      "院": 1344,
      "陳": 1345,
      "雅": 1346,
      "難": 1347,
      "雨": 1348,
      "電": 1349,
      "霧": 1350,
      "霸": 1351,
      "青": 1352,
      "靖": 1353,
      "鞮": 1354,
      "音": 1355,
      "頂": 1356,
      "題": 1357,
      "類": 1358,
      "風": 1359,
      "飛": 1360,
      "食": 1361,
      "飾": 1362,
      "餠": 1363,
      "馬": 1364,
      "驟": 1365,
      "骨": 1366,
      "高": 1367,
      "魔": 1368,
      "魚": 1369,
      "鴨": 1370,
      "黃": 1371,
      "黨": 1372,
      "龍": 1373,
      "龙": 1374,
      "Ꝣ": 1375,
      "ꝣ": 1376,
      "결": 1377,
      "경": 1378,
      "교": 1379,
      "구": 1380,
      "국": 1381,
      "규": 1382,
      "그": 1383,
      "글": 1384,
      "기": 1385,
      "길": 1386,
      "김": 1387,
      "나": 1388,
      "널": 1389,
      "놈": 1390,
      "니": 1391,
      "다": 1392,
      "단": 1393,
      "도": 1394,
      "동": 1395,
      "라": 1396,
      "락": 1397,
      "랏": 1398,
      "랑": 1399,
      "로": 1400,
      "룹": 1401,
      "류": 1402,
      "리": 1403,
      "마": 1404,
      "만": 1405,
      "먼": 1406,
      "묘": 1407,
      "무": 1408,
      "문": 1409,
      "물": 1410,
      "미": 1411,
      "민": 1412,
      "백": 1413,
      "벌": 1414,
      "보": 1415,
      "본": 1416,
      "부": 1417,
      "블": 1418,
      "비": 1419,
      "빌": 1420,
      "빛": 1421,
      "뿌": 1422,
      "사": 1423,
      "산": 1424,
      "살": 1425,
      "새": 1426,
      "서": 1427,
      "선": 1428,
      "섯": 1429,
      "성": 1430,
      "세": 1431,
      "수": 1432,
      "숙": 1433,
      "스": 1434,
      "신": 1435,
      "십": 1436,
      "쎈": 1437,
      "아": 1438,
      "안": 1439,
      "알": 1440,
      "앤": 1441,
      "양": 1442,
      "에": 1443,
      "엔": 1444,
      "여": 1445,
      "역": 1446,
      "연": 1447,
      "오": 1448,
      "외": 1449,
      "욕": 1450,
      "용": 1451,
      "우": 1452,
      "운": 1453,
      "원": 1454,
      "유": 1455,
      "윤": 1456,
      "을": 1457,
      "이": 1458,
      "인": 1459,
      "자": 1460,
      "장": 1461,
      "재": 1462,
      "전": 1463,
      "젓": 1464,
      "정": 1465,
      "제": 1466,
      "조": 1467,
      "종": 1468,
      "지": 1469,
      "진": 1470,
      "찬": 1471,
      "치": 1472,
      "컴": 1473,
      "코": 1474,
      "타": 1475,
      "태": 1476,
      "터": 1477,
      "테": 1478,
      "토": 1479,
      "트": 1480,
      "틱": 1481,
      "퍼": 1482,
      "폐": 1483,
      "하": 1484,
      "학": 1485,
      "한": 1486,
      "해": 1487,
      "향": 1488,
      "현": 1489,
      "호": 1490,
      "회": 1491,
      "훈": 1492,
      "휘": 1493,
      "흘": 1494,
      "": 1495,
      "ﬁ": 1496,
      "ﬂ": 1497,
      "（": 1498,
      "）": 1499,
      "，": 1500,
      "７": 1501,
      "～": 1502,
      "￼": 1503,
      "de": 1504,
      "en": 1505,
      "es": 1506,
      "la": 1507,
      "os": 1508,
      "er": 1509,
      "on": 1510,
      "ar": 1511,
      "ci": 1512,
      "an": 1513,
      "or": 1514,
      "as": 1515,
      "al": 1516,
      "ad": 1517,
      "el": 1518,
      "ue": 1519,
      "un": 1520,
      "in": 1521,
      "re": 1522,
      "ent": 1523,
      "ti": 1524,
      "que": 1525,
      "con": 1526,
      "se": 1527,
      "tr": 1528,
      "co": 1529,
      "ta": 1530,
      "di": 1531,
      "ón": 1532,
      "do": 1533,
      "su": 1534,
      "te": 1535,
      "pr": 1536,
      "to": 1537,
      "ca": 1538,
      "los": 1539,
      "is": 1540,
      "cu": 1541,
      "ción": 1542,
      "par": 1543,
      "por": 1544,
      "del": 1545,
      "le": 1546,
      "lo": 1547,
      "mo": 1548,
      "si": 1549,
      "mi": 1550,
      "li": 1551,
      "ra": 1552,
      "ado": 1553,
      "las": 1554,
      "tu": 1555,
      "mb": 1556,
      "ma": 1557,
      "vi": 1558,
      "da": 1559,
      "ente": 1560,
      "una": 1561,
      "ri": 1562,
      "ab": 1563,
      "ía": 1564,
      "mp": 1565,
      "no": 1566,
      "des": 1567,
      "per": 1568,
      "ter": 1569,
      "pro": 1570,
      "ch": 1571,
      "para": 1572,
      "dad": 1573,
      "po": 1574,
      "cion": 1575,
      "ac": 1576,
      "ro": 1577,
      "ada": 1578,
      "fi": 1579,
      "ui": 1580,
      "so": 1581,
      "mente": 1582,
      "má": 1583,
      "res": 1584,
      "go": 1585,
      "ec": 1586,
      "El": 1587,
      "pu": 1588,
      "tor": 1589,
      "me": 1590,
      "io": 1591,
      "mu": 1592,
      "dos": 1593,
      "ran": 1594,
      "como": 1595,
      "En": 1596,
      "im": 1597,
      "vo": 1598,
      "era": 1599,
      "cia": 1600,
      "más": 1601,
      "pa": 1602,
      "man": 1603,
      "est": 1604,
      "du": 1605,
      "bi": 1606,
      "ales": 1607,
      "19": 1608,
      "La": 1609,
      "ten": 1610,
      "20": 1611,
      "ni": 1612,
      "gu": 1613,
      "lu": 1614,
      "ex": 1615,
      "tra": 1616,
      "fue": 1617,
      "cas": 1618,
      "Es": 1619,
      "pi": 1620,
      "ali": 1621,
      "tos": 1622,
      "den": 1623,
      "car": 1624,
      "añ": 1625,
      "tan": 1626,
      "ciones": 1627,
      "aj": 1628,
      "ento": 1629,
      "tar": 1630,
      "ser": 1631,
      "ados": 1632,
      "esta": 1633,
      "za": 1634,
      "ver": 1635,
      "sus": 1636,
      "ha": 1637,
      "gi": 1638,
      "na": 1639,
      "ando": 1640,
      "tes": 1641,
      "va": 1642,
      "ce": 1643,
      "mbi": 1644,
      "min": 1645,
      "qui": 1646,
      "én": 1647,
      "son": 1648,
      "tro": 1649,
      "ve": 1650,
      "ia": 1651,
      "can": 1652,
      "for": 1653,
      "pe": 1654,
      "lan": 1655,
      "us": 1656,
      "pres": 1657,
      "ras": 1658,
      "fu": 1659,
      "ba": 1660,
      "ero": 1661,
      "les": 1662,
      "tas": 1663,
      "ob": 1664,
      "cos": 1665,
      "és": 1666,
      "pos": 1667,
      "com": 1668,
      "lar": 1669,
      "hab": 1670,
      "eron": 1671,
      "emb": 1672,
      "dis": 1673,
      "hi": 1674,
      "mar": 1675,
      "emp": 1676,
      "ador": 1677,
      "gen": 1678,
      "mbién": 1679,
      "der": 1680,
      "ga": 1681,
      "gr": 1682,
      "bre": 1683,
      "án": 1684,
      "prim": 1685,
      "mis": 1686,
      "tal": 1687,
      "uni": 1688,
      "ari": 1689,
      "comp": 1690,
      "miento": 1691,
      "qu": 1692,
      "men": 1693,
      "ne": 1694,
      "pre": 1695,
      "00": 1696,
      "gar": 1697,
      "ones": 1698,
      "pue": 1699,
      "cor": 1700,
      "mas": 1701,
      "fin": 1702,
      "au": 1703,
      "endo": 1704,
      "entre": 1705,
      "almente": 1706,
      "ol": 1707,
      "ces": 1708,
      "ene": 1709,
      "gun": 1710,
      "adas": 1711,
      "ble": 1712,
      "Se": 1713,
      "sig": 1714,
      "das": 1715,
      "lla": 1716,
      "gra": 1717,
      "enta": 1718,
      "vis": 1719,
      "fer": 1720,
      "lle": 1721,
      "medi": 1722,
      "201": 1723,
      "tin": 1724,
      "cre": 1725,
      "bu": 1726,
      "jo": 1727,
      "entes": 1728,
      "este": 1729,
      "gan": 1730,
      "lí": 1731,
      "también": 1732,
      "tri": 1733,
      "ho": 1734,
      "parti": 1735,
      "ven": 1736,
      "años": 1737,
      "ión": 1738,
      "teri": 1739,
      "pero": 1740,
      "don": 1741,
      "encia": 1742,
      "Los": 1743,
      "cho": 1744,
      "cer": 1745,
      "cio": 1746,
      "gran": 1747,
      "cip": 1748,
      "aron": 1749,
      "ya": 1750,
      "200": 1751,
      "cono": 1752,
      "bli": 1753,
      "ele": 1754,
      "cri": 1755,
      "ina": 1756,
      "sobre": 1757,
      "mos": 1758,
      "sin": 1759,
      "pas": 1760,
      "ían": 1761,
      "may": 1762,
      "cción": 1763,
      "cons": 1764,
      "ores": 1765,
      "ru": 1766,
      "tros": 1767,
      "asta": 1768,
      "ban": 1769,
      "ju": 1770,
      "inter": 1771,
      "Co": 1772,
      "Al": 1773,
      "sa": 1774,
      "fa": 1775,
      "ment": 1776,
      "rante": 1777,
      "nue": 1778,
      "ej": 1779,
      "tura": 1780,
      "esti": 1781,
      "tras": 1782,
      "forma": 1783,
      "he": 1784,
      "tó": 1785,
      "pués": 1786,
      "Su": 1787,
      "ís": 1788,
      "dades": 1789,
      "il": 1790,
      "ación": 1791,
      "ing": 1792,
      "Con": 1793,
      "hasta": 1794,
      "cha": 1795,
      "cal": 1796,
      "tica": 1797,
      "zo": 1798,
      "trab": 1799,
      "ig": 1800,
      "person": 1801,
      "cada": 1802,
      "parte": 1803,
      "18": 1804,
      "bo": 1805,
      "aliz": 1806,
      "año": 1807,
      "clu": 1808,
      "ún": 1809,
      "fun": 1810,
      ").": 1811,
      "ul": 1812,
      "produ": 1813,
      "mer": 1814,
      "pon": 1815,
      "tado": 1816,
      "cial": 1817,
      "In": 1818,
      "ctor": 1819,
      "ño": 1820,
      "tru": 1821,
      "Re": 1822,
      "tiene": 1823,
      "cen": 1824,
      "ajo": 1825,
      "primer": 1826,
      "cional": 1827,
      "je": 1828,
      "posi": 1829,
      "titu": 1830,
      "ros": 1831,
      "De": 1832,
      "xi": 1833,
      "be": 1834,
      "mbre": 1835,
      "mento": 1836,
      "fe": 1837,
      "ber": 1838,
      "ante": 1839,
      "jun": 1840,
      "cul": 1841,
      "gos": 1842,
      "ay": 1843,
      "donde": 1844,
      "hac": 1845,
      "ara": 1846,
      "ur": 1847,
      "estu": 1848,
      "tur": 1849,
      "desde": 1850,
      "vari": 1851,
      "ir": 1852,
      "lación": 1853,
      "prin": 1854,
      "está": 1855,
      "ciu": 1856,
      "versi": 1857,
      "ario": 1858,
      "có": 1859,
      "ie": 1860,
      "mient": 1861,
      "mon": 1862,
      "antes": 1863,
      "cias": 1864,
      "edi": 1865,
      "cla": 1866,
      "ció": 1867,
      "tran": 1868,
      "mayor": 1869,
      "ins": 1870,
      "tivo": 1871,
      "pen": 1872,
      "tiv": 1873,
      "fica": 1874,
      "hu": 1875,
      "her": 1876,
      "Las": 1877,
      "mili": 1878,
      "después": 1879,
      "ora": 1880,
      "pel": 1881,
      "mismo": 1882,
      "tí": 1883,
      "tiva": 1884,
      "durante": 1885,
      "ren": 1886,
      "han": 1887,
      "cuando": 1888,
      "ías": 1889,
      "zó": 1890,
      "ja": 1891,
      "puede": 1892,
      "había": 1893,
      "uego": 1894,
      "alidad": 1895,
      "muy": 1896,
      "cuent": 1897,
      "embre": 1898,
      "cent": 1899,
      "fueron": 1900,
      "ciudad": 1901,
      "embar": 1902,
      "terior": 1903,
      "Des": 1904,
      "San": 1905,
      "Ta": 1906,
      "dio": 1907,
      "),": 1908,
      "ña": 1909,
      "dar": 1910,
      "conoci": 1911,
      "ista": 1912,
      "lti": 1913,
      "bas": 1914,
      "día": 1915,
      "demás": 1916,
      "esto": 1917,
      "equi": 1918,
      "cado": 1919,
      "reci": 1920,
      "ano": 1921,
      "fici": 1922,
      "ona": 1923,
      "tiemp": 1924,
      "espe": 1925,
      "primera": 1926,
      "Mar": 1927,
      "cur": 1928,
      "arro": 1929,
      "ido": 1930,
      "apar": 1931,
      "aba": 1932,
      "his": 1933,
      "Uni": 1934,
      "uti": 1935,
      "vez": 1936,
      "chos": 1937,
      "contra": 1938,
      "princip": 1939,
      "reg": 1940,
      "pec": 1941,
      "\".": 1942,
      "iste": 1943,
      "embargo": 1944,
      "ll": 1945,
      "cr": 1946,
      "ge": 1947,
      "An": 1948,
      "cual": 1949,
      "pla": 1950,
      "gru": 1951,
      "199": 1952,
      "fr": 1953,
      "ér": 1954,
      "mor": 1955,
      "uno": 1956,
      "lugar": 1957,
      "val": 1958,
      "adores": 1959,
      "jer": 1960,
      "tante": 1961,
      "encuent": 1962,
      "Ar": 1963,
      "ella": 1964,
      "iden": 1965,
      "tados": 1966,
      "tico": 1967,
      "todo": 1968,
      "gui": 1969,
      "unque": 1970,
      "camp": 1971,
      "ini": 1972,
      "llo": 1973,
      "tiempo": 1974,
      "otros": 1975,
      "algun": 1976,
      "deci": 1977,
      "últi": 1978,
      "zar": 1979,
      "ton": 1980,
      "actu": 1981,
      "imp": 1982,
      "ino": 1983,
      "ese": 1984,
      "ana": 1985,
      "elo": 1986,
      "tres": 1987,
      "edad": 1988,
      "nombre": 1989,
      "adi": 1990,
      "col": 1991,
      "eces": 1992,
      "cuer": 1993,
      "bier": 1994,
      "anti": 1995,
      "fuer": 1996,
      "fec": 1997,
      "dió": 1998,
      "gener": 1999,
      "Por": 2000,
      "Sin": 2001,
      "plan": 2002,
      "sido": 2003,
      "utili": 2004,
      "tuvo": 2005,
      "erra": 2006,
      "lado": 2007,
      "tre": 2008,
      "dr": 2009,
      "elec": 2010,
      "Cu": 2011,
      "difer": 2012,
      "Ca": 2013,
      "inclu": 2014,
      "mes": 2015,
      "dor": 2016,
      "publi": 2017,
      "Mi": 2018,
      "van": 2019,
      "pun": 2020,
      "lab": 2021,
      "Na": 2022,
      "realiz": 2023,
      "cación": 2024,
      "sigui": 2025,
      "mó": 2026,
      "toria": 2027,
      "segun": 2028,
      "mej": 2029,
      "sal": 2030,
      "aje": 2031,
      "ori": 2032,
      "dire": 2033,
      "tir": 2034,
      "solo": 2035,
      "vir": 2036,
      "tener": 2037,
      "sión": 2038,
      "ío": 2039,
      "También": 2040,
      "tem": 2041,
      "mun": 2042,
      "bido": 2043,
      "bar": 2044,
      "gua": 2045,
      "br": 2046,
      "él": 2047,
      "cin": 2048,
      "tori": 2049,
      "atro": 2050,
      "of": 2051,
      "present": 2052,
      "oc": 2053,
      "todos": 2054,
      "super": 2055,
      "Ma": 2056,
      "especi": 2057,
      "termin": 2058,
      "trans": 2059,
      "trabaj": 2060,
      "impor": 2061,
      "vida": 2062,
      "estos": 2063,
      "tá": 2064,
      "aban": 2065,
      "tien": 2066,
      "Di": 2067,
      "ticas": 2068,
      "habi": 2069,
      "pes": 2070,
      "adre": 2071,
      "propi": 2072,
      "así": 2073,
      "desarro": 2074,
      "úbli": 2075,
      "arse": 2076,
      "ícu": 2077,
      "consi": 2078,
      "escri": 2079,
      "ale": 2080,
      "país": 2081,
      "mujer": 2082,
      "No": 2083,
      "Fue": 2084,
      "Este": 2085,
      "contr": 2086,
      "zación": 2087,
      "Le": 2088,
      "muer": 2089,
      "dera": 2090,
      "\",": 2091,
      "junto": 2092,
      "vol": 2093,
      "comple": 2094,
      "famili": 2095,
      "abri": 2096,
      "ál": 2097,
      "bajo": 2098,
      "10": 2099,
      "mé": 2100,
      "tación": 2101,
      "cios": 2102,
      "tió": 2103,
      "bri": 2104,
      "quien": 2105,
      "vent": 2106,
      "var": 2107,
      "15": 2108,
      "nu": 2109,
      "dó": 2110,
      "sos": 2111,
      "198": 2112,
      "pob": 2113,
      "gó": 2114,
      "quier": 2115,
      "mado": 2116,
      "gún": 2117,
      "públi": 2118,
      "tempor": 2119,
      "ños": 2120,
      "gía": 2121,
      "comen": 2122,
      "espa": 2123,
      "int": 2124,
      "tantes": 2125,
      "To": 2126,
      "tanto": 2127,
      "sen": 2128,
      "Esta": 2129,
      "nú": 2130,
      "nuevo": 2131,
      "ion": 2132,
      "zas": 2133,
      "zado": 2134,
      "ás": 2135,
      "yec": 2136,
      "et": 2137,
      "éxi": 2138,
      "eli": 2139,
      "eros": 2140,
      "nor": 2141,
      "mientras": 2142,
      "Car": 2143,
      "tivos": 2144,
      "II": 2145,
      "000": 2146,
      "pueden": 2147,
      "estado": 2148,
      "fo": 2149,
      "sí": 2150,
      "estas": 2151,
      "aunque": 2152,
      "siste": 2153,
      "grupo": 2154,
      "Du": 2155,
      "fir": 2156,
      "peque": 2157,
      "vel": 2158,
      "chas": 2159,
      "Ro": 2160,
      "eran": 2161,
      "ena": 2162,
      "contin": 2163,
      "ellos": 2164,
      "pli": 2165,
      "vas": 2166,
      "estaba": 2167,
      "señ": 2168,
      "polí": 2169,
      "ag": 2170,
      "tad": 2171,
      "ed": 2172,
      "bierno": 2173,
      "están": 2174,
      "Li": 2175,
      "jos": 2176,
      "estudi": 2177,
      "cl": 2178,
      "17": 2179,
      "resul": 2180,
      "ata": 2181,
      "tis": 2182,
      "16": 2183,
      "organ": 2184,
      "hacia": 2185,
      "ep": 2186,
      "mbres": 2187,
      "compañ": 2188,
      "sab": 2189,
      "lares": 2190,
      "gas": 2191,
      "ck": 2192,
      "mero": 2193,
      "equipo": 2194,
      "197": 2195,
      "vesti": 2196,
      "yo": 2197,
      "permi": 2198,
      "arios": 2199,
      "otras": 2200,
      "bió": 2201,
      "lidad": 2202,
      "uel": 2203,
      "che": 2204,
      "hay": 2205,
      "mentos": 2206,
      "nica": 2207,
      "lib": 2208,
      "Para": 2209,
      "cuenta": 2210,
      "rela": 2211,
      "mejor": 2212,
      "constru": 2213,
      "So": 2214,
      "té": 2215,
      "mundo": 2216,
      "lio": 2217,
      "cidad": 2218,
      "indi": 2219,
      "personas": 2220,
      "Par": 2221,
      "istas": 2222,
      "cir": 2223,
      "Vi": 2224,
      "Mu": 2225,
      "nacional": 2226,
      "fes": 2227,
      "encuentra": 2228,
      "pren": 2229,
      "em": 2230,
      "Si": 2231,
      "ín": 2232,
      "fal": 2233,
      "siglo": 2234,
      "historia": 2235,
      "jug": 2236,
      "progra": 2237,
      "th": 2238,
      "chi": 2239,
      "hacer": 2240,
      "nos": 2241,
      "blo": 2242,
      "erto": 2243,
      "ticos": 2244,
      "iones": 2245,
      "pelícu": 2246,
      "neces": 2247,
      "isten": 2248,
      "algunos": 2249,
      "final": 2250,
      "sica": 2251,
      "visión": 2252,
      "otro": 2253,
      "dej": 2254,
      "trabajo": 2255,
      "serie": 2256,
      "Pa": 2257,
      "ismo": 2258,
      "cep": 2259,
      "miemb": 2260,
      "mientos": 2261,
      "12": 2262,
      "estra": 2263,
      "inf": 2264,
      "cuatro": 2265,
      "cambi": 2266,
      "bien": 2267,
      "tienen": 2268,
      "Ju": 2269,
      "Ti": 2270,
      "comi": 2271,
      "minis": 2272,
      "proyec": 2273,
      "comuni": 2274,
      "onces": 2275,
      "regi": 2276,
      "obje": 2277,
      "encontr": 2278,
      "ece": 2279,
      "varios": 2280,
      "tores": 2281,
      "cue": 2282,
      "pri": 2283,
      "Un": 2284,
      "vos": 2285,
      "trav": 2286,
      "Además": 2287,
      "capa": 2288,
      "tada": 2289,
      "ine": 2290,
      "esa": 2291,
      "mano": 2292,
      "Ch": 2293,
      "cto": 2294,
      "respon": 2295,
      "número": 2296,
      "debido": 2297,
      "tenía": 2298,
      "dado": 2299,
      "nueva": 2300,
      "cido": 2301,
      "medio": 2302,
      "rica": 2303,
      "196": 2304,
      "30": 2305,
      "trui": 2306,
      "servi": 2307,
      "Una": 2308,
      "din": 2309,
      "apro": 2310,
      "dose": 2311,
      "unos": 2312,
      "organi": 2313,
      "entonces": 2314,
      "pan": 2315,
      "ayu": 2316,
      "».": 2317,
      "mpli": 2318,
      "ello": 2319,
      "encias": 2320,
      "Po": 2321,
      "pti": 2322,
      "able": 2323,
      "siendo": 2324,
      "incluy": 2325,
      "llev": 2326,
      "bles": 2327,
      "tivi": 2328,
      "toda": 2329,
      "amb": 2330,
      "muni": 2331,
      "mana": 2332,
      "entr": 2333,
      "segui": 2334,
      "ceso": 2335,
      "nico": 2336,
      "casa": 2337,
      "pin": 2338,
      "gobierno": 2339,
      "largo": 2340,
      "álbu": 2341,
      "mada": 2342,
      "14": 2343,
      "poder": 2344,
      "len": 2345,
      "nivel": 2346,
      "total": 2347,
      "líne": 2348,
      "dido": 2349,
      "óni": 2350,
      "estable": 2351,
      "posición": 2352,
      "dici": 2353,
      "ley": 2354,
      "Después": 2355,
      "loc": 2356,
      "Durante": 2357,
      "tamente": 2358,
      "población": 2359,
      "depen": 2360,
      "muchos": 2361,
      "formación": 2362,
      "uro": 2363,
      "general": 2364,
      "rado": 2365,
      "ide": 2366,
      "tipo": 2367,
      "hace": 2368,
      "manos": 2369,
      "carr": 2370,
      "momento": 2371,
      "través": 2372,
      "fen": 2373,
      "vin": 2374,
      "presenta": 2375,
      "sur": 2376,
      "Ci": 2377,
      "leg": 2378,
      "orig": 2379,
      "mill": 2380,
      "dan": 2381,
      "contro": 2382,
      "at": 2383,
      "recu": 2384,
      "puesto": 2385,
      "ógi": 2386,
      "all": 2387,
      "vista": 2388,
      "mujeres": 2389,
      "cionales": 2390,
      "sistema": 2391,
      "tec": 2392,
      "oper": 2393,
      "ist": 2394,
      "aria": 2395,
      "50": 2396,
      "ah": 2397,
      "teni": 2398,
      "origin": 2399,
      "juego": 2400,
      "poco": 2401,
      "Pro": 2402,
      "comer": 2403,
      "dere": 2404,
      "temporada": 2405,
      "versidad": 2406,
      "menos": 2407,
      "bus": 2408,
      "ger": 2409,
      "Gu": 2410,
      "diri": 2411,
      "tarde": 2412,
      "dé": 2413,
      "rió": 2414,
      "Fran": 2415,
      "hizo": 2416,
      "muerte": 2417,
      "sub": 2418,
      "mal": 2419,
      "idad": 2420,
      "Sa": 2421,
      "ocu": 2422,
      "situ": 2423,
      "familia": 2424,
      "tel": 2425,
      "profes": 2426,
      "torio": 2427,
      "Bo": 2428,
      "eta": 2429,
      "continu": 2430,
      "orden": 2431,
      "uso": 2432,
      "comb": 2433,
      "metros": 2434,
      "dese": 2435,
      "apo": 2436,
      "álbum": 2437,
      "gado": 2438,
      "ác": 2439,
      "empres": 2440,
      "ciales": 2441,
      "Lo": 2442,
      "logía": 2443,
      "rea": 2444,
      "adu": 2445,
      "caso": 2446,
      "obra": 2447,
      "ería": 2448,
      "só": 2449,
      "ejemp": 2450,
      "alcan": 2451,
      "novi": 2452,
      "hecho": 2453,
      "tera": 2454,
      "aqu": 2455,
      "movi": 2456,
      "Cor": 2457,
      "días": 2458,
      "padre": 2459,
      "hombres": 2460,
      "luego": 2461,
      "ración": 2462,
      "Ho": 2463,
      "ener": 2464,
      "Cuando": 2465,
      "presiden": 2466,
      "principal": 2467,
      "Lu": 2468,
      "cab": 2469,
      "misma": 2470,
      "sent": 2471,
      "volu": 2472,
      "vuel": 2473,
      "13": 2474,
      "ez": 2475,
      "ea": 2476,
      "san": 2477,
      "investi": 2478,
      "mayoría": 2479,
      "rá": 2480,
      "194": 2481,
      "visi": 2482,
      "ard": 2483,
      "otra": 2484,
      "hor": 2485,
      "convir": 2486,
      "distin": 2487,
      "efec": 2488,
      "Ha": 2489,
      "Ri": 2490,
      "carac": 2491,
      "Ja": 2492,
      "cía": 2493,
      "trata": 2494,
      "baj": 2495,
      "capi": 2496,
      "diferentes": 2497,
      "película": 2498,
      "manera": 2499,
      "tivas": 2500,
      "millones": 2501,
      "mú": 2502,
      "además": 2503,
      "estr": 2504,
      "truc": 2505,
      "vió": 2506,
      "partir": 2507,
      "haber": 2508,
      "agua": 2509,
      "dida": 2510,
      "labor": 2511,
      "osa": 2512,
      "versión": 2513,
      "descri": 2514,
      "The": 2515,
      "Desde": 2516,
      "zona": 2517,
      "conocido": 2518,
      "segundo": 2519,
      "mayo": 2520,
      "cel": 2521,
      "ris": 2522,
      "mino": 2523,
      "Jo": 2524,
      "peri": 2525,
      "activi": 2526,
      "tubre": 2527,
      "producción": 2528,
      "gación": 2529,
      "varias": 2530,
      "ase": 2531,
      "lesia": 2532,
      "proble": 2533,
      "octubre": 2534,
      "teriormente": 2535,
      "siguiente": 2536,
      "tando": 2537,
      "ud": 2538,
      "az": 2539,
      "cimiento": 2540,
      "turas": 2541,
      "vía": 2542,
      "estar": 2543,
      "fra": 2544,
      "dentro": 2545,
      "anos": 2546,
      "caus": 2547,
      "25": 2548,
      "banda": 2549,
      "poca": 2550,
      "comenzó": 2551,
      "todas": 2552,
      "Cas": 2553,
      "ral": 2554,
      "empre": 2555,
      "bol": 2556,
      "Man": 2557,
      "ajes": 2558,
      "programa": 2559,
      "enero": 2560,
      "espec": 2561,
      "reso": 2562,
      "tales": 2563,
      "Mon": 2564,
      "títu": 2565,
      "ptiembre": 2566,
      "inas": 2567,
      "ficio": 2568,
      "abi": 2569,
      "septiembre": 2570,
      "diciembre": 2571,
      "carrera": 2572,
      "ómi": 2573,
      "Esto": 2574,
      "cito": 2575,
      "grandes": 2576,
      "sol": 2577,
      "cil": 2578,
      "inte": 2579,
      "cuela": 2580,
      "Nacional": 2581,
      "tribu": 2582,
      "logr": 2583,
      "natur": 2584,
      "casi": 2585,
      "pesar": 2586,
      "comien": 2587,
      "ami": 2588,
      "tido": 2589,
      "Estados": 2590,
      "sali": 2591,
      "cap": 2592,
      "ning": 2593,
      "Como": 2594,
      "centro": 2595,
      "ellas": 2596,
      "secu": 2597,
      "canción": 2598,
      "cier": 2599,
      "it": 2600,
      "descu": 2601,
      "auto": 2602,
      "Mo": 2603,
      "fí": 2604,
      "hijo": 2605,
      "signi": 2606,
      "construi": 2607,
      "julio": 2608,
      "importante": 2609,
      "algunas": 2610,
      "consider": 2611,
      "Ra": 2612,
      "ases": 2613,
      "segunda": 2614,
      "vieron": 2615,
      "rede": 2616,
      "porque": 2617,
      "desta": 2618,
      "esper": 2619,
      "diver": 2620,
      "zada": 2621,
      "Bar": 2622,
      "mucho": 2623,
      "junio": 2624,
      "habían": 2625,
      "fon": 2626,
      "avi": 2627,
      "ubi": 2628,
      "Per": 2629,
      "ques": 2630,
      "igu": 2631,
      "estruc": 2632,
      "construcción": 2633,
      "grá": 2634,
      "color": 2635,
      "Espa": 2636,
      "193": 2637,
      "lor": 2638,
      "obras": 2639,
      "pueblo": 2640,
      "Unidos": 2641,
      "cole": 2642,
      "siempre": 2643,
      "evi": 2644,
      "ár": 2645,
      "dia": 2646,
      "último": 2647,
      "pó": 2648,
      "veces": 2649,
      "línea": 2650,
      "crí": 2651,
      "fran": 2652,
      "conver": 2653,
      "cados": 2654,
      "zan": 2655,
      "ciden": 2656,
      "Go": 2657,
      "acu": 2658,
      "ima": 2659,
      "noviembre": 2660,
      "municip": 2661,
      "ler": 2662,
      "éxito": 2663,
      "ridad": 2664,
      "debe": 2665,
      "segu": 2666,
      "marzo": 2667,
      "punto": 2668,
      "Ex": 2669,
      "nomin": 2670,
      "perman": 2671,
      "ficación": 2672,
      "frente": 2673,
      "iso": 2674,
      "acción": 2675,
      "cuerdo": 2676,
      "fuera": 2677,
      "195": 2678,
      "yó": 2679,
      "11": 2680,
      "ern": 2681,
      "podr": 2682,
      "ki": 2683,
      "isla": 2684,
      "llamado": 2685,
      "deo": 2686,
      "fico": 2687,
      "ército": 2688,
      "guerra": 2689,
      "anun": 2690,
      "ican": 2691,
      "temp": 2692,
      "desarrollo": 2693,
      "oso": 2694,
      "oni": 2695,
      "tancia": 2696,
      "24": 2697,
      "cient": 2698,
      "terri": 2699,
      "jas": 2700,
      "dieron": 2701,
      "defin": 2702,
      "acer": 2703,
      "misión": 2704,
      "abril": 2705,
      "cinco": 2706,
      "dice": 2707,
      "and": 2708,
      "ka": 2709,
      "tele": 2710,
      "aciones": 2711,
      "tario": 2712,
      "ke": 2713,
      "indu": 2714,
      "Do": 2715,
      "gosto": 2716,
      "época": 2717,
      "err": 2718,
      "tidad": 2719,
      "miembros": 2720,
      "prote": 2721,
      "Tras": 2722,
      "dirigi": 2723,
      "ye": 2724,
      "mostr": 2725,
      "meros": 2726,
      "ere": 2727,
      "Ne": 2728,
      "cipi": 2729,
      "ofici": 2730,
      "llegar": 2731,
      "jue": 2732,
      "tenido": 2733,
      "popu": 2734,
      "agosto": 2735,
      "militar": 2736,
      "ves": 2737,
      "relación": 2738,
      "partido": 2739,
      "ts": 2740,
      "cular": 2741,
      "mbio": 2742,
      "nomb": 2743,
      "blan": 2744,
      "proyecto": 2745,
      "bra": 2746,
      "conómi": 2747,
      "Chi": 2748,
      "alrede": 2749,
      "música": 2750,
      "cis": 2751,
      "tradi": 2752,
      "taba": 2753,
      "talla": 2754,
      "Bu": 2755,
      "ben": 2756,
      "gada": 2757,
      "gent": 2758,
      "ejemplo": 2759,
      "convirtió": 2760,
      "cargo": 2761,
      "cuerpo": 2762,
      "según": 2763,
      "defen": 2764,
      "cuales": 2765,
      "cambio": 2766,
      "partici": 2767,
      "dedi": 2768,
      "Me": 2769,
      "condi": 2770,
      "brero": 2771,
      "poli": 2772,
      "Aunque": 2773,
      "ade": 2774,
      "Universidad": 2775,
      "puesta": 2776,
      "ampli": 2777,
      "cele": 2778,
      "mpe": 2779,
      "ándose": 2780,
      "ición": 2781,
      "escen": 2782,
      "perio": 2783,
      "ior": 2784,
      "antigu": 2785,
      "primeros": 2786,
      "téc": 2787,
      "zos": 2788,
      "dencia": 2789,
      "ios": 2790,
      "tér": 2791,
      "graf": 2792,
      "21": 2793,
      "Ale": 2794,
      "cuar": 2795,
      "bilidad": 2796,
      "cate": 2797,
      "rey": 2798,
      "Jos": 2799,
      "adio": 2800,
      "presidente": 2801,
      "ell": 2802,
      "represent": 2803,
      "mil": 2804,
      "tex": 2805,
      "muchas": 2806,
      "acuerdo": 2807,
      "director": 2808,
      "culo": 2809,
      "bir": 2810,
      "febrero": 2811,
      "eno": 2812,
      "gor": 2813,
      "eje": 2814,
      "ñas": 2815,
      "Pe": 2816,
      "domin": 2817,
      "sor": 2818,
      "club": 2819,
      "público": 2820,
      "pio": 2821,
      "Sus": 2822,
      "materi": 2823,
      "exten": 2824,
      "iment": 2825,
      "disco": 2826,
      "ór": 2827,
      "tenían": 2828,
      "anza": 2829,
      "inten": 2830,
      "tt": 2831,
      "tio": 2832,
      "vor": 2833,
      "España": 2834,
      "mando": 2835,
      "libro": 2836,
      "cru": 2837,
      "musi": 2838,
      "stitu": 2839,
      "figu": 2840,
      "título": 2841,
      "esca": 2842,
      "ciona": 2843,
      "ró": 2844,
      "edu": 2845,
      "económi": 2846,
      "liber": 2847,
      "interpre": 2848,
      "Can": 2849,
      "Entre": 2850,
      "lada": 2851,
      "2010": 2852,
      "ctos": 2853,
      "ficial": 2854,
      "apare": 2855,
      "ciendo": 2856,
      "tion": 2857,
      "eo": 2858,
      "sino": 2859,
      "ai": 2860,
      "eras": 2861,
      "dores": 2862,
      "»,": 2863,
      "conser": 2864,
      "sólo": 2865,
      "rio": 2866,
      "media": 2867,
      "aún": 2868,
      "ses": 2869,
      "unca": 2870,
      "Gran": 2871,
      "sas": 2872,
      "xim": 2873,
      "Ac": 2874,
      "ocas": 2875,
      "madre": 2876,
      "istencia": 2877,
      "base": 2878,
      "cabe": 2879,
      "edificio": 2880,
      "vier": 2881,
      "dise": 2882,
      "eligi": 2883,
      "clui": 2884,
      "minu": 2885,
      "apli": 2886,
      "emple": 2887,
      "rápi": 2888,
      "Pero": 2889,
      "rar": 2890,
      "considera": 2891,
      "éxico": 2892,
      "funda": 2893,
      "puntos": 2894,
      "bor": 2895,
      "redu": 2896,
      "pose": 2897,
      "alrededor": 2898,
      "pá": 2899,
      "adamente": 2900,
      "pie": 2901,
      "elegi": 2902,
      "tivamente": 2903,
      "regres": 2904,
      "regis": 2905,
      "pública": 2906,
      "ús": 2907,
      "Nue": 2908,
      "mio": 2909,
      "cualquier": 2910,
      "meses": 2911,
      "política": 2912,
      "ambos": 2913,
      "Or": 2914,
      "México": 2915,
      "entemente": 2916,
      "aso": 2917,
      "estudio": 2918,
      "abandon": 2919,
      "estudios": 2920,
      "trim": 2921,
      "caracter": 2922,
      "Nor": 2923,
      "ida": 2924,
      "taron": 2925,
      "22": 2926,
      "hombre": 2927,
      "región": 2928,
      "proceso": 2929,
      "merican": 2930,
      "posible": 2931,
      "tán": 2932,
      "porte": 2933,
      "papel": 2934,
      "cá": 2935,
      "ciedad": 2936,
      "cerca": 2937,
      "sea": 2938,
      "2011": 2939,
      "via": 2940,
      "encuentran": 2941,
      "río": 2942,
      "vio": 2943,
      "cli": 2944,
      "finales": 2945,
      "Val": 2946,
      "refer": 2947,
      "23": 2948,
      "acep": 2949,
      "residen": 2950,
      "prue": 2951,
      "reno": 2952,
      "incluso": 2953,
      "alto": 2954,
      "muestra": 2955,
      "mediante": 2956,
      "cadas": 2957,
      "dispon": 2958,
      "teriores": 2959,
      "particip": 2960,
      "Ni": 2961,
      "inos": 2962,
      "exp": 2963,
      "ko": 2964,
      "senci": 2965,
      "Euro": 2966,
      "nunca": 2967,
      "adminis": 2968,
      "tifi": 2969,
      "norte": 2970,
      "campe": 2971,
      "hon": 2972,
      "guar": 2973,
      "indus": 2974,
      "cuad": 2975,
      "única": 2976,
      "infor": 2977,
      "llegó": 2978,
      "soli": 2979,
      "cciones": 2980,
      "Según": 2981,
      "presión": 2982,
      "caciones": 2983,
      "vil": 2984,
      "As": 2985,
      "denomin": 2986,
      "ví": 2987,
      "adora": 2988,
      "bal": 2989,
      "cieron": 2990,
      "última": 2991,
      "propio": 2992,
      "estaban": 2993,
      "compu": 2994,
      "determin": 2995,
      "servicio": 2996,
      "zon": 2997,
      "docu": 2998,
      "partidos": 2999
    },
    "merges": [
      [
        "d",
        "e"
      ],
      [
        "e",
        "n"
      ],
      [
        "e",
        "s"
      ],
      [
        "l",
        "a"
      ],
      [
        "o",
        "s"
      ],
      [
        "e",
        "r"
      ],
      [
        "o",
        "n"
      ],
      [
        "a",
        "r"
      ],
      [
        "c",
        "i"
      ],
      [
        "a",
        "n"
      ],
      [
        "o",
        "r"
      ],
      [
        "a",
        "s"
      ],
      [
        "a",
        "l"
      ],
      [
        "a",
        "d"
      ],
      [
        "e",
        "l"
      ],
      [
        "u",
        "e"
      ],
      [
        "u",
        "n"
      ],
      [
        "i",
        "n"
      ],
      [
        "r",
        "e"
      ],
      [
        "en",
        "t"
      ],
      [
        "t",
        "i"
      ],
      [
        "q",
        "ue"
      ],
      [
        "c",
        "on"
      ],
      [
        "s",
        "e"
      ],
      [
        "t",
        "r"
      ],
      [
        "c",
        "o"
      ],
      [
        "t",
        "a"
      ],
      [
        "d",
        "i"
      ],
      [
        "ó",
        "n"
      ],
      [
        "d",
        "o"
      ],
      [
        "s",
        "u"
      ],
      [
        "t",
        "e"
      ],
      [
        "p",
        "r"
      ],
      [
        "t",
        "o"
      ],
      [
        "c",
        "a"
      ],
      [
        "l",
        "os"
      ],
      [
        "i",
        "s"
      ],
      [
        "c",
        "u"
      ],
      [
        "ci",
        "ón"
      ],
      [
        "p",
        "ar"
      ],
      [
        "p",
        "or"
      ],
      [
        "de",
        "l"
      ],
      [
        "l",
        "e"
      ],
      [
        "l",
        "o"
      ],
      [
        "m",
        "o"
      ],
      [
        "s",
        "i"
      ],
      [
        "m",
        "i"
      ],
      [
        "l",
        "i"
      ],
      [
        "r",
        "a"
      ],
      [
        "ad",
        "o"
      ],
      [
        "la",
        "s"
      ],
      [
        "t",
        "u"
      ],
      [
        "m",
        "b"
      ],
      [
        "m",
        "a"
      ],
      [
        "v",
        "i"
      ],
      [
        "d",
        "a"
      ],
      [
        "ent",
        "e"
      ],
      [
        "un",
        "a"
      ],
      [
        "r",
        "i"
      ],
      [
        "a",
        "b"
      ],
      [
        "í",
        "a"
      ],
      [
        "m",
        "p"
      ],
      [
        "n",
        "o"
      ],
      [
        "de",
        "s"
      ],
      [
        "p",
        "er"
      ],
      [
        "t",
        "er"
      ],
      [
        "pr",
        "o"
      ],
      [
        "c",
        "h"
      ],
      [
        "par",
        "a"
      ],
      [
        "d",
        "ad"
      ],
      [
        "p",
        "o"
      ],
      [
        "ci",
        "on"
      ],
      [
        "a",
        "c"
      ],
      [
        "r",
        "o"
      ],
      [
        "ad",
        "a"
      ],
      [
        "f",
        "i"
      ],
      [
        "u",
        "i"
      ],
      [
        "s",
        "o"
      ],
      [
        "m",
        "ente"
      ],
      [
        "m",
        "á"
      ],
      [
        "r",
        "es"
      ],
      [
        "g",
        "o"
      ],
      [
        "e",
        "c"
      ],
      [
        "E",
        "l"
      ],
      [
        "p",
        "u"
      ],
      [
        "t",
        "or"
      ],
      [
        "m",
        "e"
      ],
      [
        "i",
        "o"
      ],
      [
        "m",
        "u"
      ],
      [
        "d",
        "os"
      ],
      [
        "r",
        "an"
      ],
      [
        "co",
        "mo"
      ],
      [
        "E",
        "n"
      ],
      [
        "i",
        "m"
      ],
      [
        "v",
        "o"
      ],
      [
        "er",
        "a"
      ],
      [
        "ci",
        "a"
      ],
      [
        "má",
        "s"
      ],
      [
        "p",
        "a"
      ],
      [
        "m",
        "an"
      ],
      [
        "es",
        "t"
      ],
      [
        "d",
        "u"
      ],
      [
        "b",
        "i"
      ],
      [
        "al",
        "es"
      ],
      [
        "1",
        "9"
      ],
      [
        "L",
        "a"
      ],
      [
        "t",
        "en"
      ],
      [
        "2",
        "0"
      ],
      [
        "n",
        "i"
      ],
      [
        "g",
        "u"
      ],
      [
        "l",
        "u"
      ],
      [
        "e",
        "x"
      ],
      [
        "tr",
        "a"
      ],
      [
        "f",
        "ue"
      ],
      [
        "c",
        "as"
      ],
      [
        "E",
        "s"
      ],
      [
        "p",
        "i"
      ],
      [
        "al",
        "i"
      ],
      [
        "t",
        "os"
      ],
      [
        "de",
        "n"
      ],
      [
        "c",
        "ar"
      ],
      [
        "a",
        "ñ"
      ],
      [
        "t",
        "an"
      ],
      [
        "cion",
        "es"
      ],
      [
        "a",
        "j"
      ],
      [
        "ent",
        "o"
      ],
      [
        "t",
        "ar"
      ],
      [
        "s",
        "er"
      ],
      [
        "ad",
        "os"
      ],
      [
        "es",
        "ta"
      ],
      [
        "z",
        "a"
      ],
      [
        "v",
        "er"
      ],
      [
        "su",
        "s"
      ],
      [
        "h",
        "a"
      ],
      [
        "g",
        "i"
      ],
      [
        "n",
        "a"
      ],
      [
        "an",
        "do"
      ],
      [
        "t",
        "es"
      ],
      [
        "v",
        "a"
      ],
      [
        "c",
        "e"
      ],
      [
        "mb",
        "i"
      ],
      [
        "m",
        "in"
      ],
      [
        "q",
        "ui"
      ],
      [
        "é",
        "n"
      ],
      [
        "s",
        "on"
      ],
      [
        "tr",
        "o"
      ],
      [
        "v",
        "e"
      ],
      [
        "i",
        "a"
      ],
      [
        "c",
        "an"
      ],
      [
        "f",
        "or"
      ],
      [
        "p",
        "e"
      ],
      [
        "la",
        "n"
      ],
      [
        "u",
        "s"
      ],
      [
        "pr",
        "es"
      ],
      [
        "r",
        "as"
      ],
      [
        "f",
        "u"
      ],
      [
        "b",
        "a"
      ],
      [
        "er",
        "o"
      ],
      [
        "l",
        "es"
      ],
      [
        "t",
        "as"
      ],
      [
        "o",
        "b"
      ],
      [
        "c",
        "os"
      ],
      [
        "é",
        "s"
      ],
      [
        "p",
        "os"
      ],
      [
        "co",
        "m"
      ],
      [
        "la",
        "r"
      ],
      [
        "h",
        "ab"
      ],
      [
        "er",
        "on"
      ],
      [
        "e",
        "mb"
      ],
      [
        "di",
        "s"
      ],
      [
        "h",
        "i"
      ],
      [
        "m",
        "ar"
      ],
      [
        "e",
        "mp"
      ],
      [
        "ad",
        "or"
      ],
      [
        "g",
        "en"
      ],
      [
        "mbi",
        "én"
      ],
      [
        "de",
        "r"
      ],
      [
        "g",
        "a"
      ],
      [
        "g",
        "r"
      ],
      [
        "b",
        "re"
      ],
      [
        "á",
        "n"
      ],
      [
        "pr",
        "im"
      ],
      [
        "m",
        "is"
      ],
      [
        "t",
        "al"
      ],
      [
        "un",
        "i"
      ],
      [
        "ar",
        "i"
      ],
      [
        "co",
        "mp"
      ],
      [
        "mi",
        "ento"
      ],
      [
        "q",
        "u"
      ],
      [
        "m",
        "en"
      ],
      [
        "n",
        "e"
      ],
      [
        "p",
        "re"
      ],
      [
        "0",
        "0"
      ],
      [
        "g",
        "ar"
      ],
      [
        "on",
        "es"
      ],
      [
        "p",
        "ue"
      ],
      [
        "c",
        "or"
      ],
      [
        "m",
        "as"
      ],
      [
        "f",
        "in"
      ],
      [
        "a",
        "u"
      ],
      [
        "en",
        "do"
      ],
      [
        "ent",
        "re"
      ],
      [
        "al",
        "mente"
      ],
      [
        "o",
        "l"
      ],
      [
        "c",
        "es"
      ],
      [
        "en",
        "e"
      ],
      [
        "g",
        "un"
      ],
      [
        "ad",
        "as"
      ],
      [
        "b",
        "le"
      ],
      [
        "S",
        "e"
      ],
      [
        "si",
        "g"
      ],
      [
        "d",
        "as"
      ],
      [
        "l",
        "la"
      ],
      [
        "g",
        "ra"
      ],
      [
        "ent",
        "a"
      ],
      [
        "v",
        "is"
      ],
      [
        "f",
        "er"
      ],
      [
        "l",
        "le"
      ],
      [
        "me",
        "di"
      ],
      [
        "20",
        "1"
      ],
      [
        "t",
        "in"
      ],
      [
        "c",
        "re"
      ],
      [
        "b",
        "u"
      ],
      [
        "j",
        "o"
      ],
      [
        "ent",
        "es"
      ],
      [
        "es",
        "te"
      ],
      [
        "g",
        "an"
      ],
      [
        "l",
        "í"
      ],
      [
        "ta",
        "mbién"
      ],
      [
        "tr",
        "i"
      ],
      [
        "h",
        "o"
      ],
      [
        "par",
        "ti"
      ],
      [
        "v",
        "en"
      ],
      [
        "añ",
        "os"
      ],
      [
        "i",
        "ón"
      ],
      [
        "ter",
        "i"
      ],
      [
        "per",
        "o"
      ],
      [
        "d",
        "on"
      ],
      [
        "en",
        "cia"
      ],
      [
        "L",
        "os"
      ],
      [
        "ch",
        "o"
      ],
      [
        "c",
        "er"
      ],
      [
        "ci",
        "o"
      ],
      [
        "g",
        "ran"
      ],
      [
        "ci",
        "p"
      ],
      [
        "ar",
        "on"
      ],
      [
        "y",
        "a"
      ],
      [
        "20",
        "0"
      ],
      [
        "con",
        "o"
      ],
      [
        "b",
        "li"
      ],
      [
        "el",
        "e"
      ],
      [
        "c",
        "ri"
      ],
      [
        "in",
        "a"
      ],
      [
        "so",
        "bre"
      ],
      [
        "m",
        "os"
      ],
      [
        "s",
        "in"
      ],
      [
        "p",
        "as"
      ],
      [
        "í",
        "an"
      ],
      [
        "ma",
        "y"
      ],
      [
        "c",
        "ción"
      ],
      [
        "con",
        "s"
      ],
      [
        "or",
        "es"
      ],
      [
        "r",
        "u"
      ],
      [
        "tr",
        "os"
      ],
      [
        "as",
        "ta"
      ],
      [
        "b",
        "an"
      ],
      [
        "j",
        "u"
      ],
      [
        "in",
        "ter"
      ],
      [
        "C",
        "o"
      ],
      [
        "A",
        "l"
      ],
      [
        "s",
        "a"
      ],
      [
        "f",
        "a"
      ],
      [
        "m",
        "ent"
      ],
      [
        "ran",
        "te"
      ],
      [
        "n",
        "ue"
      ],
      [
        "e",
        "j"
      ],
      [
        "tu",
        "ra"
      ],
      [
        "es",
        "ti"
      ],
      [
        "tr",
        "as"
      ],
      [
        "for",
        "ma"
      ],
      [
        "h",
        "e"
      ],
      [
        "t",
        "ó"
      ],
      [
        "pu",
        "és"
      ],
      [
        "S",
        "u"
      ],
      [
        "í",
        "s"
      ],
      [
        "da",
        "des"
      ],
      [
        "i",
        "l"
      ],
      [
        "a",
        "ción"
      ],
      [
        "in",
        "g"
      ],
      [
        "C",
        "on"
      ],
      [
        "h",
        "asta"
      ],
      [
        "ch",
        "a"
      ],
      [
        "c",
        "al"
      ],
      [
        "ti",
        "ca"
      ],
      [
        "z",
        "o"
      ],
      [
        "tr",
        "ab"
      ],
      [
        "i",
        "g"
      ],
      [
        "per",
        "son"
      ],
      [
        "c",
        "ada"
      ],
      [
        "par",
        "te"
      ],
      [
        "1",
        "8"
      ],
      [
        "b",
        "o"
      ],
      [
        "ali",
        "z"
      ],
      [
        "añ",
        "o"
      ],
      [
        "c",
        "lu"
      ],
      [
        "ú",
        "n"
      ],
      [
        "f",
        "un"
      ],
      [
        ")",
        "."
      ],
      [
        "u",
        "l"
      ],
      [
        "pro",
        "du"
      ],
      [
        "m",
        "er"
      ],
      [
        "p",
        "on"
      ],
      [
        "t",
        "ado"
      ],
      [
        "ci",
        "al"
      ],
      [
        "I",
        "n"
      ],
      [
        "c",
        "tor"
      ],
      [
        "ñ",
        "o"
      ],
      [
        "tr",
        "u"
      ],
      [
        "R",
        "e"
      ],
      [
        "ti",
        "ene"
      ],
      [
        "c",
        "en"
      ],
      [
        "aj",
        "o"
      ],
      [
        "prim",
        "er"
      ],
      [
        "cion",
        "al"
      ],
      [
        "j",
        "e"
      ],
      [
        "pos",
        "i"
      ],
      [
        "ti",
        "tu"
      ],
      [
        "r",
        "os"
      ],
      [
        "D",
        "e"
      ],
      [
        "x",
        "i"
      ],
      [
        "b",
        "e"
      ],
      [
        "mb",
        "re"
      ],
      [
        "m",
        "ento"
      ],
      [
        "f",
        "e"
      ],
      [
        "b",
        "er"
      ],
      [
        "an",
        "te"
      ],
      [
        "j",
        "un"
      ],
      [
        "cu",
        "l"
      ],
      [
        "g",
        "os"
      ],
      [
        "a",
        "y"
      ],
      [
        "don",
        "de"
      ],
      [
        "h",
        "ac"
      ],
      [
        "ar",
        "a"
      ],
      [
        "u",
        "r"
      ],
      [
        "es",
        "tu"
      ],
      [
        "tu",
        "r"
      ],
      [
        "des",
        "de"
      ],
      [
        "v",
        "ari"
      ],
      [
        "i",
        "r"
      ],
      [
        "la",
        "ción"
      ],
      [
        "pr",
        "in"
      ],
      [
        "est",
        "á"
      ],
      [
        "ci",
        "u"
      ],
      [
        "ver",
        "si"
      ],
      [
        "ar",
        "io"
      ],
      [
        "c",
        "ó"
      ],
      [
        "i",
        "e"
      ],
      [
        "mi",
        "ent"
      ],
      [
        "m",
        "on"
      ],
      [
        "an",
        "tes"
      ],
      [
        "ci",
        "as"
      ],
      [
        "e",
        "di"
      ],
      [
        "c",
        "la"
      ],
      [
        "ci",
        "ó"
      ],
      [
        "tr",
        "an"
      ],
      [
        "may",
        "or"
      ],
      [
        "in",
        "s"
      ],
      [
        "ti",
        "vo"
      ],
      [
        "p",
        "en"
      ],
      [
        "ti",
        "v"
      ],
      [
        "fi",
        "ca"
      ],
      [
        "h",
        "u"
      ],
      [
        "h",
        "er"
      ],
      [
        "L",
        "as"
      ],
      [
        "mi",
        "li"
      ],
      [
        "des",
        "pués"
      ],
      [
        "or",
        "a"
      ],
      [
        "p",
        "el"
      ],
      [
        "mis",
        "mo"
      ],
      [
        "t",
        "í"
      ],
      [
        "ti",
        "va"
      ],
      [
        "du",
        "rante"
      ],
      [
        "r",
        "en"
      ],
      [
        "h",
        "an"
      ],
      [
        "cu",
        "ando"
      ],
      [
        "í",
        "as"
      ],
      [
        "z",
        "ó"
      ],
      [
        "j",
        "a"
      ],
      [
        "pue",
        "de"
      ],
      [
        "hab",
        "ía"
      ],
      [
        "ue",
        "go"
      ],
      [
        "ali",
        "dad"
      ],
      [
        "mu",
        "y"
      ],
      [
        "cu",
        "ent"
      ],
      [
        "emb",
        "re"
      ],
      [
        "c",
        "ent"
      ],
      [
        "fu",
        "eron"
      ],
      [
        "ciu",
        "dad"
      ],
      [
        "emb",
        "ar"
      ],
      [
        "teri",
        "or"
      ],
      [
        "D",
        "es"
      ],
      [
        "S",
        "an"
      ],
      [
        "T",
        "a"
      ],
      [
        "di",
        "o"
      ],
      [
        ")",
        ","
      ],
      [
        "ñ",
        "a"
      ],
      [
        "d",
        "ar"
      ],
      [
        "cono",
        "ci"
      ],
      [
        "is",
        "ta"
      ],
      [
        "l",
        "ti"
      ],
      [
        "b",
        "as"
      ],
      [
        "d",
        "ía"
      ],
      [
        "de",
        "más"
      ],
      [
        "es",
        "to"
      ],
      [
        "e",
        "qui"
      ],
      [
        "c",
        "ado"
      ],
      [
        "re",
        "ci"
      ],
      [
        "an",
        "o"
      ],
      [
        "fi",
        "ci"
      ],
      [
        "on",
        "a"
      ],
      [
        "ti",
        "emp"
      ],
      [
        "es",
        "pe"
      ],
      [
        "prim",
        "era"
      ],
      [
        "M",
        "ar"
      ],
      [
        "cu",
        "r"
      ],
      [
        "ar",
        "ro"
      ],
      [
        "i",
        "do"
      ],
      [
        "a",
        "par"
      ],
      [
        "ab",
        "a"
      ],
      [
        "h",
        "is"
      ],
      [
        "U",
        "ni"
      ],
      [
        "u",
        "ti"
      ],
      [
        "ve",
        "z"
      ],
      [
        "ch",
        "os"
      ],
      [
        "con",
        "tra"
      ],
      [
        "prin",
        "cip"
      ],
      [
        "re",
        "g"
      ],
      [
        "p",
        "ec"
      ],
      [
        "\"",
        "."
      ],
      [
        "is",
        "te"
      ],
      [
        "embar",
        "go"
      ],
      [
        "l",
        "l"
      ],
      [
        "c",
        "r"
      ],
      [
        "g",
        "e"
      ],
      [
        "A",
        "n"
      ],
      [
        "cu",
        "al"
      ],
      [
        "p",
        "la"
      ],
      [
        "gr",
        "u"
      ],
      [
        "19",
        "9"
      ],
      [
        "f",
        "r"
      ],
      [
        "é",
        "r"
      ],
      [
        "m",
        "or"
      ],
      [
        "un",
        "o"
      ],
      [
        "lu",
        "gar"
      ],
      [
        "v",
        "al"
      ],
      [
        "ador",
        "es"
      ],
      [
        "j",
        "er"
      ],
      [
        "tan",
        "te"
      ],
      [
        "en",
        "cuent"
      ],
      [
        "A",
        "r"
      ],
      [
        "el",
        "la"
      ],
      [
        "i",
        "den"
      ],
      [
        "t",
        "ados"
      ],
      [
        "ti",
        "co"
      ],
      [
        "to",
        "do"
      ],
      [
        "g",
        "ui"
      ],
      [
        "un",
        "que"
      ],
      [
        "ca",
        "mp"
      ],
      [
        "in",
        "i"
      ],
      [
        "l",
        "lo"
      ],
      [
        "tiemp",
        "o"
      ],
      [
        "o",
        "tros"
      ],
      [
        "al",
        "gun"
      ],
      [
        "de",
        "ci"
      ],
      [
        "ú",
        "lti"
      ],
      [
        "z",
        "ar"
      ],
      [
        "t",
        "on"
      ],
      [
        "ac",
        "tu"
      ],
      [
        "i",
        "mp"
      ],
      [
        "in",
        "o"
      ],
      [
        "es",
        "e"
      ],
      [
        "an",
        "a"
      ],
      [
        "el",
        "o"
      ],
      [
        "tr",
        "es"
      ],
      [
        "e",
        "dad"
      ],
      [
        "no",
        "mbre"
      ],
      [
        "ad",
        "i"
      ],
      [
        "co",
        "l"
      ],
      [
        "ec",
        "es"
      ],
      [
        "cu",
        "er"
      ],
      [
        "bi",
        "er"
      ],
      [
        "an",
        "ti"
      ],
      [
        "fu",
        "er"
      ],
      [
        "f",
        "ec"
      ],
      [
        "di",
        "ó"
      ],
      [
        "gen",
        "er"
      ],
      [
        "P",
        "or"
      ],
      [
        "S",
        "in"
      ],
      [
        "p",
        "lan"
      ],
      [
        "si",
        "do"
      ],
      [
        "uti",
        "li"
      ],
      [
        "tu",
        "vo"
      ],
      [
        "er",
        "ra"
      ],
      [
        "la",
        "do"
      ],
      [
        "t",
        "re"
      ],
      [
        "d",
        "r"
      ],
      [
        "el",
        "ec"
      ],
      [
        "C",
        "u"
      ],
      [
        "di",
        "fer"
      ],
      [
        "C",
        "a"
      ],
      [
        "in",
        "clu"
      ],
      [
        "m",
        "es"
      ],
      [
        "d",
        "or"
      ],
      [
        "pu",
        "bli"
      ],
      [
        "M",
        "i"
      ],
      [
        "v",
        "an"
      ],
      [
        "p",
        "un"
      ],
      [
        "la",
        "b"
      ],
      [
        "N",
        "a"
      ],
      [
        "re",
        "aliz"
      ],
      [
        "ca",
        "ción"
      ],
      [
        "sig",
        "ui"
      ],
      [
        "m",
        "ó"
      ],
      [
        "tor",
        "ia"
      ],
      [
        "se",
        "gun"
      ],
      [
        "me",
        "j"
      ],
      [
        "s",
        "al"
      ],
      [
        "aj",
        "e"
      ],
      [
        "or",
        "i"
      ],
      [
        "di",
        "re"
      ],
      [
        "ti",
        "r"
      ],
      [
        "so",
        "lo"
      ],
      [
        "vi",
        "r"
      ],
      [
        "ten",
        "er"
      ],
      [
        "si",
        "ón"
      ],
      [
        "í",
        "o"
      ],
      [
        "Ta",
        "mbién"
      ],
      [
        "te",
        "m"
      ],
      [
        "m",
        "un"
      ],
      [
        "bi",
        "do"
      ],
      [
        "b",
        "ar"
      ],
      [
        "gu",
        "a"
      ],
      [
        "b",
        "r"
      ],
      [
        "é",
        "l"
      ],
      [
        "ci",
        "n"
      ],
      [
        "tor",
        "i"
      ],
      [
        "a",
        "tro"
      ],
      [
        "o",
        "f"
      ],
      [
        "pres",
        "ent"
      ],
      [
        "o",
        "c"
      ],
      [
        "to",
        "dos"
      ],
      [
        "su",
        "per"
      ],
      [
        "M",
        "a"
      ],
      [
        "espe",
        "ci"
      ],
      [
        "ter",
        "min"
      ],
      [
        "tran",
        "s"
      ],
      [
        "trab",
        "aj"
      ],
      [
        "im",
        "por"
      ],
      [
        "vi",
        "da"
      ],
      [
        "est",
        "os"
      ],
      [
        "t",
        "á"
      ],
      [
        "ab",
        "an"
      ],
      [
        "ti",
        "en"
      ],
      [
        "D",
        "i"
      ],
      [
        "ti",
        "cas"
      ],
      [
        "hab",
        "i"
      ],
      [
        "p",
        "es"
      ],
      [
        "ad",
        "re"
      ],
      [
        "pro",
        "pi"
      ],
      [
        "as",
        "í"
      ],
      [
        "des",
        "arro"
      ],
      [
        "ú",
        "bli"
      ],
      [
        "ar",
        "se"
      ],
      [
        "í",
        "cu"
      ],
      [
        "con",
        "si"
      ],
      [
        "es",
        "cri"
      ],
      [
        "al",
        "e"
      ],
      [
        "pa",
        "ís"
      ],
      [
        "mu",
        "jer"
      ],
      [
        "N",
        "o"
      ],
      [
        "F",
        "ue"
      ],
      [
        "Es",
        "te"
      ],
      [
        "con",
        "tr"
      ],
      [
        "za",
        "ción"
      ],
      [
        "L",
        "e"
      ],
      [
        "mu",
        "er"
      ],
      [
        "de",
        "ra"
      ],
      [
        "\"",
        ","
      ],
      [
        "jun",
        "to"
      ],
      [
        "vo",
        "l"
      ],
      [
        "comp",
        "le"
      ],
      [
        "fa",
        "mili"
      ],
      [
        "ab",
        "ri"
      ],
      [
        "á",
        "l"
      ],
      [
        "b",
        "ajo"
      ],
      [
        "1",
        "0"
      ],
      [
        "m",
        "é"
      ],
      [
        "ta",
        "ción"
      ],
      [
        "ci",
        "os"
      ],
      [
        "ti",
        "ó"
      ],
      [
        "b",
        "ri"
      ],
      [
        "qui",
        "en"
      ],
      [
        "v",
        "ent"
      ],
      [
        "v",
        "ar"
      ],
      [
        "1",
        "5"
      ],
      [
        "n",
        "u"
      ],
      [
        "d",
        "ó"
      ],
      [
        "s",
        "os"
      ],
      [
        "19",
        "8"
      ],
      [
        "po",
        "b"
      ],
      [
        "g",
        "ó"
      ],
      [
        "qui",
        "er"
      ],
      [
        "m",
        "ado"
      ],
      [
        "g",
        "ún"
      ],
      [
        "p",
        "úbli"
      ],
      [
        "tem",
        "por"
      ],
      [
        "ñ",
        "os"
      ],
      [
        "g",
        "ía"
      ],
      [
        "com",
        "en"
      ],
      [
        "es",
        "pa"
      ],
      [
        "in",
        "t"
      ],
      [
        "tan",
        "tes"
      ],
      [
        "T",
        "o"
      ],
      [
        "tan",
        "to"
      ],
      [
        "s",
        "en"
      ],
      [
        "Es",
        "ta"
      ],
      [
        "n",
        "ú"
      ],
      [
        "nue",
        "vo"
      ],
      [
        "i",
        "on"
      ],
      [
        "z",
        "as"
      ],
      [
        "z",
        "ado"
      ],
      [
        "á",
        "s"
      ],
      [
        "y",
        "ec"
      ],
      [
        "e",
        "t"
      ],
      [
        "é",
        "xi"
      ],
      [
        "el",
        "i"
      ],
      [
        "er",
        "os"
      ],
      [
        "n",
        "or"
      ],
      [
        "mient",
        "ras"
      ],
      [
        "C",
        "ar"
      ],
      [
        "tiv",
        "os"
      ],
      [
        "I",
        "I"
      ],
      [
        "00",
        "0"
      ],
      [
        "pue",
        "den"
      ],
      [
        "est",
        "ado"
      ],
      [
        "f",
        "o"
      ],
      [
        "s",
        "í"
      ],
      [
        "est",
        "as"
      ],
      [
        "a",
        "unque"
      ],
      [
        "s",
        "iste"
      ],
      [
        "gru",
        "po"
      ],
      [
        "D",
        "u"
      ],
      [
        "fi",
        "r"
      ],
      [
        "pe",
        "que"
      ],
      [
        "v",
        "el"
      ],
      [
        "ch",
        "as"
      ],
      [
        "R",
        "o"
      ],
      [
        "er",
        "an"
      ],
      [
        "en",
        "a"
      ],
      [
        "con",
        "tin"
      ],
      [
        "el",
        "los"
      ],
      [
        "p",
        "li"
      ],
      [
        "v",
        "as"
      ],
      [
        "esta",
        "ba"
      ],
      [
        "se",
        "ñ"
      ],
      [
        "po",
        "lí"
      ],
      [
        "a",
        "g"
      ],
      [
        "t",
        "ad"
      ],
      [
        "e",
        "d"
      ],
      [
        "bier",
        "no"
      ],
      [
        "est",
        "án"
      ],
      [
        "L",
        "i"
      ],
      [
        "j",
        "os"
      ],
      [
        "estu",
        "di"
      ],
      [
        "c",
        "l"
      ],
      [
        "1",
        "7"
      ],
      [
        "res",
        "ul"
      ],
      [
        "a",
        "ta"
      ],
      [
        "ti",
        "s"
      ],
      [
        "1",
        "6"
      ],
      [
        "or",
        "gan"
      ],
      [
        "ha",
        "cia"
      ],
      [
        "e",
        "p"
      ],
      [
        "mb",
        "res"
      ],
      [
        "comp",
        "añ"
      ],
      [
        "s",
        "ab"
      ],
      [
        "la",
        "res"
      ],
      [
        "g",
        "as"
      ],
      [
        "c",
        "k"
      ],
      [
        "m",
        "ero"
      ],
      [
        "equi",
        "po"
      ],
      [
        "19",
        "7"
      ],
      [
        "v",
        "esti"
      ],
      [
        "y",
        "o"
      ],
      [
        "per",
        "mi"
      ],
      [
        "ari",
        "os"
      ],
      [
        "o",
        "tras"
      ],
      [
        "bi",
        "ó"
      ],
      [
        "li",
        "dad"
      ],
      [
        "u",
        "el"
      ],
      [
        "ch",
        "e"
      ],
      [
        "ha",
        "y"
      ],
      [
        "ment",
        "os"
      ],
      [
        "ni",
        "ca"
      ],
      [
        "li",
        "b"
      ],
      [
        "P",
        "ara"
      ],
      [
        "cu",
        "enta"
      ],
      [
        "re",
        "la"
      ],
      [
        "mej",
        "or"
      ],
      [
        "cons",
        "tru"
      ],
      [
        "S",
        "o"
      ],
      [
        "t",
        "é"
      ],
      [
        "mun",
        "do"
      ],
      [
        "li",
        "o"
      ],
      [
        "ci",
        "dad"
      ],
      [
        "in",
        "di"
      ],
      [
        "person",
        "as"
      ],
      [
        "P",
        "ar"
      ],
      [
        "is",
        "tas"
      ],
      [
        "ci",
        "r"
      ],
      [
        "V",
        "i"
      ],
      [
        "M",
        "u"
      ],
      [
        "na",
        "cional"
      ],
      [
        "f",
        "es"
      ],
      [
        "encuent",
        "ra"
      ],
      [
        "pr",
        "en"
      ],
      [
        "e",
        "m"
      ],
      [
        "S",
        "i"
      ],
      [
        "í",
        "n"
      ],
      [
        "f",
        "al"
      ],
      [
        "sig",
        "lo"
      ],
      [
        "his",
        "toria"
      ],
      [
        "ju",
        "g"
      ],
      [
        "pro",
        "gra"
      ],
      [
        "t",
        "h"
      ],
      [
        "ch",
        "i"
      ],
      [
        "hac",
        "er"
      ],
      [
        "n",
        "os"
      ],
      [
        "b",
        "lo"
      ],
      [
        "er",
        "to"
      ],
      [
        "ti",
        "cos"
      ],
      [
        "i",
        "ones"
      ],
      [
        "pel",
        "ícu"
      ],
      [
        "n",
        "eces"
      ],
      [
        "is",
        "ten"
      ],
      [
        "algun",
        "os"
      ],
      [
        "fin",
        "al"
      ],
      [
        "si",
        "ca"
      ],
      [
        "vis",
        "ión"
      ],
      [
        "o",
        "tro"
      ],
      [
        "de",
        "j"
      ],
      [
        "trab",
        "ajo"
      ],
      [
        "ser",
        "ie"
      ],
      [
        "P",
        "a"
      ],
      [
        "is",
        "mo"
      ],
      [
        "ce",
        "p"
      ],
      [
        "mi",
        "emb"
      ],
      [
        "mient",
        "os"
      ],
      [
        "1",
        "2"
      ],
      [
        "es",
        "tra"
      ],
      [
        "in",
        "f"
      ],
      [
        "cu",
        "atro"
      ],
      [
        "ca",
        "mbi"
      ],
      [
        "bi",
        "en"
      ],
      [
        "tien",
        "en"
      ],
      [
        "J",
        "u"
      ],
      [
        "T",
        "i"
      ],
      [
        "co",
        "mi"
      ],
      [
        "min",
        "is"
      ],
      [
        "pro",
        "yec"
      ],
      [
        "com",
        "uni"
      ],
      [
        "on",
        "ces"
      ],
      [
        "re",
        "gi"
      ],
      [
        "ob",
        "je"
      ],
      [
        "en",
        "contr"
      ],
      [
        "ec",
        "e"
      ],
      [
        "vari",
        "os"
      ],
      [
        "tor",
        "es"
      ],
      [
        "c",
        "ue"
      ],
      [
        "pr",
        "i"
      ],
      [
        "U",
        "n"
      ],
      [
        "v",
        "os"
      ],
      [
        "tra",
        "v"
      ],
      [
        "A",
        "demás"
      ],
      [
        "ca",
        "pa"
      ],
      [
        "t",
        "ada"
      ],
      [
        "in",
        "e"
      ],
      [
        "es",
        "a"
      ],
      [
        "man",
        "o"
      ],
      [
        "C",
        "h"
      ],
      [
        "c",
        "to"
      ],
      [
        "res",
        "pon"
      ],
      [
        "nú",
        "mero"
      ],
      [
        "de",
        "bido"
      ],
      [
        "ten",
        "ía"
      ],
      [
        "d",
        "ado"
      ],
      [
        "nue",
        "va"
      ],
      [
        "ci",
        "do"
      ],
      [
        "medi",
        "o"
      ],
      [
        "ri",
        "ca"
      ],
      [
        "19",
        "6"
      ],
      [
        "3",
        "0"
      ],
      [
        "tr",
        "ui"
      ],
      [
        "ser",
        "vi"
      ],
      [
        "U",
        "na"
      ],
      [
        "d",
        "in"
      ],
      [
        "a",
        "pro"
      ],
      [
        "dos",
        "e"
      ],
      [
        "un",
        "os"
      ],
      [
        "organ",
        "i"
      ],
      [
        "ent",
        "onces"
      ],
      [
        "p",
        "an"
      ],
      [
        "ay",
        "u"
      ],
      [
        "»",
        "."
      ],
      [
        "mp",
        "li"
      ],
      [
        "el",
        "lo"
      ],
      [
        "en",
        "cias"
      ],
      [
        "P",
        "o"
      ],
      [
        "p",
        "ti"
      ],
      [
        "ab",
        "le"
      ],
      [
        "si",
        "endo"
      ],
      [
        "inclu",
        "y"
      ],
      [
        "lle",
        "v"
      ],
      [
        "b",
        "les"
      ],
      [
        "ti",
        "vi"
      ],
      [
        "to",
        "da"
      ],
      [
        "a",
        "mb"
      ],
      [
        "m",
        "uni"
      ],
      [
        "man",
        "a"
      ],
      [
        "ent",
        "r"
      ],
      [
        "se",
        "gui"
      ],
      [
        "ces",
        "o"
      ],
      [
        "ni",
        "co"
      ],
      [
        "cas",
        "a"
      ],
      [
        "p",
        "in"
      ],
      [
        "go",
        "bierno"
      ],
      [
        "lar",
        "go"
      ],
      [
        "ál",
        "bu"
      ],
      [
        "m",
        "ada"
      ],
      [
        "1",
        "4"
      ],
      [
        "po",
        "der"
      ],
      [
        "l",
        "en"
      ],
      [
        "ni",
        "vel"
      ],
      [
        "to",
        "tal"
      ],
      [
        "lí",
        "ne"
      ],
      [
        "di",
        "do"
      ],
      [
        "ón",
        "i"
      ],
      [
        "esta",
        "ble"
      ],
      [
        "posi",
        "ción"
      ],
      [
        "di",
        "ci"
      ],
      [
        "le",
        "y"
      ],
      [
        "Des",
        "pués"
      ],
      [
        "lo",
        "c"
      ],
      [
        "Du",
        "rante"
      ],
      [
        "ta",
        "mente"
      ],
      [
        "pob",
        "lación"
      ],
      [
        "de",
        "pen"
      ],
      [
        "mu",
        "chos"
      ],
      [
        "forma",
        "ción"
      ],
      [
        "u",
        "ro"
      ],
      [
        "gener",
        "al"
      ],
      [
        "r",
        "ado"
      ],
      [
        "i",
        "de"
      ],
      [
        "ti",
        "po"
      ],
      [
        "hac",
        "e"
      ],
      [
        "man",
        "os"
      ],
      [
        "car",
        "r"
      ],
      [
        "mo",
        "mento"
      ],
      [
        "trav",
        "és"
      ],
      [
        "f",
        "en"
      ],
      [
        "v",
        "in"
      ],
      [
        "pres",
        "enta"
      ],
      [
        "su",
        "r"
      ],
      [
        "C",
        "i"
      ],
      [
        "le",
        "g"
      ],
      [
        "or",
        "ig"
      ],
      [
        "mi",
        "ll"
      ],
      [
        "d",
        "an"
      ],
      [
        "con",
        "tro"
      ],
      [
        "a",
        "t"
      ],
      [
        "re",
        "cu"
      ],
      [
        "pu",
        "esto"
      ],
      [
        "ó",
        "gi"
      ],
      [
        "al",
        "l"
      ],
      [
        "vis",
        "ta"
      ],
      [
        "mujer",
        "es"
      ],
      [
        "cion",
        "ales"
      ],
      [
        "siste",
        "ma"
      ],
      [
        "te",
        "c"
      ],
      [
        "o",
        "per"
      ],
      [
        "is",
        "t"
      ],
      [
        "ar",
        "ia"
      ],
      [
        "5",
        "0"
      ],
      [
        "a",
        "h"
      ],
      [
        "ten",
        "i"
      ],
      [
        "orig",
        "in"
      ],
      [
        "j",
        "uego"
      ],
      [
        "po",
        "co"
      ],
      [
        "P",
        "ro"
      ],
      [
        "com",
        "er"
      ],
      [
        "de",
        "re"
      ],
      [
        "tempor",
        "ada"
      ],
      [
        "versi",
        "dad"
      ],
      [
        "men",
        "os"
      ],
      [
        "b",
        "us"
      ],
      [
        "g",
        "er"
      ],
      [
        "G",
        "u"
      ],
      [
        "di",
        "ri"
      ],
      [
        "tar",
        "de"
      ],
      [
        "d",
        "é"
      ],
      [
        "ri",
        "ó"
      ],
      [
        "F",
        "ran"
      ],
      [
        "hi",
        "zo"
      ],
      [
        "muer",
        "te"
      ],
      [
        "su",
        "b"
      ],
      [
        "m",
        "al"
      ],
      [
        "i",
        "dad"
      ],
      [
        "S",
        "a"
      ],
      [
        "o",
        "cu"
      ],
      [
        "si",
        "tu"
      ],
      [
        "famili",
        "a"
      ],
      [
        "t",
        "el"
      ],
      [
        "pro",
        "fes"
      ],
      [
        "tor",
        "io"
      ],
      [
        "B",
        "o"
      ],
      [
        "e",
        "ta"
      ],
      [
        "contin",
        "u"
      ],
      [
        "or",
        "den"
      ],
      [
        "u",
        "so"
      ],
      [
        "co",
        "mb"
      ],
      [
        "me",
        "tros"
      ],
      [
        "de",
        "se"
      ],
      [
        "a",
        "po"
      ],
      [
        "álbu",
        "m"
      ],
      [
        "g",
        "ado"
      ],
      [
        "á",
        "c"
      ],
      [
        "em",
        "pres"
      ],
      [
        "ci",
        "ales"
      ],
      [
        "L",
        "o"
      ],
      [
        "lo",
        "gía"
      ],
      [
        "re",
        "a"
      ],
      [
        "ad",
        "u"
      ],
      [
        "cas",
        "o"
      ],
      [
        "ob",
        "ra"
      ],
      [
        "er",
        "ía"
      ],
      [
        "s",
        "ó"
      ],
      [
        "ej",
        "emp"
      ],
      [
        "al",
        "can"
      ],
      [
        "no",
        "vi"
      ],
      [
        "he",
        "cho"
      ],
      [
        "ter",
        "a"
      ],
      [
        "a",
        "qu"
      ],
      [
        "mo",
        "vi"
      ],
      [
        "C",
        "or"
      ],
      [
        "d",
        "ías"
      ],
      [
        "p",
        "adre"
      ],
      [
        "ho",
        "mbres"
      ],
      [
        "l",
        "uego"
      ],
      [
        "ra",
        "ción"
      ],
      [
        "H",
        "o"
      ],
      [
        "en",
        "er"
      ],
      [
        "Cu",
        "ando"
      ],
      [
        "pres",
        "iden"
      ],
      [
        "princip",
        "al"
      ],
      [
        "L",
        "u"
      ],
      [
        "ca",
        "b"
      ],
      [
        "mis",
        "ma"
      ],
      [
        "s",
        "ent"
      ],
      [
        "vo",
        "lu"
      ],
      [
        "v",
        "uel"
      ],
      [
        "1",
        "3"
      ],
      [
        "e",
        "z"
      ],
      [
        "e",
        "a"
      ],
      [
        "s",
        "an"
      ],
      [
        "in",
        "vesti"
      ],
      [
        "mayor",
        "ía"
      ],
      [
        "r",
        "á"
      ],
      [
        "19",
        "4"
      ],
      [
        "vis",
        "i"
      ],
      [
        "ar",
        "d"
      ],
      [
        "o",
        "tra"
      ],
      [
        "h",
        "or"
      ],
      [
        "con",
        "vir"
      ],
      [
        "dis",
        "tin"
      ],
      [
        "e",
        "fec"
      ],
      [
        "H",
        "a"
      ],
      [
        "R",
        "i"
      ],
      [
        "car",
        "ac"
      ],
      [
        "J",
        "a"
      ],
      [
        "c",
        "ía"
      ],
      [
        "tra",
        "ta"
      ],
      [
        "b",
        "aj"
      ],
      [
        "ca",
        "pi"
      ],
      [
        "difer",
        "entes"
      ],
      [
        "pelícu",
        "la"
      ],
      [
        "man",
        "era"
      ],
      [
        "tiv",
        "as"
      ],
      [
        "mill",
        "ones"
      ],
      [
        "m",
        "ú"
      ],
      [
        "a",
        "demás"
      ],
      [
        "es",
        "tr"
      ],
      [
        "tru",
        "c"
      ],
      [
        "vi",
        "ó"
      ],
      [
        "parti",
        "r"
      ],
      [
        "hab",
        "er"
      ],
      [
        "a",
        "gua"
      ],
      [
        "di",
        "da"
      ],
      [
        "lab",
        "or"
      ],
      [
        "os",
        "a"
      ],
      [
        "versi",
        "ón"
      ],
      [
        "des",
        "cri"
      ],
      [
        "T",
        "he"
      ],
      [
        "Des",
        "de"
      ],
      [
        "z",
        "ona"
      ],
      [
        "conoci",
        "do"
      ],
      [
        "segun",
        "do"
      ],
      [
        "may",
        "o"
      ],
      [
        "c",
        "el"
      ],
      [
        "r",
        "is"
      ],
      [
        "min",
        "o"
      ],
      [
        "J",
        "o"
      ],
      [
        "per",
        "i"
      ],
      [
        "ac",
        "tivi"
      ],
      [
        "tu",
        "bre"
      ],
      [
        "produ",
        "cción"
      ],
      [
        "ga",
        "ción"
      ],
      [
        "vari",
        "as"
      ],
      [
        "as",
        "e"
      ],
      [
        "les",
        "ia"
      ],
      [
        "pro",
        "ble"
      ],
      [
        "oc",
        "tubre"
      ],
      [
        "terior",
        "mente"
      ],
      [
        "sigui",
        "ente"
      ],
      [
        "tan",
        "do"
      ],
      [
        "u",
        "d"
      ],
      [
        "a",
        "z"
      ],
      [
        "ci",
        "miento"
      ],
      [
        "tu",
        "ras"
      ],
      [
        "v",
        "ía"
      ],
      [
        "est",
        "ar"
      ],
      [
        "f",
        "ra"
      ],
      [
        "den",
        "tro"
      ],
      [
        "an",
        "os"
      ],
      [
        "ca",
        "us"
      ],
      [
        "2",
        "5"
      ],
      [
        "ban",
        "da"
      ],
      [
        "po",
        "ca"
      ],
      [
        "comen",
        "zó"
      ],
      [
        "to",
        "das"
      ],
      [
        "C",
        "as"
      ],
      [
        "r",
        "al"
      ],
      [
        "emp",
        "re"
      ],
      [
        "b",
        "ol"
      ],
      [
        "M",
        "an"
      ],
      [
        "aj",
        "es"
      ],
      [
        "progra",
        "ma"
      ],
      [
        "en",
        "ero"
      ],
      [
        "es",
        "pec"
      ],
      [
        "res",
        "o"
      ],
      [
        "t",
        "ales"
      ],
      [
        "M",
        "on"
      ],
      [
        "tí",
        "tu"
      ],
      [
        "pti",
        "embre"
      ],
      [
        "in",
        "as"
      ],
      [
        "fi",
        "cio"
      ],
      [
        "ab",
        "i"
      ],
      [
        "se",
        "ptiembre"
      ],
      [
        "dici",
        "embre"
      ],
      [
        "carr",
        "era"
      ],
      [
        "ó",
        "mi"
      ],
      [
        "Es",
        "to"
      ],
      [
        "ci",
        "to"
      ],
      [
        "gran",
        "des"
      ],
      [
        "so",
        "l"
      ],
      [
        "ci",
        "l"
      ],
      [
        "in",
        "te"
      ],
      [
        "cue",
        "la"
      ],
      [
        "Na",
        "cional"
      ],
      [
        "tri",
        "bu"
      ],
      [
        "lo",
        "gr"
      ],
      [
        "na",
        "tur"
      ],
      [
        "cas",
        "i"
      ],
      [
        "pes",
        "ar"
      ],
      [
        "comi",
        "en"
      ],
      [
        "a",
        "mi"
      ],
      [
        "ti",
        "do"
      ],
      [
        "Es",
        "tados"
      ],
      [
        "s",
        "ali"
      ],
      [
        "ca",
        "p"
      ],
      [
        "n",
        "ing"
      ],
      [
        "Co",
        "mo"
      ],
      [
        "cent",
        "ro"
      ],
      [
        "el",
        "las"
      ],
      [
        "se",
        "cu"
      ],
      [
        "can",
        "ción"
      ],
      [
        "ci",
        "er"
      ],
      [
        "i",
        "t"
      ],
      [
        "des",
        "cu"
      ],
      [
        "au",
        "to"
      ],
      [
        "M",
        "o"
      ],
      [
        "f",
        "í"
      ],
      [
        "hi",
        "jo"
      ],
      [
        "sig",
        "ni"
      ],
      [
        "cons",
        "trui"
      ],
      [
        "ju",
        "lio"
      ],
      [
        "impor",
        "tante"
      ],
      [
        "algun",
        "as"
      ],
      [
        "consi",
        "der"
      ],
      [
        "R",
        "a"
      ],
      [
        "as",
        "es"
      ],
      [
        "segun",
        "da"
      ],
      [
        "vi",
        "eron"
      ],
      [
        "re",
        "de"
      ],
      [
        "por",
        "que"
      ],
      [
        "des",
        "ta"
      ],
      [
        "es",
        "per"
      ],
      [
        "di",
        "ver"
      ],
      [
        "z",
        "ada"
      ],
      [
        "B",
        "ar"
      ],
      [
        "mu",
        "cho"
      ],
      [
        "jun",
        "io"
      ],
      [
        "hab",
        "ían"
      ],
      [
        "f",
        "on"
      ],
      [
        "a",
        "vi"
      ],
      [
        "u",
        "bi"
      ],
      [
        "P",
        "er"
      ],
      [
        "qu",
        "es"
      ],
      [
        "i",
        "gu"
      ],
      [
        "es",
        "truc"
      ],
      [
        "constru",
        "cción"
      ],
      [
        "gr",
        "á"
      ],
      [
        "col",
        "or"
      ],
      [
        "Es",
        "pa"
      ],
      [
        "19",
        "3"
      ],
      [
        "l",
        "or"
      ],
      [
        "ob",
        "ras"
      ],
      [
        "pue",
        "blo"
      ],
      [
        "Uni",
        "dos"
      ],
      [
        "co",
        "le"
      ],
      [
        "si",
        "empre"
      ],
      [
        "e",
        "vi"
      ],
      [
        "á",
        "r"
      ],
      [
        "di",
        "a"
      ],
      [
        "últi",
        "mo"
      ],
      [
        "p",
        "ó"
      ],
      [
        "v",
        "eces"
      ],
      [
        "líne",
        "a"
      ],
      [
        "cr",
        "í"
      ],
      [
        "f",
        "ran"
      ],
      [
        "con",
        "ver"
      ],
      [
        "c",
        "ados"
      ],
      [
        "z",
        "an"
      ],
      [
        "ci",
        "den"
      ],
      [
        "G",
        "o"
      ],
      [
        "a",
        "cu"
      ],
      [
        "i",
        "ma"
      ],
      [
        "novi",
        "embre"
      ],
      [
        "muni",
        "cip"
      ],
      [
        "l",
        "er"
      ],
      [
        "éxi",
        "to"
      ],
      [
        "ri",
        "dad"
      ],
      [
        "de",
        "be"
      ],
      [
        "se",
        "gu"
      ],
      [
        "mar",
        "zo"
      ],
      [
        "pun",
        "to"
      ],
      [
        "E",
        "x"
      ],
      [
        "no",
        "min"
      ],
      [
        "per",
        "man"
      ],
      [
        "fica",
        "ción"
      ],
      [
        "fr",
        "ente"
      ],
      [
        "is",
        "o"
      ],
      [
        "ac",
        "ción"
      ],
      [
        "cuer",
        "do"
      ],
      [
        "fu",
        "era"
      ],
      [
        "19",
        "5"
      ],
      [
        "y",
        "ó"
      ],
      [
        "1",
        "1"
      ],
      [
        "er",
        "n"
      ],
      [
        "po",
        "dr"
      ],
      [
        "k",
        "i"
      ],
      [
        "is",
        "la"
      ],
      [
        "lla",
        "mado"
      ],
      [
        "de",
        "o"
      ],
      [
        "fi",
        "co"
      ],
      [
        "ér",
        "cito"
      ],
      [
        "gu",
        "erra"
      ],
      [
        "an",
        "un"
      ],
      [
        "i",
        "can"
      ],
      [
        "te",
        "mp"
      ],
      [
        "desarro",
        "llo"
      ],
      [
        "os",
        "o"
      ],
      [
        "on",
        "i"
      ],
      [
        "tan",
        "cia"
      ],
      [
        "2",
        "4"
      ],
      [
        "ci",
        "ent"
      ],
      [
        "ter",
        "ri"
      ],
      [
        "j",
        "as"
      ],
      [
        "di",
        "eron"
      ],
      [
        "de",
        "fin"
      ],
      [
        "ac",
        "er"
      ],
      [
        "mis",
        "ión"
      ],
      [
        "abri",
        "l"
      ],
      [
        "cin",
        "co"
      ],
      [
        "di",
        "ce"
      ],
      [
        "an",
        "d"
      ],
      [
        "k",
        "a"
      ],
      [
        "t",
        "ele"
      ],
      [
        "a",
        "ciones"
      ],
      [
        "tar",
        "io"
      ],
      [
        "k",
        "e"
      ],
      [
        "in",
        "du"
      ],
      [
        "D",
        "o"
      ],
      [
        "gos",
        "to"
      ],
      [
        "é",
        "poca"
      ],
      [
        "er",
        "r"
      ],
      [
        "ti",
        "dad"
      ],
      [
        "miemb",
        "ros"
      ],
      [
        "pro",
        "te"
      ],
      [
        "T",
        "ras"
      ],
      [
        "diri",
        "gi"
      ],
      [
        "y",
        "e"
      ],
      [
        "mos",
        "tr"
      ],
      [
        "mer",
        "os"
      ],
      [
        "er",
        "e"
      ],
      [
        "N",
        "e"
      ],
      [
        "ci",
        "pi"
      ],
      [
        "o",
        "fici"
      ],
      [
        "lle",
        "gar"
      ],
      [
        "j",
        "ue"
      ],
      [
        "ten",
        "ido"
      ],
      [
        "po",
        "pu"
      ],
      [
        "a",
        "gosto"
      ],
      [
        "mili",
        "tar"
      ],
      [
        "v",
        "es"
      ],
      [
        "re",
        "lación"
      ],
      [
        "parti",
        "do"
      ],
      [
        "t",
        "s"
      ],
      [
        "cu",
        "lar"
      ],
      [
        "mb",
        "io"
      ],
      [
        "no",
        "mb"
      ],
      [
        "b",
        "lan"
      ],
      [
        "proyec",
        "to"
      ],
      [
        "b",
        "ra"
      ],
      [
        "con",
        "ómi"
      ],
      [
        "C",
        "hi"
      ],
      [
        "al",
        "rede"
      ],
      [
        "mú",
        "sica"
      ],
      [
        "ci",
        "s"
      ],
      [
        "tr",
        "adi"
      ],
      [
        "ta",
        "ba"
      ],
      [
        "tal",
        "la"
      ],
      [
        "B",
        "u"
      ],
      [
        "b",
        "en"
      ],
      [
        "g",
        "ada"
      ],
      [
        "g",
        "ent"
      ],
      [
        "ejemp",
        "lo"
      ],
      [
        "convir",
        "tió"
      ],
      [
        "car",
        "go"
      ],
      [
        "cuer",
        "po"
      ],
      [
        "se",
        "gún"
      ],
      [
        "de",
        "fen"
      ],
      [
        "cu",
        "ales"
      ],
      [
        "ca",
        "mbio"
      ],
      [
        "parti",
        "ci"
      ],
      [
        "de",
        "di"
      ],
      [
        "M",
        "e"
      ],
      [
        "con",
        "di"
      ],
      [
        "br",
        "ero"
      ],
      [
        "po",
        "li"
      ],
      [
        "A",
        "unque"
      ],
      [
        "a",
        "de"
      ],
      [
        "Uni",
        "versidad"
      ],
      [
        "pu",
        "esta"
      ],
      [
        "a",
        "mpli"
      ],
      [
        "c",
        "ele"
      ],
      [
        "mp",
        "e"
      ],
      [
        "án",
        "dose"
      ],
      [
        "i",
        "ción"
      ],
      [
        "es",
        "cen"
      ],
      [
        "per",
        "io"
      ],
      [
        "i",
        "or"
      ],
      [
        "anti",
        "gu"
      ],
      [
        "primer",
        "os"
      ],
      [
        "té",
        "c"
      ],
      [
        "z",
        "os"
      ],
      [
        "den",
        "cia"
      ],
      [
        "i",
        "os"
      ],
      [
        "t",
        "ér"
      ],
      [
        "gra",
        "f"
      ],
      [
        "2",
        "1"
      ],
      [
        "A",
        "le"
      ],
      [
        "cu",
        "ar"
      ],
      [
        "bi",
        "lidad"
      ],
      [
        "ca",
        "te"
      ],
      [
        "re",
        "y"
      ],
      [
        "J",
        "os"
      ],
      [
        "ad",
        "io"
      ],
      [
        "presiden",
        "te"
      ],
      [
        "el",
        "l"
      ],
      [
        "re",
        "present"
      ],
      [
        "mi",
        "l"
      ],
      [
        "te",
        "x"
      ],
      [
        "mu",
        "chas"
      ],
      [
        "a",
        "cuerdo"
      ],
      [
        "dire",
        "ctor"
      ],
      [
        "cu",
        "lo"
      ],
      [
        "bi",
        "r"
      ],
      [
        "fe",
        "brero"
      ],
      [
        "en",
        "o"
      ],
      [
        "g",
        "or"
      ],
      [
        "ej",
        "e"
      ],
      [
        "ñ",
        "as"
      ],
      [
        "P",
        "e"
      ],
      [
        "do",
        "min"
      ],
      [
        "s",
        "or"
      ],
      [
        "clu",
        "b"
      ],
      [
        "públi",
        "co"
      ],
      [
        "p",
        "io"
      ],
      [
        "S",
        "us"
      ],
      [
        "ma",
        "teri"
      ],
      [
        "ex",
        "ten"
      ],
      [
        "im",
        "ent"
      ],
      [
        "dis",
        "co"
      ],
      [
        "ó",
        "r"
      ],
      [
        "ten",
        "ían"
      ],
      [
        "an",
        "za"
      ],
      [
        "in",
        "ten"
      ],
      [
        "t",
        "t"
      ],
      [
        "ti",
        "o"
      ],
      [
        "v",
        "or"
      ],
      [
        "Espa",
        "ña"
      ],
      [
        "man",
        "do"
      ],
      [
        "lib",
        "ro"
      ],
      [
        "c",
        "ru"
      ],
      [
        "mu",
        "si"
      ],
      [
        "s",
        "titu"
      ],
      [
        "fi",
        "gu"
      ],
      [
        "títu",
        "lo"
      ],
      [
        "es",
        "ca"
      ],
      [
        "cion",
        "a"
      ],
      [
        "r",
        "ó"
      ],
      [
        "e",
        "du"
      ],
      [
        "e",
        "conómi"
      ],
      [
        "li",
        "ber"
      ],
      [
        "inter",
        "pre"
      ],
      [
        "C",
        "an"
      ],
      [
        "En",
        "tre"
      ],
      [
        "la",
        "da"
      ],
      [
        "201",
        "0"
      ],
      [
        "c",
        "tos"
      ],
      [
        "fi",
        "cial"
      ],
      [
        "apar",
        "e"
      ],
      [
        "ci",
        "endo"
      ],
      [
        "ti",
        "on"
      ],
      [
        "e",
        "o"
      ],
      [
        "sin",
        "o"
      ],
      [
        "a",
        "i"
      ],
      [
        "er",
        "as"
      ],
      [
        "d",
        "ores"
      ],
      [
        "»",
        ","
      ],
      [
        "con",
        "ser"
      ],
      [
        "só",
        "lo"
      ],
      [
        "ri",
        "o"
      ],
      [
        "medi",
        "a"
      ],
      [
        "a",
        "ún"
      ],
      [
        "s",
        "es"
      ],
      [
        "un",
        "ca"
      ],
      [
        "G",
        "ran"
      ],
      [
        "s",
        "as"
      ],
      [
        "x",
        "im"
      ],
      [
        "A",
        "c"
      ],
      [
        "o",
        "cas"
      ],
      [
        "m",
        "adre"
      ],
      [
        "isten",
        "cia"
      ],
      [
        "bas",
        "e"
      ],
      [
        "ca",
        "be"
      ],
      [
        "edi",
        "ficio"
      ],
      [
        "vi",
        "er"
      ],
      [
        "di",
        "se"
      ],
      [
        "eli",
        "gi"
      ],
      [
        "cl",
        "ui"
      ],
      [
        "min",
        "u"
      ],
      [
        "a",
        "pli"
      ],
      [
        "emp",
        "le"
      ],
      [
        "rá",
        "pi"
      ],
      [
        "P",
        "ero"
      ],
      [
        "r",
        "ar"
      ],
      [
        "consi",
        "dera"
      ],
      [
        "éxi",
        "co"
      ],
      [
        "fun",
        "da"
      ],
      [
        "pun",
        "tos"
      ],
      [
        "b",
        "or"
      ],
      [
        "re",
        "du"
      ],
      [
        "pos",
        "e"
      ],
      [
        "alrede",
        "dor"
      ],
      [
        "p",
        "á"
      ],
      [
        "ada",
        "mente"
      ],
      [
        "pi",
        "e"
      ],
      [
        "ele",
        "gi"
      ],
      [
        "tiva",
        "mente"
      ],
      [
        "reg",
        "res"
      ],
      [
        "reg",
        "is"
      ],
      [
        "públi",
        "ca"
      ],
      [
        "ú",
        "s"
      ],
      [
        "N",
        "ue"
      ],
      [
        "mi",
        "o"
      ],
      [
        "cual",
        "quier"
      ],
      [
        "mes",
        "es"
      ],
      [
        "polí",
        "tica"
      ],
      [
        "amb",
        "os"
      ],
      [
        "O",
        "r"
      ],
      [
        "M",
        "éxico"
      ],
      [
        "ente",
        "mente"
      ],
      [
        "as",
        "o"
      ],
      [
        "estu",
        "dio"
      ],
      [
        "aban",
        "don"
      ],
      [
        "estudi",
        "os"
      ],
      [
        "tr",
        "im"
      ],
      [
        "carac",
        "ter"
      ],
      [
        "N",
        "or"
      ],
      [
        "i",
        "da"
      ],
      [
        "tar",
        "on"
      ],
      [
        "2",
        "2"
      ],
      [
        "ho",
        "mbre"
      ],
      [
        "regi",
        "ón"
      ],
      [
        "pro",
        "ceso"
      ],
      [
        "mer",
        "ican"
      ],
      [
        "posi",
        "ble"
      ],
      [
        "t",
        "án"
      ],
      [
        "por",
        "te"
      ],
      [
        "pa",
        "pel"
      ],
      [
        "c",
        "á"
      ],
      [
        "ci",
        "edad"
      ],
      [
        "cer",
        "ca"
      ],
      [
        "se",
        "a"
      ],
      [
        "201",
        "1"
      ],
      [
        "vi",
        "a"
      ],
      [
        "encuent",
        "ran"
      ],
      [
        "r",
        "ío"
      ],
      [
        "vi",
        "o"
      ],
      [
        "c",
        "li"
      ],
      [
        "fin",
        "ales"
      ],
      [
        "V",
        "al"
      ],
      [
        "re",
        "fer"
      ],
      [
        "2",
        "3"
      ],
      [
        "ac",
        "ep"
      ],
      [
        "res",
        "iden"
      ],
      [
        "pr",
        "ue"
      ],
      [
        "ren",
        "o"
      ],
      [
        "inclu",
        "so"
      ],
      [
        "al",
        "to"
      ],
      [
        "mu",
        "estra"
      ],
      [
        "medi",
        "ante"
      ],
      [
        "c",
        "adas"
      ],
      [
        "dis",
        "pon"
      ],
      [
        "teri",
        "ores"
      ],
      [
        "parti",
        "cip"
      ],
      [
        "N",
        "i"
      ],
      [
        "in",
        "os"
      ],
      [
        "ex",
        "p"
      ],
      [
        "k",
        "o"
      ],
      [
        "sen",
        "ci"
      ],
      [
        "E",
        "uro"
      ],
      [
        "n",
        "unca"
      ],
      [
        "ad",
        "minis"
      ],
      [
        "ti",
        "fi"
      ],
      [
        "nor",
        "te"
      ],
      [
        "camp",
        "e"
      ],
      [
        "h",
        "on"
      ],
      [
        "gu",
        "ar"
      ],
      [
        "indu",
        "s"
      ],
      [
        "cu",
        "ad"
      ],
      [
        "ú",
        "nica"
      ],
      [
        "in",
        "for"
      ],
      [
        "lle",
        "gó"
      ],
      [
        "so",
        "li"
      ],
      [
        "c",
        "ciones"
      ],
      [
        "Se",
        "gún"
      ],
      [
        "pres",
        "ión"
      ],
      [
        "ca",
        "ciones"
      ],
      [
        "vi",
        "l"
      ],
      [
        "A",
        "s"
      ],
      [
        "de",
        "nomin"
      ],
      [
        "v",
        "í"
      ],
      [
        "ador",
        "a"
      ],
      [
        "b",
        "al"
      ],
      [
        "ci",
        "eron"
      ],
      [
        "últi",
        "ma"
      ],
      [
        "pro",
        "pio"
      ],
      [
        "esta",
        "ban"
      ],
      [
        "comp",
        "u"
      ],
      [
        "de",
        "termin"
      ],
      [
        "servi",
        "cio"
      ],
      [
        "z",
        "on"
      ],
      [
        "do",
        "cu"
      ],
      [
        "parti",
        "dos"
      ]
    ]
  }
}