{
  "version": "1.0",
  "truncation": null,
  "padding": null,
  "added_tokens": [
    {
      "id": 0,
      "content": "<UNK>",
      "single_word": false,
      "lstrip": false,
      "rstrip": false,
      "normalized": false,
      "special": true
    },
    {
      "id": 1,
      "content": "<SEP>",
      "single_word": false,
      "lstrip": false,
      "rstrip": false,
      "normalized": false,
      "special": true
    },
    {
      "id": 2,
      "content": "<MASK>",
      "single_word": false,
      "lstrip": false,
      "rstrip": false,
      "normalized": false,
      "special": true
    },
    {
      "id": 3,
      "content": "<CLS>",
      "single_word": false,
      "lstrip": false,
      "rstrip": false,
      "normalized": false,
      "special": true
    }
  ],
  "normalizer": null,
  "pre_tokenizer": {
    "type": "Whitespace"
  },
  "post_processor": null,
  "decoder": null,
  "model": {
    "type": "BPE",
    "dropout": null,
    "unk_token": "<UNK>",
    "continuing_subword_prefix": null,
    "end_of_word_suffix": null,
    "fuse_unk": false,
    "byte_fallback": false,
    "ignore_merges": false,
    "vocab": {
      "<UNK>": 0,
      "<SEP>": 1,
      "<MASK>": 2,
      "<CLS>": 3,
      "!": 4,
      "\"": 5,
      "$": 6,
      "%": 7,
      "&": 8,
      "'": 9,
      "(": 10,
      ")": 11,
      "*": 12,
      "+": 13,
      ",": 14,
      "-": 15,
      ".": 16,
      "/": 17,
      "0": 18,
      "1": 19,
      "2": 20,
      "3": 21,
      "4": 22,
      "5": 23,
      "6": 24,
      "7": 25,
      "8": 26,
      "9": 27,
      ":": 28,
      ";": 29,
      "<": 30,
      ">": 31,
      "?": 32,
      "A": 33,
      "B": 34,
      "C": 35,
      "D": 36,
      "E": 37,
      "F": 38,
      "G": 39,
      "H": 40,
      "I": 41,
      "J": 42,
      "K": 43,
      "L": 44,
      "M": 45,
      "N": 46,
      "O": 47,
      "P": 48,
      "Q": 49,
      "R": 50,
      "S": 51,
      "T": 52,
      "U": 53,
      "V": 54,
      "W": 55,
      "X": 56,
      "Y": 57,
      "Z": 58,
      "`": 59,
      "a": 60,
      "b": 61,
      "c": 62,
      "d": 63,
      "e": 64,
      "f": 65,
      "g": 66,
      "h": 67,
      "i": 68,
      "j": 69,
      "k": 70,
      "l": 71,
      "m": 72,
      "n": 73,
      "o": 74,
      "p": 75,
      "q": 76,
      "r": 77,
      "s": 78,
      "t": 79,
      "u": 80,
      "v": 81,
      "w": 82,
      "x": 83,
      "y": 84,
      "z": 85,
      "~": 86,
      "¡": 87,
      "¢": 88,
      "£": 89,
      "¥": 90,
      "§": 91,
      "ª": 92,
      "«": 93,
      "®": 94,
      "°": 95,
      "±": 96,
      "²": 97,
      "³": 98,
      "´": 99,
      "µ": 100,
      "·": 101,
      "¹": 102,
      "º": 103,
      "»": 104,
      "¼": 105,
      "½": 106,
      "¾": 107,
      "¿": 108,
      "À": 109,
      "Á": 110,
      "Ä": 111,
      "Å": 112,
      "Æ": 113,
      "Ç": 114,
      "È": 115,
      "É": 116,
      "Ê": 117,
      "Í": 118,
      "Î": 119,
      "Ï": 120,
      "Ð": 121,
      "Ñ": 122,
      "Ó": 123,
      "Ô": 124,
      "Õ": 125,
      "Ö": 126,
      "×": 127,
      "Ø": 128,
      "Ú": 129,
      "Ü": 130,
      "Þ": 131,
      "ß": 132,
      "à": 133,
      "á": 134,
      "â": 135,
      "ã": 136,
      "ä": 137,
      "å": 138,
      "æ": 139,
      "ç": 140,
      "è": 141,
      "é": 142,
      "ê": 143,
      "ë": 144,
      "ì": 145,
      "í": 146,
      "î": 147,
      "ï": 148,
      "ð": 149,
      "ñ": 150,
      "ò": 151,
      "ó": 152,
      "ô": 153,
      "õ": 154,
      "ö": 155,
      "ø": 156,
      "ù": 157,
      "ú": 158,
      "û": 159,
      "ü": 160,
      "ý": 161,
      "þ": 162,
      "ÿ": 163,
      "Ā": 164,
      "ā": 165,
      "ă": 166,
      "ą": 167,
      "Ć": 168,
      "ć": 169,
      "ĉ": 170,
      "ċ": 171,
      "Č": 172,
      "č": 173,
      "ď": 174,
      "Đ": 175,
      "đ": 176,
      "Ē": 177,
      "ē": 178,
      "ĕ": 179,
      "ė": 180,
      "ę": 181,
      "ě": 182,
      "ğ": 183,
      "Ġ": 184,
      "ġ": 185,
      "Ħ": 186,
      "ĩ": 187,
      "Ī": 188,
      "ī": 189,
      "ĭ": 190,
      "į": 191,
      "İ": 192,
      "ı": 193,
      "ķ": 194,
      "Ľ": 195,
      "ľ": 196,
      "Ł": 197,
      "ł": 198,
      "ń": 199,
      "ņ": 200,
      "Ň": 201,
      "ň": 202,
      "Ō": 203,
      "ō": 204,
      "Ő": 205,
      "ő": 206,
      "Œ": 207,
      "œ": 208,
      "Ř": 209,
      "ř": 210,
      "Ś": 211,
      "ś": 212,
      "ŝ": 213,
      "Ş": 214,
      "ş": 215,
      "Š": 216,
      "š": 217,
      "Ţ": 218,
      "ţ": 219,
      "ť": 220,
      "ũ": 221,
      "Ū": 222,
      "ū": 223,
      "ŭ": 224,
      "ů": 225,
      "ű": 226,
      "ų": 227,
      "ŵ": 228,
      "ź": 229,
      "Ż": 230,
      "ż": 231,
      "Ž": 232,
      "ž": 233,
      "ſ": 234,
      "Ɔ": 235,
      "ƒ": 236,
      "ƛ": 237,
      "ơ": 238,
      "ư": 239,
      "ǎ": 240,
      "ǐ": 241,
      "ǒ": 242,
      "ǔ": 243,
      "ǚ": 244,
      "ǫ": 245,
      "Ș": 246,
      "ș": 247,
      "Ț": 248,
      "ț": 249,
      "ɑ": 250,
      "ɔ": 251,
      "ə": 252,
      "ɛ": 253,
      "ɣ": 254,
      "ɤ": 255,
      "ɪ": 256,
      "ɫ": 257,
      "ɬ": 258,
      "ɹ": 259,
      "ʃ": 260,
      "ʊ": 261,
      "ʒ": 262,
      "ʰ": 263,
      "ʷ": 264,
      "ʻ": 265,
      "ʼ": 266,
      "ʾ": 267,
      "ʿ": 268,
      "ˇ": 269,
      "ˈ": 270,
      "ˊ": 271,
      "ˌ": 272,
      "ː": 273,
      "˚": 274,
      "ˤ": 275,
      "́": 276,
      "̄": 277,
      "̝": 278,
      "Α": 279,
      "Β": 280,
      "Δ": 281,
      "Ε": 282,
      "Θ": 283,
      "Κ": 284,
      "Λ": 285,
      "Μ": 286,
      "Ο": 287,
      "Π": 288,
      "Σ": 289,
      "Τ": 290,
      "Φ": 291,
      "Χ": 292,
      "Ψ": 293,
      "Ω": 294,
      "ά": 295,
      "έ": 296,
      "ή": 297,
      "ί": 298,
      "α": 299,
      "β": 300,
      "γ": 301,
      "δ": 302,
      "ε": 303,
      "ζ": 304,
      "η": 305,
      "θ": 306,
      "ι": 307,
      "κ": 308,
      "λ": 309,
      "μ": 310,
      "ν": 311,
      "ξ": 312,
      "ο": 313,
      "π": 314,
      "ρ": 315,
      "ς": 316,
      "σ": 317,
      "τ": 318,
      "υ": 319,
      "φ": 320,
      "χ": 321,
      "ψ": 322,
      "ω": 323,
      "ϊ": 324,
      "ό": 325,
      "ύ": 326,
      "ώ": 327,
      "ϱ": 328,
      "А": 329,
      "Б": 330,
      "В": 331,
      "Г": 332,
      "Д": 333,
      "Ж": 334,
      "З": 335,
      "И": 336,
      "К": 337,
      "Л": 338,
      "М": 339,
      "Н": 340,
      "О": 341,
      "П": 342,
      "Р": 343,
      "С": 344,
      "Т": 345,
      "У": 346,
      "Ф": 347,
      "Ц": 348,
      "Ч": 349,
      "Ш": 350,
      "Ю": 351,
      "Я": 352,
      "а": 353,
      "б": 354,
      "в": 355,
      "г": 356,
      "д": 357,
      "е": 358,
      "ж": 359,
      "з": 360,
      "и": 361,
      "й": 362,
      "к": 363,
      "л": 364,
      "м": 365,
      "н": 366,
      "о": 367,
      "п": 368,
      "р": 369,
      "с": 370,
      "т": 371,
      "у": 372,
      "ф": 373,
      "х": 374,
      "ц": 375,
      "ч": 376,
      "ш": 377,
      "ъ": 378,
      "ы": 379,
      "ь": 380,
      "э": 381,
      "ю": 382,
      "я": 383,
      "і": 384,
      "ї": 385,
      "ј": 386,
      "ѵ": 387,
      "҆": 388,
      "ҫ": 389,
      "Ա": 390,
      "Մ": 391,
      "Ջ": 392,
      "ա": 393,
      "գ": 394,
      "ե": 395,
      "ը": 396,
      "թ": 397,
      "ի": 398,
      "խ": 399,
      "ղ": 400,
      "մ": 401,
      "յ": 402,
      "ն": 403,
      "ր": 404,
      "ְ": 405,
      "ִ": 406,
      "ֶ": 407,
      "ָ": 408,
      "ֹ": 409,
      "ּ": 410,
      "ׁ": 411,
      "א": 412,
      "ב": 413,
      "ג": 414,
      "ד": 415,
      "ה": 416,
      "ו": 417,
      "ז": 418,
      "ח": 419,
      "ט": 420,
      "י": 421,
      "ך": 422,
      "כ": 423,
      "ל": 424,
      "ם": 425,
      "מ": 426,
      "ן": 427,
      "נ": 428,
      "ס": 429,
      "ע": 430,
      "פ": 431,
      "ץ": 432,
      "צ": 433,
      "ק": 434,
      "ר": 435,
      "ש": 436,
      "ת": 437,
      "ء": 438,
      "آ": 439,
      "أ": 440,
      "إ": 441,
      "ئ": 442,
      "ا": 443,
      "ب": 444,
      "ة": 445,
      "ت": 446,
      "ث": 447,
      "ج": 448,
      "ح": 449,
      "خ": 450,
      "د": 451,
      "ذ": 452,
      "ر": 453,
      "ز": 454,
      "س": 455,
      "ش": 456,
      "ص": 457,
      "ض": 458,
      "ط": 459,
      "ظ": 460,
      "ع": 461,
      "غ": 462,
      "ـ": 463,
      "ف": 464,
      "ق": 465,
      "ك": 466,
      "ل": 467,
      "م": 468,
      "ن": 469,
      "ه": 470,
      "و": 471,
      "ي": 472,
      "َ": 473,
      "ُ": 474,
      "ِ": 475,
      "ْ": 476,
      "پ": 477,
      "چ": 478,
      "ڠ": 479,
      "ک": 480,
      "گ": 481,
      "ں": 482,
      "ھ": 483,
      "ہ": 484,
      "ی": 485,
      "ं": 486,
      "इ": 487,
      "ऋ": 488,
      "क": 489,
      "ख": 490,
      "ग": 491,
      "ङ": 492,
      "च": 493,
      "ज": 494,
      "ट": 495,
      "त": 496,
      "द": 497,
      "न": 498,
      "प": 499,
      "फ": 500,
      "म": 501,
      "र": 502,
      "ल": 503,
      "व": 504,
      "श": 505,
      "स": 506,
      "ह": 507,
      "़": 508,
      "ा": 509,
      "ि": 510,
      "ु": 511,
      "े": 512,
      "ो": 513,
      "्": 514,
      "।": 515,
      "আ": 516,
      "উ": 517,
      "ক": 518,
      "ঙ": 519,
      "ট": 520,
      "ত": 521,
      "দ": 522,
      "ন": 523,
      "প": 524,
      "ফ": 525,
      "ব": 526,
      "ম": 527,
      "য": 528,
      "র": 529,
      "ল": 530,
      "শ": 531,
      "স": 532,
      "হ": 533,
      "া": 534,
      "ি": 535,
      "ে": 536,
      "্": 537,
      "அ": 538,
      "உ": 539,
      "ஒ": 540,
      "க": 541,
      "ச": 542,
      "ஜ": 543,
      "ட": 544,
      "த": 545,
      "ந": 546,
      "ப": 547,
      "ம": 548,
      "ர": 549,
      "ல": 550,
      "ழ": 551,
      "வ": 552,
      "ா": 553,
      "ி": 554,
      "ீ": 555,
      "ு": 556,
      "ூ": 557,
      "ே": 558,
      "ை": 559,
      "ோ": 560,
      "்": 561,
      "ം": 562,
      "ഇ": 563,
      "ട": 564,
      "ത": 565,
      "ല": 566,
      "വ": 567,
      "අ": 568,
      "ද": 569,
      "න": 570,
      "ල": 571,
      "ව": 572,
      "ා": 573,
      "ැ": 574,
      "ි": 575,
      "ෝ": 576,
      "ก": 577,
      "ข": 578,
      "ค": 579,
      "ง": 580,
      "จ": 581,
      "ช": 582,
      "ซ": 583,
      "ฒ": 584,
      "ด": 585,
      "ต": 586,
      "ถ": 587,
      "ท": 588,
      "ธ": 589,
      "น": 590,
      "บ": 591,
      "ป": 592,
      "ผ": 593,
      "พ": 594,
      "ฟ": 595,
      "ภ": 596,
      "ม": 597,
      "ย": 598,
      "ร": 599,
      "ล": 600,
      "ว": 601,
      "ศ": 602,
      "ษ": 603,
      "ส": 604,
      "ห": 605,
      "อ": 606,
      "ะ": 607,
      "ั": 608,
      "า": 609,
      "ำ": 610,
      "ิ": 611,
      "ี": 612,
      "ึ": 613,
      "ื": 614,
      "ุ": 615,
      "ู": 616,
      "เ": 617,
      "แ": 618,
      "โ": 619,
      "ไ": 620,
      "่": 621,
      "้": 622,
      "๊": 623,
      "์": 624,
      "တ": 625,
      "န": 626,
      "ပ": 627,
      "ရ": 628,
      "သ": 629,
      "ူ": 630,
      "်": 631,
      "ၐ": 632,
      "ၑ": 633,
      "ა": 634,
      "ბ": 635,
      "ე": 636,
      "ვ": 637,
      "ზ": 638,
      "ი": 639,
      "ლ": 640,
      "ნ": 641,
      "რ": 642,
      "უ": 643,
      "შ": 644,
      "ፐ": 645,
      "ᐯ": 646,
      "ᐸ": 647,
      "ᑐ": 648,
      "ᘅ": 649,
      "ញ": 650,
      "ទ": 651,
      "រ": 652,
      "វ": 653,
      "ា": 654,
      "ិ": 655,
      "៉": 656,
      "្": 657,
      "ḍ": 658,
      "Ḥ": 659,
      "ḥ": 660,
      "ḫ": 661,
      "ḳ": 662,
      "Ḵ": 663,
      "ḷ": 664,
      "ḻ": 665,
      "ṃ": 666,
      "ṅ": 667,
      "ṇ": 668,
      "ṉ": 669,
      "Ṛ": 670,
      "ṛ": 671,
      "ṟ": 672,
      "Ṣ": 673,
      "ṣ": 674,
      "Ṭ": 675,
      "ṭ": 676,
      "ṯ": 677,
      "Ẓ": 678,
      "ẞ": 679,
      "ạ": 680,
      "ả": 681,
      "ầ": 682,
      "ẩ": 683,
      "ắ": 684,
      "ằ": 685,
      "ẳ": 686,
      "ặ": 687,
      "ẻ": 688,
      "ẽ": 689,
      "ế": 690,
      "ề": 691,
      "ễ": 692,
      "ệ": 693,
      "ị": 694,
      "ọ": 695,
      "ố": 696,
      "ồ": 697,
      "ổ": 698,
      "ộ": 699,
      "ớ": 700,
      "ờ": 701,
      "ở": 702,
      "ụ": 703,
      "ủ": 704,
      "ứ": 705,
      "ử": 706,
      "ữ": 707,
      "ỳ": 708,
      "ἀ": 709,
      "ἄ": 710,
      "ἰ": 711,
      "ἱ": 712,
      "ὐ": 713,
      "ὑ": 714,
      "ὸ": 715,
      "ὼ": 716,
      "ῇ": 717,
      "ῥ": 718,
      "ῦ": 719,
      "ῳ": 720,
      "ῶ": 721,
      "​": 722,
      "‎": 723,
      "‐": 724,
      "‑": 725,
      "–": 726,
      "—": 727,
      "―": 728,
      "‘": 729,
      "’": 730,
      "‛": 731,
      "“": 732,
      "”": 733,
      "„": 734,
      "‟": 735,
      "†": 736,
      "‡": 737,
      "•": 738,
      "…": 739,
      "‰": 740,
      "′": 741,
      "″": 742,
      "⁄": 743,
      "⁰": 744,
      "⁷": 745,
      "₤": 746,
      "€": 747,
      "₴": 748,
      "₹": 749,
      "ℂ": 750,
      "℃": 751,
      "ℋ": 752,
      "ℓ": 753,
      "№": 754,
      "ℝ": 755,
      "™": 756,
      "ℤ": 757,
      "ℰ": 758,
      "ℱ": 759,
      "⅓": 760,
      "⅔": 761,
      "⅕": 762,
      "⅛": 763,
      "Ⅱ": 764,
      "→": 765,
      "↔": 766,
      "↘": 767,
      "⇒": 768,
      "∂": 769,
      "∈": 770,
      "−": 771,
      "∗": 772,
      "∞": 773,
      "∧": 774,
      "∴": 775,
      "≈": 776,
      "≠": 777,
      "≤": 778,
      "≥": 779,
      "≫": 780,
      "⊆": 781,
      "⊢": 782,
      "⋅": 783,
      "│": 784,
      "▄": 785,
      "○": 786,
      "☆": 787,
      "♘": 788,
      "♡": 789,
      "♭": 790,
      "♯": 791,
      "⟨": 792,
      "⟩": 793,
      "⠸": 794,
      "Ⲩ": 795,
      "ⲩ": 796,
      "⿱": 797,
      "、": 798,
      "。": 799,
      "々": 800,
      "〈": 801,
      "〉": 802,
      "《": 803,
      "》": 804,
      "「": 805,
      "」": 806,
      "『": 807,
      "』": 808,
      "〔": 809,
      "〕": 810,
      "あ": 811,
      "い": 812,
      "う": 813,
      "え": 814,
      "お": 815,
      "か": 816,
      "き": 817,
      "ぎ": 818,
      "く": 819,
      "け": 820,
      "げ": 821,
      "こ": 822,
      "ご": 823,
      "さ": 824,
      "し": 825,
      "じ": 826,
      "す": 827,
      "せ": 828,
      "た": 829,
      "だ": 830,
      "ち": 831,
      "っ": 832,
      "つ": 833,
      "て": 834,
      "と": 835,
      "ど": 836,
      "に": 837,
      "の": 838,
      "は": 839,
      "ひ": 840,
      "び": 841,
      "へ": 842,
      "ぼ": 843,
      "ま": 844,
      "み": 845,
      "む": 846,
      "ゃ": 847,
      "や": 848,
      "ゆ": 849,
      "ょ": 850,
      "よ": 851,
      "ら": 852,
      "り": 853,
      "る": 854,
      "ろ": 855,
      "わ": 856,
      "を": 857,
      "ん": 858,
      "゜": 859,
      "ア": 860,
      "ィ": 861,
      "イ": 862,
      "ェ": 863,
      "ォ": 864,
      "カ": 865,
      "ガ": 866,
      "キ": 867,
      "ク": 868,
      "グ": 869,
      "ケ": 870,
      "サ": 871,
      "シ": 872,
      "ジ": 873,
      "ス": 874,
      "ズ": 875,
      "セ": 876,
      "ゼ": 877,
      "ソ": 878,
      "タ": 879,
      "ダ": 880,
      "チ": 881,
      "ッ": 882,
      "デ": 883,
      "ト": 884,
      "ド": 885,
      "ヌ": 886,
      "ノ": 887,
      "ハ": 888,
      "パ": 889,
      "ビ": 890,
      "フ": 891,
      "ブ": 892,
      "プ": 893,
      "ベ": 894,
      "ボ": 895,
      "マ": 896,
      "ミ": 897,
      "ム": 898,
      "メ": 899,
      "ュ": 900,
      "ユ": 901,
      "ョ": 902,
      "ラ": 903,
      "リ": 904,
      "ル": 905,
      "レ": 906,
      "ン": 907,
      "ヴ": 908,
      "・": 909,
      "ー": 910,
      "ㄌ": 911,
      "ㄘ": 912,
      "ㄣ": 913,
      "ㄧ": 914,
      "ㄨ": 915,
      "一": 916,
      "丁": 917,
      "万": 918,
      "丈": 919,
      "三": 920,
      "上": 921,
      "下": 922,
      "不": 923,
      "世": 924,
      "两": 925,
      "个": 926,
      "中": 927,
      "主": 928,
      "乃": 929,
      "之": 930,
      "乌": 931,
      "乗": 932,
      "九": 933,
      "也": 934,
      "乡": 935,
      "事": 936,
      "二": 937,
      "五": 938,
      "井": 939,
      "亜": 940,
      "亡": 941,
      "交": 942,
      "京": 943,
      "人": 944,
      "什": 945,
      "仁": 946,
      "今": 947,
      "仝": 948,
      "代": 949,
      "仰": 950,
      "任": 951,
      "伊": 952,
      "伏": 953,
      "伐": 954,
      "会": 955,
      "传": 956,
      "伸": 957,
      "体": 958,
      "何": 959,
      "佛": 960,
      "作": 961,
      "你": 962,
      "使": 963,
      "侍": 964,
      "侯": 965,
      "保": 966,
      "修": 967,
      "倉": 968,
      "倡": 969,
      "倪": 970,
      "偕": 971,
      "健": 972,
      "偵": 973,
      "像": 974,
      "僕": 975,
      "儀": 976,
      "儿": 977,
      "元": 978,
      "先": 979,
      "光": 980,
      "克": 981,
      "入": 982,
      "全": 983,
      "八": 984,
      "公": 985,
      "典": 986,
      "内": 987,
      "冒": 988,
      "军": 989,
      "凍": 990,
      "出": 991,
      "刀": 992,
      "切": 993,
      "列": 994,
      "別": 995,
      "制": 996,
      "則": 997,
      "前": 998,
      "割": 999,
      "劇": 1000,
      "劉": 1001,
      "力": 1002,
      "加": 1003,
      "助": 1004,
      "勁": 1005,
      "北": 1006,
      "区": 1007,
      "十": 1008,
      "千": 1009,
      "午": 1010,
      "協": 1011,
      "南": 1012,
      "博": 1013,
      "厂": 1014,
      "历": 1015,
      "原": 1016,
      "县": 1017,
      "及": 1018,
      "友": 1019,
      "取": 1020,
      "口": 1021,
      "古": 1022,
      "台": 1023,
      "右": 1024,
      "号": 1025,
      "司": 1026,
      "吃": 1027,
      "合": 1028,
      "同": 1029,
      "名": 1030,
      "后": 1031,
      "向": 1032,
      "君": 1033,
      "吹": 1034,
      "吾": 1035,
      "味": 1036,
      "呷": 1037,
      "命": 1038,
      "和": 1039,
      "咽": 1040,
      "品": 1041,
      "員": 1042,
      "哪": 1043,
      "喃": 1044,
      "喉": 1045,
      "喜": 1046,
      "噂": 1047,
      "四": 1048,
      "回": 1049,
      "园": 1050,
      "囯": 1051,
      "国": 1052,
      "圆": 1053,
      "國": 1054,
      "園": 1055,
      "圖": 1056,
      "土": 1057,
      "在": 1058,
      "地": 1059,
      "坂": 1060,
      "城": 1061,
      "培": 1062,
      "基": 1063,
      "埼": 1064,
      "堀": 1065,
      "堅": 1066,
      "報": 1067,
      "場": 1068,
      "塼": 1069,
      "塽": 1070,
      "壯": 1071,
      "声": 1072,
      "夏": 1073,
      "外": 1074,
      "多": 1075,
      "大": 1076,
      "天": 1077,
      "太": 1078,
      "夫": 1079,
      "失": 1080,
      "夷": 1081,
      "奇": 1082,
      "奉": 1083,
      "奎": 1084,
      "奏": 1085,
      "女": 1086,
      "奴": 1087,
      "好": 1088,
      "妃": 1089,
      "委": 1090,
      "姚": 1091,
      "姜": 1092,
      "姬": 1093,
      "威": 1094,
      "婁": 1095,
      "婉": 1096,
      "嬴": 1097,
      "孁": 1098,
      "子": 1099,
      "字": 1100,
      "存": 1101,
      "孚": 1102,
      "孝": 1103,
      "季": 1104,
      "孤": 1105,
      "学": 1106,
      "孩": 1107,
      "孫": 1108,
      "學": 1109,
      "宁": 1110,
      "安": 1111,
      "完": 1112,
      "宓": 1113,
      "宗": 1114,
      "宝": 1115,
      "実": 1116,
      "宵": 1117,
      "家": 1118,
      "寄": 1119,
      "寅": 1120,
      "密": 1121,
      "寓": 1122,
      "察": 1123,
      "實": 1124,
      "寬": 1125,
      "寮": 1126,
      "寶": 1127,
      "寺": 1128,
      "寿": 1129,
      "封": 1130,
      "將": 1131,
      "小": 1132,
      "少": 1133,
      "尔": 1134,
      "山": 1135,
      "岳": 1136,
      "峡": 1137,
      "峰": 1138,
      "島": 1139,
      "崔": 1140,
      "嶽": 1141,
      "川": 1142,
      "州": 1143,
      "巢": 1144,
      "左": 1145,
      "巴": 1146,
      "市": 1147,
      "帅": 1148,
      "希": 1149,
      "師": 1150,
      "常": 1151,
      "平": 1152,
      "年": 1153,
      "幽": 1154,
      "底": 1155,
      "庙": 1156,
      "庚": 1157,
      "府": 1158,
      "度": 1159,
      "庭": 1160,
      "庵": 1161,
      "廉": 1162,
      "廣": 1163,
      "延": 1164,
      "建": 1165,
      "弓": 1166,
      "引": 1167,
      "弘": 1168,
      "弟": 1169,
      "張": 1170,
      "徐": 1171,
      "從": 1172,
      "御": 1173,
      "微": 1174,
      "徳": 1175,
      "德": 1176,
      "心": 1177,
      "志": 1178,
      "忠": 1179,
      "快": 1180,
      "念": 1181,
      "性": 1182,
      "恨": 1183,
      "恪": 1184,
      "息": 1185,
      "悉": 1186,
      "悲": 1187,
      "惠": 1188,
      "惲": 1189,
      "意": 1190,
      "慎": 1191,
      "憨": 1192,
      "懷": 1193,
      "戌": 1194,
      "成": 1195,
      "我": 1196,
      "戦": 1197,
      "户": 1198,
      "房": 1199,
      "所": 1200,
      "打": 1201,
      "持": 1202,
      "挂": 1203,
      "按": 1204,
      "探": 1205,
      "放": 1206,
      "政": 1207,
      "故": 1208,
      "文": 1209,
      "斗": 1210,
      "料": 1211,
      "斥": 1212,
      "斯": 1213,
      "新": 1214,
      "方": 1215,
      "於": 1216,
      "施": 1217,
      "既": 1218,
      "日": 1219,
      "旦": 1220,
      "昇": 1221,
      "明": 1222,
      "星": 1223,
      "晁": 1224,
      "晦": 1225,
      "普": 1226,
      "景": 1227,
      "暗": 1228,
      "暦": 1229,
      "暫": 1230,
      "曙": 1231,
      "曜": 1232,
      "曲": 1233,
      "曳": 1234,
      "書": 1235,
      "會": 1236,
      "月": 1237,
      "有": 1238,
      "朗": 1239,
      "朝": 1240,
      "木": 1241,
      "未": 1242,
      "本": 1243,
      "术": 1244,
      "朱": 1245,
      "杉": 1246,
      "李": 1247,
      "材": 1248,
      "村": 1249,
      "条": 1250,
      "東": 1251,
      "松": 1252,
      "枋": 1253,
      "林": 1254,
      "果": 1255,
      "校": 1256,
      "根": 1257,
      "格": 1258,
      "桂": 1259,
      "案": 1260,
      "桜": 1261,
      "梅": 1262,
      "梨": 1263,
      "森": 1264,
      "楊": 1265,
      "楽": 1266,
      "榮": 1267,
      "樂": 1268,
      "樊": 1269,
      "橘": 1270,
      "機": 1271,
      "橫": 1272,
      "檀": 1273,
      "歌": 1274,
      "正": 1275,
      "此": 1276,
      "武": 1277,
      "歩": 1278,
      "殺": 1279,
      "殿": 1280,
      "每": 1281,
      "氏": 1282,
      "民": 1283,
      "水": 1284,
      "永": 1285,
      "江": 1286,
      "池": 1287,
      "汤": 1288,
      "汪": 1289,
      "沙": 1290,
      "沤": 1291,
      "河": 1292,
      "沼": 1293,
      "泉": 1294,
      "泰": 1295,
      "泳": 1296,
      "洛": 1297,
      "洪": 1298,
      "活": 1299,
      "海": 1300,
      "涌": 1301,
      "深": 1302,
      "淺": 1303,
      "清": 1304,
      "渝": 1305,
      "渡": 1306,
      "湖": 1307,
      "湾": 1308,
      "源": 1309,
      "漢": 1310,
      "潟": 1311,
      "潭": 1312,
      "濟": 1313,
      "瀏": 1314,
      "瀬": 1315,
      "灣": 1316,
      "灯": 1317,
      "炊": 1318,
      "炜": 1319,
      "無": 1320,
      "照": 1321,
      "煮": 1322,
      "熊": 1323,
      "熙": 1324,
      "燕": 1325,
      "營": 1326,
      "爆": 1327,
      "爱": 1328,
      "父": 1329,
      "爺": 1330,
      "版": 1331,
      "牧": 1332,
      "特": 1333,
      "献": 1334,
      "玄": 1335,
      "玉": 1336,
      "王": 1337,
      "珍": 1338,
      "珠": 1339,
      "珪": 1340,
      "班": 1341,
      "現": 1342,
      "理": 1343,
      "瑶": 1344,
      "璆": 1345,
      "璋": 1346,
      "璧": 1347,
      "甘": 1348,
      "生": 1349,
      "用": 1350,
      "田": 1351,
      "由": 1352,
      "甲": 1353,
      "申": 1354,
      "男": 1355,
      "町": 1356,
      "畅": 1357,
      "界": 1358,
      "痴": 1359,
      "発": 1360,
      "發": 1361,
      "白": 1362,
      "百": 1363,
      "的": 1364,
      "皇": 1365,
      "益": 1366,
      "盛": 1367,
      "盧": 1368,
      "相": 1369,
      "省": 1370,
      "眞": 1371,
      "真": 1372,
      "矢": 1373,
      "矣": 1374,
      "知": 1375,
      "短": 1376,
      "石": 1377,
      "碗": 1378,
      "碣": 1379,
      "社": 1380,
      "神": 1381,
      "禍": 1382,
      "福": 1383,
      "科": 1384,
      "秒": 1385,
      "秘": 1386,
      "移": 1387,
      "種": 1388,
      "穆": 1389,
      "立": 1390,
      "竜": 1391,
      "章": 1392,
      "第": 1393,
      "等": 1394,
      "筷": 1395,
      "篇": 1396,
      "築": 1397,
      "簡": 1398,
      "簿": 1399,
      "糖": 1400,
      "糸": 1401,
      "紀": 1402,
      "約": 1403,
      "紅": 1404,
      "紙": 1405,
      "級": 1406,
      "素": 1407,
      "紫": 1408,
      "紹": 1409,
      "経": 1410,
      "絡": 1411,
      "絶": 1412,
      "絹": 1413,
      "經": 1414,
      "綬": 1415,
      "維": 1416,
      "綿": 1417,
      "総": 1418,
      "縱": 1419,
      "绍": 1420,
      "经": 1421,
      "署": 1422,
      "羅": 1423,
      "美": 1424,
      "義": 1425,
      "羽": 1426,
      "翁": 1427,
      "老": 1428,
      "者": 1429,
      "而": 1430,
      "联": 1431,
      "聚": 1432,
      "聯": 1433,
      "聲": 1434,
      "職": 1435,
      "肩": 1436,
      "脳": 1437,
      "腐": 1438,
      "膏": 1439,
      "臓": 1440,
      "致": 1441,
      "與": 1442,
      "興": 1443,
      "航": 1444,
      "船": 1445,
      "色": 1446,
      "艺": 1447,
      "花": 1448,
      "芸": 1449,
      "苗": 1450,
      "若": 1451,
      "英": 1452,
      "茜": 1453,
      "茶": 1454,
      "華": 1455,
      "萬": 1456,
      "葬": 1457,
      "薛": 1458,
      "薰": 1459,
      "藏": 1460,
      "藤": 1461,
      "蘋": 1462,
      "蘭": 1463,
      "號": 1464,
      "蚤": 1465,
      "蜀": 1466,
      "蠻": 1467,
      "行": 1468,
      "術": 1469,
      "衛": 1470,
      "衣": 1471,
      "袴": 1472,
      "裴": 1473,
      "裸": 1474,
      "製": 1475,
      "褒": 1476,
      "西": 1477,
      "要": 1478,
      "親": 1479,
      "见": 1480,
      "角": 1481,
      "解": 1482,
      "言": 1483,
      "記": 1484,
      "註": 1485,
      "証": 1486,
      "詩": 1487,
      "語": 1488,
      "誰": 1489,
      "課": 1490,
      "調": 1491,
      "請": 1492,
      "諝": 1493,
      "諸": 1494,
      "諾": 1495,
      "講": 1496,
      "謡": 1497,
      "譜": 1498,
      "警": 1499,
      "讃": 1500,
      "讲": 1501,
      "豆": 1502,
      "豫": 1503,
      "貨": 1504,
      "貫": 1505,
      "責": 1506,
      "貴": 1507,
      "賂": 1508,
      "資": 1509,
      "賢": 1510,
      "赤": 1511,
      "走": 1512,
      "起": 1513,
      "超": 1514,
      "越": 1515,
      "趙": 1516,
      "跡": 1517,
      "路": 1518,
      "車": 1519,
      "軍": 1520,
      "軒": 1521,
      "較": 1522,
      "车": 1523,
      "辉": 1524,
      "辜": 1525,
      "辞": 1526,
      "辰": 1527,
      "迅": 1528,
      "过": 1529,
      "还": 1530,
      "送": 1531,
      "通": 1532,
      "速": 1533,
      "進": 1534,
      "遂": 1535,
      "道": 1536,
      "達": 1537,
      "遺": 1538,
      "邁": 1539,
      "邑": 1540,
      "邡": 1541,
      "郎": 1542,
      "郑": 1543,
      "郡": 1544,
      "部": 1545,
      "郭": 1546,
      "都": 1547,
      "鄠": 1548,
      "鄰": 1549,
      "酒": 1550,
      "醂": 1551,
      "醉": 1552,
      "醋": 1553,
      "里": 1554,
      "金": 1555,
      "錢": 1556,
      "錦": 1557,
      "錯": 1558,
      "镇": 1559,
      "長": 1560,
      "长": 1561,
      "門": 1562,
      "間": 1563,
      "関": 1564,
      "閹": 1565,
      "關": 1566,
      "阿": 1567,
      "陛": 1568,
      "院": 1569,
      "陳": 1570,
      "険": 1571,
      "陽": 1572,
      "隆": 1573,
      "隐": 1574,
      "際": 1575,
      "难": 1576,
      "雄": 1577,
      "雙": 1578,
      "雛": 1579,
      "雞": 1580,
      "雨": 1581,
      "雪": 1582,
      "雷": 1583,
      "震": 1584,
      "露": 1585,
      "靖": 1586,
      "面": 1587,
      "革": 1588,
      "韓": 1589,
      "韦": 1590,
      "音": 1591,
      "響": 1592,
      "順": 1593,
      "頭": 1594,
      "願": 1595,
      "风": 1596,
      "食": 1597,
      "香": 1598,
      "馨": 1599,
      "馬": 1600,
      "駅": 1601,
      "騎": 1602,
      "马": 1603,
      "體": 1604,
      "高": 1605,
      "魔": 1606,
      "魯": 1607,
      "鱒": 1608,
      "鲁": 1609,
      "鲤": 1610,
      "鳥": 1611,
      "鳳": 1612,
      "鴨": 1613,
      "鵬": 1614,
      "鶴": 1615,
      "鸟": 1616,
      "鸡": 1617,
      "鸭": 1618,
      "黃": 1619,
      "黄": 1620,
      "黎": 1621,
      "黒": 1622,
      "黨": 1623,
      "鼓": 1624,
      "龍": 1625,
      "龐": 1626,
      "龙": 1627,
      "ꯀ": 1628,
      "ꯂ": 1629,
      "ꯃ": 1630,
      "ꯄ": 1631,
      "ꯅ": 1632,
      "ꯈ": 1633,
      "ꯉ": 1634,
      "ꯊ": 1635,
      "ꯔ": 1636,
      "ꯛ": 1637,
      "ꯜ": 1638,
      "ꯡ": 1639,
      "ꯣ": 1640,
      "ꯤ": 1641,
      "ꯥ": 1642,
      "ꯦ": 1643,
      "ꯧ": 1644,
      "ꯨ": 1645,
      "ꯩ": 1646,
      "가": 1647,
      "강": 1648,
      "개": 1649,
      "경": 1650,
      "계": 1651,
      "고": 1652,
      "곡": 1653,
      "공": 1654,
      "과": 1655,
      "국": 1656,
      "군": 1657,
      "궁": 1658,
      "기": 1659,
      "김": 1660,
      "난": 1661,
      "낮": 1662,
      "내": 1663,
      "너": 1664,
      "누": 1665,
      "니": 1666,
      "단": 1667,
      "당": 1668,
      "대": 1669,
      "데": 1670,
      "도": 1671,
      "동": 1672,
      "따": 1673,
      "때": 1674,
      "라": 1675,
      "레": 1676,
      "례": 1677,
      "로": 1678,
      "리": 1679,
      "무": 1680,
      "문": 1681,
      "뮤": 1682,
      "미": 1683,
      "민": 1684,
      "밀": 1685,
      "박": 1686,
      "밤": 1687,
      "방": 1688,
      "백": 1689,
      "뱅": 1690,
      "번": 1691,
      "벌": 1692,
      "복": 1693,
      "본": 1694,
      "부": 1695,
      "북": 1696,
      "뷔": 1697,
      "븐": 1698,
      "비": 1699,
      "뻐": 1700,
      "사": 1701,
      "산": 1702,
      "생": 1703,
      "서": 1704,
      "선": 1705,
      "설": 1706,
      "성": 1707,
      "수": 1708,
      "시": 1709,
      "식": 1710,
      "신": 1711,
      "심": 1712,
      "쌈": 1713,
      "써": 1714,
      "아": 1715,
      "암": 1716,
      "약": 1717,
      "에": 1718,
      "엣": 1719,
      "예": 1720,
      "옹": 1721,
      "왕": 1722,
      "요": 1723,
      "우": 1724,
      "원": 1725,
      "위": 1726,
      "음": 1727,
      "의": 1728,
      "이": 1729,
      "인": 1730,
      "일": 1731,
      "자": 1732,
      "장": 1733,
      "쟁": 1734,
      "전": 1735,
      "정": 1736,
      "종": 1737,
      "좌": 1738,
      "주": 1739,
      "줄": 1740,
      "중": 1741,
      "지": 1742,
      "직": 1743,
      "찌": 1744,
      "차": 1745,
      "창": 1746,
      "천": 1747,
      "쳐": 1748,
      "출": 1749,
      "취": 1750,
      "치": 1751,
      "쿵": 1752,
      "크": 1753,
      "토": 1754,
      "티": 1755,
      "파": 1756,
      "판": 1757,
      "평": 1758,
      "포": 1759,
      "프": 1760,
      "하": 1761,
      "한": 1762,
      "해": 1763,
      "행": 1764,
      "헌": 1765,
      "현": 1766,
      "호": 1767,
      "혹": 1768,
      "횡": 1769,
      "훈": 1770,
      "흥": 1771,
      "ﬁ": 1772,
      "︠": 1773,
      "︡": 1774,
      "ﺍ": 1775,
      "ﺏ": 1776,
      "ﺤ": 1777,
      "ﺩ": 1778,
      "ﻫ": 1779,
      "！": 1780,
      "（": 1781,
      "）": 1782,
      "，": 1783,
      "：": 1784,
      "｢": 1785,
      "es": 1786,
      "on": 1787,
      "en": 1788,
      "an": 1789,
      "er": 1790,
      "in": 1791,
      "th": 1792,
      "re": 1793,
      "de": 1794,
      "le": 1795,
      "is": 1796,
      "ti": 1797,
      "ar": 1798,
      "ou": 1799,
      "or": 1800,
      "the": 1801,
      "la": 1802,
      "ent": 1803,
      "it": 1804,
      "al": 1805,
      "as": 1806,
      "qu": 1807,
      "te": 1808,
      "et": 1809,
      "om": 1810,
      "un": 1811,
      "ur": 1812,
      "il": 1813,
      "ch": 1814,
      "se": 1815,
      "tion": 1816,
      "at": 1817,
      "au": 1818,
      "and": 1819,
      "of": 1820,
      "pr": 1821,
      "tr": 1822,
      "ce": 1823,
      "to": 1824,
      "les": 1825,
      "he": 1826,
      "ve": 1827,
      "me": 1828,
      "est": 1829,
      "si": 1830,
      "li": 1831,
      "des": 1832,
      "ing": 1833,
      "ment": 1834,
      "par": 1835,
      "our": 1836,
      "ir": 1837,
      "ne": 1838,
      "ant": 1839,
      "con": 1840,
      "du": 1841,
      "di": 1842,
      "que": 1843,
      "us": 1844,
      "pe": 1845,
      "ma": 1846,
      "ri": 1847,
      "ra": 1848,
      "ta": 1849,
      "ans": 1850,
      "ol": 1851,
      "ci": 1852,
      "ver": 1853,
      "com": 1854,
      "son": 1855,
      "ed": 1856,
      "ter": 1857,
      "The": 1858,
      "for": 1859,
      "po": 1860,
      "une": 1861,
      "ac": 1862,
      "el": 1863,
      "st": 1864,
      "19": 1865,
      "dé": 1866,
      "am": 1867,
      "ge": 1868,
      "ation": 1869,
      "ré": 1870,
      "was": 1871,
      "be": 1872,
      "lo": 1873,
      "mo": 1874,
      "vi": 1875,
      "20": 1876,
      "sa": 1877,
      "té": 1878,
      "ro": 1879,
      "su": 1880,
      "ad": 1881,
      "ic": 1882,
      "no": 1883,
      "pro": 1884,
      "pl": 1885,
      "ut": 1886,
      "ap": 1887,
      "ly": 1888,
      "ab": 1889,
      "dans": 1890,
      "ée": 1891,
      "ig": 1892,
      "are": 1893,
      "per": 1894,
      "pour": 1895,
      "qui": 1896,
      "ave": 1897,
      "res": 1898,
      "so": 1899,
      "tre": 1900,
      "ire": 1901,
      "ex": 1902,
      "és": 1903,
      "ie": 1904,
      "his": 1905,
      "ag": 1906,
      "sur": 1907,
      "pu": 1908,
      "av": 1909,
      "im": 1910,
      "end": 1911,
      "op": 1912,
      "wh": 1913,
      "ere": 1914,
      "ts": 1915,
      "tu": 1916,
      "Le": 1917,
      "ers": 1918,
      "ff": 1919,
      "lu": 1920,
      "ces": 1921,
      "ait": 1922,
      "fr": 1923,
      "ain": 1924,
      "Il": 1925,
      "por": 1926,
      "mb": 1927,
      "ay": 1928,
      "ux": 1929,
      "ul": 1930,
      "man": 1931,
      "ère": 1932,
      "ted": 1933,
      "ale": 1934,
      "ith": 1935,
      "pla": 1936,
      "aux": 1937,
      "co": 1938,
      "out": 1939,
      "In": 1940,
      "that": 1941,
      "ine": 1942,
      "oun": 1943,
      "urs": 1944,
      "ser": 1945,
      "La": 1946,
      "ont": 1947,
      "with": 1948,
      "ni": 1949,
      "by": 1950,
      "gr": 1951,
      "ite": 1952,
      "mi": 1953,
      "ses": 1954,
      "ès": 1955,
      "ille": 1956,
      "all": 1957,
      "pas": 1958,
      "ous": 1959,
      "lle": 1960,
      "He": 1961,
      "ins": 1962,
      "It": 1963,
      "ction": 1964,
      "né": 1965,
      "plus": 1966,
      "che": 1967,
      "sont": 1968,
      "ue": 1969,
      "ion": 1970,
      "ther": 1971,
      "der": 1972,
      "ow": 1973,
      "na": 1974,
      "ité": 1975,
      "avec": 1976,
      "ois": 1977,
      "sion": 1978,
      "ques": 1979,
      "fi": 1980,
      "200": 1981,
      "ard": 1982,
      "ph": 1983,
      "sh": 1984,
      "En": 1985,
      "ors": 1986,
      "from": 1987,
      "ang": 1988,
      "dis": 1989,
      "elle": 1990,
      "mon": 1991,
      "ten": 1992,
      "ance": 1993,
      "Les": 1994,
      "gh": 1995,
      "mp": 1996,
      "mes": 1997,
      "vo": 1998,
      "cal": 1999,
      "lis": 2000,
      "201": 2001,
      "pre": 2002,
      "fin": 2003,
      "Ch": 2004,
      "one": 2005,
      "ke": 2006,
      "été": 2007,
      "fe": 2008,
      "ord": 2009,
      "ca": 2010,
      "comm": 2011,
      "do": 2012,
      ").": 2013,
      "mar": 2014,
      "ill": 2015,
      "parti": 2016,
      "ure": 2017,
      "id": 2018,
      "ence": 2019,
      "um": 2020,
      "ble": 2021,
      "ld": 2022,
      "nom": 2023,
      "fa": 2024,
      "ette": 2025,
      "ong": 2026,
      "can": 2027,
      "ég": 2028,
      "use": 2029,
      "str": 2030,
      "not": 2031,
      "18": 2032,
      "min": 2033,
      "ven": 2034,
      "sé": 2035,
      "ct": 2036,
      "éta": 2037,
      "cou": 2038,
      "cu": 2039,
      "od": 2040,
      "ck": 2041,
      "ob": 2042,
      "age": 2043,
      "rit": 2044,
      "mé": 2045,
      "ear": 2046,
      "ich": 2047,
      "pé": 2048,
      "were": 2049,
      "tions": 2050,
      "Th": 2051,
      "tes": 2052,
      "car": 2053,
      "ome": 2054,
      "ais": 2055,
      "has": 2056,
      "mais": 2057,
      "ity": 2058,
      "ies": 2059,
      "go": 2060,
      "00": 2061,
      "ens": 2062,
      "deux": 2063,
      "but": 2064,
      "vent": 2065,
      "bre": 2066,
      "ate": 2067,
      "og": 2068,
      "vers": 2069,
      "entre": 2070,
      "tant": 2071,
      "ouve": 2072,
      "also": 2073,
      "De": 2074,
      "bo": 2075,
      "comp": 2076,
      "ople": 2077,
      "mer": 2078,
      "led": 2079,
      "vis": 2080,
      "col": 2081,
      "its": 2082,
      "wor": 2083,
      "ty": 2084,
      "diff": 2085,
      "tres": 2086,
      "cer": 2087,
      "igh": 2088,
      "ons": 2089,
      "ai": 2090,
      "lui": 2091,
      "ssi": 2092,
      "have": 2093,
      "ll": 2094,
      "cour": 2095,
      "they": 2096,
      "pré": 2097,
      "ments": 2098,
      "je": 2099,
      "don": 2100,
      "fir": 2101,
      "ren": 2102,
      "tor": 2103,
      "fait": 2104,
      "199": 2105,
      "ires": 2106,
      "usi": 2107,
      "ise": 2108,
      "ants": 2109,
      "près": 2110,
      "premi": 2111,
      "met": 2112,
      "Mar": 2113,
      "bli": 2114,
      "people": 2115,
      "ach": 2116,
      "amp": 2117,
      "ves": 2118,
      "inter": 2119,
      "ded": 2120,
      "tive": 2121,
      "ally": 2122,
      "os": 2123,
      "part": 2124,
      "tra": 2125,
      "mber": 2126,
      "ique": 2127,
      "lar": 2128,
      "ées": 2129,
      "had": 2130,
      "An": 2131,
      "wn": 2132,
      "jour": 2133,
      "cent": 2134,
      "),": 2135,
      "bi": 2136,
      "we": 2137,
      "pres": 2138,
      "This": 2139,
      "ok": 2140,
      "sy": 2141,
      "ary": 2142,
      "other": 2143,
      "her": 2144,
      "comme": 2145,
      "ough": 2146,
      "nes": 2147,
      "ru": 2148,
      "gu": 2149,
      "ound": 2150,
      "first": 2151,
      "mil": 2152,
      "ali": 2153,
      "gra": 2154,
      "play": 2155,
      "tique": 2156,
      "vie": 2157,
      "cau": 2158,
      "alement": 2159,
      "puis": 2160,
      "bu": 2161,
      "which": 2162,
      "leur": 2163,
      "Par": 2164,
      "ér": 2165,
      "ture": 2166,
      "their": 2167,
      "tour": 2168,
      "pi": 2169,
      "sta": 2170,
      "cor": 2171,
      "ines": 2172,
      "oc": 2173,
      "ils": 2174,
      "ations": 2175,
      "gé": 2176,
      "sou": 2177,
      "ran": 2178,
      "land": 2179,
      "enti": 2180,
      "être": 2181,
      "wo": 2182,
      "tri": 2183,
      "pend": 2184,
      "mis": 2185,
      "cette": 2186,
      "up": 2187,
      "ak": 2188,
      "Un": 2189,
      "ved": 2190,
      "Elle": 2191,
      "clu": 2192,
      "person": 2193,
      "int": 2194,
      "cla": 2195,
      "rie": 2196,
      "art": 2197,
      "nu": 2198,
      "this": 2199,
      "mê": 2200,
      "year": 2201,
      "cre": 2202,
      "bas": 2203,
      "ges": 2204,
      "tic": 2205,
      "They": 2206,
      "alis": 2207,
      "low": 2208,
      "publi": 2209,
      "mat": 2210,
      "fter": 2211,
      "198": 2212,
      "prés": 2213,
      "port": 2214,
      "gi": 2215,
      "ber": 2216,
      "pos": 2217,
      "grou": 2218,
      "time": 2219,
      "cé": 2220,
      "gan": 2221,
      "teur": 2222,
      "very": 2223,
      "ris": 2224,
      "Ce": 2225,
      "soci": 2226,
      "ore": 2227,
      "ner": 2228,
      "ents": 2229,
      "ème": 2230,
      "produ": 2231,
      "cause": 2232,
      "était": 2233,
      "old": 2234,
      "aire": 2235,
      "cul": 2236,
      "cas": 2237,
      "place": 2238,
      "ures": 2239,
      "cip": 2240,
      "long": 2241,
      "lie": 2242,
      "cri": 2243,
      "vol": 2244,
      "lé": 2245,
      "nation": 2246,
      "ond": 2247,
      "called": 2248,
      "fam": 2249,
      "même": 2250,
      "tat": 2251,
      "ps": 2252,
      "ot": 2253,
      "197": 2254,
      "many": 2255,
      "work": 2256,
      "who": 2257,
      "stru": 2258,
      "kno": 2259,
      "able": 2260,
      "Ar": 2261,
      "She": 2262,
      "On": 2263,
      "nouve": 2264,
      "tout": 2265,
      "way": 2266,
      "some": 2267,
      "sti": 2268,
      "Au": 2269,
      "rec": 2270,
      "tin": 2271,
      "Re": 2272,
      "Se": 2273,
      "pa": 2274,
      "lation": 2275,
      "jus": 2276,
      "ree": 2277,
      "Al": 2278,
      "hu": 2279,
      "ales": 2280,
      "about": 2281,
      "more": 2282,
      "spe": 2283,
      "fer": 2284,
      "two": 2285,
      "ish": 2286,
      "ison": 2287,
      "pri": 2288,
      "bor": 2289,
      "ese": 2290,
      "tif": 2291,
      "main": 2292,
      "most": 2293,
      "ga": 2294,
      "men": 2295,
      "used": 2296,
      "nombre": 2297,
      "ari": 2298,
      "name": 2299,
      "any": 2300,
      "temp": 2301,
      "ante": 2302,
      "ild": 2303,
      "fois": 2304,
      "peu": 2305,
      "présent": 2306,
      "enne": 2307,
      "ann": 2308,
      "eff": 2309,
      "ack": 2310,
      "ms": 2311,
      "vé": 2312,
      "olog": 2313,
      "poli": 2314,
      "17": 2315,
      "mor": 2316,
      "cho": 2317,
      "there": 2318,
      "popu": 2319,
      "sous": 2320,
      "ist": 2321,
      "lement": 2322,
      "également": 2323,
      "cher": 2324,
      "vil": 2325,
      "uni": 2326,
      "aussi": 2327,
      "alors": 2328,
      "196": 2329,
      "ches": 2330,
      "sig": 2331,
      "lan": 2332,
      "posi": 2333,
      "uti": 2334,
      "ient": 2335,
      "over": 2336,
      "ense": 2337,
      "nées": 2338,
      "fut": 2339,
      "lig": 2340,
      "iss": 2341,
      "she": 2342,
      "char": 2343,
      "ings": 2344,
      "cit": 2345,
      "red": 2346,
      "tou": 2347,
      "cap": 2348,
      "sor": 2349,
      "ton": 2350,
      "jou": 2351,
      "been": 2352,
      "ry": 2353,
      "bat": 2354,
      "Ne": 2355,
      "eurs": 2356,
      "appe": 2357,
      "made": 2358,
      "autres": 2359,
      "peut": 2360,
      "rent": 2361,
      "\".": 2362,
      "vre": 2363,
      "val": 2364,
      "ind": 2365,
      "contr": 2366,
      "lec": 2367,
      "commun": 2368,
      "Com": 2369,
      "known": 2370,
      "ated": 2371,
      "sit": 2372,
      "trois": 2373,
      "prin": 2374,
      "came": 2375,
      "ia": 2376,
      "ath": 2377,
      "ères": 2378,
      "acc": 2379,
      "trans": 2380,
      "secon": 2381,
      "très": 2382,
      "them": 2383,
      "Fr": 2384,
      "quel": 2385,
      "cré": 2386,
      "own": 2387,
      "pendant": 2388,
      "10": 2389,
      "ould": 2390,
      "when": 2391,
      "après": 2392,
      "hi": 2393,
      "gen": 2394,
      "musi": 2395,
      "dent": 2396,
      "fic": 2397,
      "cha": 2398,
      "ight": 2399,
      "into": 2400,
      "jet": 2401,
      "br": 2402,
      "prend": 2403,
      "utilis": 2404,
      "dur": 2405,
      "erre": 2406,
      "emp": 2407,
      "ass": 2408,
      "dition": 2409,
      "him": 2410,
      "than": 2411,
      "after": 2412,
      "orig": 2413,
      "ell": 2414,
      "trav": 2415,
      "ast": 2416,
      "sel": 2417,
      "new": 2418,
      "ville": 2419,
      "15": 2420,
      "tur": 2421,
      "rou": 2422,
      "pes": 2423,
      "coun": 2424,
      "pou": 2425,
      "prof": 2426,
      "day": 2427,
      "reg": 2428,
      "oy": 2429,
      "only": 2430,
      "vant": 2431,
      "lors": 2432,
      "nat": 2433,
      "cur": 2434,
      "iste": 2435,
      "ouver": 2436,
      "eng": 2437,
      "grand": 2438,
      "sol": 2439,
      "suite": 2440,
      "aff": 2441,
      "cep": 2442,
      "Con": 2443,
      "organ": 2444,
      "partie": 2445,
      "fil": 2446,
      "There": 2447,
      "constru": 2448,
      "years": 2449,
      "ud": 2450,
      "16": 2451,
      "bles": 2452,
      "Amer": 2453,
      "194": 2454,
      "Americ": 2455,
      "rest": 2456,
      "tent": 2457,
      "avant": 2458,
      "ign": 2459,
      "forme": 2460,
      "géné": 2461,
      "anci": 2462,
      "vient": 2463,
      "contre": 2464,
      "app": 2465,
      "où": 2466,
      "velo": 2467,
      "fon": 2468,
      "195": 2469,
      "derni": 2470,
      "vir": 2471,
      "Be": 2472,
      "ater": 2473,
      "lles": 2474,
      "ze": 2475,
      "my": 2476,
      "ainsi": 2477,
      "ités": 2478,
      "differ": 2479,
      "bum": 2480,
      "sing": 2481,
      "ght": 2482,
      "équi": 2483,
      "ls": 2484,
      "chan": 2485,
      "Jo": 2486,
      "temps": 2487,
      "cy": 2488,
      "tal": 2489,
      "ned": 2490,
      "voir": 2491,
      "dont": 2492,
      "ger": 2493,
      "vision": 2494,
      "star": 2495,
      "cle": 2496,
      "hom": 2497,
      "bet": 2498,
      "album": 2499,
      "nement": 2500,
      "sui": 2501,
      "Cette": 2502,
      "pay": 2503,
      "ste": 2504,
      "Wh": 2505,
      "ting": 2506,
      "va": 2507,
      "ince": 2508,
      "rele": 2509,
      "peti": 2510,
      "als": 2511,
      "oir": 2512,
      "ide": 2513,
      "air": 2514,
      "leurs": 2515,
      "tiques": 2516,
      "premier": 2517,
      "Dans": 2518,
      "if": 2519,
      "king": 2520,
      "suc": 2521,
      "let": 2522,
      "As": 2523,
      "dom": 2524,
      "éri": 2525,
      "aine": 2526,
      "ip": 2527,
      "dro": 2528,
      "tru": 2529,
      "second": 2530,
      "portant": 2531,
      "ving": 2532,
      "ler": 2533,
      "memb": 2534,
      "get": 2535,
      "will": 2536,
      "became": 2537,
      "tement": 2538,
      "arri": 2539,
      "non": 2540,
      "ail": 2541,
      "aires": 2542,
      "nor": 2543,
      "public": 2544,
      "because": 2545,
      "12": 2546,
      "atta": 2547,
      "uses": 2548,
      "times": 2549,
      "certa": 2550,
      "fran": 2551,
      "cro": 2552,
      "aient": 2553,
      "lection": 2554,
      "ages": 2555,
      "années": 2556,
      "No": 2557,
      "ory": 2558,
      "four": 2559,
      "pose": 2560,
      "ile": 2561,
      "ju": 2562,
      "ral": 2563,
      "hab": 2564,
      "would": 2565,
      "plusi": 2566,
      "plusieurs": 2567,
      "em": 2568,
      "lit": 2569,
      "cours": 2570,
      "different": 2571,
      "ode": 2572,
      "fore": 2573,
      "aut": 2574,
      "His": 2575,
      "forma": 2576,
      "14": 2577,
      "cin": 2578,
      "ward": 2579,
      "fici": 2580,
      "sub": 2581,
      "exp": 2582,
      "releas": 2583,
      "Uni": 2584,
      "permet": 2585,
      "première": 2586,
      "sp": 2587,
      "ande": 2588,
      "form": 2589,
      "jo": 2590,
      "ust": 2591,
      "inclu": 2592,
      "193": 2593,
      "dire": 2594,
      "ick": 2595,
      "lè": 2596,
      "sup": 2597,
      "position": 2598,
      "ever": 2599,
      "velop": 2600,
      "til": 2601,
      "cess": 2602,
      "national": 2603,
      "eur": 2604,
      "rap": 2605,
      "France": 2606,
      "jours": 2607,
      "tle": 2608,
      "teurs": 2609,
      "sans": 2610,
      "then": 2611,
      "rég": 2612,
      "cons": 2613,
      "ron": 2614,
      "plan": 2615,
      "lin": 2616,
      "For": 2617,
      "ss": 2618,
      "pon": 2619,
      "trou": 2620,
      "fé": 2621,
      "bil": 2622,
      "étu": 2623,
      "like": 2624,
      "iti": 2625,
      "autre": 2626,
      "indi": 2627,
      "princip": 2628,
      "inté": 2629,
      "Mo": 2630,
      "aint": 2631,
      "ampion": 2632,
      "show": 2633,
      "Une": 2634,
      "ima": 2635,
      "ited": 2636,
      "avait": 2637,
      "lic": 2638,
      "toire": 2639,
      "ec": 2640,
      "hed": 2641,
      "fac": 2642,
      "citation": 2643,
      "ful": 2644,
      "porte": 2645,
      "péri": 2646,
      "elles": 2647,
      "ames": 2648,
      "where": 2649,
      "mand": 2650,
      "fri": 2651,
      "ical": 2652,
      "vert": 2653,
      "Ma": 2654,
      "pris": 2655,
      "contin": 2656,
      "off": 2657,
      "jusqu": 2658,
      "groupe": 2659,
      "Sh": 2660,
      "histor": 2661,
      "13": 2662,
      "ks": 2663,
      "rem": 2664,
      "important": 2665,
      "bien": 2666,
      "asse": 2667,
      "try": 2668,
      "gar": 2669,
      "alle": 2670,
      "may": 2671,
      "New": 2672,
      "acti": 2673,
      "clo": 2674,
      "Je": 2675,
      "quat": 2676,
      "déc": 2677,
      "lang": 2678,
      "Ju": 2679,
      "arch": 2680,
      "side": 2681,
      "ters": 2682,
      "though": 2683,
      "face": 2684,
      "ween": 2685,
      "American": 2686,
      "coup": 2687,
      "çais": 2688,
      "situ": 2689,
      "avoir": 2690,
      "core": 2691,
      "mble": 2692,
      "lage": 2693,
      "000": 2694,
      "trait": 2695,
      "faire": 2696,
      "titu": 2697,
      "gre": 2698,
      "moins": 2699,
      "ft": 2700,
      "Car": 2701,
      "famil": 2702,
      "ième": 2703,
      "servi": 2704,
      "three": 2705,
      "lais": 2706,
      "mission": 2707,
      "dou": 2708,
      "back": 2709,
      "stitu": 2710,
      "ier": 2711,
      "thé": 2712,
      "Qu": 2713,
      "vit": 2714,
      "fo": 2715,
      "rough": 2716,
      "So": 2717,
      "ho": 2718,
      "enn": 2719,
      "mu": 2720,
      "released": 2721,
      "Li": 2722,
      "minis": 2723,
      "appar": 2724,
      "rom": 2725,
      "At": 2726,
      "ced": 2727,
      "did": 2728,
      "ped": 2729,
      "war": 2730,
      "Sa": 2731,
      "aille": 2732,
      "milli": 2733,
      "ix": 2734,
      "writ": 2735,
      "mal": 2736,
      "top": 2737,
      "Nor": 2738,
      "speci": 2739,
      "bar": 2740,
      "chang": 2741,
      "donc": 2742,
      "Son": 2743,
      "tro": 2744,
      "Pe": 2745,
      "ête": 2746,
      "sc": 2747,
      "again": 2748,
      "high": 2749,
      "chool": 2750,
      "tous": 2751,
      "gs": 2752,
      "différ": 2753,
      "volu": 2754,
      "ates": 2755,
      "hel": 2756,
      "between": 2757,
      "ats": 2758,
      "under": 2759,
      "habit": 2760,
      "world": 2761,
      "aur": 2762,
      "tés": 2763,
      "ues": 2764,
      "Ro": 2765,
      "population": 2766,
      "Some": 2767,
      "\",": 2768,
      "enf": 2769,
      "born": 2770,
      "iques": 2771,
      "année": 2772,
      "club": 2773,
      "large": 2774,
      "dra": 2775,
      "same": 2776,
      "sk": 2777,
      "until": 2778,
      "consi": 2779,
      "fem": 2780,
      "died": 2781,
      "Saint": 2782,
      "depuis": 2783,
      "ration": 2784,
      "ually": 2785,
      "iz": 2786,
      "child": 2787,
      "owever": 2788,
      "II": 2789,
      "alité": 2790,
      "Eur": 2791,
      "ja": 2792,
      "well": 2793,
      "Me": 2794,
      "played": 2795,
      "français": 2796,
      "Gu": 2797,
      "make": 2798,
      "ope": 2799,
      "Après": 2800,
      "ban": 2801,
      "mment": 2802,
      "ys": 2803,
      "trouve": 2804,
      "ties": 2805,
      "ep": 2806,
      "dit": 2807,
      "possi": 2808,
      "Su": 2809,
      "version": 2810,
      "tric": 2811,
      "30": 2812,
      "team": 2813,
      "origin": 2814,
      "later": 2815,
      "ences": 2816,
      "ha": 2817,
      "25": 2818,
      "Ils": 2819,
      "profes": 2820,
      "poin": 2821,
      "ctor": 2822,
      "organis": 2823,
      "bon": 2824,
      "crit": 2825,
      "œu": 2826,
      "St": 2827,
      "vari": 2828,
      "often": 2829,
      "through": 2830,
      "bé": 2831,
      "city": 2832,
      "sm": 2833,
      "mag": 2834,
      "viron": 2835,
      "commune": 2836,
      "ason": 2837,
      "ets": 2838,
      "lot": 2839,
      "come": 2840,
      "ène": 2841,
      "2010": 2842,
      "da": 2843,
      "point": 2844,
      "Fran": 2845,
      "cr": 2846,
      "hy": 2847,
      "représent": 2848,
      "née": 2849,
      "act": 2850,
      "sement": 2851,
      "book": 2852,
      "Pour": 2853,
      "ning": 2854,
      "bro": 2855,
      "offici": 2856,
      "these": 2857,
      "ase": 2858,
      "ian": 2859,
      "lier": 2860,
      "lég": 2861,
      "won": 2862,
      "nota": 2863,
      "After": 2864,
      "seu": 2865,
      "lieu": 2866,
      "Bo": 2867,
      "Mais": 2868,
      "change": 2869,
      "formation": 2870,
      "vra": 2871,
      "wer": 2872,
      "rée": 2873,
      "Des": 2874,
      "band": 2875,
      "gro": 2876,
      "ouse": 2877,
      "».": 2878,
      "pays": 2879,
      "cô": 2880,
      "sent": 2881,
      "inf": 2882,
      "kes": 2883,
      "ctions": 2884,
      "ury": 2885,
      "bel": 2886,
      "cation": 2887,
      "number": 2888,
      "mée": 2889,
      "ball": 2890,
      "line": 2891,
      "test": 2892,
      "each": 2893,
      "encore": 2894,
      "tech": 2895,
      "six": 2896,
      "grande": 2897,
      "tient": 2898,
      "ature": 2899,
      "opé": 2900,
      "pte": 2901,
      "small": 2902,
      "11": 2903,
      "blis": 2904,
      "tend": 2905,
      "When": 2906,
      "Jan": 2907,
      "sci": 2908,
      "rela": 2909,
      "région": 2910,
      "lex": 2911,
      "laire": 2912,
      "could": 2913,
      "dévelop": 2914,
      "ref": 2915,
      "music": 2916,
      "action": 2917,
      "environ": 2918,
      "lim": 2919,
      "die": 2920,
      "quatre": 2921,
      "movie": 2922,
      "being": 2923,
      "rés": 2924,
      "Ger": 2925,
      "pt": 2926,
      "État": 2927,
      "esti": 2928,
      "monde": 2929,
      "set": 2930,
      "bri": 2931,
      "tel": 2932,
      "conom": 2933,
      "constitu": 2934,
      "during": 2935,
      "started": 2936,
      "Her": 2937,
      "jor": 2938,
      "ina": 2939,
      "saison": 2940,
      "ress": 2941,
      "Col": 2942,
      "nouveau": 2943,
      "bus": 2944,
      "pen": 2945,
      "gover": 2946,
      "Ces": 2947,
      "Europe": 2948,
      "sive": 2949,
      "ried": 2950,
      "équipe": 2951,
      "Eng": 2952,
      "père": 2953,
      "prob": 2954,
      "ellement": 2955,
      "Pro": 2956,
      "Jap": 2957,
      "gram": 2958,
      "tain": 2959,
      "milit": 2960,
      "village": 2961,
      "21": 2962,
      "anti": 2963,
      "ding": 2964,
      "ey": 2965,
      "ép": 2966,
      "culture": 2967,
      "inst": 2968,
      "dio": 2969,
      "before": 2970,
      "water": 2971,
      "serv": 2972,
      "cat": 2973,
      "conf": 2974,
      "med": 2975,
      "champion": 2976,
      "réalis": 2977,
      "cra": 2978,
      "tom": 2979,
      "ird": 2980,
      "eux": 2981,
      "Wor": 2982,
      "camp": 2983,
      "fur": 2984,
      "illi": 2985,
      "tribu": 2986,
      "hn": 2987,
      "ice": 2988,
      ".\"": 2989,
      "Or": 2990,
      "ien": 2991,
      "ici": 2992,
      "stu": 2993,
      "area": 2994,
      "group": 2995,
      "lead": 2996,
      "voy": 2997,
      "ances": 2998,
      "bes": 2999
    },
    "merges": [
      [
        "e",
        "s"
      ],
      [
        "o",
        "n"
      ],
      [
        "e",
        "n"
      ],
      [
        "a",
        "n"
      ],
      [
        "e",
        "r"
      ],
      [
        "i",
        "n"
      ],
      [
        "t",
        "h"
      ],
      [
        "r",
        "e"
      ],
      [
        "d",
        "e"
      ],
      [
        "l",
        "e"
      ],
      [
        "i",
        "s"
      ],
      [
        "t",
        "i"
      ],
      [
        "a",
        "r"
      ],
      [
        "o",
        "u"
      ],
      [
        "o",
        "r"
      ],
      [
        "th",
        "e"
      ],
      [
        "l",
        "a"
      ],
      [
        "en",
        "t"
      ],
      [
        "i",
        "t"
      ],
      [
        "a",
        "l"
      ],
      [
        "a",
        "s"
      ],
      [
        "q",
        "u"
      ],
      [
        "t",
        "e"
      ],
      [
        "e",
        "t"
      ],
      [
        "o",
        "m"
      ],
      [
        "u",
        "n"
      ],
      [
        "u",
        "r"
      ],
      [
        "i",
        "l"
      ],
      [
        "c",
        "h"
      ],
      [
        "s",
        "e"
      ],
      [
        "ti",
        "on"
      ],
      [
        "a",
        "t"
      ],
      [
        "a",
        "u"
      ],
      [
        "an",
        "d"
      ],
      [
        "o",
        "f"
      ],
      [
        "p",
        "r"
      ],
      [
        "t",
        "r"
      ],
      [
        "c",
        "e"
      ],
      [
        "t",
        "o"
      ],
      [
        "l",
        "es"
      ],
      [
        "h",
        "e"
      ],
      [
        "v",
        "e"
      ],
      [
        "m",
        "e"
      ],
      [
        "es",
        "t"
      ],
      [
        "s",
        "i"
      ],
      [
        "l",
        "i"
      ],
      [
        "d",
        "es"
      ],
      [
        "in",
        "g"
      ],
      [
        "m",
        "ent"
      ],
      [
        "p",
        "ar"
      ],
      [
        "ou",
        "r"
      ],
      [
        "i",
        "r"
      ],
      [
        "n",
        "e"
      ],
      [
        "an",
        "t"
      ],
      [
        "c",
        "on"
      ],
      [
        "d",
        "u"
      ],
      [
        "d",
        "i"
      ],
      [
        "qu",
        "e"
      ],
      [
        "u",
        "s"
      ],
      [
        "p",
        "e"
      ],
      [
        "m",
        "a"
      ],
      [
        "r",
        "i"
      ],
      [
        "r",
        "a"
      ],
      [
        "t",
        "a"
      ],
      [
        "an",
        "s"
      ],
      [
        "o",
        "l"
      ],
      [
        "c",
        "i"
      ],
      [
        "v",
        "er"
      ],
      [
        "c",
        "om"
      ],
      [
        "s",
        "on"
      ],
      [
        "e",
        "d"
      ],
      [
        "t",
        "er"
      ],
      [
        "T",
        "he"
      ],
      [
        "f",
        "or"
      ],
      [
        "p",
        "o"
      ],
      [
        "un",
        "e"
      ],
      [
        "a",
        "c"
      ],
      [
        "e",
        "l"
      ],
      [
        "s",
        "t"
      ],
      [
        "1",
        "9"
      ],
      [
        "d",
        "é"
      ],
      [
        "a",
        "m"
      ],
      [
        "g",
        "e"
      ],
      [
        "a",
        "tion"
      ],
      [
        "r",
        "é"
      ],
      [
        "w",
        "as"
      ],
      [
        "b",
        "e"
      ],
      [
        "l",
        "o"
      ],
      [
        "m",
        "o"
      ],
      [
        "v",
        "i"
      ],
      [
        "2",
        "0"
      ],
      [
        "s",
        "a"
      ],
      [
        "t",
        "é"
      ],
      [
        "r",
        "o"
      ],
      [
        "s",
        "u"
      ],
      [
        "a",
        "d"
      ],
      [
        "i",
        "c"
      ],
      [
        "n",
        "o"
      ],
      [
        "pr",
        "o"
      ],
      [
        "p",
        "l"
      ],
      [
        "u",
        "t"
      ],
      [
        "a",
        "p"
      ],
      [
        "l",
        "y"
      ],
      [
        "a",
        "b"
      ],
      [
        "d",
        "ans"
      ],
      [
        "é",
        "e"
      ],
      [
        "i",
        "g"
      ],
      [
        "a",
        "re"
      ],
      [
        "p",
        "er"
      ],
      [
        "p",
        "our"
      ],
      [
        "qu",
        "i"
      ],
      [
        "a",
        "ve"
      ],
      [
        "r",
        "es"
      ],
      [
        "s",
        "o"
      ],
      [
        "t",
        "re"
      ],
      [
        "i",
        "re"
      ],
      [
        "e",
        "x"
      ],
      [
        "é",
        "s"
      ],
      [
        "i",
        "e"
      ],
      [
        "h",
        "is"
      ],
      [
        "a",
        "g"
      ],
      [
        "s",
        "ur"
      ],
      [
        "p",
        "u"
      ],
      [
        "a",
        "v"
      ],
      [
        "i",
        "m"
      ],
      [
        "en",
        "d"
      ],
      [
        "o",
        "p"
      ],
      [
        "w",
        "h"
      ],
      [
        "er",
        "e"
      ],
      [
        "t",
        "s"
      ],
      [
        "t",
        "u"
      ],
      [
        "L",
        "e"
      ],
      [
        "er",
        "s"
      ],
      [
        "f",
        "f"
      ],
      [
        "l",
        "u"
      ],
      [
        "c",
        "es"
      ],
      [
        "a",
        "it"
      ],
      [
        "f",
        "r"
      ],
      [
        "a",
        "in"
      ],
      [
        "I",
        "l"
      ],
      [
        "p",
        "or"
      ],
      [
        "m",
        "b"
      ],
      [
        "a",
        "y"
      ],
      [
        "u",
        "x"
      ],
      [
        "u",
        "l"
      ],
      [
        "m",
        "an"
      ],
      [
        "è",
        "re"
      ],
      [
        "te",
        "d"
      ],
      [
        "a",
        "le"
      ],
      [
        "i",
        "th"
      ],
      [
        "p",
        "la"
      ],
      [
        "au",
        "x"
      ],
      [
        "c",
        "o"
      ],
      [
        "ou",
        "t"
      ],
      [
        "I",
        "n"
      ],
      [
        "th",
        "at"
      ],
      [
        "in",
        "e"
      ],
      [
        "ou",
        "n"
      ],
      [
        "ur",
        "s"
      ],
      [
        "s",
        "er"
      ],
      [
        "L",
        "a"
      ],
      [
        "on",
        "t"
      ],
      [
        "w",
        "ith"
      ],
      [
        "n",
        "i"
      ],
      [
        "b",
        "y"
      ],
      [
        "g",
        "r"
      ],
      [
        "it",
        "e"
      ],
      [
        "m",
        "i"
      ],
      [
        "s",
        "es"
      ],
      [
        "è",
        "s"
      ],
      [
        "il",
        "le"
      ],
      [
        "al",
        "l"
      ],
      [
        "p",
        "as"
      ],
      [
        "ou",
        "s"
      ],
      [
        "l",
        "le"
      ],
      [
        "H",
        "e"
      ],
      [
        "in",
        "s"
      ],
      [
        "I",
        "t"
      ],
      [
        "c",
        "tion"
      ],
      [
        "n",
        "é"
      ],
      [
        "pl",
        "us"
      ],
      [
        "ch",
        "e"
      ],
      [
        "son",
        "t"
      ],
      [
        "u",
        "e"
      ],
      [
        "i",
        "on"
      ],
      [
        "th",
        "er"
      ],
      [
        "d",
        "er"
      ],
      [
        "o",
        "w"
      ],
      [
        "n",
        "a"
      ],
      [
        "it",
        "é"
      ],
      [
        "ave",
        "c"
      ],
      [
        "o",
        "is"
      ],
      [
        "si",
        "on"
      ],
      [
        "qu",
        "es"
      ],
      [
        "f",
        "i"
      ],
      [
        "20",
        "0"
      ],
      [
        "ar",
        "d"
      ],
      [
        "p",
        "h"
      ],
      [
        "s",
        "h"
      ],
      [
        "E",
        "n"
      ],
      [
        "or",
        "s"
      ],
      [
        "fr",
        "om"
      ],
      [
        "an",
        "g"
      ],
      [
        "d",
        "is"
      ],
      [
        "el",
        "le"
      ],
      [
        "m",
        "on"
      ],
      [
        "t",
        "en"
      ],
      [
        "an",
        "ce"
      ],
      [
        "L",
        "es"
      ],
      [
        "g",
        "h"
      ],
      [
        "m",
        "p"
      ],
      [
        "m",
        "es"
      ],
      [
        "v",
        "o"
      ],
      [
        "c",
        "al"
      ],
      [
        "l",
        "is"
      ],
      [
        "20",
        "1"
      ],
      [
        "p",
        "re"
      ],
      [
        "f",
        "in"
      ],
      [
        "C",
        "h"
      ],
      [
        "on",
        "e"
      ],
      [
        "k",
        "e"
      ],
      [
        "é",
        "té"
      ],
      [
        "f",
        "e"
      ],
      [
        "or",
        "d"
      ],
      [
        "c",
        "a"
      ],
      [
        "com",
        "m"
      ],
      [
        "d",
        "o"
      ],
      [
        ")",
        "."
      ],
      [
        "m",
        "ar"
      ],
      [
        "il",
        "l"
      ],
      [
        "par",
        "ti"
      ],
      [
        "u",
        "re"
      ],
      [
        "i",
        "d"
      ],
      [
        "en",
        "ce"
      ],
      [
        "u",
        "m"
      ],
      [
        "b",
        "le"
      ],
      [
        "l",
        "d"
      ],
      [
        "n",
        "om"
      ],
      [
        "f",
        "a"
      ],
      [
        "et",
        "te"
      ],
      [
        "on",
        "g"
      ],
      [
        "c",
        "an"
      ],
      [
        "é",
        "g"
      ],
      [
        "u",
        "se"
      ],
      [
        "s",
        "tr"
      ],
      [
        "no",
        "t"
      ],
      [
        "1",
        "8"
      ],
      [
        "m",
        "in"
      ],
      [
        "v",
        "en"
      ],
      [
        "s",
        "é"
      ],
      [
        "c",
        "t"
      ],
      [
        "é",
        "ta"
      ],
      [
        "c",
        "ou"
      ],
      [
        "c",
        "u"
      ],
      [
        "o",
        "d"
      ],
      [
        "c",
        "k"
      ],
      [
        "o",
        "b"
      ],
      [
        "a",
        "ge"
      ],
      [
        "r",
        "it"
      ],
      [
        "m",
        "é"
      ],
      [
        "e",
        "ar"
      ],
      [
        "i",
        "ch"
      ],
      [
        "p",
        "é"
      ],
      [
        "w",
        "ere"
      ],
      [
        "tion",
        "s"
      ],
      [
        "T",
        "h"
      ],
      [
        "t",
        "es"
      ],
      [
        "c",
        "ar"
      ],
      [
        "om",
        "e"
      ],
      [
        "a",
        "is"
      ],
      [
        "h",
        "as"
      ],
      [
        "ma",
        "is"
      ],
      [
        "it",
        "y"
      ],
      [
        "i",
        "es"
      ],
      [
        "g",
        "o"
      ],
      [
        "0",
        "0"
      ],
      [
        "en",
        "s"
      ],
      [
        "de",
        "ux"
      ],
      [
        "b",
        "ut"
      ],
      [
        "v",
        "ent"
      ],
      [
        "b",
        "re"
      ],
      [
        "a",
        "te"
      ],
      [
        "o",
        "g"
      ],
      [
        "ver",
        "s"
      ],
      [
        "ent",
        "re"
      ],
      [
        "t",
        "ant"
      ],
      [
        "ou",
        "ve"
      ],
      [
        "al",
        "so"
      ],
      [
        "D",
        "e"
      ],
      [
        "b",
        "o"
      ],
      [
        "com",
        "p"
      ],
      [
        "op",
        "le"
      ],
      [
        "m",
        "er"
      ],
      [
        "le",
        "d"
      ],
      [
        "v",
        "is"
      ],
      [
        "c",
        "ol"
      ],
      [
        "it",
        "s"
      ],
      [
        "w",
        "or"
      ],
      [
        "t",
        "y"
      ],
      [
        "di",
        "ff"
      ],
      [
        "tr",
        "es"
      ],
      [
        "c",
        "er"
      ],
      [
        "ig",
        "h"
      ],
      [
        "on",
        "s"
      ],
      [
        "a",
        "i"
      ],
      [
        "lu",
        "i"
      ],
      [
        "s",
        "si"
      ],
      [
        "h",
        "ave"
      ],
      [
        "l",
        "l"
      ],
      [
        "c",
        "our"
      ],
      [
        "the",
        "y"
      ],
      [
        "pr",
        "é"
      ],
      [
        "ment",
        "s"
      ],
      [
        "j",
        "e"
      ],
      [
        "d",
        "on"
      ],
      [
        "f",
        "ir"
      ],
      [
        "r",
        "en"
      ],
      [
        "t",
        "or"
      ],
      [
        "f",
        "ait"
      ],
      [
        "19",
        "9"
      ],
      [
        "ir",
        "es"
      ],
      [
        "u",
        "si"
      ],
      [
        "is",
        "e"
      ],
      [
        "ant",
        "s"
      ],
      [
        "pr",
        "ès"
      ],
      [
        "pre",
        "mi"
      ],
      [
        "m",
        "et"
      ],
      [
        "M",
        "ar"
      ],
      [
        "b",
        "li"
      ],
      [
        "pe",
        "ople"
      ],
      [
        "a",
        "ch"
      ],
      [
        "am",
        "p"
      ],
      [
        "v",
        "es"
      ],
      [
        "in",
        "ter"
      ],
      [
        "de",
        "d"
      ],
      [
        "ti",
        "ve"
      ],
      [
        "al",
        "ly"
      ],
      [
        "o",
        "s"
      ],
      [
        "par",
        "t"
      ],
      [
        "tr",
        "a"
      ],
      [
        "mb",
        "er"
      ],
      [
        "i",
        "que"
      ],
      [
        "l",
        "ar"
      ],
      [
        "é",
        "es"
      ],
      [
        "h",
        "ad"
      ],
      [
        "A",
        "n"
      ],
      [
        "w",
        "n"
      ],
      [
        "j",
        "our"
      ],
      [
        "c",
        "ent"
      ],
      [
        ")",
        ","
      ],
      [
        "b",
        "i"
      ],
      [
        "w",
        "e"
      ],
      [
        "pr",
        "es"
      ],
      [
        "T",
        "his"
      ],
      [
        "o",
        "k"
      ],
      [
        "s",
        "y"
      ],
      [
        "ar",
        "y"
      ],
      [
        "o",
        "ther"
      ],
      [
        "h",
        "er"
      ],
      [
        "com",
        "me"
      ],
      [
        "ou",
        "gh"
      ],
      [
        "n",
        "es"
      ],
      [
        "r",
        "u"
      ],
      [
        "g",
        "u"
      ],
      [
        "oun",
        "d"
      ],
      [
        "fir",
        "st"
      ],
      [
        "m",
        "il"
      ],
      [
        "al",
        "i"
      ],
      [
        "g",
        "ra"
      ],
      [
        "pla",
        "y"
      ],
      [
        "ti",
        "que"
      ],
      [
        "vi",
        "e"
      ],
      [
        "c",
        "au"
      ],
      [
        "ale",
        "ment"
      ],
      [
        "pu",
        "is"
      ],
      [
        "b",
        "u"
      ],
      [
        "wh",
        "ich"
      ],
      [
        "le",
        "ur"
      ],
      [
        "P",
        "ar"
      ],
      [
        "é",
        "r"
      ],
      [
        "tu",
        "re"
      ],
      [
        "the",
        "ir"
      ],
      [
        "t",
        "our"
      ],
      [
        "p",
        "i"
      ],
      [
        "s",
        "ta"
      ],
      [
        "c",
        "or"
      ],
      [
        "in",
        "es"
      ],
      [
        "o",
        "c"
      ],
      [
        "il",
        "s"
      ],
      [
        "ation",
        "s"
      ],
      [
        "g",
        "é"
      ],
      [
        "s",
        "ou"
      ],
      [
        "r",
        "an"
      ],
      [
        "l",
        "and"
      ],
      [
        "en",
        "ti"
      ],
      [
        "ê",
        "tre"
      ],
      [
        "w",
        "o"
      ],
      [
        "tr",
        "i"
      ],
      [
        "p",
        "end"
      ],
      [
        "m",
        "is"
      ],
      [
        "c",
        "ette"
      ],
      [
        "u",
        "p"
      ],
      [
        "a",
        "k"
      ],
      [
        "U",
        "n"
      ],
      [
        "ve",
        "d"
      ],
      [
        "E",
        "lle"
      ],
      [
        "c",
        "lu"
      ],
      [
        "per",
        "son"
      ],
      [
        "in",
        "t"
      ],
      [
        "c",
        "la"
      ],
      [
        "ri",
        "e"
      ],
      [
        "ar",
        "t"
      ],
      [
        "n",
        "u"
      ],
      [
        "th",
        "is"
      ],
      [
        "m",
        "ê"
      ],
      [
        "y",
        "ear"
      ],
      [
        "c",
        "re"
      ],
      [
        "b",
        "as"
      ],
      [
        "g",
        "es"
      ],
      [
        "ti",
        "c"
      ],
      [
        "The",
        "y"
      ],
      [
        "al",
        "is"
      ],
      [
        "lo",
        "w"
      ],
      [
        "pu",
        "bli"
      ],
      [
        "m",
        "at"
      ],
      [
        "f",
        "ter"
      ],
      [
        "19",
        "8"
      ],
      [
        "pr",
        "és"
      ],
      [
        "por",
        "t"
      ],
      [
        "g",
        "i"
      ],
      [
        "b",
        "er"
      ],
      [
        "po",
        "s"
      ],
      [
        "gr",
        "ou"
      ],
      [
        "ti",
        "me"
      ],
      [
        "c",
        "é"
      ],
      [
        "g",
        "an"
      ],
      [
        "te",
        "ur"
      ],
      [
        "ver",
        "y"
      ],
      [
        "r",
        "is"
      ],
      [
        "C",
        "e"
      ],
      [
        "so",
        "ci"
      ],
      [
        "o",
        "re"
      ],
      [
        "n",
        "er"
      ],
      [
        "ent",
        "s"
      ],
      [
        "è",
        "me"
      ],
      [
        "pro",
        "du"
      ],
      [
        "cau",
        "se"
      ],
      [
        "éta",
        "it"
      ],
      [
        "ol",
        "d"
      ],
      [
        "a",
        "ire"
      ],
      [
        "c",
        "ul"
      ],
      [
        "c",
        "as"
      ],
      [
        "pla",
        "ce"
      ],
      [
        "ur",
        "es"
      ],
      [
        "ci",
        "p"
      ],
      [
        "l",
        "ong"
      ],
      [
        "li",
        "e"
      ],
      [
        "c",
        "ri"
      ],
      [
        "v",
        "ol"
      ],
      [
        "l",
        "é"
      ],
      [
        "n",
        "ation"
      ],
      [
        "on",
        "d"
      ],
      [
        "cal",
        "led"
      ],
      [
        "f",
        "am"
      ],
      [
        "mê",
        "me"
      ],
      [
        "t",
        "at"
      ],
      [
        "p",
        "s"
      ],
      [
        "o",
        "t"
      ],
      [
        "19",
        "7"
      ],
      [
        "man",
        "y"
      ],
      [
        "wor",
        "k"
      ],
      [
        "wh",
        "o"
      ],
      [
        "str",
        "u"
      ],
      [
        "k",
        "no"
      ],
      [
        "ab",
        "le"
      ],
      [
        "A",
        "r"
      ],
      [
        "S",
        "he"
      ],
      [
        "O",
        "n"
      ],
      [
        "n",
        "ouve"
      ],
      [
        "t",
        "out"
      ],
      [
        "w",
        "ay"
      ],
      [
        "s",
        "ome"
      ],
      [
        "s",
        "ti"
      ],
      [
        "A",
        "u"
      ],
      [
        "re",
        "c"
      ],
      [
        "t",
        "in"
      ],
      [
        "R",
        "e"
      ],
      [
        "S",
        "e"
      ],
      [
        "p",
        "a"
      ],
      [
        "la",
        "tion"
      ],
      [
        "j",
        "us"
      ],
      [
        "re",
        "e"
      ],
      [
        "A",
        "l"
      ],
      [
        "h",
        "u"
      ],
      [
        "al",
        "es"
      ],
      [
        "ab",
        "out"
      ],
      [
        "mo",
        "re"
      ],
      [
        "s",
        "pe"
      ],
      [
        "f",
        "er"
      ],
      [
        "t",
        "wo"
      ],
      [
        "is",
        "h"
      ],
      [
        "is",
        "on"
      ],
      [
        "pr",
        "i"
      ],
      [
        "b",
        "or"
      ],
      [
        "es",
        "e"
      ],
      [
        "ti",
        "f"
      ],
      [
        "ma",
        "in"
      ],
      [
        "mo",
        "st"
      ],
      [
        "g",
        "a"
      ],
      [
        "m",
        "en"
      ],
      [
        "use",
        "d"
      ],
      [
        "nom",
        "bre"
      ],
      [
        "ar",
        "i"
      ],
      [
        "na",
        "me"
      ],
      [
        "an",
        "y"
      ],
      [
        "te",
        "mp"
      ],
      [
        "an",
        "te"
      ],
      [
        "il",
        "d"
      ],
      [
        "f",
        "ois"
      ],
      [
        "pe",
        "u"
      ],
      [
        "prés",
        "ent"
      ],
      [
        "en",
        "ne"
      ],
      [
        "an",
        "n"
      ],
      [
        "e",
        "ff"
      ],
      [
        "ac",
        "k"
      ],
      [
        "m",
        "s"
      ],
      [
        "v",
        "é"
      ],
      [
        "ol",
        "og"
      ],
      [
        "po",
        "li"
      ],
      [
        "1",
        "7"
      ],
      [
        "m",
        "or"
      ],
      [
        "ch",
        "o"
      ],
      [
        "th",
        "ere"
      ],
      [
        "po",
        "pu"
      ],
      [
        "s",
        "ous"
      ],
      [
        "is",
        "t"
      ],
      [
        "le",
        "ment"
      ],
      [
        "ég",
        "alement"
      ],
      [
        "ch",
        "er"
      ],
      [
        "v",
        "il"
      ],
      [
        "un",
        "i"
      ],
      [
        "au",
        "ssi"
      ],
      [
        "al",
        "ors"
      ],
      [
        "19",
        "6"
      ],
      [
        "ch",
        "es"
      ],
      [
        "si",
        "g"
      ],
      [
        "l",
        "an"
      ],
      [
        "po",
        "si"
      ],
      [
        "u",
        "ti"
      ],
      [
        "i",
        "ent"
      ],
      [
        "o",
        "ver"
      ],
      [
        "en",
        "se"
      ],
      [
        "né",
        "es"
      ],
      [
        "f",
        "ut"
      ],
      [
        "li",
        "g"
      ],
      [
        "is",
        "s"
      ],
      [
        "s",
        "he"
      ],
      [
        "ch",
        "ar"
      ],
      [
        "ing",
        "s"
      ],
      [
        "c",
        "it"
      ],
      [
        "re",
        "d"
      ],
      [
        "t",
        "ou"
      ],
      [
        "c",
        "ap"
      ],
      [
        "s",
        "or"
      ],
      [
        "t",
        "on"
      ],
      [
        "j",
        "ou"
      ],
      [
        "be",
        "en"
      ],
      [
        "r",
        "y"
      ],
      [
        "b",
        "at"
      ],
      [
        "N",
        "e"
      ],
      [
        "e",
        "urs"
      ],
      [
        "ap",
        "pe"
      ],
      [
        "ma",
        "de"
      ],
      [
        "au",
        "tres"
      ],
      [
        "pe",
        "ut"
      ],
      [
        "r",
        "ent"
      ],
      [
        "\"",
        "."
      ],
      [
        "v",
        "re"
      ],
      [
        "v",
        "al"
      ],
      [
        "in",
        "d"
      ],
      [
        "con",
        "tr"
      ],
      [
        "le",
        "c"
      ],
      [
        "comm",
        "un"
      ],
      [
        "C",
        "om"
      ],
      [
        "kno",
        "wn"
      ],
      [
        "a",
        "ted"
      ],
      [
        "s",
        "it"
      ],
      [
        "tr",
        "ois"
      ],
      [
        "pr",
        "in"
      ],
      [
        "ca",
        "me"
      ],
      [
        "i",
        "a"
      ],
      [
        "a",
        "th"
      ],
      [
        "è",
        "res"
      ],
      [
        "ac",
        "c"
      ],
      [
        "tr",
        "ans"
      ],
      [
        "se",
        "con"
      ],
      [
        "tr",
        "ès"
      ],
      [
        "the",
        "m"
      ],
      [
        "F",
        "r"
      ],
      [
        "que",
        "l"
      ],
      [
        "c",
        "ré"
      ],
      [
        "ow",
        "n"
      ],
      [
        "pend",
        "ant"
      ],
      [
        "1",
        "0"
      ],
      [
        "ou",
        "ld"
      ],
      [
        "wh",
        "en"
      ],
      [
        "a",
        "près"
      ],
      [
        "h",
        "i"
      ],
      [
        "g",
        "en"
      ],
      [
        "m",
        "usi"
      ],
      [
        "d",
        "ent"
      ],
      [
        "f",
        "ic"
      ],
      [
        "ch",
        "a"
      ],
      [
        "igh",
        "t"
      ],
      [
        "in",
        "to"
      ],
      [
        "j",
        "et"
      ],
      [
        "b",
        "r"
      ],
      [
        "pr",
        "end"
      ],
      [
        "uti",
        "lis"
      ],
      [
        "d",
        "ur"
      ],
      [
        "er",
        "re"
      ],
      [
        "e",
        "mp"
      ],
      [
        "as",
        "s"
      ],
      [
        "di",
        "tion"
      ],
      [
        "h",
        "im"
      ],
      [
        "th",
        "an"
      ],
      [
        "a",
        "fter"
      ],
      [
        "or",
        "ig"
      ],
      [
        "el",
        "l"
      ],
      [
        "tr",
        "av"
      ],
      [
        "as",
        "t"
      ],
      [
        "se",
        "l"
      ],
      [
        "ne",
        "w"
      ],
      [
        "v",
        "ille"
      ],
      [
        "1",
        "5"
      ],
      [
        "t",
        "ur"
      ],
      [
        "r",
        "ou"
      ],
      [
        "p",
        "es"
      ],
      [
        "c",
        "oun"
      ],
      [
        "p",
        "ou"
      ],
      [
        "pr",
        "of"
      ],
      [
        "d",
        "ay"
      ],
      [
        "re",
        "g"
      ],
      [
        "o",
        "y"
      ],
      [
        "on",
        "ly"
      ],
      [
        "v",
        "ant"
      ],
      [
        "l",
        "ors"
      ],
      [
        "n",
        "at"
      ],
      [
        "c",
        "ur"
      ],
      [
        "is",
        "te"
      ],
      [
        "ou",
        "ver"
      ],
      [
        "en",
        "g"
      ],
      [
        "gr",
        "and"
      ],
      [
        "s",
        "ol"
      ],
      [
        "su",
        "ite"
      ],
      [
        "a",
        "ff"
      ],
      [
        "ce",
        "p"
      ],
      [
        "C",
        "on"
      ],
      [
        "or",
        "gan"
      ],
      [
        "parti",
        "e"
      ],
      [
        "f",
        "il"
      ],
      [
        "Th",
        "ere"
      ],
      [
        "con",
        "stru"
      ],
      [
        "year",
        "s"
      ],
      [
        "u",
        "d"
      ],
      [
        "1",
        "6"
      ],
      [
        "b",
        "les"
      ],
      [
        "A",
        "mer"
      ],
      [
        "19",
        "4"
      ],
      [
        "Amer",
        "ic"
      ],
      [
        "r",
        "est"
      ],
      [
        "t",
        "ent"
      ],
      [
        "av",
        "ant"
      ],
      [
        "ig",
        "n"
      ],
      [
        "for",
        "me"
      ],
      [
        "gé",
        "né"
      ],
      [
        "an",
        "ci"
      ],
      [
        "vi",
        "ent"
      ],
      [
        "con",
        "tre"
      ],
      [
        "ap",
        "p"
      ],
      [
        "o",
        "ù"
      ],
      [
        "ve",
        "lo"
      ],
      [
        "f",
        "on"
      ],
      [
        "19",
        "5"
      ],
      [
        "der",
        "ni"
      ],
      [
        "v",
        "ir"
      ],
      [
        "B",
        "e"
      ],
      [
        "at",
        "er"
      ],
      [
        "l",
        "les"
      ],
      [
        "z",
        "e"
      ],
      [
        "m",
        "y"
      ],
      [
        "ain",
        "si"
      ],
      [
        "it",
        "és"
      ],
      [
        "diff",
        "er"
      ],
      [
        "b",
        "um"
      ],
      [
        "s",
        "ing"
      ],
      [
        "gh",
        "t"
      ],
      [
        "é",
        "qui"
      ],
      [
        "l",
        "s"
      ],
      [
        "ch",
        "an"
      ],
      [
        "J",
        "o"
      ],
      [
        "temp",
        "s"
      ],
      [
        "c",
        "y"
      ],
      [
        "t",
        "al"
      ],
      [
        "ne",
        "d"
      ],
      [
        "vo",
        "ir"
      ],
      [
        "d",
        "ont"
      ],
      [
        "g",
        "er"
      ],
      [
        "vis",
        "ion"
      ],
      [
        "st",
        "ar"
      ],
      [
        "c",
        "le"
      ],
      [
        "h",
        "om"
      ],
      [
        "b",
        "et"
      ],
      [
        "al",
        "bum"
      ],
      [
        "ne",
        "ment"
      ],
      [
        "su",
        "i"
      ],
      [
        "C",
        "ette"
      ],
      [
        "p",
        "ay"
      ],
      [
        "s",
        "te"
      ],
      [
        "W",
        "h"
      ],
      [
        "t",
        "ing"
      ],
      [
        "v",
        "a"
      ],
      [
        "in",
        "ce"
      ],
      [
        "re",
        "le"
      ],
      [
        "pe",
        "ti"
      ],
      [
        "al",
        "s"
      ],
      [
        "o",
        "ir"
      ],
      [
        "i",
        "de"
      ],
      [
        "a",
        "ir"
      ],
      [
        "le",
        "urs"
      ],
      [
        "ti",
        "ques"
      ],
      [
        "premi",
        "er"
      ],
      [
        "D",
        "ans"
      ],
      [
        "i",
        "f"
      ],
      [
        "k",
        "ing"
      ],
      [
        "su",
        "c"
      ],
      [
        "le",
        "t"
      ],
      [
        "A",
        "s"
      ],
      [
        "d",
        "om"
      ],
      [
        "é",
        "ri"
      ],
      [
        "ain",
        "e"
      ],
      [
        "i",
        "p"
      ],
      [
        "d",
        "ro"
      ],
      [
        "tr",
        "u"
      ],
      [
        "secon",
        "d"
      ],
      [
        "por",
        "tant"
      ],
      [
        "v",
        "ing"
      ],
      [
        "l",
        "er"
      ],
      [
        "me",
        "mb"
      ],
      [
        "g",
        "et"
      ],
      [
        "w",
        "ill"
      ],
      [
        "be",
        "came"
      ],
      [
        "te",
        "ment"
      ],
      [
        "ar",
        "ri"
      ],
      [
        "n",
        "on"
      ],
      [
        "a",
        "il"
      ],
      [
        "a",
        "ires"
      ],
      [
        "n",
        "or"
      ],
      [
        "publi",
        "c"
      ],
      [
        "be",
        "cause"
      ],
      [
        "1",
        "2"
      ],
      [
        "at",
        "ta"
      ],
      [
        "us",
        "es"
      ],
      [
        "ti",
        "mes"
      ],
      [
        "cer",
        "ta"
      ],
      [
        "fr",
        "an"
      ],
      [
        "c",
        "ro"
      ],
      [
        "ai",
        "ent"
      ],
      [
        "le",
        "ction"
      ],
      [
        "ag",
        "es"
      ],
      [
        "an",
        "nées"
      ],
      [
        "N",
        "o"
      ],
      [
        "or",
        "y"
      ],
      [
        "f",
        "our"
      ],
      [
        "po",
        "se"
      ],
      [
        "i",
        "le"
      ],
      [
        "j",
        "u"
      ],
      [
        "r",
        "al"
      ],
      [
        "h",
        "ab"
      ],
      [
        "w",
        "ould"
      ],
      [
        "pl",
        "usi"
      ],
      [
        "plusi",
        "eurs"
      ],
      [
        "e",
        "m"
      ],
      [
        "l",
        "it"
      ],
      [
        "cour",
        "s"
      ],
      [
        "differ",
        "ent"
      ],
      [
        "o",
        "de"
      ],
      [
        "f",
        "ore"
      ],
      [
        "au",
        "t"
      ],
      [
        "H",
        "is"
      ],
      [
        "for",
        "ma"
      ],
      [
        "1",
        "4"
      ],
      [
        "c",
        "in"
      ],
      [
        "w",
        "ard"
      ],
      [
        "fi",
        "ci"
      ],
      [
        "su",
        "b"
      ],
      [
        "ex",
        "p"
      ],
      [
        "rele",
        "as"
      ],
      [
        "U",
        "ni"
      ],
      [
        "per",
        "met"
      ],
      [
        "premi",
        "ère"
      ],
      [
        "s",
        "p"
      ],
      [
        "an",
        "de"
      ],
      [
        "for",
        "m"
      ],
      [
        "j",
        "o"
      ],
      [
        "us",
        "t"
      ],
      [
        "in",
        "clu"
      ],
      [
        "19",
        "3"
      ],
      [
        "di",
        "re"
      ],
      [
        "ic",
        "k"
      ],
      [
        "l",
        "è"
      ],
      [
        "su",
        "p"
      ],
      [
        "posi",
        "tion"
      ],
      [
        "e",
        "ver"
      ],
      [
        "velo",
        "p"
      ],
      [
        "ti",
        "l"
      ],
      [
        "ces",
        "s"
      ],
      [
        "nation",
        "al"
      ],
      [
        "e",
        "ur"
      ],
      [
        "ra",
        "p"
      ],
      [
        "Fr",
        "ance"
      ],
      [
        "jour",
        "s"
      ],
      [
        "t",
        "le"
      ],
      [
        "te",
        "urs"
      ],
      [
        "s",
        "ans"
      ],
      [
        "th",
        "en"
      ],
      [
        "ré",
        "g"
      ],
      [
        "con",
        "s"
      ],
      [
        "r",
        "on"
      ],
      [
        "pl",
        "an"
      ],
      [
        "l",
        "in"
      ],
      [
        "F",
        "or"
      ],
      [
        "s",
        "s"
      ],
      [
        "p",
        "on"
      ],
      [
        "tr",
        "ou"
      ],
      [
        "f",
        "é"
      ],
      [
        "b",
        "il"
      ],
      [
        "é",
        "tu"
      ],
      [
        "li",
        "ke"
      ],
      [
        "i",
        "ti"
      ],
      [
        "au",
        "tre"
      ],
      [
        "in",
        "di"
      ],
      [
        "prin",
        "cip"
      ],
      [
        "in",
        "té"
      ],
      [
        "M",
        "o"
      ],
      [
        "ain",
        "t"
      ],
      [
        "amp",
        "ion"
      ],
      [
        "sh",
        "ow"
      ],
      [
        "U",
        "ne"
      ],
      [
        "i",
        "ma"
      ],
      [
        "it",
        "ed"
      ],
      [
        "av",
        "ait"
      ],
      [
        "li",
        "c"
      ],
      [
        "to",
        "ire"
      ],
      [
        "e",
        "c"
      ],
      [
        "he",
        "d"
      ],
      [
        "f",
        "ac"
      ],
      [
        "cit",
        "ation"
      ],
      [
        "f",
        "ul"
      ],
      [
        "por",
        "te"
      ],
      [
        "pé",
        "ri"
      ],
      [
        "el",
        "les"
      ],
      [
        "am",
        "es"
      ],
      [
        "wh",
        "ere"
      ],
      [
        "m",
        "and"
      ],
      [
        "f",
        "ri"
      ],
      [
        "ic",
        "al"
      ],
      [
        "ver",
        "t"
      ],
      [
        "M",
        "a"
      ],
      [
        "pr",
        "is"
      ],
      [
        "con",
        "tin"
      ],
      [
        "of",
        "f"
      ],
      [
        "jus",
        "qu"
      ],
      [
        "grou",
        "pe"
      ],
      [
        "S",
        "h"
      ],
      [
        "his",
        "tor"
      ],
      [
        "1",
        "3"
      ],
      [
        "k",
        "s"
      ],
      [
        "re",
        "m"
      ],
      [
        "im",
        "portant"
      ],
      [
        "bi",
        "en"
      ],
      [
        "as",
        "se"
      ],
      [
        "tr",
        "y"
      ],
      [
        "g",
        "ar"
      ],
      [
        "al",
        "le"
      ],
      [
        "ma",
        "y"
      ],
      [
        "Ne",
        "w"
      ],
      [
        "ac",
        "ti"
      ],
      [
        "c",
        "lo"
      ],
      [
        "J",
        "e"
      ],
      [
        "qu",
        "at"
      ],
      [
        "dé",
        "c"
      ],
      [
        "l",
        "ang"
      ],
      [
        "J",
        "u"
      ],
      [
        "ar",
        "ch"
      ],
      [
        "si",
        "de"
      ],
      [
        "ter",
        "s"
      ],
      [
        "th",
        "ough"
      ],
      [
        "fa",
        "ce"
      ],
      [
        "we",
        "en"
      ],
      [
        "Americ",
        "an"
      ],
      [
        "cou",
        "p"
      ],
      [
        "ç",
        "ais"
      ],
      [
        "sit",
        "u"
      ],
      [
        "av",
        "oir"
      ],
      [
        "co",
        "re"
      ],
      [
        "mb",
        "le"
      ],
      [
        "la",
        "ge"
      ],
      [
        "00",
        "0"
      ],
      [
        "tr",
        "ait"
      ],
      [
        "fa",
        "ire"
      ],
      [
        "ti",
        "tu"
      ],
      [
        "g",
        "re"
      ],
      [
        "mo",
        "ins"
      ],
      [
        "f",
        "t"
      ],
      [
        "C",
        "ar"
      ],
      [
        "fam",
        "il"
      ],
      [
        "i",
        "ème"
      ],
      [
        "ser",
        "vi"
      ],
      [
        "th",
        "ree"
      ],
      [
        "la",
        "is"
      ],
      [
        "mis",
        "sion"
      ],
      [
        "d",
        "ou"
      ],
      [
        "b",
        "ack"
      ],
      [
        "sti",
        "tu"
      ],
      [
        "i",
        "er"
      ],
      [
        "th",
        "é"
      ],
      [
        "Q",
        "u"
      ],
      [
        "v",
        "it"
      ],
      [
        "f",
        "o"
      ],
      [
        "r",
        "ough"
      ],
      [
        "S",
        "o"
      ],
      [
        "h",
        "o"
      ],
      [
        "en",
        "n"
      ],
      [
        "m",
        "u"
      ],
      [
        "releas",
        "ed"
      ],
      [
        "L",
        "i"
      ],
      [
        "min",
        "is"
      ],
      [
        "ap",
        "par"
      ],
      [
        "r",
        "om"
      ],
      [
        "A",
        "t"
      ],
      [
        "ce",
        "d"
      ],
      [
        "di",
        "d"
      ],
      [
        "pe",
        "d"
      ],
      [
        "w",
        "ar"
      ],
      [
        "S",
        "a"
      ],
      [
        "a",
        "ille"
      ],
      [
        "mil",
        "li"
      ],
      [
        "i",
        "x"
      ],
      [
        "w",
        "rit"
      ],
      [
        "m",
        "al"
      ],
      [
        "to",
        "p"
      ],
      [
        "N",
        "or"
      ],
      [
        "spe",
        "ci"
      ],
      [
        "b",
        "ar"
      ],
      [
        "ch",
        "ang"
      ],
      [
        "don",
        "c"
      ],
      [
        "S",
        "on"
      ],
      [
        "tr",
        "o"
      ],
      [
        "P",
        "e"
      ],
      [
        "ê",
        "te"
      ],
      [
        "s",
        "c"
      ],
      [
        "ag",
        "ain"
      ],
      [
        "h",
        "igh"
      ],
      [
        "cho",
        "ol"
      ],
      [
        "t",
        "ous"
      ],
      [
        "g",
        "s"
      ],
      [
        "diff",
        "ér"
      ],
      [
        "vol",
        "u"
      ],
      [
        "at",
        "es"
      ],
      [
        "he",
        "l"
      ],
      [
        "bet",
        "ween"
      ],
      [
        "at",
        "s"
      ],
      [
        "un",
        "der"
      ],
      [
        "hab",
        "it"
      ],
      [
        "wor",
        "ld"
      ],
      [
        "a",
        "ur"
      ],
      [
        "té",
        "s"
      ],
      [
        "u",
        "es"
      ],
      [
        "R",
        "o"
      ],
      [
        "popu",
        "lation"
      ],
      [
        "S",
        "ome"
      ],
      [
        "\"",
        ","
      ],
      [
        "en",
        "f"
      ],
      [
        "bor",
        "n"
      ],
      [
        "i",
        "ques"
      ],
      [
        "ann",
        "ée"
      ],
      [
        "clu",
        "b"
      ],
      [
        "lar",
        "ge"
      ],
      [
        "d",
        "ra"
      ],
      [
        "sa",
        "me"
      ],
      [
        "s",
        "k"
      ],
      [
        "un",
        "til"
      ],
      [
        "con",
        "si"
      ],
      [
        "fe",
        "m"
      ],
      [
        "di",
        "ed"
      ],
      [
        "S",
        "aint"
      ],
      [
        "de",
        "puis"
      ],
      [
        "ra",
        "tion"
      ],
      [
        "u",
        "ally"
      ],
      [
        "i",
        "z"
      ],
      [
        "ch",
        "ild"
      ],
      [
        "ow",
        "ever"
      ],
      [
        "I",
        "I"
      ],
      [
        "al",
        "ité"
      ],
      [
        "E",
        "ur"
      ],
      [
        "j",
        "a"
      ],
      [
        "w",
        "ell"
      ],
      [
        "M",
        "e"
      ],
      [
        "play",
        "ed"
      ],
      [
        "fran",
        "çais"
      ],
      [
        "G",
        "u"
      ],
      [
        "ma",
        "ke"
      ],
      [
        "o",
        "pe"
      ],
      [
        "A",
        "près"
      ],
      [
        "b",
        "an"
      ],
      [
        "m",
        "ment"
      ],
      [
        "y",
        "s"
      ],
      [
        "tr",
        "ouve"
      ],
      [
        "ti",
        "es"
      ],
      [
        "e",
        "p"
      ],
      [
        "d",
        "it"
      ],
      [
        "po",
        "ssi"
      ],
      [
        "S",
        "u"
      ],
      [
        "ver",
        "sion"
      ],
      [
        "tr",
        "ic"
      ],
      [
        "3",
        "0"
      ],
      [
        "te",
        "am"
      ],
      [
        "orig",
        "in"
      ],
      [
        "la",
        "ter"
      ],
      [
        "en",
        "ces"
      ],
      [
        "h",
        "a"
      ],
      [
        "2",
        "5"
      ],
      [
        "Il",
        "s"
      ],
      [
        "prof",
        "es"
      ],
      [
        "po",
        "in"
      ],
      [
        "ct",
        "or"
      ],
      [
        "organ",
        "is"
      ],
      [
        "b",
        "on"
      ],
      [
        "c",
        "rit"
      ],
      [
        "œ",
        "u"
      ],
      [
        "S",
        "t"
      ],
      [
        "v",
        "ari"
      ],
      [
        "of",
        "ten"
      ],
      [
        "th",
        "rough"
      ],
      [
        "b",
        "é"
      ],
      [
        "c",
        "ity"
      ],
      [
        "s",
        "m"
      ],
      [
        "ma",
        "g"
      ],
      [
        "vir",
        "on"
      ],
      [
        "comm",
        "une"
      ],
      [
        "as",
        "on"
      ],
      [
        "et",
        "s"
      ],
      [
        "lo",
        "t"
      ],
      [
        "com",
        "e"
      ],
      [
        "è",
        "ne"
      ],
      [
        "201",
        "0"
      ],
      [
        "d",
        "a"
      ],
      [
        "po",
        "int"
      ],
      [
        "F",
        "ran"
      ],
      [
        "c",
        "r"
      ],
      [
        "h",
        "y"
      ],
      [
        "re",
        "présent"
      ],
      [
        "n",
        "ée"
      ],
      [
        "ac",
        "t"
      ],
      [
        "se",
        "ment"
      ],
      [
        "bo",
        "ok"
      ],
      [
        "P",
        "our"
      ],
      [
        "n",
        "ing"
      ],
      [
        "b",
        "ro"
      ],
      [
        "of",
        "fici"
      ],
      [
        "th",
        "ese"
      ],
      [
        "as",
        "e"
      ],
      [
        "i",
        "an"
      ],
      [
        "li",
        "er"
      ],
      [
        "l",
        "ég"
      ],
      [
        "w",
        "on"
      ],
      [
        "no",
        "ta"
      ],
      [
        "A",
        "fter"
      ],
      [
        "se",
        "u"
      ],
      [
        "lie",
        "u"
      ],
      [
        "B",
        "o"
      ],
      [
        "M",
        "ais"
      ],
      [
        "chan",
        "ge"
      ],
      [
        "forma",
        "tion"
      ],
      [
        "v",
        "ra"
      ],
      [
        "w",
        "er"
      ],
      [
        "ré",
        "e"
      ],
      [
        "D",
        "es"
      ],
      [
        "b",
        "and"
      ],
      [
        "g",
        "ro"
      ],
      [
        "ou",
        "se"
      ],
      [
        "»",
        "."
      ],
      [
        "pay",
        "s"
      ],
      [
        "c",
        "ô"
      ],
      [
        "s",
        "ent"
      ],
      [
        "in",
        "f"
      ],
      [
        "k",
        "es"
      ],
      [
        "ction",
        "s"
      ],
      [
        "ur",
        "y"
      ],
      [
        "b",
        "el"
      ],
      [
        "c",
        "ation"
      ],
      [
        "nu",
        "mber"
      ],
      [
        "m",
        "ée"
      ],
      [
        "b",
        "all"
      ],
      [
        "l",
        "ine"
      ],
      [
        "t",
        "est"
      ],
      [
        "e",
        "ach"
      ],
      [
        "en",
        "core"
      ],
      [
        "te",
        "ch"
      ],
      [
        "si",
        "x"
      ],
      [
        "gr",
        "ande"
      ],
      [
        "ti",
        "ent"
      ],
      [
        "at",
        "ure"
      ],
      [
        "op",
        "é"
      ],
      [
        "p",
        "te"
      ],
      [
        "sm",
        "all"
      ],
      [
        "1",
        "1"
      ],
      [
        "b",
        "lis"
      ],
      [
        "t",
        "end"
      ],
      [
        "Wh",
        "en"
      ],
      [
        "J",
        "an"
      ],
      [
        "s",
        "ci"
      ],
      [
        "re",
        "la"
      ],
      [
        "rég",
        "ion"
      ],
      [
        "le",
        "x"
      ],
      [
        "la",
        "ire"
      ],
      [
        "cou",
        "ld"
      ],
      [
        "dé",
        "velop"
      ],
      [
        "re",
        "f"
      ],
      [
        "musi",
        "c"
      ],
      [
        "ac",
        "tion"
      ],
      [
        "en",
        "viron"
      ],
      [
        "li",
        "m"
      ],
      [
        "di",
        "e"
      ],
      [
        "quat",
        "re"
      ],
      [
        "mo",
        "vie"
      ],
      [
        "be",
        "ing"
      ],
      [
        "ré",
        "s"
      ],
      [
        "G",
        "er"
      ],
      [
        "p",
        "t"
      ],
      [
        "É",
        "tat"
      ],
      [
        "es",
        "ti"
      ],
      [
        "mon",
        "de"
      ],
      [
        "s",
        "et"
      ],
      [
        "b",
        "ri"
      ],
      [
        "te",
        "l"
      ],
      [
        "con",
        "om"
      ],
      [
        "con",
        "stitu"
      ],
      [
        "dur",
        "ing"
      ],
      [
        "star",
        "ted"
      ],
      [
        "H",
        "er"
      ],
      [
        "j",
        "or"
      ],
      [
        "in",
        "a"
      ],
      [
        "sa",
        "ison"
      ],
      [
        "res",
        "s"
      ],
      [
        "C",
        "ol"
      ],
      [
        "nouve",
        "au"
      ],
      [
        "b",
        "us"
      ],
      [
        "p",
        "en"
      ],
      [
        "go",
        "ver"
      ],
      [
        "C",
        "es"
      ],
      [
        "Eur",
        "ope"
      ],
      [
        "si",
        "ve"
      ],
      [
        "ri",
        "ed"
      ],
      [
        "équi",
        "pe"
      ],
      [
        "En",
        "g"
      ],
      [
        "p",
        "ère"
      ],
      [
        "pro",
        "b"
      ],
      [
        "elle",
        "ment"
      ],
      [
        "P",
        "ro"
      ],
      [
        "J",
        "ap"
      ],
      [
        "gra",
        "m"
      ],
      [
        "ta",
        "in"
      ],
      [
        "mil",
        "it"
      ],
      [
        "vil",
        "lage"
      ],
      [
        "2",
        "1"
      ],
      [
        "an",
        "ti"
      ],
      [
        "d",
        "ing"
      ],
      [
        "e",
        "y"
      ],
      [
        "é",
        "p"
      ],
      [
        "cul",
        "ture"
      ],
      [
        "in",
        "st"
      ],
      [
        "di",
        "o"
      ],
      [
        "be",
        "fore"
      ],
      [
        "w",
        "ater"
      ],
      [
        "ser",
        "v"
      ],
      [
        "c",
        "at"
      ],
      [
        "con",
        "f"
      ],
      [
        "me",
        "d"
      ],
      [
        "ch",
        "ampion"
      ],
      [
        "ré",
        "alis"
      ],
      [
        "c",
        "ra"
      ],
      [
        "t",
        "om"
      ],
      [
        "ir",
        "d"
      ],
      [
        "e",
        "ux"
      ],
      [
        "W",
        "or"
      ],
      [
        "c",
        "amp"
      ],
      [
        "f",
        "ur"
      ],
      [
        "il",
        "li"
      ],
      [
        "tri",
        "bu"
      ],
      [
        "h",
        "n"
      ],
      [
        "i",
        "ce"
      ],
      [
        ".",
        "\""
      ],
      [
        "O",
        "r"
      ],
      [
        "i",
        "en"
      ],
      [
        "i",
        "ci"
      ],
      [
        "st",
        "u"
      ],
      [
        "are",
        "a"
      ],
      [
        "grou",
        "p"
      ],
      [
        "le",
        "ad"
      ],
      [
        "vo",
        "y"
      ],
      [
        "an",
        "ces"
      ],
      [
        "b",
        "es"
      ]
    ]
  }
}