{
  "version": "1.0",
  "truncation": null,
  "padding": null,
  "added_tokens": [
    {
      "id": 0,
      "content": "<UNK>",
      "single_word": false,
      "lstrip": false,
      "rstrip": false,
      "normalized": false,
      "special": true
    },
    {
      "id": 1,
      "content": "<SEP>",
      "single_word": false,
      "lstrip": false,
      "rstrip": false,
      "normalized": false,
      "special": true
    },
    {
      "id": 2,
      "content": "<MASK>",
      "single_word": false,
      "lstrip": false,
      "rstrip": false,
      "normalized": false,
      "special": true
    },
    {
      "id": 3,
      "content": "<CLS>",
      "single_word": false,
      "lstrip": false,
      "rstrip": false,
      "normalized": false,
      "special": true
    }
  ],
  "normalizer": null,
  "pre_tokenizer": {
    "type": "Whitespace"
  },
  "post_processor": null,
  "decoder": null,
  "model": {
    "type": "BPE",
    "dropout": null,
    "unk_token": "<UNK>",
    "continuing_subword_prefix": null,
    "end_of_word_suffix": null,
    "fuse_unk": false,
    "byte_fallback": false,
    "ignore_merges": false,
    "vocab": {
      "<UNK>": 0,
      "<SEP>": 1,
      "<MASK>": 2,
      "<CLS>": 3,
      "!": 4,
      "\"": 5,
      "$": 6,
      "%": 7,
      "&": 8,
      "'": 9,
      "(": 10,
      ")": 11,
      "*": 12,
      "+": 13,
      ",": 14,
      "-": 15,
      ".": 16,
      "/": 17,
      "0": 18,
      "1": 19,
      "2": 20,
      "3": 21,
      "4": 22,
      "5": 23,
      "6": 24,
      "7": 25,
      "8": 26,
      "9": 27,
      ":": 28,
      ";": 29,
      "<": 30,
      ">": 31,
      "?": 32,
      "A": 33,
      "B": 34,
      "C": 35,
      "D": 36,
      "E": 37,
      "F": 38,
      "G": 39,
      "H": 40,
      "I": 41,
      "J": 42,
      "K": 43,
      "L": 44,
      "M": 45,
      "N": 46,
      "O": 47,
      "P": 48,
      "Q": 49,
      "R": 50,
      "S": 51,
      "T": 52,
      "U": 53,
      "V": 54,
      "W": 55,
      "X": 56,
      "Y": 57,
      "Z": 58,
      "`": 59,
      "a": 60,
      "b": 61,
      "c": 62,
      "d": 63,
      "e": 64,
      "f": 65,
      "g": 66,
      "h": 67,
      "i": 68,
      "j": 69,
      "k": 70,
      "l": 71,
      "m": 72,
      "n": 73,
      "o": 74,
      "p": 75,
      "q": 76,
      "r": 77,
      "s": 78,
      "t": 79,
      "u": 80,
      "v": 81,
      "w": 82,
      "x": 83,
      "y": 84,
      "z": 85,
      "~": 86,
      "¡": 87,
      "£": 88,
      "¥": 89,
      "§": 90,
      "ª": 91,
      "«": 92,
      "¬": 93,
      "®": 94,
      "°": 95,
      "±": 96,
      "²": 97,
      "³": 98,
      "´": 99,
      "µ": 100,
      "·": 101,
      "¹": 102,
      "º": 103,
      "»": 104,
      "¼": 105,
      "½": 106,
      "¿": 107,
      "À": 108,
      "Á": 109,
      "Ä": 110,
      "Å": 111,
      "Æ": 112,
      "Ç": 113,
      "È": 114,
      "É": 115,
      "Ê": 116,
      "Í": 117,
      "Î": 118,
      "Ï": 119,
      "Ð": 120,
      "Ñ": 121,
      "Ó": 122,
      "Ô": 123,
      "Ö": 124,
      "×": 125,
      "Ø": 126,
      "Ú": 127,
      "Ü": 128,
      "Þ": 129,
      "ß": 130,
      "à": 131,
      "á": 132,
      "â": 133,
      "ã": 134,
      "ä": 135,
      "å": 136,
      "æ": 137,
      "ç": 138,
      "è": 139,
      "é": 140,
      "ê": 141,
      "ë": 142,
      "ì": 143,
      "í": 144,
      "î": 145,
      "ï": 146,
      "ð": 147,
      "ñ": 148,
      "ò": 149,
      "ó": 150,
      "ô": 151,
      "õ": 152,
      "ö": 153,
      "ø": 154,
      "ù": 155,
      "ú": 156,
      "û": 157,
      "ü": 158,
      "ý": 159,
      "þ": 160,
      "ÿ": 161,
      "Ā": 162,
      "ā": 163,
      "ă": 164,
      "ą": 165,
      "Ć": 166,
      "ć": 167,
      "ĉ": 168,
      "ċ": 169,
      "Č": 170,
      "č": 171,
      "Đ": 172,
      "đ": 173,
      "Ē": 174,
      "ē": 175,
      "ĕ": 176,
      "ė": 177,
      "ę": 178,
      "ě": 179,
      "ĝ": 180,
      "Ğ": 181,
      "ğ": 182,
      "Ġ": 183,
      "ġ": 184,
      "ĥ": 185,
      "Ħ": 186,
      "ĩ": 187,
      "Ī": 188,
      "ī": 189,
      "ĭ": 190,
      "į": 191,
      "İ": 192,
      "ı": 193,
      "ĵ": 194,
      "Ķ": 195,
      "ķ": 196,
      "Ļ": 197,
      "ļ": 198,
      "Ľ": 199,
      "ľ": 200,
      "Ł": 201,
      "ł": 202,
      "ń": 203,
      "ņ": 204,
      "Ň": 205,
      "ň": 206,
      "Ō": 207,
      "ō": 208,
      "ŏ": 209,
      "Ő": 210,
      "ő": 211,
      "Œ": 212,
      "œ": 213,
      "Ř": 214,
      "ř": 215,
      "Ś": 216,
      "ś": 217,
      "ŝ": 218,
      "Ş": 219,
      "ş": 220,
      "Š": 221,
      "š": 222,
      "ţ": 223,
      "ť": 224,
      "ũ": 225,
      "Ū": 226,
      "ū": 227,
      "ŭ": 228,
      "ů": 229,
      "ű": 230,
      "ų": 231,
      "ŵ": 232,
      "ź": 233,
      "Ż": 234,
      "ż": 235,
      "Ž": 236,
      "ž": 237,
      "ſ": 238,
      "Ə": 239,
      "ƒ": 240,
      "ƛ": 241,
      "ơ": 242,
      "ư": 243,
      "ǎ": 244,
      "ǐ": 245,
      "ǒ": 246,
      "ǔ": 247,
      "ǚ": 248,
      "Ǧ": 249,
      "Ǫ": 250,
      "ǫ": 251,
      "Ș": 252,
      "ș": 253,
      "Ț": 254,
      "ț": 255,
      "ɑ": 256,
      "ɔ": 257,
      "ə": 258,
      "ɣ": 259,
      "ʃ": 260,
      "ʰ": 261,
      "ʹ": 262,
      "ʻ": 263,
      "ʼ": 264,
      "ʾ": 265,
      "ʿ": 266,
      "ˈ": 267,
      "ː": 268,
      "˚": 269,
      "˜": 270,
      "̀": 271,
      "́": 272,
      "̐": 273,
      "Α": 274,
      "Β": 275,
      "Γ": 276,
      "Δ": 277,
      "Ε": 278,
      "Η": 279,
      "Ι": 280,
      "Κ": 281,
      "Λ": 282,
      "Μ": 283,
      "Ν": 284,
      "Ο": 285,
      "Π": 286,
      "Ρ": 287,
      "Σ": 288,
      "Τ": 289,
      "Υ": 290,
      "Φ": 291,
      "Χ": 292,
      "Ψ": 293,
      "Ω": 294,
      "ά": 295,
      "έ": 296,
      "ή": 297,
      "ί": 298,
      "α": 299,
      "β": 300,
      "γ": 301,
      "δ": 302,
      "ε": 303,
      "ζ": 304,
      "η": 305,
      "θ": 306,
      "ι": 307,
      "κ": 308,
      "λ": 309,
      "μ": 310,
      "ν": 311,
      "ξ": 312,
      "ο": 313,
      "π": 314,
      "ρ": 315,
      "ς": 316,
      "σ": 317,
      "τ": 318,
      "υ": 319,
      "φ": 320,
      "χ": 321,
      "ψ": 322,
      "ω": 323,
      "ϊ": 324,
      "ό": 325,
      "ύ": 326,
      "ώ": 327,
      "ϱ": 328,
      "А": 329,
      "Б": 330,
      "В": 331,
      "Г": 332,
      "Д": 333,
      "Ж": 334,
      "З": 335,
      "И": 336,
      "К": 337,
      "Л": 338,
      "М": 339,
      "Н": 340,
      "О": 341,
      "П": 342,
      "Р": 343,
      "С": 344,
      "Т": 345,
      "У": 346,
      "Ф": 347,
      "Ц": 348,
      "Ч": 349,
      "Ш": 350,
      "Э": 351,
      "Ю": 352,
      "Я": 353,
      "а": 354,
      "б": 355,
      "в": 356,
      "г": 357,
      "д": 358,
      "е": 359,
      "ж": 360,
      "з": 361,
      "и": 362,
      "й": 363,
      "к": 364,
      "л": 365,
      "м": 366,
      "н": 367,
      "о": 368,
      "п": 369,
      "р": 370,
      "с": 371,
      "т": 372,
      "у": 373,
      "ф": 374,
      "х": 375,
      "ц": 376,
      "ч": 377,
      "ш": 378,
      "щ": 379,
      "ъ": 380,
      "ы": 381,
      "ь": 382,
      "э": 383,
      "ю": 384,
      "я": 385,
      "і": 386,
      "ї": 387,
      "ј": 388,
      "њ": 389,
      "ћ": 390,
      "ѵ": 391,
      "ҫ": 392,
      "Մ": 393,
      "ա": 394,
      "ե": 395,
      "ը": 396,
      "թ": 397,
      "ղ": 398,
      "ր": 399,
      "ְ": 400,
      "ִ": 401,
      "ֵ": 402,
      "ֶ": 403,
      "ַ": 404,
      "ָ": 405,
      "ֹ": 406,
      "ּ": 407,
      "ׁ": 408,
      "ׂ": 409,
      "א": 410,
      "ב": 411,
      "ג": 412,
      "ד": 413,
      "ה": 414,
      "ו": 415,
      "ז": 416,
      "ח": 417,
      "ט": 418,
      "י": 419,
      "ך": 420,
      "ל": 421,
      "ם": 422,
      "מ": 423,
      "ן": 424,
      "נ": 425,
      "ס": 426,
      "ע": 427,
      "פ": 428,
      "צ": 429,
      "ק": 430,
      "ר": 431,
      "ש": 432,
      "ת": 433,
      "ء": 434,
      "آ": 435,
      "أ": 436,
      "ئ": 437,
      "ا": 438,
      "ب": 439,
      "ة": 440,
      "ت": 441,
      "ث": 442,
      "ج": 443,
      "ح": 444,
      "خ": 445,
      "د": 446,
      "ذ": 447,
      "ر": 448,
      "ز": 449,
      "س": 450,
      "ش": 451,
      "ص": 452,
      "ض": 453,
      "ط": 454,
      "ظ": 455,
      "ع": 456,
      "غ": 457,
      "ـ": 458,
      "ف": 459,
      "ق": 460,
      "ك": 461,
      "ل": 462,
      "م": 463,
      "ن": 464,
      "ه": 465,
      "و": 466,
      "ى": 467,
      "ي": 468,
      "َ": 469,
      "ُ": 470,
      "ِ": 471,
      "ْ": 472,
      "ک": 473,
      "ی": 474,
      "ې": 475,
      "ۯ": 476,
      "ं": 477,
      "ऋ": 478,
      "क": 479,
      "ग": 480,
      "ङ": 481,
      "च": 482,
      "ज": 483,
      "ट": 484,
      "त": 485,
      "द": 486,
      "य": 487,
      "र": 488,
      "ल": 489,
      "व": 490,
      "श": 491,
      "स": 492,
      "ह": 493,
      "़": 494,
      "ा": 495,
      "ि": 496,
      "े": 497,
      "्": 498,
      "ॐ": 499,
      "ঐ": 500,
      "ঔ": 501,
      "ট": 502,
      "র": 503,
      "স": 504,
      "্": 505,
      "ஒ": 506,
      "ட": 507,
      "ந": 508,
      "ப": 509,
      "ர": 510,
      "ல": 511,
      "ி": 512,
      "ீ": 513,
      "ு": 514,
      "ூ": 515,
      "்": 516,
      "ം": 517,
      "ഠ": 518,
      "ก": 519,
      "ค": 520,
      "ง": 521,
      "ณ": 522,
      "ด": 523,
      "ต": 524,
      "ท": 525,
      "น": 526,
      "พ": 527,
      "ภ": 528,
      "ม": 529,
      "ย": 530,
      "ร": 531,
      "ล": 532,
      "ว": 533,
      "ศ": 534,
      "ส": 535,
      "ห": 536,
      "อ": 537,
      "ะ": 538,
      "ั": 539,
      "า": 540,
      "ำ": 541,
      "ิ": 542,
      "ื": 543,
      "ุ": 544,
      "ู": 545,
      "เ": 546,
      "แ": 547,
      "โ": 548,
      "ไ": 549,
      "้": 550,
      "์": 551,
      "་": 552,
      "ཇ": 553,
      "ཟ": 554,
      "ལ": 555,
      "ཱ": 556,
      "ི": 557,
      "ོ": 558,
      "က": 559,
      "င": 560,
      "ည": 561,
      "တ": 562,
      "ဒ": 563,
      "န": 564,
      "ပ": 565,
      "ယ": 566,
      "သ": 567,
      "ိ": 568,
      "ီ": 569,
      "ု": 570,
      "ေ": 571,
      "း": 572,
      "်": 573,
      "ြ": 574,
      "ა": 575,
      "ბ": 576,
      "ე": 577,
      "ვ": 578,
      "ზ": 579,
      "ი": 580,
      "ლ": 581,
      "ნ": 582,
      "რ": 583,
      "უ": 584,
      "შ": 585,
      "ሀ": 586,
      "ሠ": 587,
      "ደ": 588,
      "ፐ": 589,
      "ញ": 590,
      "ទ": 591,
      "ម": 592,
      "រ": 593,
      "វ": 594,
      "អ": 595,
      "ា": 596,
      "ិ": 597,
      "៉": 598,
      "្": 599,
      "ḍ": 600,
      "ḏ": 601,
      "Ḥ": 602,
      "ḥ": 603,
      "ḫ": 604,
      "Ḳ": 605,
      "ḳ": 606,
      "Ḵ": 607,
      "ṃ": 608,
      "ṅ": 609,
      "ṇ": 610,
      "Ṛ": 611,
      "Ṣ": 612,
      "ṣ": 613,
      "Ṭ": 614,
      "ṭ": 615,
      "Ẓ": 616,
      "ẓ": 617,
      "ẞ": 618,
      "ạ": 619,
      "ả": 620,
      "ấ": 621,
      "ầ": 622,
      "ẩ": 623,
      "ắ": 624,
      "ẳ": 625,
      "ặ": 626,
      "ẻ": 627,
      "ẽ": 628,
      "ế": 629,
      "ề": 630,
      "ể": 631,
      "ễ": 632,
      "ệ": 633,
      "ị": 634,
      "ọ": 635,
      "ố": 636,
      "ồ": 637,
      "ổ": 638,
      "ộ": 639,
      "ớ": 640,
      "ờ": 641,
      "ợ": 642,
      "ụ": 643,
      "ủ": 644,
      "ứ": 645,
      "ừ": 646,
      "ử": 647,
      "ữ": 648,
      "ự": 649,
      "ỳ": 650,
      "ἀ": 651,
      "ἁ": 652,
      "Ἄ": 653,
      "ἐ": 654,
      "Ἓ": 655,
      "ἡ": 656,
      "ἤ": 657,
      "ἰ": 658,
      "ἱ": 659,
      "ἶ": 660,
      "Ἰ": 661,
      "ὀ": 662,
      "ὅ": 663,
      "Ὀ": 664,
      "ὐ": 665,
      "ὰ": 666,
      "ὲ": 667,
      "ὴ": 668,
      "ὶ": 669,
      "ὸ": 670,
      "ὼ": 671,
      "ῇ": 672,
      "ῖ": 673,
      "ῥ": 674,
      "ῦ": 675,
      "ῳ": 676,
      "ῶ": 677,
      "‐": 678,
      "‑": 679,
      "–": 680,
      "—": 681,
      "―": 682,
      "‘": 683,
      "’": 684,
      "‚": 685,
      "“": 686,
      "”": 687,
      "„": 688,
      "‟": 689,
      "†": 690,
      "•": 691,
      "…": 692,
      "‰": 693,
      "′": 694,
      "″": 695,
      "‴": 696,
      "›": 697,
      "⁰": 698,
      "⁷": 699,
      "₁": 700,
      "₂": 701,
      "€": 702,
      "₴": 703,
      "₹": 704,
      "ℂ": 705,
      "ℋ": 706,
      "ℒ": 707,
      "ℓ": 708,
      "ℕ": 709,
      "№": 710,
      "ℚ": 711,
      "ℝ": 712,
      "™": 713,
      "℣": 714,
      "ℤ": 715,
      "ℰ": 716,
      "ℱ": 717,
      "⅓": 718,
      "⅔": 719,
      "Ⅱ": 720,
      "→": 721,
      "↔": 722,
      "↘": 723,
      "⇒": 724,
      "∈": 725,
      "−": 726,
      "∗": 727,
      "∧": 728,
      "≈": 729,
      "≠": 730,
      "≤": 731,
      "≥": 732,
      "≫": 733,
      "⊆": 734,
      "⊢": 735,
      "⋂": 736,
      "⋅": 737,
      "─": 738,
      "│": 739,
      "▄": 740,
      "▪": 741,
      "○": 742,
      "☆": 743,
      "♦": 744,
      "♭": 745,
      "♮": 746,
      "♯": 747,
      "⠸": 748,
      "Ⲩ": 749,
      "ⲩ": 750,
      "ⴰ": 751,
      "ⴳ": 752,
      "ⵔ": 753,
      "ⵜ": 754,
      "、": 755,
      "。": 756,
      "《": 757,
      "》": 758,
      "「": 759,
      "」": 760,
      "あ": 761,
      "い": 762,
      "う": 763,
      "え": 764,
      "お": 765,
      "が": 766,
      "き": 767,
      "け": 768,
      "げ": 769,
      "こ": 770,
      "し": 771,
      "ぜ": 772,
      "た": 773,
      "だ": 774,
      "ち": 775,
      "っ": 776,
      "つ": 777,
      "て": 778,
      "と": 779,
      "に": 780,
      "の": 781,
      "は": 782,
      "ひ": 783,
      "び": 784,
      "ま": 785,
      "み": 786,
      "ゃ": 787,
      "や": 788,
      "ゆ": 789,
      "ょ": 790,
      "よ": 791,
      "ら": 792,
      "り": 793,
      "る": 794,
      "れ": 795,
      "ろ": 796,
      "ん": 797,
      "゜": 798,
      "ア": 799,
      "ィ": 800,
      "イ": 801,
      "ェ": 802,
      "エ": 803,
      "ガ": 804,
      "キ": 805,
      "ケ": 806,
      "ゲ": 807,
      "サ": 808,
      "ザ": 809,
      "シ": 810,
      "ジ": 811,
      "ス": 812,
      "ズ": 813,
      "ダ": 814,
      "チ": 815,
      "デ": 816,
      "ド": 817,
      "ノ": 818,
      "ハ": 819,
      "ピ": 820,
      "フ": 821,
      "マ": 822,
      "ミ": 823,
      "ム": 824,
      "モ": 825,
      "ョ": 826,
      "ラ": 827,
      "リ": 828,
      "ル": 829,
      "ロ": 830,
      "ン": 831,
      "ヴ": 832,
      "・": 833,
      "ー": 834,
      "一": 835,
      "丁": 836,
      "七": 837,
      "丈": 838,
      "三": 839,
      "上": 840,
      "下": 841,
      "不": 842,
      "世": 843,
      "东": 844,
      "个": 845,
      "中": 846,
      "丹": 847,
      "主": 848,
      "丼": 849,
      "乃": 850,
      "之": 851,
      "乌": 852,
      "乗": 853,
      "也": 854,
      "乡": 855,
      "了": 856,
      "二": 857,
      "五": 858,
      "亡": 859,
      "交": 860,
      "京": 861,
      "亮": 862,
      "人": 863,
      "仁": 864,
      "仙": 865,
      "代": 866,
      "仰": 867,
      "伊": 868,
      "会": 869,
      "伷": 870,
      "体": 871,
      "余": 872,
      "佛": 873,
      "作": 874,
      "佶": 875,
      "使": 876,
      "侍": 877,
      "侯": 878,
      "促": 879,
      "保": 880,
      "修": 881,
      "倡": 882,
      "倪": 883,
      "健": 884,
      "傀": 885,
      "僕": 886,
      "儀": 887,
      "儡": 888,
      "儿": 889,
      "元": 890,
      "先": 891,
      "兒": 892,
      "入": 893,
      "內": 894,
      "全": 895,
      "八": 896,
      "公": 897,
      "关": 898,
      "兵": 899,
      "典": 900,
      "内": 901,
      "军": 902,
      "出": 903,
      "刀": 904,
      "刃": 905,
      "切": 906,
      "列": 907,
      "制": 908,
      "則": 909,
      "前": 910,
      "割": 911,
      "劇": 912,
      "劉": 913,
      "力": 914,
      "动": 915,
      "勁": 916,
      "動": 917,
      "化": 918,
      "北": 919,
      "区": 920,
      "十": 921,
      "千": 922,
      "午": 923,
      "南": 924,
      "卿": 925,
      "原": 926,
      "及": 927,
      "友": 928,
      "变": 929,
      "古": 930,
      "台": 931,
      "右": 932,
      "名": 933,
      "后": 934,
      "吾": 935,
      "呷": 936,
      "命": 937,
      "咳": 938,
      "咸": 939,
      "咽": 940,
      "品": 941,
      "員": 942,
      "唯": 943,
      "啓": 944,
      "喉": 945,
      "喜": 946,
      "嘉": 947,
      "図": 948,
      "国": 949,
      "國": 950,
      "園": 951,
      "圖": 952,
      "在": 953,
      "地": 954,
      "型": 955,
      "城": 956,
      "培": 957,
      "堂": 958,
      "堅": 959,
      "報": 960,
      "場": 961,
      "壽": 962,
      "夏": 963,
      "多": 964,
      "夜": 965,
      "大": 966,
      "天": 967,
      "太": 968,
      "夫": 969,
      "失": 970,
      "夷": 971,
      "奇": 972,
      "奏": 973,
      "契": 974,
      "女": 975,
      "奴": 976,
      "妃": 977,
      "委": 978,
      "姚": 979,
      "姜": 980,
      "姬": 981,
      "娘": 982,
      "婁": 983,
      "媛": 984,
      "嬴": 985,
      "子": 986,
      "孔": 987,
      "字": 988,
      "存": 989,
      "孙": 990,
      "孚": 991,
      "孝": 992,
      "季": 993,
      "学": 994,
      "孩": 995,
      "孫": 996,
      "學": 997,
      "守": 998,
      "安": 999,
      "宗": 1000,
      "宛": 1001,
      "室": 1002,
      "家": 1003,
      "寅": 1004,
      "寛": 1005,
      "寨": 1006,
      "寬": 1007,
      "寮": 1008,
      "寶": 1009,
      "寺": 1010,
      "封": 1011,
      "將": 1012,
      "小": 1013,
      "少": 1014,
      "尼": 1015,
      "层": 1016,
      "居": 1017,
      "屋": 1018,
      "屯": 1019,
      "山": 1020,
      "岐": 1021,
      "岱": 1022,
      "峰": 1023,
      "島": 1024,
      "崔": 1025,
      "嶽": 1026,
      "川": 1027,
      "州": 1028,
      "左": 1029,
      "巴": 1030,
      "市": 1031,
      "布": 1032,
      "希": 1033,
      "師": 1034,
      "帯": 1035,
      "常": 1036,
      "幕": 1037,
      "平": 1038,
      "庄": 1039,
      "庆": 1040,
      "床": 1041,
      "底": 1042,
      "庙": 1043,
      "庚": 1044,
      "度": 1045,
      "座": 1046,
      "庭": 1047,
      "廣": 1048,
      "廷": 1049,
      "建": 1050,
      "式": 1051,
      "引": 1052,
      "弘": 1053,
      "弟": 1054,
      "張": 1055,
      "彥": 1056,
      "彦": 1057,
      "彭": 1058,
      "徐": 1059,
      "從": 1060,
      "御": 1061,
      "德": 1062,
      "志": 1063,
      "忠": 1064,
      "快": 1065,
      "性": 1066,
      "恨": 1067,
      "恪": 1068,
      "悉": 1069,
      "惲": 1070,
      "意": 1071,
      "憨": 1072,
      "懋": 1073,
      "懷": 1074,
      "戌": 1075,
      "戎": 1076,
      "成": 1077,
      "我": 1078,
      "战": 1079,
      "房": 1080,
      "所": 1081,
      "才": 1082,
      "打": 1083,
      "托": 1084,
      "拒": 1085,
      "摂": 1086,
      "摩": 1087,
      "擊": 1088,
      "操": 1089,
      "攻": 1090,
      "放": 1091,
      "故": 1092,
      "教": 1093,
      "敦": 1094,
      "文": 1095,
      "斗": 1096,
      "新": 1097,
      "方": 1098,
      "於": 1099,
      "无": 1100,
      "日": 1101,
      "旦": 1102,
      "时": 1103,
      "昇": 1104,
      "明": 1105,
      "是": 1106,
      "昼": 1107,
      "時": 1108,
      "晉": 1109,
      "晦": 1110,
      "普": 1111,
      "景": 1112,
      "智": 1113,
      "曙": 1114,
      "曜": 1115,
      "曲": 1116,
      "書": 1117,
      "曾": 1118,
      "會": 1119,
      "月": 1120,
      "有": 1121,
      "朝": 1122,
      "期": 1123,
      "木": 1124,
      "本": 1125,
      "朱": 1126,
      "李": 1127,
      "村": 1128,
      "来": 1129,
      "東": 1130,
      "枋": 1131,
      "林": 1132,
      "柏": 1133,
      "校": 1134,
      "株": 1135,
      "格": 1136,
      "桜": 1137,
      "桶": 1138,
      "棗": 1139,
      "森": 1140,
      "植": 1141,
      "楊": 1142,
      "楽": 1143,
      "榜": 1144,
      "榮": 1145,
      "樂": 1146,
      "標": 1147,
      "横": 1148,
      "機": 1149,
      "欒": 1150,
      "止": 1151,
      "正": 1152,
      "此": 1153,
      "武": 1154,
      "殷": 1155,
      "殿": 1156,
      "母": 1157,
      "每": 1158,
      "气": 1159,
      "水": 1160,
      "永": 1161,
      "江": 1162,
      "沙": 1163,
      "河": 1164,
      "洋": 1165,
      "洞": 1166,
      "津": 1167,
      "洪": 1168,
      "浦": 1169,
      "海": 1170,
      "润": 1171,
      "淑": 1172,
      "深": 1173,
      "混": 1174,
      "淺": 1175,
      "清": 1176,
      "湖": 1177,
      "漢": 1178,
      "漿": 1179,
      "潁": 1180,
      "潟": 1181,
      "潭": 1182,
      "濟": 1183,
      "瀏": 1184,
      "灣": 1185,
      "灯": 1186,
      "為": 1187,
      "烈": 1188,
      "無": 1189,
      "煉": 1190,
      "熊": 1191,
      "熙": 1192,
      "燕": 1193,
      "營": 1194,
      "爆": 1195,
      "爭": 1196,
      "爺": 1197,
      "版": 1198,
      "牧": 1199,
      "玄": 1200,
      "玉": 1201,
      "王": 1202,
      "珍": 1203,
      "珠": 1204,
      "珪": 1205,
      "現": 1206,
      "球": 1207,
      "瑁": 1208,
      "璆": 1209,
      "璋": 1210,
      "璧": 1211,
      "甘": 1212,
      "生": 1213,
      "用": 1214,
      "田": 1215,
      "甲": 1216,
      "申": 1217,
      "男": 1218,
      "界": 1219,
      "畜": 1220,
      "畠": 1221,
      "當": 1222,
      "発": 1223,
      "發": 1224,
      "白": 1225,
      "的": 1226,
      "皆": 1227,
      "皇": 1228,
      "皮": 1229,
      "盈": 1230,
      "益": 1231,
      "盛": 1232,
      "盧": 1233,
      "相": 1234,
      "省": 1235,
      "真": 1236,
      "督": 1237,
      "矣": 1238,
      "石": 1239,
      "研": 1240,
      "碗": 1241,
      "社": 1242,
      "祈": 1243,
      "神": 1244,
      "禍": 1245,
      "福": 1246,
      "秋": 1247,
      "科": 1248,
      "秒": 1249,
      "穴": 1250,
      "究": 1251,
      "窯": 1252,
      "立": 1253,
      "竜": 1254,
      "端": 1255,
      "第": 1256,
      "等": 1257,
      "筷": 1258,
      "節": 1259,
      "篇": 1260,
      "簿": 1261,
      "精": 1262,
      "系": 1263,
      "紀": 1264,
      "級": 1265,
      "紹": 1266,
      "経": 1267,
      "統": 1268,
      "經": 1269,
      "经": 1270,
      "羅": 1271,
      "美": 1272,
      "義": 1273,
      "老": 1274,
      "考": 1275,
      "者": 1276,
      "而": 1277,
      "聚": 1278,
      "聯": 1279,
      "聲": 1280,
      "職": 1281,
      "肩": 1282,
      "肺": 1283,
      "胃": 1284,
      "脆": 1285,
      "脫": 1286,
      "臣": 1287,
      "臥": 1288,
      "致": 1289,
      "與": 1290,
      "興": 1291,
      "色": 1292,
      "芙": 1293,
      "芸": 1294,
      "苗": 1295,
      "若": 1296,
      "茶": 1297,
      "荀": 1298,
      "菅": 1299,
      "菊": 1300,
      "菩": 1301,
      "萬": 1302,
      "落": 1303,
      "葉": 1304,
      "葦": 1305,
      "蒼": 1306,
      "薛": 1307,
      "藍": 1308,
      "藏": 1309,
      "藤": 1310,
      "虛": 1311,
      "號": 1312,
      "蚤": 1313,
      "蜀": 1314,
      "蜂": 1315,
      "蠻": 1316,
      "行": 1317,
      "術": 1318,
      "衛": 1319,
      "袴": 1320,
      "裴": 1321,
      "西": 1322,
      "見": 1323,
      "親": 1324,
      "解": 1325,
      "記": 1326,
      "訶": 1327,
      "註": 1328,
      "詩": 1329,
      "課": 1330,
      "請": 1331,
      "論": 1332,
      "諝": 1333,
      "諸": 1334,
      "譟": 1335,
      "議": 1336,
      "護": 1337,
      "讃": 1338,
      "计": 1339,
      "议": 1340,
      "讯": 1341,
      "豆": 1342,
      "豊": 1343,
      "象": 1344,
      "貨": 1345,
      "賂": 1346,
      "資": 1347,
      "賢": 1348,
      "资": 1349,
      "赫": 1350,
      "赴": 1351,
      "超": 1352,
      "趙": 1353,
      "足": 1354,
      "身": 1355,
      "車": 1356,
      "軍": 1357,
      "較": 1358,
      "车": 1359,
      "辉": 1360,
      "辜": 1361,
      "辟": 1362,
      "辦": 1363,
      "辰": 1364,
      "迅": 1365,
      "运": 1366,
      "还": 1367,
      "送": 1368,
      "通": 1369,
      "速": 1370,
      "進": 1371,
      "遂": 1372,
      "運": 1373,
      "道": 1374,
      "達": 1375,
      "遺": 1376,
      "邁": 1377,
      "邈": 1378,
      "邪": 1379,
      "邯": 1380,
      "郎": 1381,
      "郡": 1382,
      "部": 1383,
      "郭": 1384,
      "郸": 1385,
      "都": 1386,
      "鄉": 1387,
      "鄰": 1388,
      "鄴": 1389,
      "酸": 1390,
      "醋": 1391,
      "釋": 1392,
      "里": 1393,
      "金": 1394,
      "鈞": 1395,
      "鉄": 1396,
      "鋼": 1397,
      "錦": 1398,
      "錯": 1399,
      "長": 1400,
      "門": 1401,
      "閹": 1402,
      "關": 1403,
      "门": 1404,
      "间": 1405,
      "阳": 1406,
      "院": 1407,
      "陳": 1408,
      "陸": 1409,
      "陽": 1410,
      "階": 1411,
      "难": 1412,
      "雀": 1413,
      "雙": 1414,
      "雨": 1415,
      "雷": 1416,
      "電": 1417,
      "震": 1418,
      "露": 1419,
      "静": 1420,
      "韓": 1421,
      "響": 1422,
      "順": 1423,
      "須": 1424,
      "領": 1425,
      "頭": 1426,
      "頹": 1427,
      "风": 1428,
      "飛": 1429,
      "飯": 1430,
      "饒": 1431,
      "香": 1432,
      "馥": 1433,
      "馬": 1434,
      "騎": 1435,
      "马": 1436,
      "體": 1437,
      "高": 1438,
      "魔": 1439,
      "魚": 1440,
      "魯": 1441,
      "鵬": 1442,
      "麝": 1443,
      "麴": 1444,
      "黃": 1445,
      "黎": 1446,
      "黒": 1447,
      "鼓": 1448,
      "龍": 1449,
      "龙": 1450,
      "교": 1451,
      "구": 1452,
      "군": 1453,
      "김": 1454,
      "니": 1455,
      "동": 1456,
      "레": 1457,
      "로": 1458,
      "록": 1459,
      "명": 1460,
      "벌": 1461,
      "별": 1462,
      "복": 1463,
      "븐": 1464,
      "사": 1465,
      "순": 1466,
      "써": 1467,
      "아": 1468,
      "야": 1469,
      "영": 1470,
      "원": 1471,
      "월": 1472,
      "일": 1473,
      "자": 1474,
      "정": 1475,
      "차": 1476,
      "창": 1477,
      "천": 1478,
      "춘": 1479,
      "취": 1480,
      "치": 1481,
      "토": 1482,
      "프": 1483,
      "ﬁ": 1484,
      "ﺍ": 1485,
      "ﻁ": 1486,
      "！": 1487,
      "（": 1488,
      "）": 1489,
      "，": 1490,
      "：": 1491,
      "es": 1492,
      "en": 1493,
      "on": 1494,
      "de": 1495,
      "an": 1496,
      "le": 1497,
      "re": 1498,
      "ti": 1499,
      "ou": 1500,
      "er": 1501,
      "la": 1502,
      "is": 1503,
      "ent": 1504,
      "qu": 1505,
      "in": 1506,
      "ar": 1507,
      "it": 1508,
      "et": 1509,
      "un": 1510,
      "au": 1511,
      "ur": 1512,
      "or": 1513,
      "te": 1514,
      "les": 1515,
      "il": 1516,
      "pr": 1517,
      "om": 1518,
      "tion": 1519,
      "tr": 1520,
      "se": 1521,
      "des": 1522,
      "ch": 1523,
      "est": 1524,
      "que": 1525,
      "ce": 1526,
      "our": 1527,
      "al": 1528,
      "par": 1529,
      "ment": 1530,
      "ant": 1531,
      "du": 1532,
      "si": 1533,
      "ne": 1534,
      "con": 1535,
      "ans": 1536,
      "me": 1537,
      "dé": 1538,
      "une": 1539,
      "ra": 1540,
      "ve": 1541,
      "lu": 1542,
      "li": 1543,
      "ré": 1544,
      "ta": 1545,
      "son": 1546,
      "ma": 1547,
      "ie": 1548,
      "té": 1549,
      "di": 1550,
      "com": 1551,
      "as": 1552,
      "pe": 1553,
      "ci": 1554,
      "lle": 1555,
      "ir": 1556,
      "po": 1557,
      "dans": 1558,
      "sa": 1559,
      "ri": 1560,
      "ée": 1561,
      "pour": 1562,
      "ge": 1563,
      "tre": 1564,
      "qui": 1565,
      "és": 1566,
      "ation": 1567,
      "su": 1568,
      "pro": 1569,
      "fa": 1570,
      "ire": 1571,
      "tu": 1572,
      "mp": 1573,
      "sur": 1574,
      "av": 1575,
      "ac": 1576,
      "Il": 1577,
      "plu": 1578,
      "Le": 1579,
      "at": 1580,
      "ux": 1581,
      "ère": 1582,
      "ter": 1583,
      "aux": 1584,
      "ale": 1585,
      "lo": 1586,
      "ver": 1587,
      "19": 1588,
      "res": 1589,
      "us": 1590,
      "ap": 1591,
      "urs": 1592,
      "ois": 1593,
      "vi": 1594,
      "pu": 1595,
      "ès": 1596,
      "ff": 1597,
      "end": 1598,
      "co": 1599,
      "La": 1600,
      "mi": 1601,
      "ont": 1602,
      "né": 1603,
      "ran": 1604,
      "ex": 1605,
      "plus": 1606,
      "sont": 1607,
      "ille": 1608,
      "cu": 1609,
      "vo": 1610,
      "vec": 1611,
      "ité": 1612,
      "ro": 1613,
      "ces": 1614,
      "ain": 1615,
      "ut": 1616,
      "mé": 1617,
      "mo": 1618,
      "pas": 1619,
      "avec": 1620,
      "che": 1621,
      "ite": 1622,
      "ab": 1623,
      "per": 1624,
      "ag": 1625,
      "ques": 1626,
      "ses": 1627,
      "for": 1628,
      "Les": 1629,
      "20": 1630,
      "ni": 1631,
      "elle": 1632,
      "ins": 1633,
      "été": 1634,
      "ser": 1635,
      "so": 1636,
      "tes": 1637,
      "mb": 1638,
      "pé": 1639,
      "tou": 1640,
      "éta": 1641,
      "ais": 1642,
      "En": 1643,
      "ue": 1644,
      "parti": 1645,
      "ette": 1646,
      "sé": 1647,
      "ction": 1648,
      "nom": 1649,
      "ors": 1650,
      "ine": 1651,
      "sion": 1652,
      "man": 1653,
      "lé": 1654,
      "to": 1655,
      "ait": 1656,
      "fi": 1657,
      "por": 1658,
      "sou": 1659,
      "ts": 1660,
      "mais": 1661,
      "mes": 1662,
      "ph": 1663,
      "deux": 1664,
      "ig": 1665,
      "pre": 1666,
      "fin": 1667,
      "dis": 1668,
      "comm": 1669,
      "entre": 1670,
      "lis": 1671,
      "lon": 1672,
      "mon": 1673,
      "pa": 1674,
      "ca": 1675,
      "ouve": 1676,
      "lan": 1677,
      "cou": 1678,
      "no": 1679,
      "lui": 1680,
      "mar": 1681,
      "gé": 1682,
      "don": 1683,
      "ence": 1684,
      "ion": 1685,
      "ers": 1686,
      "el": 1687,
      "min": 1688,
      "tres": 1689,
      "pré": 1690,
      "th": 1691,
      "tant": 1692,
      "près": 1693,
      "ég": 1694,
      "premi": 1695,
      "ient": 1696,
      "do": 1697,
      "car": 1698,
      "bre": 1699,
      "na": 1700,
      "ires": 1701,
      "eu": 1702,
      "der": 1703,
      "tions": 1704,
      "ens": 1705,
      "fait": 1706,
      "gu": 1707,
      "ssi": 1708,
      "ble": 1709,
      "ér": 1710,
      "vent": 1711,
      "ten": 1712,
      "rou": 1713,
      "comme": 1714,
      "cons": 1715,
      "teur": 1716,
      "cour": 1717,
      ").": 1718,
      "ob": 1719,
      "tique": 1720,
      "ique": 1721,
      "jour": 1722,
      "puis": 1723,
      "alement": 1724,
      "ture": 1725,
      "leur": 1726,
      "tri": 1727,
      "ord": 1728,
      "am": 1729,
      "cé": 1730,
      "cer": 1731,
      "cette": 1732,
      "18": 1733,
      "être": 1734,
      "ance": 1735,
      "im": 1736,
      "tra": 1737,
      "rie": 1738,
      "ants": 1739,
      "ise": 1740,
      "Elle": 1741,
      "Ch": 1742,
      "tru": 1743,
      "ven": 1744,
      "comp": 1745,
      "ême": 1746,
      "prés": 1747,
      "pla": 1748,
      "cha": 1749,
      "pi": 1750,
      "bli": 1751,
      "ments": 1752,
      "Ce": 1753,
      "tour": 1754,
      "nes": 1755,
      "ils": 1756,
      "cr": 1757,
      "met": 1758,
      "fon": 1759,
      "ème": 1760,
      "pos": 1761,
      "ard": 1762,
      "était": 1763,
      "bi": 1764,
      "ad": 1765,
      "vers": 1766,
      "gra": 1767,
      "gran": 1768,
      "ons": 1769,
      "même": 1770,
      "ées": 1771,
      "peu": 1772,
      "200": 1773,
      "tin": 1774,
      "ys": 1775,
      "vis": 1776,
      "alis": 1777,
      "De": 1778,
      "présent": 1779,
      "nouve": 1780,
      "endant": 1781,
      "trav": 1782,
      "ges": 1783,
      "age": 1784,
      "inter": 1785,
      "oc": 1786,
      "temp": 1787,
      "nombre": 1788,
      "enti": 1789,
      "ure": 1790,
      "fois": 1791,
      "mis": 1792,
      "cla": 1793,
      "cré": 1794,
      "alors": 1795,
      "enne": 1796,
      "aire": 1797,
      "sous": 1798,
      "lement": 1799,
      "également": 1800,
      "cor": 1801,
      "je": 1802,
      "ang": 1803,
      "sie": 1804,
      "aussi": 1805,
      "nées": 1806,
      "diff": 1807,
      "uti": 1808,
      "pou": 1809,
      "née": 1810,
      "jou": 1811,
      "publi": 1812,
      "mil": 1813,
      "tent": 1814,
      "201": 1815,
      "int": 1816,
      "vre": 1817,
      "imp": 1818,
      "tor": 1819,
      "ren": 1820,
      "autres": 1821,
      "vé": 1822,
      "ul": 1823,
      "Par": 1824,
      "ante": 1825,
      "os": 1826,
      "peut": 1827,
      "lles": 1828,
      "ations": 1829,
      "titu": 1830,
      "ères": 1831,
      "cip": 1832,
      "cher": 1833,
      "hu": 1834,
      "ison": 1835,
      "pri": 1836,
      "lors": 1837,
      "soci": 1838,
      "tif": 1839,
      "très": 1840,
      "be": 1841,
      "trois": 1842,
      "ves": 1843,
      "eff": 1844,
      "emp": 1845,
      "après": 1846,
      "pendant": 1847,
      "ol": 1848,
      "fut": 1849,
      "da": 1850,
      "),": 1851,
      "prend": 1852,
      "lè": 1853,
      "lig": 1854,
      "dent": 1855,
      "tout": 1856,
      "utilis": 1857,
      "cul": 1858,
      "ort": 1859,
      "ures": 1860,
      "ense": 1861,
      "ali": 1862,
      "nu": 1863,
      "va": 1864,
      "ner": 1865,
      "erre": 1866,
      "person": 1867,
      "jus": 1868,
      "bu": 1869,
      "tis": 1870,
      "ba": 1871,
      "jet": 1872,
      "log": 1873,
      "suite": 1874,
      "contre": 1875,
      "Fran": 1876,
      "Mar": 1877,
      "teurs": 1878,
      "ités": 1879,
      "ouver": 1880,
      "cent": 1881,
      "and": 1882,
      "quel": 1883,
      "partie": 1884,
      "ic": 1885,
      "ines": 1886,
      "prin": 1887,
      "vient": 1888,
      "géné": 1889,
      "avant": 1890,
      "Au": 1891,
      "commun": 1892,
      "Un": 1893,
      "où": 1894,
      "ville": 1895,
      "em": 1896,
      "vie": 1897,
      "grou": 1898,
      "its": 1899,
      "ainsi": 1900,
      "sit": 1901,
      "sieurs": 1902,
      "ing": 1903,
      "derni": 1904,
      "vant": 1905,
      "temps": 1906,
      "produ": 1907,
      "équi": 1908,
      "tive": 1909,
      "nement": 1910,
      "ris": 1911,
      "voir": 1912,
      "non": 1913,
      "rent": 1914,
      "tal": 1915,
      "tiques": 1916,
      "dont": 1917,
      "Cette": 1918,
      "bles": 1919,
      "leurs": 1920,
      "rég": 1921,
      "An": 1922,
      "tement": 1923,
      "hom": 1924,
      "Dans": 1925,
      "nation": 1926,
      "constru": 1927,
      "cri": 1928,
      "ls": 1929,
      "op": 1930,
      "ai": 1931,
      "his": 1932,
      "sui": 1933,
      "posi": 1934,
      "oir": 1935,
      "ler": 1936,
      "199": 1937,
      "pon": 1938,
      "années": 1939,
      "pres": 1940,
      "aine": 1941,
      "premier": 1942,
      "illa": 1943,
      "but": 1944,
      "fran": 1945,
      "plusieurs": 1946,
      "dire": 1947,
      "iste": 1948,
      "cours": 1949,
      "sig": 1950,
      "première": 1951,
      "anci": 1952,
      "mu": 1953,
      "sans": 1954,
      "ty": 1955,
      "ton": 1956,
      "permet": 1957,
      "rer": 1958,
      "qua": 1959,
      "lation": 1960,
      "faire": 1961,
      "ay": 1962,
      "part": 1963,
      "00": 1964,
      "mbre": 1965,
      "jours": 1966,
      "org": 1967,
      "éle": 1968,
      "uni": 1969,
      "lais": 1970,
      "cin": 1971,
      "trans": 1972,
      "pes": 1973,
      "ches": 1974,
      "ous": 1975,
      "dre": 1976,
      "sor": 1977,
      "ru": 1978,
      "off": 1979,
      "inté": 1980,
      "fil": 1981,
      "long": 1982,
      "use": 1983,
      "clu": 1984,
      "toire": 1985,
      "nent": 1986,
      "trou": 1987,
      "étu": 1988,
      "cap": 1989,
      "peti": 1990,
      "Une": 1991,
      "cation": 1992,
      "poli": 1993,
      "autre": 1994,
      "avait": 1995,
      "trava": 1996,
      "ents": 1997,
      "ron": 1998,
      "men": 1999,
      "jusqu": 2000,
      "aut": 2001,
      "fer": 2002,
      "alité": 2003,
      "ds": 2004,
      "mer": 2005,
      "eur": 2006,
      "bien": 2007,
      "certa": 2008,
      "çais": 2009,
      "dro": 2010,
      "différ": 2011,
      "coup": 2012,
      "groupe": 2013,
      "sta": 2014,
      "sse": 2015,
      "moins": 2016,
      "ec": 2017,
      "avoir": 2018,
      "rit": 2019,
      "vir": 2020,
      "can": 2021,
      "ju": 2022,
      "hab": 2023,
      "place": 2024,
      "17": 2025,
      "ième": 2026,
      "ales": 2027,
      "appe": 2028,
      "ies": 2029,
      "ration": 2030,
      "hi": 2031,
      "cep": 2032,
      "rest": 2033,
      "gr": 2034,
      "able": 2035,
      "mble": 2036,
      "On": 2037,
      "ass": 2038,
      "forme": 2039,
      "lar": 2040,
      "ari": 2041,
      "arri": 2042,
      "organ": 2043,
      "péri": 2044,
      "forma": 2045,
      "tiv": 2046,
      "chi": 2047,
      "ber": 2048,
      "dou": 2049,
      "ête": 2050,
      "enf": 2051,
      "pris": 2052,
      "contr": 2053,
      "appar": 2054,
      "situ": 2055,
      "rap": 2056,
      "donc": 2057,
      "Sain": 2058,
      "depuis": 2059,
      "bat": 2060,
      "tés": 2061,
      "chan": 2062,
      "lit": 2063,
      "mment": 2064,
      "198": 2065,
      "pli": 2066,
      "tous": 2067,
      "Ar": 2068,
      "char": 2069,
      "iques": 2070,
      "ct": 2071,
      "aires": 2072,
      "orig": 2073,
      "ps": 2074,
      "France": 2075,
      "port": 2076,
      "bé": 2077,
      "Son": 2078,
      "col": 2079,
      "Après": 2080,
      "français": 2081,
      "trouve": 2082,
      "ix": 2083,
      "ga": 2084,
      "œu": 2085,
      "année": 2086,
      "core": 2087,
      "dit": 2088,
      "ral": 2089,
      "fes": 2090,
      "In": 2091,
      "he": 2092,
      "ode": 2093,
      "rom": 2094,
      "princip": 2095,
      "eux": 2096,
      "gar": 2097,
      "pays": 2098,
      "dom": 2099,
      "vit": 2100,
      "remp": 2101,
      "mée": 2102,
      "cas": 2103,
      "représent": 2104,
      "rée": 2105,
      "Ils": 2106,
      "tro": 2107,
      "uses": 2108,
      "fé": 2109,
      "lop": 2110,
      "ène": 2111,
      "main": 2112,
      "lin": 2113,
      "velop": 2114,
      "dition": 2115,
      "opé": 2116,
      "sent": 2117,
      "amé": 2118,
      "ché": 2119,
      "Pour": 2120,
      "cle": 2121,
      "Com": 2122,
      "sus": 2123,
      "197": 2124,
      "lieu": 2125,
      "hé": 2126,
      "aff": 2127,
      "lée": 2128,
      "thé": 2129,
      "position": 2130,
      "illes": 2131,
      "alle": 2132,
      "ger": 2133,
      "ja": 2134,
      "elles": 2135,
      "fem": 2136,
      "aient": 2137,
      "sant": 2138,
      "id": 2139,
      "crit": 2140,
      "habit": 2141,
      "graph": 2142,
      "conn": 2143,
      "asse": 2144,
      "ici": 2145,
      "popu": 2146,
      "seu": 2147,
      "Mais": 2148,
      "cès": 2149,
      "Saint": 2150,
      "».": 2151,
      "pose": 2152,
      "olog": 2153,
      "encore": 2154,
      "dévelop": 2155,
      "iti": 2156,
      "ctions": 2157,
      "lant": 2158,
      "cô": 2159,
      "minis": 2160,
      "inf": 2161,
      "commune": 2162,
      "grande": 2163,
      "vra": 2164,
      "tan": 2165,
      "Sa": 2166,
      "Con": 2167,
      "laire": 2168,
      "ages": 2169,
      "Éta": 2170,
      "Se": 2171,
      "rés": 2172,
      "porte": 2173,
      "bil": 2174,
      "Al": 2175,
      "monde": 2176,
      "mille": 2177,
      "suc": 2178,
      "indi": 2179,
      "mission": 2180,
      "arti": 2181,
      "région": 2182,
      "val": 2183,
      "secon": 2184,
      "bou": 2185,
      "équipe": 2186,
      "organis": 2187,
      "ric": 2188,
      "cteur": 2189,
      "père": 2190,
      "Ces": 2191,
      "16": 2192,
      "bon": 2193,
      "cal": 2194,
      "oire": 2195,
      "ly": 2196,
      "conf": 2197,
      "dur": 2198,
      "sy": 2199,
      "tient": 2200,
      "nouveau": 2201,
      "Ro": 2202,
      "quatre": 2203,
      "saison": 2204,
      "mor": 2205,
      "lég": 2206,
      "lise": 2207,
      "volu": 2208,
      "15": 2209,
      "mat": 2210,
      "devient": 2211,
      "particu": 2212,
      "eau": 2213,
      "ences": 2214,
      "rê": 2215,
      "quelques": 2216,
      "réalis": 2217,
      "ban": 2218,
      "196": 2219,
      "gue": 2220,
      "nota": 2221,
      "jo": 2222,
      "Je": 2223,
      "envir": 2224,
      "mort": 2225,
      "soit": 2226,
      "champ": 2227,
      "tard": 2228,
      "famille": 2229,
      "cis": 2230,
      "servi": 2231,
      "bas": 2232,
      "ck": 2233,
      "médi": 2234,
      "villa": 2235,
      "début": 2236,
      "mande": 2237,
      "étaient": 2238,
      "toute": 2239,
      "voy": 2240,
      "plan": 2241,
      "ot": 2242,
      "partir": 2243,
      "pec": 2244,
      "sance": 2245,
      "rait": 2246,
      "cro": 2247,
      "grand": 2248,
      "spé": 2249,
      "face": 2250,
      "effet": 2251,
      "éco": 2252,
      "ôle": 2253,
      "gne": 2254,
      "10": 2255,
      "nombreux": 2256,
      "tel": 2257,
      "bar": 2258,
      "sys": 2259,
      "Su": 2260,
      "let": 2261,
      "teau": 2262,
      "Re": 2263,
      "esp": 2264,
      "ha": 2265,
      "souvent": 2266,
      "cur": 2267,
      "environ": 2268,
      "doit": 2269,
      "zon": 2270,
      "public": 2271,
      "celui": 2272,
      "ellement": 2273,
      "èrement": 2274,
      "mal": 2275,
      "lier": 2276,
      "dus": 2277,
      "constitu": 2278,
      "travail": 2279,
      "nouvelle": 2280,
      "Des": 2281,
      "térie": 2282,
      "musi": 2283,
      "dernier": 2284,
      "ima": 2285,
      "histoire": 2286,
      "194": 2287,
      "impor": 2288,
      "bâ": 2289,
      "celle": 2290,
      "mani": 2291,
      "tée": 2292,
      "peuvent": 2293,
      "Qu": 2294,
      "èrent": 2295,
      "prise": 2296,
      "consi": 2297,
      "toujours": 2298,
      "vision": 2299,
      "sage": 2300,
      "dat": 2301,
      "dép": 2302,
      "ép": 2303,
      "chaque": 2304,
      "décou": 2305,
      "go": 2306,
      "contin": 2307,
      "ieux": 2308,
      "ier": 2309,
      "épo": 2310,
      "reste": 2311,
      "profes": 2312,
      "ensuite": 2313,
      "ze": 2314,
      "fonction": 2315,
      "cho": 2316,
      "um": 2317,
      "vée": 2318,
      "fr": 2319,
      "ennent": 2320,
      "rière": 2321,
      "spéci": 2322,
      "gouver": 2323,
      "Paris": 2324,
      "atta": 2325,
      "nant": 2326,
      "syst": 2327,
      "deven": 2328,
      "fils": 2329,
      "jeu": 2330,
      "notamment": 2331,
      "compag": 2332,
      "nive": 2333,
      "sul": 2334,
      "déci": 2335,
      "bo": 2336,
      "fu": 2337,
      "ît": 2338,
      "guerre": 2339,
      "club": 2340,
      "époque": 2341,
      "vres": 2342,
      "sions": 2343,
      "beau": 2344,
      "nie": 2345,
      "»,": 2346,
      "sera": 2347,
      "déf": 2348,
      "ath": 2349,
      "Jo": 2350,
      "siè": 2351,
      "série": 2352,
      "ente": 2353,
      "endre": 2354,
      "neur": 2355,
      "Ma": 2356,
      "titre": 2357,
      "posé": 2358,
      "prob": 2359,
      "projet": 2360,
      "Tou": 2361,
      "église": 2362,
      "ia": 2363,
      "exemp": 2364,
      "hui": 2365,
      "tom": 2366,
      "film": 2367,
      "195": 2368,
      "étant": 2369,
      "bor": 2370,
      "art": 2371,
      "bâti": 2372,
      "cue": 2373,
      "nord": 2374,
      "ien": 2375,
      "activ": 2376,
      "tech": 2377,
      "retour": 2378,
      "généra": 2379,
      "reg": 2380,
      "tifs": 2381,
      "possi": 2382,
      "sud": 2383,
      "dée": 2384,
      "occu": 2385,
      "cre": 2386,
      "anti": 2387,
      "sol": 2388,
      "mbres": 2389,
      "ède": 2390,
      "ôt": 2391,
      "mois": 2392,
      "exp": 2393,
      "urent": 2394,
      "sement": 2395,
      "voit": 2396,
      "cs": 2397,
      "illeurs": 2398,
      "sup": 2399,
      "quer": 2400,
      "14": 2401,
      "respon": 2402,
      "hau": 2403,
      "193": 2404,
      "ensemble": 2405,
      "pouvoir": 2406,
      "prési": 2407,
      "vic": 2408,
      "12": 2409,
      "ître": 2410,
      "afin": 2411,
      "vin": 2412,
      "ieu": 2413,
      "eng": 2414,
      "rique": 2415,
      "village": 2416,
      "culture": 2417,
      "politique": 2418,
      "origine": 2419,
      "moy": 2420,
      "ple": 2421,
      "Gu": 2422,
      "nage": 2423,
      "tribu": 2424,
      "cherche": 2425,
      "important": 2426,
      "seul": 2427,
      "lus": 2428,
      "centre": 2429,
      "formation": 2430,
      "toutes": 2431,
      "considé": 2432,
      "sau": 2433,
      "sep": 2434,
      "ains": 2435,
      "chez": 2436,
      "action": 2437,
      "gré": 2438,
      "général": 2439,
      "cau": 2440,
      "nature": 2441,
      "ligne": 2442,
      "unes": 2443,
      "nat": 2444,
      "Lors": 2445,
      "bum": 2446,
      "cit": 2447,
      "qué": 2448,
      "jeune": 2449,
      "compte": 2450,
      "ros": 2451,
      "sour": 2452,
      "auc": 2453,
      "connu": 2454,
      "Cha": 2455,
      "artis": 2456,
      "Jean": 2457,
      "ili": 2458,
      "actu": 2459,
      "vait": 2460,
      "Es": 2461,
      "nel": 2462,
      "ras": 2463,
      "reç": 2464,
      "album": 2465,
      "termin": 2466,
      "mari": 2467,
      "pra": 2468,
      "Si": 2469,
      "sub": 2470,
      "jourd": 2471,
      "société": 2472,
      "vue": 2473,
      "enfants": 2474,
      "nelle": 2475,
      "mit": 2476,
      "tte": 2477,
      "af": 2478,
      "cet": 2479,
      "lie": 2480,
      "tex": 2481,
      "champion": 2482,
      "entes": 2483,
      "conom": 2484,
      "match": 2485,
      "poin": 2486,
      "carac": 2487,
      "çon": 2488,
      "iel": 2489,
      "trait": 2490,
      "ayant": 2491,
      "joue": 2492,
      "homme": 2493,
      "nombreuses": 2494,
      "fic": 2495,
      "milit": 2496,
      "rapi": 2497,
      "prendre": 2498,
      "Car": 2499,
      "conser": 2500,
      "13": 2501,
      "point": 2502,
      "ennes": 2503,
      "seur": 2504,
      "cy": 2505,
      "cture": 2506,
      "niveau": 2507,
      "fs": 2508,
      "dè": 2509,
      "roi": 2510,
      "deuxième": 2511,
      "pl": 2512,
      "système": 2513,
      "économ": 2514,
      "membres": 2515,
      "sc": 2516,
      "instal": 2517,
      "corps": 2518,
      "concer": 2519,
      "ible": 2520,
      "châ": 2521,
      "effec": 2522,
      "ry": 2523,
      "II": 2524,
      "mine": 2525,
      "lex": 2526,
      "cée": 2527,
      "ist": 2528,
      "développe": 2529,
      "selon": 2530,
      "tives": 2531,
      "table": 2532,
      "commer": 2533,
      "femme": 2534,
      "quit": 2535,
      "bes": 2536,
      "élec": 2537,
      "atte": 2538,
      "hommes": 2539,
      "loc": 2540,
      "défin": 2541,
      "camp": 2542,
      "mise": 2543,
      "construction": 2544,
      "agit": 2545,
      "œuvre": 2546,
      "population": 2547,
      "senti": 2548,
      "nav": 2549,
      "Cependant": 2550,
      "cinq": 2551,
      "br": 2552,
      "bal": 2553,
      "colle": 2554,
      "lent": 2555,
      "Mon": 2556,
      "entra": 2557,
      "duit": 2558,
      "personnes": 2559,
      "vari": 2560,
      "autor": 2561,
      "période": 2562,
      "tenu": 2563,
      "associ": 2564,
      "côté": 2565,
      "propri": 2566,
      "sens": 2567,
      "national": 2568,
      "som": 2569,
      "mère": 2570,
      "sorti": 2571,
      "pression": 2572,
      "site": 2573,
      "conse": 2574,
      "colon": 2575,
      "combat": 2576,
      "piè": 2577,
      "sci": 2578,
      "mand": 2579,
      "sin": 2580,
      "donne": 2581,
      "hy": 2582,
      "maison": 2583,
      "gram": 2584,
      "dra": 2585,
      "arch": 2586,
      "gie": 2587,
      "là": 2588,
      "rapide": 2589,
      "ach": 2590,
      "pen": 2591,
      "prom": 2592,
      "change": 2593,
      "œur": 2594,
      "âce": 2595,
      "ak": 2596,
      "cir": 2597,
      "seau": 2598,
      "explo": 2599,
      "agne": 2600,
      "carrière": 2601,
      "écrit": 2602,
      "bri": 2603,
      "univers": 2604,
      "ref": 2605,
      "oy": 2606,
      "aines": 2607,
      "Pi": 2608,
      "thè": 2609,
      "nique": 2610,
      "ètres": 2611,
      "tenir": 2612,
      "milli": 2613,
      "Mi": 2614,
      "gues": 2615,
      "école": 2616,
      "cra": 2617,
      "rela": 2618,
      "ditions": 2619,
      "beaucoup": 2620,
      "fille": 2621,
      "év": 2622,
      "partici": 2623,
      "études": 2624,
      "histor": 2625,
      "droit": 2626,
      "raison": 2627,
      "tière": 2628,
      "néces": 2629,
      "gouvernement": 2630,
      "terre": 2631,
      "tivement": 2632,
      "taille": 2633,
      "Li": 2634,
      "uel": 2635,
      "nor": 2636,
      "élé": 2637,
      "ilo": 2638,
      "certains": 2639,
      "nal": 2640,
      "aug": 2641,
      "production": 2642,
      "Eur": 2643,
      "améric": 2644,
      "diri": 2645,
      "difi": 2646,
      "ition": 2647,
      "étr": 2648,
      "territ": 2649,
      "rieur": 2650,
      "Ne": 2651,
      "tère": 2652,
      "évolu": 2653,
      "192": 2654,
      "So": 2655,
      "tend": 2656,
      "laires": 2657,
      "cli": 2658,
      "aissance": 2659,
      "gent": 2660,
      "prises": 2661,
      "enseig": 2662,
      "bour": 2663,
      "exemple": 2664,
      "durant": 2665,
      "Pa": 2666,
      "espè": 2667,
      "bois": 2668,
      "habitants": 2669,
      "succès": 2670,
      "vu": 2671,
      "rempor": 2672,
      "illi": 2673,
      "service": 2674,
      "tation": 2675,
      "large": 2676,
      "simp": 2677,
      "feu": 2678,
      "blan": 2679,
      "hô": 2680,
      "président": 2681,
      "furent": 2682,
      "emplo": 2683,
      "ori": 2684,
      "objet": 2685,
      "Uni": 2686,
      "iller": 2687,
      "ke": 2688,
      "mas": 2689,
      "Char": 2690,
      "six": 2691,
      "base": 2692,
      "passe": 2693,
      "Lu": 2694,
      "États": 2695,
      "armée": 2696,
      "import": 2697,
      "communes": 2698,
      "rè": 2699,
      "présente": 2700,
      "tête": 2701,
      "mom": 2702,
      "tré": 2703,
      "nés": 2704,
      "ado": 2705,
      "meur": 2706,
      "nommé": 2707,
      "hon": 2708,
      "fais": 2709,
      "nationale": 2710,
      "réf": 2711,
      "rôle": 2712,
      "existe": 2713,
      "aujourd": 2714,
      "land": 2715,
      "oli": 2716,
      "ki": 2717,
      "Ses": 2718,
      "télé": 2719,
      "ile": 2720,
      "éri": 2721,
      "rur": 2722,
      "épou": 2723,
      "Ju": 2724,
      "die": 2725,
      "premiers": 2726,
      "adminis": 2727,
      "vain": 2728,
      "petit": 2729,
      "cles": 2730,
      "sait": 2731,
      "Ber": 2732,
      "dernière": 2733,
      "entifi": 2734,
      "Co": 2735,
      "test": 2736,
      "roy": 2737,
      "fort": 2738,
      "rant": 2739,
      "ances": 2740,
      "commence": 2741,
      "gen": 2742,
      "compé": 2743,
      "jamais": 2744,
      "Gran": 2745,
      "ables": 2746,
      "rec": 2747,
      "arrê": 2748,
      "crois": 2749,
      "chef": 2750,
      "four": 2751,
      "den": 2752,
      "Sur": 2753,
      "rempla": 2754,
      "lés": 2755,
      "parfois": 2756,
      "mul": 2757,
      "État": 2758,
      "version": 2759,
      "jeunes": 2760,
      "rejo": 2761,
      "classe": 2762,
      "emb": 2763,
      "ouest": 2764,
      "venir": 2765,
      "compos": 2766,
      "château": 2767,
      "cependant": 2768,
      "indre": 2769,
      "vement": 2770,
      "points": 2771,
      "bilité": 2772,
      "ancien": 2773,
      "capit": 2774,
      "las": 2775,
      "oi": 2776,
      "quent": 2777,
      "dio": 2778,
      "étudi": 2779,
      "len": 2780,
      "relig": 2781,
      "commen": 2782,
      "inte": 2783,
      "ane": 2784,
      "téra": 2785,
      "cident": 2786,
      "ailleurs": 2787,
      "type": 2788,
      "chans": 2789,
      "fond": 2790,
      "possible": 2791,
      "modè": 2792,
      "rue": 2793,
      "program": 2794,
      "régu": 2795,
      "âge": 2796,
      "Lou": 2797,
      "semble": 2798,
      "lièrement": 2799,
      "poss": 2800,
      "ami": 2801,
      "appli": 2802,
      "cité": 2803,
      "terra": 2804,
      "ception": 2805,
      "ceux": 2806,
      "acc": 2807,
      "30": 2808,
      "Euro": 2809,
      "accue": 2810,
      "troisième": 2811,
      "jà": 2812,
      "éch": 2813,
      "cela": 2814,
      "femmes": 2815,
      "regis": 2816,
      "plupart": 2817,
      "travaux": 2818,
      "saire": 2819,
      "istes": 2820,
      "tait": 2821,
      "Di": 2822,
      "ût": 2823,
      "dépar": 2824,
      "190": 2825,
      "grâce": 2826,
      "effectu": 2827,
      "rend": 2828,
      "Mal": 2829,
      "dépend": 2830,
      "cel": 2831,
      "livre": 2832,
      "mouve": 2833,
      "quant": 2834,
      "pan": 2835,
      "donné": 2836,
      "dès": 2837,
      "tenant": 2838,
      "Ri": 2839,
      "50": 2840,
      "différents": 2841,
      "lou": 2842,
      "xe": 2843,
      "demande": 2844,
      "ade": 2845,
      "fit": 2846,
      "sein": 2847,
      "usée": 2848,
      "développement": 2849,
      "déjà": 2850,
      "Or": 2851,
      "traite": 2852,
      "longue": 2853,
      "font": 2854,
      "amb": 2855,
      "tron": 2856,
      "ordre": 2857,
      "jec": 2858,
      "moment": 2859,
      "quelle": 2860,
      "indus": 2861,
      "différentes": 2862,
      "unique": 2863,
      "dispar": 2864,
      "résul": 2865,
      "trouver": 2866,
      "proche": 2867,
      "prison": 2868,
      "éra": 2869,
      "rencontre": 2870,
      "trie": 2871,
      "ograph": 2872,
      "seulement": 2873,
      "membre": 2874,
      "oto": 2875,
      "ouvra": 2876,
      "travers": 2877,
      "Cer": 2878,
      "esse": 2879,
      "vale": 2880,
      "net": 2881,
      "direc": 2882,
      "état": 2883,
      "Cor": 2884,
      "dy": 2885,
      "tar": 2886,
      "entraî": 2887,
      "seule": 2888,
      "gau": 2889,
      "petite": 2890,
      "déc": 2891,
      "initi": 2892,
      "décide": 2893,
      "sais": 2894,
      "ka": 2895,
      "of": 2896,
      "tur": 2897,
      "recherche": 2898,
      "abord": 2899,
      "ète": 2900,
      "chau": 2901,
      "rési": 2902,
      "Du": 2903,
      "ss": 2904,
      "quand": 2905,
      "Europe": 2906,
      "tradition": 2907,
      "chant": 2908,
      "The": 2909,
      "profession": 2910,
      "mettre": 2911,
      "stru": 2912,
      "prix": 2913,
      "personne": 2914,
      "second": 2915,
      "jor": 2916,
      "gi": 2917,
      "ht": 2918,
      "oit": 2919,
      "mag": 2920,
      "expli": 2921,
      "produit": 2922,
      "musique": 2923,
      "meille": 2924,
      "spec": 2925,
      "Depuis": 2926,
      "française": 2927,
      "supé": 2928,
      "épis": 2929,
      "manière": 2930,
      "isme": 2931,
      "sty": 2932,
      "bel": 2933,
      "offic": 2934,
      "muni": 2935,
      "terme": 2936,
      "aide": 2937,
      "rapidement": 2938,
      "propre": 2939,
      "ert": 2940,
      "dés": 2941,
      "suit": 2942,
      "ateur": 2943,
      "devant": 2944,
      "suivant": 2945,
      "ond": 2946,
      "fra": 2947,
      "joueur": 2948,
      "Sh": 2949,
      "tier": 2950,
      "aban": 2951,
      "dix": 2952,
      "trice": 2953,
      "conna": 2954,
      "marque": 2955,
      "bres": 2956,
      "généralement": 2957,
      "11": 2958,
      "fré": 2959,
      "utilisé": 2960,
      "van": 2961,
      "tien": 2962,
      "No": 2963,
      "labor": 2964,
      "niques": 2965,
      "création": 2966,
      "tôt": 2967,
      "lor": 2968,
      "ions": 2969,
      "rapport": 2970,
      "Pro": 2971,
      "augment": 2972,
      "pie": 2973,
      "apon": 2974,
      "distin": 2975,
      "uve": 2976,
      "chois": 2977,
      "numé": 2978,
      "mesure": 2979,
      "pare": 2980,
      "Mo": 2981,
      "pelle": 2982,
      "aît": 2983,
      "mont": 2984,
      "lées": 2985,
      "possède": 2986,
      "ption": 2987,
      "Tr": 2988,
      "annon": 2989,
      "isation": 2990,
      "scène": 2991,
      "vais": 2992,
      "expéri": 2993,
      "ate": 2994,
      "cause": 2995,
      "cat": 2996,
      "antes": 2997,
      "désig": 2998,
      "lance": 2999
    },
    "merges": [
      [
        "e",
        "s"
      ],
      [
        "e",
        "n"
      ],
      [
        "o",
        "n"
      ],
      [
        "d",
        "e"
      ],
      [
        "a",
        "n"
      ],
      [
        "l",
        "e"
      ],
      [
        "r",
        "e"
      ],
      [
        "t",
        "i"
      ],
      [
        "o",
        "u"
      ],
      [
        "e",
        "r"
      ],
      [
        "l",
        "a"
      ],
      [
        "i",
        "s"
      ],
      [
        "en",
        "t"
      ],
      [
        "q",
        "u"
      ],
      [
        "i",
        "n"
      ],
      [
        "a",
        "r"
      ],
      [
        "i",
        "t"
      ],
      [
        "e",
        "t"
      ],
      [
        "u",
        "n"
      ],
      [
        "a",
        "u"
      ],
      [
        "u",
        "r"
      ],
      [
        "o",
        "r"
      ],
      [
        "t",
        "e"
      ],
      [
        "l",
        "es"
      ],
      [
        "i",
        "l"
      ],
      [
        "p",
        "r"
      ],
      [
        "o",
        "m"
      ],
      [
        "ti",
        "on"
      ],
      [
        "t",
        "r"
      ],
      [
        "s",
        "e"
      ],
      [
        "d",
        "es"
      ],
      [
        "c",
        "h"
      ],
      [
        "es",
        "t"
      ],
      [
        "qu",
        "e"
      ],
      [
        "c",
        "e"
      ],
      [
        "ou",
        "r"
      ],
      [
        "a",
        "l"
      ],
      [
        "p",
        "ar"
      ],
      [
        "m",
        "ent"
      ],
      [
        "an",
        "t"
      ],
      [
        "d",
        "u"
      ],
      [
        "s",
        "i"
      ],
      [
        "n",
        "e"
      ],
      [
        "c",
        "on"
      ],
      [
        "an",
        "s"
      ],
      [
        "m",
        "e"
      ],
      [
        "d",
        "é"
      ],
      [
        "un",
        "e"
      ],
      [
        "r",
        "a"
      ],
      [
        "v",
        "e"
      ],
      [
        "l",
        "u"
      ],
      [
        "l",
        "i"
      ],
      [
        "r",
        "é"
      ],
      [
        "t",
        "a"
      ],
      [
        "s",
        "on"
      ],
      [
        "m",
        "a"
      ],
      [
        "i",
        "e"
      ],
      [
        "t",
        "é"
      ],
      [
        "d",
        "i"
      ],
      [
        "c",
        "om"
      ],
      [
        "a",
        "s"
      ],
      [
        "p",
        "e"
      ],
      [
        "c",
        "i"
      ],
      [
        "l",
        "le"
      ],
      [
        "i",
        "r"
      ],
      [
        "p",
        "o"
      ],
      [
        "d",
        "ans"
      ],
      [
        "s",
        "a"
      ],
      [
        "r",
        "i"
      ],
      [
        "é",
        "e"
      ],
      [
        "p",
        "our"
      ],
      [
        "g",
        "e"
      ],
      [
        "t",
        "re"
      ],
      [
        "qu",
        "i"
      ],
      [
        "é",
        "s"
      ],
      [
        "a",
        "tion"
      ],
      [
        "s",
        "u"
      ],
      [
        "pr",
        "o"
      ],
      [
        "f",
        "a"
      ],
      [
        "i",
        "re"
      ],
      [
        "t",
        "u"
      ],
      [
        "m",
        "p"
      ],
      [
        "s",
        "ur"
      ],
      [
        "a",
        "v"
      ],
      [
        "a",
        "c"
      ],
      [
        "I",
        "l"
      ],
      [
        "p",
        "lu"
      ],
      [
        "L",
        "e"
      ],
      [
        "a",
        "t"
      ],
      [
        "u",
        "x"
      ],
      [
        "è",
        "re"
      ],
      [
        "t",
        "er"
      ],
      [
        "au",
        "x"
      ],
      [
        "a",
        "le"
      ],
      [
        "l",
        "o"
      ],
      [
        "v",
        "er"
      ],
      [
        "1",
        "9"
      ],
      [
        "r",
        "es"
      ],
      [
        "u",
        "s"
      ],
      [
        "a",
        "p"
      ],
      [
        "ur",
        "s"
      ],
      [
        "o",
        "is"
      ],
      [
        "v",
        "i"
      ],
      [
        "p",
        "u"
      ],
      [
        "è",
        "s"
      ],
      [
        "f",
        "f"
      ],
      [
        "en",
        "d"
      ],
      [
        "c",
        "o"
      ],
      [
        "L",
        "a"
      ],
      [
        "m",
        "i"
      ],
      [
        "on",
        "t"
      ],
      [
        "n",
        "é"
      ],
      [
        "r",
        "an"
      ],
      [
        "e",
        "x"
      ],
      [
        "plu",
        "s"
      ],
      [
        "son",
        "t"
      ],
      [
        "il",
        "le"
      ],
      [
        "c",
        "u"
      ],
      [
        "v",
        "o"
      ],
      [
        "ve",
        "c"
      ],
      [
        "it",
        "é"
      ],
      [
        "r",
        "o"
      ],
      [
        "c",
        "es"
      ],
      [
        "a",
        "in"
      ],
      [
        "u",
        "t"
      ],
      [
        "m",
        "é"
      ],
      [
        "m",
        "o"
      ],
      [
        "p",
        "as"
      ],
      [
        "a",
        "vec"
      ],
      [
        "ch",
        "e"
      ],
      [
        "it",
        "e"
      ],
      [
        "a",
        "b"
      ],
      [
        "p",
        "er"
      ],
      [
        "a",
        "g"
      ],
      [
        "qu",
        "es"
      ],
      [
        "s",
        "es"
      ],
      [
        "f",
        "or"
      ],
      [
        "L",
        "es"
      ],
      [
        "2",
        "0"
      ],
      [
        "n",
        "i"
      ],
      [
        "e",
        "lle"
      ],
      [
        "in",
        "s"
      ],
      [
        "é",
        "té"
      ],
      [
        "s",
        "er"
      ],
      [
        "s",
        "o"
      ],
      [
        "t",
        "es"
      ],
      [
        "m",
        "b"
      ],
      [
        "p",
        "é"
      ],
      [
        "t",
        "ou"
      ],
      [
        "é",
        "ta"
      ],
      [
        "a",
        "is"
      ],
      [
        "E",
        "n"
      ],
      [
        "u",
        "e"
      ],
      [
        "par",
        "ti"
      ],
      [
        "et",
        "te"
      ],
      [
        "s",
        "é"
      ],
      [
        "c",
        "tion"
      ],
      [
        "n",
        "om"
      ],
      [
        "or",
        "s"
      ],
      [
        "in",
        "e"
      ],
      [
        "si",
        "on"
      ],
      [
        "m",
        "an"
      ],
      [
        "l",
        "é"
      ],
      [
        "t",
        "o"
      ],
      [
        "a",
        "it"
      ],
      [
        "f",
        "i"
      ],
      [
        "p",
        "or"
      ],
      [
        "s",
        "ou"
      ],
      [
        "t",
        "s"
      ],
      [
        "ma",
        "is"
      ],
      [
        "m",
        "es"
      ],
      [
        "p",
        "h"
      ],
      [
        "de",
        "ux"
      ],
      [
        "i",
        "g"
      ],
      [
        "p",
        "re"
      ],
      [
        "f",
        "in"
      ],
      [
        "d",
        "is"
      ],
      [
        "com",
        "m"
      ],
      [
        "ent",
        "re"
      ],
      [
        "l",
        "is"
      ],
      [
        "l",
        "on"
      ],
      [
        "m",
        "on"
      ],
      [
        "p",
        "a"
      ],
      [
        "c",
        "a"
      ],
      [
        "ou",
        "ve"
      ],
      [
        "l",
        "an"
      ],
      [
        "c",
        "ou"
      ],
      [
        "n",
        "o"
      ],
      [
        "lu",
        "i"
      ],
      [
        "m",
        "ar"
      ],
      [
        "g",
        "é"
      ],
      [
        "d",
        "on"
      ],
      [
        "en",
        "ce"
      ],
      [
        "i",
        "on"
      ],
      [
        "er",
        "s"
      ],
      [
        "e",
        "l"
      ],
      [
        "m",
        "in"
      ],
      [
        "tr",
        "es"
      ],
      [
        "pr",
        "é"
      ],
      [
        "t",
        "h"
      ],
      [
        "t",
        "ant"
      ],
      [
        "pr",
        "ès"
      ],
      [
        "é",
        "g"
      ],
      [
        "pre",
        "mi"
      ],
      [
        "i",
        "ent"
      ],
      [
        "d",
        "o"
      ],
      [
        "c",
        "ar"
      ],
      [
        "b",
        "re"
      ],
      [
        "n",
        "a"
      ],
      [
        "ir",
        "es"
      ],
      [
        "e",
        "u"
      ],
      [
        "de",
        "r"
      ],
      [
        "tion",
        "s"
      ],
      [
        "en",
        "s"
      ],
      [
        "fa",
        "it"
      ],
      [
        "g",
        "u"
      ],
      [
        "s",
        "si"
      ],
      [
        "b",
        "le"
      ],
      [
        "é",
        "r"
      ],
      [
        "v",
        "ent"
      ],
      [
        "t",
        "en"
      ],
      [
        "r",
        "ou"
      ],
      [
        "com",
        "me"
      ],
      [
        "con",
        "s"
      ],
      [
        "te",
        "ur"
      ],
      [
        "c",
        "our"
      ],
      [
        ")",
        "."
      ],
      [
        "o",
        "b"
      ],
      [
        "ti",
        "que"
      ],
      [
        "i",
        "que"
      ],
      [
        "j",
        "our"
      ],
      [
        "pu",
        "is"
      ],
      [
        "ale",
        "ment"
      ],
      [
        "tu",
        "re"
      ],
      [
        "le",
        "ur"
      ],
      [
        "tr",
        "i"
      ],
      [
        "or",
        "d"
      ],
      [
        "a",
        "m"
      ],
      [
        "c",
        "é"
      ],
      [
        "c",
        "er"
      ],
      [
        "c",
        "ette"
      ],
      [
        "1",
        "8"
      ],
      [
        "ê",
        "tre"
      ],
      [
        "an",
        "ce"
      ],
      [
        "i",
        "m"
      ],
      [
        "tr",
        "a"
      ],
      [
        "r",
        "ie"
      ],
      [
        "ant",
        "s"
      ],
      [
        "is",
        "e"
      ],
      [
        "E",
        "lle"
      ],
      [
        "C",
        "h"
      ],
      [
        "tr",
        "u"
      ],
      [
        "v",
        "en"
      ],
      [
        "com",
        "p"
      ],
      [
        "ê",
        "me"
      ],
      [
        "pr",
        "és"
      ],
      [
        "p",
        "la"
      ],
      [
        "ch",
        "a"
      ],
      [
        "p",
        "i"
      ],
      [
        "b",
        "li"
      ],
      [
        "ment",
        "s"
      ],
      [
        "C",
        "e"
      ],
      [
        "t",
        "our"
      ],
      [
        "n",
        "es"
      ],
      [
        "il",
        "s"
      ],
      [
        "c",
        "r"
      ],
      [
        "m",
        "et"
      ],
      [
        "f",
        "on"
      ],
      [
        "è",
        "me"
      ],
      [
        "po",
        "s"
      ],
      [
        "ar",
        "d"
      ],
      [
        "éta",
        "it"
      ],
      [
        "b",
        "i"
      ],
      [
        "a",
        "d"
      ],
      [
        "ver",
        "s"
      ],
      [
        "g",
        "ra"
      ],
      [
        "g",
        "ran"
      ],
      [
        "on",
        "s"
      ],
      [
        "m",
        "ême"
      ],
      [
        "é",
        "es"
      ],
      [
        "pe",
        "u"
      ],
      [
        "20",
        "0"
      ],
      [
        "ti",
        "n"
      ],
      [
        "y",
        "s"
      ],
      [
        "v",
        "is"
      ],
      [
        "al",
        "is"
      ],
      [
        "D",
        "e"
      ],
      [
        "prés",
        "ent"
      ],
      [
        "n",
        "ouve"
      ],
      [
        "end",
        "ant"
      ],
      [
        "tr",
        "av"
      ],
      [
        "g",
        "es"
      ],
      [
        "a",
        "ge"
      ],
      [
        "in",
        "ter"
      ],
      [
        "o",
        "c"
      ],
      [
        "te",
        "mp"
      ],
      [
        "nom",
        "bre"
      ],
      [
        "en",
        "ti"
      ],
      [
        "u",
        "re"
      ],
      [
        "f",
        "ois"
      ],
      [
        "m",
        "is"
      ],
      [
        "c",
        "la"
      ],
      [
        "c",
        "ré"
      ],
      [
        "al",
        "ors"
      ],
      [
        "en",
        "ne"
      ],
      [
        "a",
        "ire"
      ],
      [
        "sou",
        "s"
      ],
      [
        "le",
        "ment"
      ],
      [
        "ég",
        "alement"
      ],
      [
        "c",
        "or"
      ],
      [
        "j",
        "e"
      ],
      [
        "an",
        "g"
      ],
      [
        "si",
        "e"
      ],
      [
        "au",
        "ssi"
      ],
      [
        "né",
        "es"
      ],
      [
        "di",
        "ff"
      ],
      [
        "u",
        "ti"
      ],
      [
        "p",
        "ou"
      ],
      [
        "n",
        "ée"
      ],
      [
        "j",
        "ou"
      ],
      [
        "pu",
        "bli"
      ],
      [
        "m",
        "il"
      ],
      [
        "t",
        "ent"
      ],
      [
        "20",
        "1"
      ],
      [
        "in",
        "t"
      ],
      [
        "v",
        "re"
      ],
      [
        "i",
        "mp"
      ],
      [
        "t",
        "or"
      ],
      [
        "r",
        "en"
      ],
      [
        "au",
        "tres"
      ],
      [
        "v",
        "é"
      ],
      [
        "u",
        "l"
      ],
      [
        "P",
        "ar"
      ],
      [
        "an",
        "te"
      ],
      [
        "o",
        "s"
      ],
      [
        "pe",
        "ut"
      ],
      [
        "l",
        "les"
      ],
      [
        "ation",
        "s"
      ],
      [
        "ti",
        "tu"
      ],
      [
        "è",
        "res"
      ],
      [
        "ci",
        "p"
      ],
      [
        "ch",
        "er"
      ],
      [
        "h",
        "u"
      ],
      [
        "is",
        "on"
      ],
      [
        "pr",
        "i"
      ],
      [
        "l",
        "ors"
      ],
      [
        "so",
        "ci"
      ],
      [
        "ti",
        "f"
      ],
      [
        "tr",
        "ès"
      ],
      [
        "b",
        "e"
      ],
      [
        "tr",
        "ois"
      ],
      [
        "v",
        "es"
      ],
      [
        "e",
        "ff"
      ],
      [
        "e",
        "mp"
      ],
      [
        "a",
        "près"
      ],
      [
        "p",
        "endant"
      ],
      [
        "o",
        "l"
      ],
      [
        "f",
        "ut"
      ],
      [
        "d",
        "a"
      ],
      [
        ")",
        ","
      ],
      [
        "pr",
        "end"
      ],
      [
        "l",
        "è"
      ],
      [
        "li",
        "g"
      ],
      [
        "d",
        "ent"
      ],
      [
        "tou",
        "t"
      ],
      [
        "uti",
        "lis"
      ],
      [
        "cu",
        "l"
      ],
      [
        "or",
        "t"
      ],
      [
        "ur",
        "es"
      ],
      [
        "en",
        "se"
      ],
      [
        "al",
        "i"
      ],
      [
        "n",
        "u"
      ],
      [
        "v",
        "a"
      ],
      [
        "n",
        "er"
      ],
      [
        "er",
        "re"
      ],
      [
        "per",
        "son"
      ],
      [
        "j",
        "us"
      ],
      [
        "b",
        "u"
      ],
      [
        "ti",
        "s"
      ],
      [
        "b",
        "a"
      ],
      [
        "j",
        "et"
      ],
      [
        "lo",
        "g"
      ],
      [
        "su",
        "ite"
      ],
      [
        "con",
        "tre"
      ],
      [
        "F",
        "ran"
      ],
      [
        "M",
        "ar"
      ],
      [
        "te",
        "urs"
      ],
      [
        "it",
        "és"
      ],
      [
        "ou",
        "ver"
      ],
      [
        "c",
        "ent"
      ],
      [
        "an",
        "d"
      ],
      [
        "que",
        "l"
      ],
      [
        "parti",
        "e"
      ],
      [
        "i",
        "c"
      ],
      [
        "in",
        "es"
      ],
      [
        "pr",
        "in"
      ],
      [
        "vi",
        "ent"
      ],
      [
        "gé",
        "né"
      ],
      [
        "av",
        "ant"
      ],
      [
        "A",
        "u"
      ],
      [
        "comm",
        "un"
      ],
      [
        "U",
        "n"
      ],
      [
        "o",
        "ù"
      ],
      [
        "v",
        "ille"
      ],
      [
        "e",
        "m"
      ],
      [
        "v",
        "ie"
      ],
      [
        "g",
        "rou"
      ],
      [
        "it",
        "s"
      ],
      [
        "ain",
        "si"
      ],
      [
        "s",
        "it"
      ],
      [
        "sie",
        "urs"
      ],
      [
        "in",
        "g"
      ],
      [
        "der",
        "ni"
      ],
      [
        "v",
        "ant"
      ],
      [
        "temp",
        "s"
      ],
      [
        "pro",
        "du"
      ],
      [
        "é",
        "qui"
      ],
      [
        "ti",
        "ve"
      ],
      [
        "ne",
        "ment"
      ],
      [
        "r",
        "is"
      ],
      [
        "vo",
        "ir"
      ],
      [
        "n",
        "on"
      ],
      [
        "r",
        "ent"
      ],
      [
        "t",
        "al"
      ],
      [
        "ti",
        "ques"
      ],
      [
        "d",
        "ont"
      ],
      [
        "C",
        "ette"
      ],
      [
        "b",
        "les"
      ],
      [
        "le",
        "urs"
      ],
      [
        "ré",
        "g"
      ],
      [
        "A",
        "n"
      ],
      [
        "te",
        "ment"
      ],
      [
        "h",
        "om"
      ],
      [
        "D",
        "ans"
      ],
      [
        "n",
        "ation"
      ],
      [
        "cons",
        "tru"
      ],
      [
        "c",
        "ri"
      ],
      [
        "l",
        "s"
      ],
      [
        "o",
        "p"
      ],
      [
        "a",
        "i"
      ],
      [
        "h",
        "is"
      ],
      [
        "su",
        "i"
      ],
      [
        "po",
        "si"
      ],
      [
        "o",
        "ir"
      ],
      [
        "le",
        "r"
      ],
      [
        "19",
        "9"
      ],
      [
        "p",
        "on"
      ],
      [
        "an",
        "nées"
      ],
      [
        "pr",
        "es"
      ],
      [
        "ain",
        "e"
      ],
      [
        "premi",
        "er"
      ],
      [
        "il",
        "la"
      ],
      [
        "b",
        "ut"
      ],
      [
        "f",
        "ran"
      ],
      [
        "plu",
        "sieurs"
      ],
      [
        "di",
        "re"
      ],
      [
        "is",
        "te"
      ],
      [
        "cour",
        "s"
      ],
      [
        "si",
        "g"
      ],
      [
        "premi",
        "ère"
      ],
      [
        "an",
        "ci"
      ],
      [
        "m",
        "u"
      ],
      [
        "s",
        "ans"
      ],
      [
        "t",
        "y"
      ],
      [
        "t",
        "on"
      ],
      [
        "per",
        "met"
      ],
      [
        "re",
        "r"
      ],
      [
        "qu",
        "a"
      ],
      [
        "la",
        "tion"
      ],
      [
        "fa",
        "ire"
      ],
      [
        "a",
        "y"
      ],
      [
        "par",
        "t"
      ],
      [
        "0",
        "0"
      ],
      [
        "mb",
        "re"
      ],
      [
        "jour",
        "s"
      ],
      [
        "or",
        "g"
      ],
      [
        "é",
        "le"
      ],
      [
        "un",
        "i"
      ],
      [
        "la",
        "is"
      ],
      [
        "c",
        "in"
      ],
      [
        "tr",
        "ans"
      ],
      [
        "p",
        "es"
      ],
      [
        "ch",
        "es"
      ],
      [
        "ou",
        "s"
      ],
      [
        "d",
        "re"
      ],
      [
        "s",
        "or"
      ],
      [
        "r",
        "u"
      ],
      [
        "o",
        "ff"
      ],
      [
        "in",
        "té"
      ],
      [
        "f",
        "il"
      ],
      [
        "lon",
        "g"
      ],
      [
        "u",
        "se"
      ],
      [
        "c",
        "lu"
      ],
      [
        "to",
        "ire"
      ],
      [
        "n",
        "ent"
      ],
      [
        "tr",
        "ou"
      ],
      [
        "é",
        "tu"
      ],
      [
        "c",
        "ap"
      ],
      [
        "pe",
        "ti"
      ],
      [
        "U",
        "ne"
      ],
      [
        "c",
        "ation"
      ],
      [
        "po",
        "li"
      ],
      [
        "au",
        "tre"
      ],
      [
        "av",
        "ait"
      ],
      [
        "trav",
        "a"
      ],
      [
        "ent",
        "s"
      ],
      [
        "r",
        "on"
      ],
      [
        "m",
        "en"
      ],
      [
        "jus",
        "qu"
      ],
      [
        "au",
        "t"
      ],
      [
        "f",
        "er"
      ],
      [
        "al",
        "ité"
      ],
      [
        "d",
        "s"
      ],
      [
        "m",
        "er"
      ],
      [
        "e",
        "ur"
      ],
      [
        "bi",
        "en"
      ],
      [
        "cer",
        "ta"
      ],
      [
        "ç",
        "ais"
      ],
      [
        "d",
        "ro"
      ],
      [
        "diff",
        "ér"
      ],
      [
        "cou",
        "p"
      ],
      [
        "grou",
        "pe"
      ],
      [
        "s",
        "ta"
      ],
      [
        "s",
        "se"
      ],
      [
        "mo",
        "ins"
      ],
      [
        "e",
        "c"
      ],
      [
        "av",
        "oir"
      ],
      [
        "r",
        "it"
      ],
      [
        "v",
        "ir"
      ],
      [
        "c",
        "an"
      ],
      [
        "j",
        "u"
      ],
      [
        "h",
        "ab"
      ],
      [
        "pla",
        "ce"
      ],
      [
        "1",
        "7"
      ],
      [
        "i",
        "ème"
      ],
      [
        "a",
        "les"
      ],
      [
        "ap",
        "pe"
      ],
      [
        "i",
        "es"
      ],
      [
        "ra",
        "tion"
      ],
      [
        "h",
        "i"
      ],
      [
        "ce",
        "p"
      ],
      [
        "r",
        "est"
      ],
      [
        "g",
        "r"
      ],
      [
        "ab",
        "le"
      ],
      [
        "mb",
        "le"
      ],
      [
        "O",
        "n"
      ],
      [
        "as",
        "s"
      ],
      [
        "for",
        "me"
      ],
      [
        "la",
        "r"
      ],
      [
        "ar",
        "i"
      ],
      [
        "ar",
        "ri"
      ],
      [
        "org",
        "an"
      ],
      [
        "pé",
        "ri"
      ],
      [
        "for",
        "ma"
      ],
      [
        "ti",
        "v"
      ],
      [
        "ch",
        "i"
      ],
      [
        "b",
        "er"
      ],
      [
        "d",
        "ou"
      ],
      [
        "ê",
        "te"
      ],
      [
        "en",
        "f"
      ],
      [
        "pr",
        "is"
      ],
      [
        "con",
        "tr"
      ],
      [
        "ap",
        "par"
      ],
      [
        "sit",
        "u"
      ],
      [
        "ra",
        "p"
      ],
      [
        "don",
        "c"
      ],
      [
        "S",
        "ain"
      ],
      [
        "de",
        "puis"
      ],
      [
        "b",
        "at"
      ],
      [
        "té",
        "s"
      ],
      [
        "ch",
        "an"
      ],
      [
        "l",
        "it"
      ],
      [
        "m",
        "ment"
      ],
      [
        "19",
        "8"
      ],
      [
        "p",
        "li"
      ],
      [
        "tou",
        "s"
      ],
      [
        "A",
        "r"
      ],
      [
        "ch",
        "ar"
      ],
      [
        "i",
        "ques"
      ],
      [
        "c",
        "t"
      ],
      [
        "a",
        "ires"
      ],
      [
        "or",
        "ig"
      ],
      [
        "p",
        "s"
      ],
      [
        "Fran",
        "ce"
      ],
      [
        "por",
        "t"
      ],
      [
        "b",
        "é"
      ],
      [
        "S",
        "on"
      ],
      [
        "co",
        "l"
      ],
      [
        "A",
        "près"
      ],
      [
        "fran",
        "çais"
      ],
      [
        "tr",
        "ouve"
      ],
      [
        "i",
        "x"
      ],
      [
        "g",
        "a"
      ],
      [
        "œ",
        "u"
      ],
      [
        "an",
        "née"
      ],
      [
        "co",
        "re"
      ],
      [
        "d",
        "it"
      ],
      [
        "r",
        "al"
      ],
      [
        "f",
        "es"
      ],
      [
        "I",
        "n"
      ],
      [
        "h",
        "e"
      ],
      [
        "o",
        "de"
      ],
      [
        "r",
        "om"
      ],
      [
        "prin",
        "cip"
      ],
      [
        "e",
        "ux"
      ],
      [
        "g",
        "ar"
      ],
      [
        "pa",
        "ys"
      ],
      [
        "d",
        "om"
      ],
      [
        "v",
        "it"
      ],
      [
        "re",
        "mp"
      ],
      [
        "m",
        "ée"
      ],
      [
        "c",
        "as"
      ],
      [
        "re",
        "présent"
      ],
      [
        "ré",
        "e"
      ],
      [
        "Il",
        "s"
      ],
      [
        "tr",
        "o"
      ],
      [
        "us",
        "es"
      ],
      [
        "f",
        "é"
      ],
      [
        "lo",
        "p"
      ],
      [
        "è",
        "ne"
      ],
      [
        "ma",
        "in"
      ],
      [
        "l",
        "in"
      ],
      [
        "ve",
        "lop"
      ],
      [
        "di",
        "tion"
      ],
      [
        "o",
        "pé"
      ],
      [
        "s",
        "ent"
      ],
      [
        "a",
        "mé"
      ],
      [
        "ch",
        "é"
      ],
      [
        "P",
        "our"
      ],
      [
        "c",
        "le"
      ],
      [
        "C",
        "om"
      ],
      [
        "su",
        "s"
      ],
      [
        "19",
        "7"
      ],
      [
        "li",
        "eu"
      ],
      [
        "h",
        "é"
      ],
      [
        "a",
        "ff"
      ],
      [
        "l",
        "ée"
      ],
      [
        "th",
        "é"
      ],
      [
        "posi",
        "tion"
      ],
      [
        "il",
        "les"
      ],
      [
        "al",
        "le"
      ],
      [
        "g",
        "er"
      ],
      [
        "j",
        "a"
      ],
      [
        "el",
        "les"
      ],
      [
        "f",
        "em"
      ],
      [
        "a",
        "ient"
      ],
      [
        "s",
        "ant"
      ],
      [
        "i",
        "d"
      ],
      [
        "cr",
        "it"
      ],
      [
        "hab",
        "it"
      ],
      [
        "gra",
        "ph"
      ],
      [
        "con",
        "n"
      ],
      [
        "as",
        "se"
      ],
      [
        "i",
        "ci"
      ],
      [
        "po",
        "pu"
      ],
      [
        "se",
        "u"
      ],
      [
        "M",
        "ais"
      ],
      [
        "c",
        "ès"
      ],
      [
        "Sain",
        "t"
      ],
      [
        "»",
        "."
      ],
      [
        "po",
        "se"
      ],
      [
        "o",
        "log"
      ],
      [
        "en",
        "core"
      ],
      [
        "dé",
        "velop"
      ],
      [
        "i",
        "ti"
      ],
      [
        "ction",
        "s"
      ],
      [
        "l",
        "ant"
      ],
      [
        "c",
        "ô"
      ],
      [
        "min",
        "is"
      ],
      [
        "in",
        "f"
      ],
      [
        "comm",
        "une"
      ],
      [
        "gran",
        "de"
      ],
      [
        "v",
        "ra"
      ],
      [
        "t",
        "an"
      ],
      [
        "S",
        "a"
      ],
      [
        "C",
        "on"
      ],
      [
        "la",
        "ire"
      ],
      [
        "ag",
        "es"
      ],
      [
        "É",
        "ta"
      ],
      [
        "S",
        "e"
      ],
      [
        "ré",
        "s"
      ],
      [
        "por",
        "te"
      ],
      [
        "b",
        "il"
      ],
      [
        "A",
        "l"
      ],
      [
        "mon",
        "de"
      ],
      [
        "m",
        "ille"
      ],
      [
        "su",
        "c"
      ],
      [
        "in",
        "di"
      ],
      [
        "mis",
        "sion"
      ],
      [
        "ar",
        "ti"
      ],
      [
        "rég",
        "ion"
      ],
      [
        "v",
        "al"
      ],
      [
        "se",
        "con"
      ],
      [
        "b",
        "ou"
      ],
      [
        "équi",
        "pe"
      ],
      [
        "organ",
        "is"
      ],
      [
        "ri",
        "c"
      ],
      [
        "c",
        "teur"
      ],
      [
        "p",
        "ère"
      ],
      [
        "C",
        "es"
      ],
      [
        "1",
        "6"
      ],
      [
        "b",
        "on"
      ],
      [
        "c",
        "al"
      ],
      [
        "o",
        "ire"
      ],
      [
        "l",
        "y"
      ],
      [
        "con",
        "f"
      ],
      [
        "d",
        "ur"
      ],
      [
        "s",
        "y"
      ],
      [
        "ti",
        "ent"
      ],
      [
        "nouve",
        "au"
      ],
      [
        "R",
        "o"
      ],
      [
        "qua",
        "tre"
      ],
      [
        "sa",
        "ison"
      ],
      [
        "m",
        "or"
      ],
      [
        "lé",
        "g"
      ],
      [
        "lis",
        "e"
      ],
      [
        "vo",
        "lu"
      ],
      [
        "1",
        "5"
      ],
      [
        "ma",
        "t"
      ],
      [
        "de",
        "vient"
      ],
      [
        "parti",
        "cu"
      ],
      [
        "e",
        "au"
      ],
      [
        "en",
        "ces"
      ],
      [
        "r",
        "ê"
      ],
      [
        "quel",
        "ques"
      ],
      [
        "ré",
        "alis"
      ],
      [
        "b",
        "an"
      ],
      [
        "19",
        "6"
      ],
      [
        "g",
        "ue"
      ],
      [
        "no",
        "ta"
      ],
      [
        "j",
        "o"
      ],
      [
        "J",
        "e"
      ],
      [
        "en",
        "vir"
      ],
      [
        "m",
        "ort"
      ],
      [
        "so",
        "it"
      ],
      [
        "cha",
        "mp"
      ],
      [
        "t",
        "ard"
      ],
      [
        "fa",
        "mille"
      ],
      [
        "c",
        "is"
      ],
      [
        "ser",
        "vi"
      ],
      [
        "b",
        "as"
      ],
      [
        "c",
        "k"
      ],
      [
        "mé",
        "di"
      ],
      [
        "v",
        "illa"
      ],
      [
        "dé",
        "but"
      ],
      [
        "man",
        "de"
      ],
      [
        "éta",
        "ient"
      ],
      [
        "tou",
        "te"
      ],
      [
        "vo",
        "y"
      ],
      [
        "p",
        "lan"
      ],
      [
        "o",
        "t"
      ],
      [
        "parti",
        "r"
      ],
      [
        "pe",
        "c"
      ],
      [
        "s",
        "ance"
      ],
      [
        "ra",
        "it"
      ],
      [
        "c",
        "ro"
      ],
      [
        "gran",
        "d"
      ],
      [
        "s",
        "pé"
      ],
      [
        "fa",
        "ce"
      ],
      [
        "eff",
        "et"
      ],
      [
        "é",
        "co"
      ],
      [
        "ô",
        "le"
      ],
      [
        "g",
        "ne"
      ],
      [
        "1",
        "0"
      ],
      [
        "nombre",
        "ux"
      ],
      [
        "te",
        "l"
      ],
      [
        "b",
        "ar"
      ],
      [
        "s",
        "ys"
      ],
      [
        "S",
        "u"
      ],
      [
        "le",
        "t"
      ],
      [
        "te",
        "au"
      ],
      [
        "R",
        "e"
      ],
      [
        "es",
        "p"
      ],
      [
        "h",
        "a"
      ],
      [
        "sou",
        "vent"
      ],
      [
        "c",
        "ur"
      ],
      [
        "envir",
        "on"
      ],
      [
        "do",
        "it"
      ],
      [
        "z",
        "on"
      ],
      [
        "publi",
        "c"
      ],
      [
        "ce",
        "lui"
      ],
      [
        "elle",
        "ment"
      ],
      [
        "ère",
        "ment"
      ],
      [
        "m",
        "al"
      ],
      [
        "li",
        "er"
      ],
      [
        "du",
        "s"
      ],
      [
        "cons",
        "titu"
      ],
      [
        "trava",
        "il"
      ],
      [
        "nouve",
        "lle"
      ],
      [
        "D",
        "es"
      ],
      [
        "té",
        "rie"
      ],
      [
        "mu",
        "si"
      ],
      [
        "derni",
        "er"
      ],
      [
        "i",
        "ma"
      ],
      [
        "his",
        "toire"
      ],
      [
        "19",
        "4"
      ],
      [
        "imp",
        "or"
      ],
      [
        "b",
        "â"
      ],
      [
        "ce",
        "lle"
      ],
      [
        "man",
        "i"
      ],
      [
        "té",
        "e"
      ],
      [
        "peu",
        "vent"
      ],
      [
        "Q",
        "u"
      ],
      [
        "è",
        "rent"
      ],
      [
        "pr",
        "ise"
      ],
      [
        "con",
        "si"
      ],
      [
        "tou",
        "jours"
      ],
      [
        "vis",
        "ion"
      ],
      [
        "sa",
        "ge"
      ],
      [
        "d",
        "at"
      ],
      [
        "dé",
        "p"
      ],
      [
        "é",
        "p"
      ],
      [
        "cha",
        "que"
      ],
      [
        "dé",
        "cou"
      ],
      [
        "g",
        "o"
      ],
      [
        "con",
        "tin"
      ],
      [
        "ie",
        "ux"
      ],
      [
        "i",
        "er"
      ],
      [
        "é",
        "po"
      ],
      [
        "res",
        "te"
      ],
      [
        "pro",
        "fes"
      ],
      [
        "en",
        "suite"
      ],
      [
        "z",
        "e"
      ],
      [
        "fon",
        "ction"
      ],
      [
        "ch",
        "o"
      ],
      [
        "u",
        "m"
      ],
      [
        "v",
        "ée"
      ],
      [
        "f",
        "r"
      ],
      [
        "en",
        "nent"
      ],
      [
        "ri",
        "ère"
      ],
      [
        "spé",
        "ci"
      ],
      [
        "g",
        "ouver"
      ],
      [
        "Par",
        "is"
      ],
      [
        "at",
        "ta"
      ],
      [
        "n",
        "ant"
      ],
      [
        "sys",
        "t"
      ],
      [
        "de",
        "ven"
      ],
      [
        "f",
        "ils"
      ],
      [
        "j",
        "eu"
      ],
      [
        "nota",
        "mment"
      ],
      [
        "comp",
        "ag"
      ],
      [
        "ni",
        "ve"
      ],
      [
        "su",
        "l"
      ],
      [
        "dé",
        "ci"
      ],
      [
        "b",
        "o"
      ],
      [
        "f",
        "u"
      ],
      [
        "î",
        "t"
      ],
      [
        "gu",
        "erre"
      ],
      [
        "clu",
        "b"
      ],
      [
        "épo",
        "que"
      ],
      [
        "v",
        "res"
      ],
      [
        "sion",
        "s"
      ],
      [
        "be",
        "au"
      ],
      [
        "n",
        "ie"
      ],
      [
        "»",
        ","
      ],
      [
        "ser",
        "a"
      ],
      [
        "dé",
        "f"
      ],
      [
        "at",
        "h"
      ],
      [
        "J",
        "o"
      ],
      [
        "si",
        "è"
      ],
      [
        "sé",
        "rie"
      ],
      [
        "ent",
        "e"
      ],
      [
        "end",
        "re"
      ],
      [
        "ne",
        "ur"
      ],
      [
        "M",
        "a"
      ],
      [
        "ti",
        "tre"
      ],
      [
        "po",
        "sé"
      ],
      [
        "pro",
        "b"
      ],
      [
        "pro",
        "jet"
      ],
      [
        "T",
        "ou"
      ],
      [
        "ég",
        "lise"
      ],
      [
        "i",
        "a"
      ],
      [
        "ex",
        "emp"
      ],
      [
        "hu",
        "i"
      ],
      [
        "t",
        "om"
      ],
      [
        "fil",
        "m"
      ],
      [
        "19",
        "5"
      ],
      [
        "é",
        "tant"
      ],
      [
        "b",
        "or"
      ],
      [
        "ar",
        "t"
      ],
      [
        "bâ",
        "ti"
      ],
      [
        "cu",
        "e"
      ],
      [
        "n",
        "ord"
      ],
      [
        "i",
        "en"
      ],
      [
        "ac",
        "tiv"
      ],
      [
        "te",
        "ch"
      ],
      [
        "re",
        "tour"
      ],
      [
        "géné",
        "ra"
      ],
      [
        "re",
        "g"
      ],
      [
        "tif",
        "s"
      ],
      [
        "po",
        "ssi"
      ],
      [
        "su",
        "d"
      ],
      [
        "dé",
        "e"
      ],
      [
        "oc",
        "cu"
      ],
      [
        "c",
        "re"
      ],
      [
        "an",
        "ti"
      ],
      [
        "so",
        "l"
      ],
      [
        "mb",
        "res"
      ],
      [
        "è",
        "de"
      ],
      [
        "ô",
        "t"
      ],
      [
        "m",
        "ois"
      ],
      [
        "ex",
        "p"
      ],
      [
        "ur",
        "ent"
      ],
      [
        "se",
        "ment"
      ],
      [
        "vo",
        "it"
      ],
      [
        "c",
        "s"
      ],
      [
        "ille",
        "urs"
      ],
      [
        "su",
        "p"
      ],
      [
        "qu",
        "er"
      ],
      [
        "1",
        "4"
      ],
      [
        "res",
        "pon"
      ],
      [
        "h",
        "au"
      ],
      [
        "19",
        "3"
      ],
      [
        "ense",
        "mble"
      ],
      [
        "pou",
        "voir"
      ],
      [
        "pré",
        "si"
      ],
      [
        "vi",
        "c"
      ],
      [
        "1",
        "2"
      ],
      [
        "î",
        "tre"
      ],
      [
        "a",
        "fin"
      ],
      [
        "v",
        "in"
      ],
      [
        "ie",
        "u"
      ],
      [
        "en",
        "g"
      ],
      [
        "ri",
        "que"
      ],
      [
        "villa",
        "ge"
      ],
      [
        "cul",
        "ture"
      ],
      [
        "poli",
        "tique"
      ],
      [
        "orig",
        "ine"
      ],
      [
        "mo",
        "y"
      ],
      [
        "p",
        "le"
      ],
      [
        "G",
        "u"
      ],
      [
        "na",
        "ge"
      ],
      [
        "tri",
        "bu"
      ],
      [
        "cher",
        "che"
      ],
      [
        "impor",
        "tant"
      ],
      [
        "se",
        "ul"
      ],
      [
        "lu",
        "s"
      ],
      [
        "c",
        "entre"
      ],
      [
        "forma",
        "tion"
      ],
      [
        "tou",
        "tes"
      ],
      [
        "consi",
        "dé"
      ],
      [
        "s",
        "au"
      ],
      [
        "se",
        "p"
      ],
      [
        "ain",
        "s"
      ],
      [
        "che",
        "z"
      ],
      [
        "ac",
        "tion"
      ],
      [
        "g",
        "ré"
      ],
      [
        "géné",
        "ral"
      ],
      [
        "c",
        "au"
      ],
      [
        "na",
        "ture"
      ],
      [
        "lig",
        "ne"
      ],
      [
        "un",
        "es"
      ],
      [
        "n",
        "at"
      ],
      [
        "L",
        "ors"
      ],
      [
        "bu",
        "m"
      ],
      [
        "c",
        "it"
      ],
      [
        "qu",
        "é"
      ],
      [
        "je",
        "une"
      ],
      [
        "comp",
        "te"
      ],
      [
        "ro",
        "s"
      ],
      [
        "s",
        "our"
      ],
      [
        "au",
        "c"
      ],
      [
        "con",
        "nu"
      ],
      [
        "Ch",
        "a"
      ],
      [
        "ar",
        "tis"
      ],
      [
        "Je",
        "an"
      ],
      [
        "il",
        "i"
      ],
      [
        "ac",
        "tu"
      ],
      [
        "v",
        "ait"
      ],
      [
        "E",
        "s"
      ],
      [
        "ne",
        "l"
      ],
      [
        "ra",
        "s"
      ],
      [
        "re",
        "ç"
      ],
      [
        "al",
        "bum"
      ],
      [
        "ter",
        "min"
      ],
      [
        "mar",
        "i"
      ],
      [
        "pr",
        "a"
      ],
      [
        "S",
        "i"
      ],
      [
        "su",
        "b"
      ],
      [
        "jour",
        "d"
      ],
      [
        "soci",
        "été"
      ],
      [
        "v",
        "ue"
      ],
      [
        "enf",
        "ants"
      ],
      [
        "ne",
        "lle"
      ],
      [
        "m",
        "it"
      ],
      [
        "t",
        "te"
      ],
      [
        "a",
        "f"
      ],
      [
        "c",
        "et"
      ],
      [
        "li",
        "e"
      ],
      [
        "te",
        "x"
      ],
      [
        "champ",
        "ion"
      ],
      [
        "ent",
        "es"
      ],
      [
        "con",
        "om"
      ],
      [
        "mat",
        "ch"
      ],
      [
        "po",
        "in"
      ],
      [
        "car",
        "ac"
      ],
      [
        "ç",
        "on"
      ],
      [
        "ie",
        "l"
      ],
      [
        "tr",
        "ait"
      ],
      [
        "ay",
        "ant"
      ],
      [
        "jou",
        "e"
      ],
      [
        "hom",
        "me"
      ],
      [
        "nombre",
        "uses"
      ],
      [
        "fi",
        "c"
      ],
      [
        "mil",
        "it"
      ],
      [
        "ra",
        "pi"
      ],
      [
        "prend",
        "re"
      ],
      [
        "C",
        "ar"
      ],
      [
        "con",
        "ser"
      ],
      [
        "1",
        "3"
      ],
      [
        "po",
        "int"
      ],
      [
        "en",
        "nes"
      ],
      [
        "se",
        "ur"
      ],
      [
        "c",
        "y"
      ],
      [
        "c",
        "ture"
      ],
      [
        "nive",
        "au"
      ],
      [
        "f",
        "s"
      ],
      [
        "d",
        "è"
      ],
      [
        "ro",
        "i"
      ],
      [
        "deux",
        "ième"
      ],
      [
        "p",
        "l"
      ],
      [
        "syst",
        "ème"
      ],
      [
        "é",
        "conom"
      ],
      [
        "me",
        "mbres"
      ],
      [
        "s",
        "c"
      ],
      [
        "ins",
        "tal"
      ],
      [
        "cor",
        "ps"
      ],
      [
        "con",
        "cer"
      ],
      [
        "i",
        "ble"
      ],
      [
        "ch",
        "â"
      ],
      [
        "eff",
        "ec"
      ],
      [
        "r",
        "y"
      ],
      [
        "I",
        "I"
      ],
      [
        "m",
        "ine"
      ],
      [
        "le",
        "x"
      ],
      [
        "c",
        "ée"
      ],
      [
        "is",
        "t"
      ],
      [
        "dévelop",
        "pe"
      ],
      [
        "se",
        "lon"
      ],
      [
        "ti",
        "ves"
      ],
      [
        "ta",
        "ble"
      ],
      [
        "comm",
        "er"
      ],
      [
        "fem",
        "me"
      ],
      [
        "qu",
        "it"
      ],
      [
        "b",
        "es"
      ],
      [
        "éle",
        "c"
      ],
      [
        "at",
        "te"
      ],
      [
        "hom",
        "mes"
      ],
      [
        "lo",
        "c"
      ],
      [
        "dé",
        "fin"
      ],
      [
        "ca",
        "mp"
      ],
      [
        "m",
        "ise"
      ],
      [
        "constru",
        "ction"
      ],
      [
        "ag",
        "it"
      ],
      [
        "œu",
        "vre"
      ],
      [
        "popu",
        "lation"
      ],
      [
        "s",
        "enti"
      ],
      [
        "n",
        "av"
      ],
      [
        "Ce",
        "pendant"
      ],
      [
        "cin",
        "q"
      ],
      [
        "b",
        "r"
      ],
      [
        "b",
        "al"
      ],
      [
        "co",
        "lle"
      ],
      [
        "l",
        "ent"
      ],
      [
        "M",
        "on"
      ],
      [
        "ent",
        "ra"
      ],
      [
        "du",
        "it"
      ],
      [
        "person",
        "nes"
      ],
      [
        "v",
        "ari"
      ],
      [
        "au",
        "tor"
      ],
      [
        "péri",
        "ode"
      ],
      [
        "ten",
        "u"
      ],
      [
        "as",
        "soci"
      ],
      [
        "cô",
        "té"
      ],
      [
        "pro",
        "pri"
      ],
      [
        "s",
        "ens"
      ],
      [
        "nation",
        "al"
      ],
      [
        "s",
        "om"
      ],
      [
        "m",
        "ère"
      ],
      [
        "sor",
        "ti"
      ],
      [
        "pres",
        "sion"
      ],
      [
        "s",
        "ite"
      ],
      [
        "con",
        "se"
      ],
      [
        "co",
        "lon"
      ],
      [
        "com",
        "bat"
      ],
      [
        "pi",
        "è"
      ],
      [
        "s",
        "ci"
      ],
      [
        "man",
        "d"
      ],
      [
        "s",
        "in"
      ],
      [
        "don",
        "ne"
      ],
      [
        "h",
        "y"
      ],
      [
        "mais",
        "on"
      ],
      [
        "gra",
        "m"
      ],
      [
        "d",
        "ra"
      ],
      [
        "ar",
        "ch"
      ],
      [
        "g",
        "ie"
      ],
      [
        "l",
        "à"
      ],
      [
        "rapi",
        "de"
      ],
      [
        "a",
        "ch"
      ],
      [
        "p",
        "en"
      ],
      [
        "pr",
        "om"
      ],
      [
        "chan",
        "ge"
      ],
      [
        "œ",
        "ur"
      ],
      [
        "â",
        "ce"
      ],
      [
        "a",
        "k"
      ],
      [
        "ci",
        "r"
      ],
      [
        "se",
        "au"
      ],
      [
        "exp",
        "lo"
      ],
      [
        "ag",
        "ne"
      ],
      [
        "car",
        "rière"
      ],
      [
        "é",
        "crit"
      ],
      [
        "b",
        "ri"
      ],
      [
        "uni",
        "vers"
      ],
      [
        "re",
        "f"
      ],
      [
        "o",
        "y"
      ],
      [
        "ain",
        "es"
      ],
      [
        "P",
        "i"
      ],
      [
        "th",
        "è"
      ],
      [
        "ni",
        "que"
      ],
      [
        "è",
        "tres"
      ],
      [
        "ten",
        "ir"
      ],
      [
        "mil",
        "li"
      ],
      [
        "M",
        "i"
      ],
      [
        "gu",
        "es"
      ],
      [
        "éco",
        "le"
      ],
      [
        "c",
        "ra"
      ],
      [
        "re",
        "la"
      ],
      [
        "di",
        "tions"
      ],
      [
        "beau",
        "coup"
      ],
      [
        "f",
        "ille"
      ],
      [
        "é",
        "v"
      ],
      [
        "parti",
        "ci"
      ],
      [
        "étu",
        "des"
      ],
      [
        "his",
        "tor"
      ],
      [
        "dro",
        "it"
      ],
      [
        "ra",
        "ison"
      ],
      [
        "ti",
        "ère"
      ],
      [
        "né",
        "ces"
      ],
      [
        "gouver",
        "nement"
      ],
      [
        "ter",
        "re"
      ],
      [
        "tive",
        "ment"
      ],
      [
        "ta",
        "ille"
      ],
      [
        "L",
        "i"
      ],
      [
        "ue",
        "l"
      ],
      [
        "n",
        "or"
      ],
      [
        "é",
        "lé"
      ],
      [
        "il",
        "o"
      ],
      [
        "certa",
        "ins"
      ],
      [
        "n",
        "al"
      ],
      [
        "au",
        "g"
      ],
      [
        "produ",
        "ction"
      ],
      [
        "E",
        "ur"
      ],
      [
        "amé",
        "ric"
      ],
      [
        "di",
        "ri"
      ],
      [
        "di",
        "fi"
      ],
      [
        "i",
        "tion"
      ],
      [
        "é",
        "tr"
      ],
      [
        "ter",
        "rit"
      ],
      [
        "rie",
        "ur"
      ],
      [
        "N",
        "e"
      ],
      [
        "t",
        "ère"
      ],
      [
        "é",
        "volu"
      ],
      [
        "19",
        "2"
      ],
      [
        "S",
        "o"
      ],
      [
        "t",
        "end"
      ],
      [
        "la",
        "ires"
      ],
      [
        "c",
        "li"
      ],
      [
        "ais",
        "sance"
      ],
      [
        "g",
        "ent"
      ],
      [
        "pris",
        "es"
      ],
      [
        "ense",
        "ig"
      ],
      [
        "b",
        "our"
      ],
      [
        "exemp",
        "le"
      ],
      [
        "dur",
        "ant"
      ],
      [
        "P",
        "a"
      ],
      [
        "esp",
        "è"
      ],
      [
        "b",
        "ois"
      ],
      [
        "habit",
        "ants"
      ],
      [
        "suc",
        "cès"
      ],
      [
        "v",
        "u"
      ],
      [
        "remp",
        "or"
      ],
      [
        "il",
        "li"
      ],
      [
        "servi",
        "ce"
      ],
      [
        "ta",
        "tion"
      ],
      [
        "lar",
        "ge"
      ],
      [
        "si",
        "mp"
      ],
      [
        "f",
        "eu"
      ],
      [
        "b",
        "lan"
      ],
      [
        "h",
        "ô"
      ],
      [
        "prési",
        "dent"
      ],
      [
        "f",
        "urent"
      ],
      [
        "emp",
        "lo"
      ],
      [
        "or",
        "i"
      ],
      [
        "ob",
        "jet"
      ],
      [
        "U",
        "ni"
      ],
      [
        "ille",
        "r"
      ],
      [
        "k",
        "e"
      ],
      [
        "ma",
        "s"
      ],
      [
        "Ch",
        "ar"
      ],
      [
        "si",
        "x"
      ],
      [
        "ba",
        "se"
      ],
      [
        "pas",
        "se"
      ],
      [
        "L",
        "u"
      ],
      [
        "Éta",
        "ts"
      ],
      [
        "ar",
        "mée"
      ],
      [
        "imp",
        "ort"
      ],
      [
        "commun",
        "es"
      ],
      [
        "r",
        "è"
      ],
      [
        "présent",
        "e"
      ],
      [
        "t",
        "ête"
      ],
      [
        "m",
        "om"
      ],
      [
        "tr",
        "é"
      ],
      [
        "n",
        "és"
      ],
      [
        "a",
        "do"
      ],
      [
        "me",
        "ur"
      ],
      [
        "nom",
        "mé"
      ],
      [
        "h",
        "on"
      ],
      [
        "fa",
        "is"
      ],
      [
        "nation",
        "ale"
      ],
      [
        "ré",
        "f"
      ],
      [
        "r",
        "ôle"
      ],
      [
        "ex",
        "iste"
      ],
      [
        "au",
        "jourd"
      ],
      [
        "lan",
        "d"
      ],
      [
        "o",
        "li"
      ],
      [
        "k",
        "i"
      ],
      [
        "S",
        "es"
      ],
      [
        "té",
        "lé"
      ],
      [
        "i",
        "le"
      ],
      [
        "é",
        "ri"
      ],
      [
        "r",
        "ur"
      ],
      [
        "é",
        "pou"
      ],
      [
        "J",
        "u"
      ],
      [
        "d",
        "ie"
      ],
      [
        "premi",
        "ers"
      ],
      [
        "ad",
        "minis"
      ],
      [
        "v",
        "ain"
      ],
      [
        "peti",
        "t"
      ],
      [
        "c",
        "les"
      ],
      [
        "sa",
        "it"
      ],
      [
        "B",
        "er"
      ],
      [
        "derni",
        "ère"
      ],
      [
        "enti",
        "fi"
      ],
      [
        "C",
        "o"
      ],
      [
        "t",
        "est"
      ],
      [
        "ro",
        "y"
      ],
      [
        "for",
        "t"
      ],
      [
        "r",
        "ant"
      ],
      [
        "an",
        "ces"
      ],
      [
        "comm",
        "ence"
      ],
      [
        "g",
        "en"
      ],
      [
        "com",
        "pé"
      ],
      [
        "ja",
        "mais"
      ],
      [
        "G",
        "ran"
      ],
      [
        "ab",
        "les"
      ],
      [
        "re",
        "c"
      ],
      [
        "ar",
        "rê"
      ],
      [
        "cr",
        "ois"
      ],
      [
        "che",
        "f"
      ],
      [
        "f",
        "our"
      ],
      [
        "d",
        "en"
      ],
      [
        "S",
        "ur"
      ],
      [
        "remp",
        "la"
      ],
      [
        "l",
        "és"
      ],
      [
        "par",
        "fois"
      ],
      [
        "m",
        "ul"
      ],
      [
        "Éta",
        "t"
      ],
      [
        "ver",
        "sion"
      ],
      [
        "je",
        "unes"
      ],
      [
        "re",
        "jo"
      ],
      [
        "cla",
        "sse"
      ],
      [
        "e",
        "mb"
      ],
      [
        "ou",
        "est"
      ],
      [
        "ven",
        "ir"
      ],
      [
        "com",
        "pos"
      ],
      [
        "châ",
        "teau"
      ],
      [
        "ce",
        "pendant"
      ],
      [
        "in",
        "dre"
      ],
      [
        "ve",
        "ment"
      ],
      [
        "poin",
        "ts"
      ],
      [
        "bil",
        "ité"
      ],
      [
        "anci",
        "en"
      ],
      [
        "cap",
        "it"
      ],
      [
        "la",
        "s"
      ],
      [
        "o",
        "i"
      ],
      [
        "qu",
        "ent"
      ],
      [
        "di",
        "o"
      ],
      [
        "étu",
        "di"
      ],
      [
        "l",
        "en"
      ],
      [
        "re",
        "lig"
      ],
      [
        "comm",
        "en"
      ],
      [
        "in",
        "te"
      ],
      [
        "an",
        "e"
      ],
      [
        "té",
        "ra"
      ],
      [
        "ci",
        "dent"
      ],
      [
        "a",
        "illeurs"
      ],
      [
        "ty",
        "pe"
      ],
      [
        "ch",
        "ans"
      ],
      [
        "fon",
        "d"
      ],
      [
        "possi",
        "ble"
      ],
      [
        "mo",
        "dè"
      ],
      [
        "r",
        "ue"
      ],
      [
        "pro",
        "gram"
      ],
      [
        "ré",
        "gu"
      ],
      [
        "â",
        "ge"
      ],
      [
        "L",
        "ou"
      ],
      [
        "se",
        "mble"
      ],
      [
        "li",
        "èrement"
      ],
      [
        "pos",
        "s"
      ],
      [
        "a",
        "mi"
      ],
      [
        "ap",
        "pli"
      ],
      [
        "c",
        "ité"
      ],
      [
        "ter",
        "ra"
      ],
      [
        "cep",
        "tion"
      ],
      [
        "ce",
        "ux"
      ],
      [
        "ac",
        "c"
      ],
      [
        "3",
        "0"
      ],
      [
        "Eur",
        "o"
      ],
      [
        "ac",
        "cue"
      ],
      [
        "trois",
        "ième"
      ],
      [
        "j",
        "à"
      ],
      [
        "é",
        "ch"
      ],
      [
        "ce",
        "la"
      ],
      [
        "fem",
        "mes"
      ],
      [
        "reg",
        "is"
      ],
      [
        "plu",
        "part"
      ],
      [
        "trav",
        "aux"
      ],
      [
        "sa",
        "ire"
      ],
      [
        "is",
        "tes"
      ],
      [
        "ta",
        "it"
      ],
      [
        "D",
        "i"
      ],
      [
        "û",
        "t"
      ],
      [
        "dé",
        "par"
      ],
      [
        "19",
        "0"
      ],
      [
        "gr",
        "âce"
      ],
      [
        "effec",
        "tu"
      ],
      [
        "r",
        "end"
      ],
      [
        "M",
        "al"
      ],
      [
        "dép",
        "end"
      ],
      [
        "ce",
        "l"
      ],
      [
        "li",
        "vre"
      ],
      [
        "m",
        "ouve"
      ],
      [
        "qu",
        "ant"
      ],
      [
        "p",
        "an"
      ],
      [
        "don",
        "né"
      ],
      [
        "d",
        "ès"
      ],
      [
        "ten",
        "ant"
      ],
      [
        "R",
        "i"
      ],
      [
        "5",
        "0"
      ],
      [
        "différ",
        "ents"
      ],
      [
        "l",
        "ou"
      ],
      [
        "x",
        "e"
      ],
      [
        "de",
        "mande"
      ],
      [
        "a",
        "de"
      ],
      [
        "f",
        "it"
      ],
      [
        "se",
        "in"
      ],
      [
        "us",
        "ée"
      ],
      [
        "développe",
        "ment"
      ],
      [
        "dé",
        "jà"
      ],
      [
        "O",
        "r"
      ],
      [
        "tra",
        "ite"
      ],
      [
        "long",
        "ue"
      ],
      [
        "f",
        "ont"
      ],
      [
        "a",
        "mb"
      ],
      [
        "tr",
        "on"
      ],
      [
        "ord",
        "re"
      ],
      [
        "je",
        "c"
      ],
      [
        "mom",
        "ent"
      ],
      [
        "que",
        "lle"
      ],
      [
        "in",
        "dus"
      ],
      [
        "différ",
        "entes"
      ],
      [
        "un",
        "ique"
      ],
      [
        "dis",
        "par"
      ],
      [
        "ré",
        "sul"
      ],
      [
        "tr",
        "ouver"
      ],
      [
        "pro",
        "che"
      ],
      [
        "pr",
        "ison"
      ],
      [
        "é",
        "ra"
      ],
      [
        "ren",
        "contre"
      ],
      [
        "tr",
        "ie"
      ],
      [
        "o",
        "graph"
      ],
      [
        "seu",
        "lement"
      ],
      [
        "me",
        "mbre"
      ],
      [
        "o",
        "to"
      ],
      [
        "ou",
        "vra"
      ],
      [
        "trav",
        "ers"
      ],
      [
        "C",
        "er"
      ],
      [
        "es",
        "se"
      ],
      [
        "v",
        "ale"
      ],
      [
        "n",
        "et"
      ],
      [
        "dire",
        "c"
      ],
      [
        "éta",
        "t"
      ],
      [
        "C",
        "or"
      ],
      [
        "d",
        "y"
      ],
      [
        "t",
        "ar"
      ],
      [
        "entra",
        "î"
      ],
      [
        "seu",
        "le"
      ],
      [
        "g",
        "au"
      ],
      [
        "peti",
        "te"
      ],
      [
        "dé",
        "c"
      ],
      [
        "in",
        "iti"
      ],
      [
        "déci",
        "de"
      ],
      [
        "sa",
        "is"
      ],
      [
        "k",
        "a"
      ],
      [
        "o",
        "f"
      ],
      [
        "t",
        "ur"
      ],
      [
        "re",
        "cherche"
      ],
      [
        "ab",
        "ord"
      ],
      [
        "è",
        "te"
      ],
      [
        "ch",
        "au"
      ],
      [
        "ré",
        "si"
      ],
      [
        "D",
        "u"
      ],
      [
        "s",
        "s"
      ],
      [
        "qu",
        "and"
      ],
      [
        "Euro",
        "pe"
      ],
      [
        "tra",
        "dition"
      ],
      [
        "ch",
        "ant"
      ],
      [
        "T",
        "he"
      ],
      [
        "profes",
        "sion"
      ],
      [
        "met",
        "tre"
      ],
      [
        "s",
        "tru"
      ],
      [
        "pri",
        "x"
      ],
      [
        "person",
        "ne"
      ],
      [
        "secon",
        "d"
      ],
      [
        "j",
        "or"
      ],
      [
        "g",
        "i"
      ],
      [
        "h",
        "t"
      ],
      [
        "o",
        "it"
      ],
      [
        "ma",
        "g"
      ],
      [
        "ex",
        "pli"
      ],
      [
        "produ",
        "it"
      ],
      [
        "musi",
        "que"
      ],
      [
        "me",
        "ille"
      ],
      [
        "s",
        "pec"
      ],
      [
        "De",
        "puis"
      ],
      [
        "français",
        "e"
      ],
      [
        "su",
        "pé"
      ],
      [
        "ép",
        "is"
      ],
      [
        "mani",
        "ère"
      ],
      [
        "is",
        "me"
      ],
      [
        "s",
        "ty"
      ],
      [
        "b",
        "el"
      ],
      [
        "off",
        "ic"
      ],
      [
        "m",
        "uni"
      ],
      [
        "ter",
        "me"
      ],
      [
        "ai",
        "de"
      ],
      [
        "rapide",
        "ment"
      ],
      [
        "pro",
        "pre"
      ],
      [
        "er",
        "t"
      ],
      [
        "dé",
        "s"
      ],
      [
        "su",
        "it"
      ],
      [
        "a",
        "teur"
      ],
      [
        "de",
        "vant"
      ],
      [
        "sui",
        "vant"
      ],
      [
        "on",
        "d"
      ],
      [
        "f",
        "ra"
      ],
      [
        "jou",
        "eur"
      ],
      [
        "S",
        "h"
      ],
      [
        "ti",
        "er"
      ],
      [
        "ab",
        "an"
      ],
      [
        "di",
        "x"
      ],
      [
        "tri",
        "ce"
      ],
      [
        "con",
        "na"
      ],
      [
        "mar",
        "que"
      ],
      [
        "b",
        "res"
      ],
      [
        "généra",
        "lement"
      ],
      [
        "1",
        "1"
      ],
      [
        "f",
        "ré"
      ],
      [
        "utilis",
        "é"
      ],
      [
        "v",
        "an"
      ],
      [
        "ti",
        "en"
      ],
      [
        "N",
        "o"
      ],
      [
        "la",
        "bor"
      ],
      [
        "ni",
        "ques"
      ],
      [
        "cré",
        "ation"
      ],
      [
        "t",
        "ôt"
      ],
      [
        "l",
        "or"
      ],
      [
        "ion",
        "s"
      ],
      [
        "rap",
        "port"
      ],
      [
        "P",
        "ro"
      ],
      [
        "aug",
        "ment"
      ],
      [
        "p",
        "ie"
      ],
      [
        "ap",
        "on"
      ],
      [
        "dis",
        "tin"
      ],
      [
        "u",
        "ve"
      ],
      [
        "ch",
        "ois"
      ],
      [
        "nu",
        "mé"
      ],
      [
        "mes",
        "ure"
      ],
      [
        "pa",
        "re"
      ],
      [
        "M",
        "o"
      ],
      [
        "pe",
        "lle"
      ],
      [
        "a",
        "ît"
      ],
      [
        "m",
        "ont"
      ],
      [
        "lé",
        "es"
      ],
      [
        "poss",
        "ède"
      ],
      [
        "p",
        "tion"
      ],
      [
        "T",
        "r"
      ],
      [
        "an",
        "non"
      ],
      [
        "is",
        "ation"
      ],
      [
        "sc",
        "ène"
      ],
      [
        "v",
        "ais"
      ],
      [
        "ex",
        "péri"
      ],
      [
        "a",
        "te"
      ],
      [
        "cau",
        "se"
      ],
      [
        "c",
        "at"
      ],
      [
        "ant",
        "es"
      ],
      [
        "dé",
        "sig"
      ],
      [
        "lan",
        "ce"
      ]
    ]
  }
}