{
  "version": "1.0",
  "truncation": null,
  "padding": null,
  "added_tokens": [
    {
      "id": 0,
      "content": "<UNK>",
      "single_word": false,
      "lstrip": false,
      "rstrip": false,
      "normalized": false,
      "special": true
    },
    {
      "id": 1,
      "content": "<SEP>",
      "single_word": false,
      "lstrip": false,
      "rstrip": false,
      "normalized": false,
      "special": true
    },
    {
      "id": 2,
      "content": "<MASK>",
      "single_word": false,
      "lstrip": false,
      "rstrip": false,
      "normalized": false,
      "special": true
    },
    {
      "id": 3,
      "content": "<CLS>",
      "single_word": false,
      "lstrip": false,
      "rstrip": false,
      "normalized": false,
      "special": true
    }
  ],
  "normalizer": null,
  "pre_tokenizer": {
    "type": "Whitespace"
  },
  "post_processor": null,
  "decoder": null,
  "model": {
    "type": "BPE",
    "dropout": null,
    "unk_token": "<UNK>",
    "continuing_subword_prefix": null,
    "end_of_word_suffix": null,
    "fuse_unk": false,
    "byte_fallback": false,
    "ignore_merges": false,
    "vocab": {
      "<UNK>": 0,
      "<SEP>": 1,
      "<MASK>": 2,
      "<CLS>": 3,
      "!": 4,
      "\"": 5,
      "$": 6,
      "%": 7,
      "&": 8,
      "'": 9,
      "(": 10,
      ")": 11,
      "*": 12,
      "+": 13,
      ",": 14,
      "-": 15,
      ".": 16,
      "/": 17,
      "0": 18,
      "1": 19,
      "2": 20,
      "3": 21,
      "4": 22,
      "5": 23,
      "6": 24,
      "7": 25,
      "8": 26,
      "9": 27,
      ":": 28,
      ";": 29,
      "<": 30,
      ">": 31,
      "?": 32,
      "A": 33,
      "B": 34,
      "C": 35,
      "D": 36,
      "E": 37,
      "F": 38,
      "G": 39,
      "H": 40,
      "I": 41,
      "J": 42,
      "K": 43,
      "L": 44,
      "M": 45,
      "N": 46,
      "O": 47,
      "P": 48,
      "Q": 49,
      "R": 50,
      "S": 51,
      "T": 52,
      "U": 53,
      "V": 54,
      "W": 55,
      "X": 56,
      "Y": 57,
      "Z": 58,
      "`": 59,
      "a": 60,
      "b": 61,
      "c": 62,
      "d": 63,
      "e": 64,
      "f": 65,
      "g": 66,
      "h": 67,
      "i": 68,
      "j": 69,
      "k": 70,
      "l": 71,
      "m": 72,
      "n": 73,
      "o": 74,
      "p": 75,
      "q": 76,
      "r": 77,
      "s": 78,
      "t": 79,
      "u": 80,
      "v": 81,
      "w": 82,
      "x": 83,
      "y": 84,
      "z": 85,
      "~": 86,
      "¡": 87,
      "¢": 88,
      "£": 89,
      "¥": 90,
      "§": 91,
      "¨": 92,
      "«": 93,
      "¬": 94,
      "®": 95,
      "°": 96,
      "±": 97,
      "²": 98,
      "³": 99,
      "´": 100,
      "µ": 101,
      "¶": 102,
      "·": 103,
      "¹": 104,
      "º": 105,
      "»": 106,
      "¼": 107,
      "½": 108,
      "¾": 109,
      "¿": 110,
      "À": 111,
      "Á": 112,
      "Ä": 113,
      "Å": 114,
      "Æ": 115,
      "Ç": 116,
      "È": 117,
      "É": 118,
      "Ê": 119,
      "Ë": 120,
      "Í": 121,
      "Î": 122,
      "Ð": 123,
      "Ñ": 124,
      "Ò": 125,
      "Ó": 126,
      "Ô": 127,
      "Õ": 128,
      "Ö": 129,
      "×": 130,
      "Ø": 131,
      "Ú": 132,
      "Û": 133,
      "Ü": 134,
      "Þ": 135,
      "ß": 136,
      "à": 137,
      "á": 138,
      "â": 139,
      "ã": 140,
      "ä": 141,
      "å": 142,
      "æ": 143,
      "ç": 144,
      "è": 145,
      "é": 146,
      "ê": 147,
      "ë": 148,
      "ì": 149,
      "í": 150,
      "î": 151,
      "ï": 152,
      "ð": 153,
      "ñ": 154,
      "ò": 155,
      "ó": 156,
      "ô": 157,
      "õ": 158,
      "ö": 159,
      "ø": 160,
      "ù": 161,
      "ú": 162,
      "û": 163,
      "ü": 164,
      "ý": 165,
      "þ": 166,
      "ÿ": 167,
      "Ā": 168,
      "ā": 169,
      "Ă": 170,
      "ă": 171,
      "ą": 172,
      "Ć": 173,
      "ć": 174,
      "Ĉ": 175,
      "ĉ": 176,
      "Č": 177,
      "č": 178,
      "ď": 179,
      "Đ": 180,
      "đ": 181,
      "Ē": 182,
      "ē": 183,
      "ĕ": 184,
      "ė": 185,
      "ę": 186,
      "ě": 187,
      "ĝ": 188,
      "Ğ": 189,
      "ğ": 190,
      "Ġ": 191,
      "ġ": 192,
      "ĥ": 193,
      "Ĩ": 194,
      "ĩ": 195,
      "ī": 196,
      "ĭ": 197,
      "į": 198,
      "İ": 199,
      "ı": 200,
      "ĳ": 201,
      "ĵ": 202,
      "ķ": 203,
      "Ľ": 204,
      "ľ": 205,
      "Ł": 206,
      "ł": 207,
      "ń": 208,
      "ņ": 209,
      "ň": 210,
      "Ō": 211,
      "ō": 212,
      "ŏ": 213,
      "Ő": 214,
      "ő": 215,
      "Œ": 216,
      "œ": 217,
      "Ř": 218,
      "ř": 219,
      "Ś": 220,
      "ś": 221,
      "ŝ": 222,
      "Ş": 223,
      "ş": 224,
      "Š": 225,
      "š": 226,
      "Ţ": 227,
      "ţ": 228,
      "ť": 229,
      "ũ": 230,
      "ū": 231,
      "ŭ": 232,
      "ů": 233,
      "ű": 234,
      "ų": 235,
      "ŵ": 236,
      "ź": 237,
      "Ż": 238,
      "ż": 239,
      "Ž": 240,
      "ž": 241,
      "ſ": 242,
      "Ɔ": 243,
      "Ə": 244,
      "ơ": 245,
      "ư": 246,
      "ƴ": 247,
      "ǎ": 248,
      "ǐ": 249,
      "ǒ": 250,
      "ǔ": 251,
      "ǚ": 252,
      "ǧ": 253,
      "ȃ": 254,
      "ȉ": 255,
      "ȋ": 256,
      "Ș": 257,
      "ș": 258,
      "Ț": 259,
      "ț": 260,
      "ɑ": 261,
      "ɔ": 262,
      "ə": 263,
      "ɛ": 264,
      "ɡ": 265,
      "ɤ": 266,
      "ɨ": 267,
      "ɪ": 268,
      "ɫ": 269,
      "ɬ": 270,
      "ɹ": 271,
      "ʃ": 272,
      "ʊ": 273,
      "ʒ": 274,
      "ʷ": 275,
      "ʹ": 276,
      "ʺ": 277,
      "ʻ": 278,
      "ʼ": 279,
      "ʽ": 280,
      "ʾ": 281,
      "ʿ": 282,
      "ˇ": 283,
      "ˈ": 284,
      "ˊ": 285,
      "ˌ": 286,
      "ː": 287,
      "˚": 288,
      "˝": 289,
      "ˤ": 290,
      "́": 291,
      "̄": 292,
      "̈": 293,
      "̝": 294,
      "̭": 295,
      "̯": 296,
      "΄": 297,
      "Α": 298,
      "Β": 299,
      "Γ": 300,
      "Δ": 301,
      "Ε": 302,
      "Ζ": 303,
      "Η": 304,
      "Θ": 305,
      "Κ": 306,
      "Λ": 307,
      "Μ": 308,
      "Ν": 309,
      "Ο": 310,
      "Π": 311,
      "Ρ": 312,
      "Σ": 313,
      "Τ": 314,
      "Φ": 315,
      "Χ": 316,
      "Ψ": 317,
      "Ω": 318,
      "ά": 319,
      "έ": 320,
      "ή": 321,
      "ί": 322,
      "α": 323,
      "β": 324,
      "γ": 325,
      "δ": 326,
      "ε": 327,
      "ζ": 328,
      "η": 329,
      "θ": 330,
      "ι": 331,
      "κ": 332,
      "λ": 333,
      "μ": 334,
      "ν": 335,
      "ξ": 336,
      "ο": 337,
      "π": 338,
      "ρ": 339,
      "ς": 340,
      "σ": 341,
      "τ": 342,
      "υ": 343,
      "φ": 344,
      "χ": 345,
      "ψ": 346,
      "ω": 347,
      "ϊ": 348,
      "ό": 349,
      "ύ": 350,
      "ώ": 351,
      "ϐ": 352,
      "Є": 353,
      "І": 354,
      "Ј": 355,
      "А": 356,
      "Б": 357,
      "В": 358,
      "Г": 359,
      "Д": 360,
      "Е": 361,
      "Ж": 362,
      "З": 363,
      "И": 364,
      "Й": 365,
      "К": 366,
      "Л": 367,
      "М": 368,
      "Н": 369,
      "О": 370,
      "П": 371,
      "Р": 372,
      "С": 373,
      "Т": 374,
      "У": 375,
      "Ф": 376,
      "Х": 377,
      "Ц": 378,
      "Ч": 379,
      "Ш": 380,
      "Щ": 381,
      "Ь": 382,
      "Э": 383,
      "Я": 384,
      "а": 385,
      "б": 386,
      "в": 387,
      "г": 388,
      "д": 389,
      "е": 390,
      "ж": 391,
      "з": 392,
      "и": 393,
      "й": 394,
      "к": 395,
      "л": 396,
      "м": 397,
      "н": 398,
      "о": 399,
      "п": 400,
      "р": 401,
      "с": 402,
      "т": 403,
      "у": 404,
      "ф": 405,
      "х": 406,
      "ц": 407,
      "ч": 408,
      "ш": 409,
      "щ": 410,
      "ъ": 411,
      "ы": 412,
      "ь": 413,
      "э": 414,
      "ю": 415,
      "я": 416,
      "ё": 417,
      "і": 418,
      "ї": 419,
      "ј": 420,
      "љ": 421,
      "њ": 422,
      "ћ": 423,
      "ѣ": 424,
      "҆": 425,
      "ӑ": 426,
      "ә": 427,
      "ө": 428,
      "Ա": 429,
      "Ջ": 430,
      "ա": 431,
      "բ": 432,
      "գ": 433,
      "դ": 434,
      "ե": 435,
      "ի": 436,
      "խ": 437,
      "կ": 438,
      "ղ": 439,
      "մ": 440,
      "յ": 441,
      "ն": 442,
      "չ": 443,
      "ր": 444,
      "ք": 445,
      "ְ": 446,
      "ִ": 447,
      "ֶ": 448,
      "ָ": 449,
      "ֹ": 450,
      "ּ": 451,
      "ׂ": 452,
      "א": 453,
      "ב": 454,
      "ג": 455,
      "ד": 456,
      "ה": 457,
      "ו": 458,
      "ז": 459,
      "ח": 460,
      "י": 461,
      "ך": 462,
      "כ": 463,
      "ל": 464,
      "ם": 465,
      "מ": 466,
      "ן": 467,
      "נ": 468,
      "ס": 469,
      "ע": 470,
      "ף": 471,
      "פ": 472,
      "ץ": 473,
      "צ": 474,
      "ק": 475,
      "ר": 476,
      "ש": 477,
      "ת": 478,
      "ء": 479,
      "آ": 480,
      "أ": 481,
      "ؤ": 482,
      "إ": 483,
      "ئ": 484,
      "ا": 485,
      "ب": 486,
      "ة": 487,
      "ت": 488,
      "ث": 489,
      "ج": 490,
      "ح": 491,
      "خ": 492,
      "د": 493,
      "ذ": 494,
      "ر": 495,
      "ز": 496,
      "س": 497,
      "ش": 498,
      "ص": 499,
      "ط": 500,
      "ظ": 501,
      "ع": 502,
      "غ": 503,
      "ـ": 504,
      "ف": 505,
      "ق": 506,
      "ك": 507,
      "ل": 508,
      "م": 509,
      "ن": 510,
      "ه": 511,
      "و": 512,
      "ى": 513,
      "ي": 514,
      "َ": 515,
      "ُ": 516,
      "ّ": 517,
      "ْ": 518,
      "٬": 519,
      "٭": 520,
      "پ": 521,
      "چ": 522,
      "ڠ": 523,
      "ک": 524,
      "گ": 525,
      "ں": 526,
      "ھ": 527,
      "ہ": 528,
      "ی": 529,
      "ބ": 530,
      "އ": 531,
      "ދ": 532,
      "ަ": 533,
      "ު": 534,
      "ް": 535,
      "ं": 536,
      "इ": 537,
      "ख": 538,
      "च": 539,
      "ट": 540,
      "त": 541,
      "द": 542,
      "ध": 543,
      "न": 544,
      "प": 545,
      "फ": 546,
      "म": 547,
      "य": 548,
      "र": 549,
      "ल": 550,
      "श": 551,
      "स": 552,
      "़": 553,
      "ा": 554,
      "ि": 555,
      "ु": 556,
      "ू": 557,
      "े": 558,
      "ो": 559,
      "्": 560,
      "।": 561,
      "আ": 562,
      "উ": 563,
      "ক": 564,
      "ঙ": 565,
      "ত": 566,
      "দ": 567,
      "ন": 568,
      "প": 569,
      "ফ": 570,
      "ব": 571,
      "ম": 572,
      "য": 573,
      "র": 574,
      "ল": 575,
      "শ": 576,
      "হ": 577,
      "া": 578,
      "ি": 579,
      "ে": 580,
      "্": 581,
      "அ": 582,
      "உ": 583,
      "க": 584,
      "ச": 585,
      "ஜ": 586,
      "ட": 587,
      "த": 588,
      "ந": 589,
      "ப": 590,
      "ம": 591,
      "ர": 592,
      "ல": 593,
      "ழ": 594,
      "வ": 595,
      "ா": 596,
      "ி": 597,
      "ு": 598,
      "ூ": 599,
      "ே": 600,
      "ை": 601,
      "ோ": 602,
      "்": 603,
      "ം": 604,
      "ഇ": 605,
      "ട": 606,
      "ത": 607,
      "ല": 608,
      "വ": 609,
      "අ": 610,
      "ද": 611,
      "න": 612,
      "ල": 613,
      "ව": 614,
      "ා": 615,
      "ැ": 616,
      "ි": 617,
      "ෝ": 618,
      "ก": 619,
      "ข": 620,
      "ค": 621,
      "ง": 622,
      "จ": 623,
      "ช": 624,
      "ซ": 625,
      "ฒ": 626,
      "ด": 627,
      "ต": 628,
      "ถ": 629,
      "ท": 630,
      "ธ": 631,
      "น": 632,
      "บ": 633,
      "ป": 634,
      "ผ": 635,
      "พ": 636,
      "ฟ": 637,
      "ภ": 638,
      "ม": 639,
      "ย": 640,
      "ร": 641,
      "ฤ": 642,
      "ล": 643,
      "ฦ": 644,
      "ว": 645,
      "ศ": 646,
      "ษ": 647,
      "ส": 648,
      "ห": 649,
      "อ": 650,
      "ะ": 651,
      "ั": 652,
      "า": 653,
      "ำ": 654,
      "ิ": 655,
      "ี": 656,
      "ึ": 657,
      "ื": 658,
      "ุ": 659,
      "ู": 660,
      "เ": 661,
      "แ": 662,
      "โ": 663,
      "ไ": 664,
      "ๅ": 665,
      "่": 666,
      "้": 667,
      "๊": 668,
      "์": 669,
      "တ": 670,
      "န": 671,
      "ပ": 672,
      "ရ": 673,
      "သ": 674,
      "ူ": 675,
      "်": 676,
      "ၐ": 677,
      "ၑ": 678,
      "ა": 679,
      "დ": 680,
      "ე": 681,
      "ვ": 682,
      "თ": 683,
      "ი": 684,
      "ლ": 685,
      "მ": 686,
      "ნ": 687,
      "ო": 688,
      "პ": 689,
      "ჟ": 690,
      "რ": 691,
      "ს": 692,
      "უ": 693,
      "ქ": 694,
      "შ": 695,
      "ძ": 696,
      "ხ": 697,
      "ᐯ": 698,
      "ᐸ": 699,
      "ᑐ": 700,
      "ᘅ": 701,
      "ᛃ": 702,
      "ᛋ": 703,
      "ḍ": 704,
      "Ḑ": 705,
      "ḑ": 706,
      "ḗ": 707,
      "Ḥ": 708,
      "ḥ": 709,
      "Ḫ": 710,
      "ḫ": 711,
      "Ḵ": 712,
      "ḷ": 713,
      "ḻ": 714,
      "ṃ": 715,
      "ṅ": 716,
      "ṇ": 717,
      "ṉ": 718,
      "ṛ": 719,
      "ṟ": 720,
      "Ṣ": 721,
      "ṣ": 722,
      "Ṭ": 723,
      "ṭ": 724,
      "ṯ": 725,
      "ẓ": 726,
      "ẚ": 727,
      "ẞ": 728,
      "ạ": 729,
      "ả": 730,
      "ầ": 731,
      "ẩ": 732,
      "ậ": 733,
      "ắ": 734,
      "ằ": 735,
      "ẻ": 736,
      "ẽ": 737,
      "ế": 738,
      "ề": 739,
      "ễ": 740,
      "ệ": 741,
      "ị": 742,
      "ọ": 743,
      "ố": 744,
      "ồ": 745,
      "ổ": 746,
      "ỗ": 747,
      "ộ": 748,
      "ớ": 749,
      "ờ": 750,
      "ở": 751,
      "ợ": 752,
      "ụ": 753,
      "ủ": 754,
      "ứ": 755,
      "ừ": 756,
      "ử": 757,
      "ự": 758,
      "ἀ": 759,
      "ἂ": 760,
      "ἄ": 761,
      "Ἀ": 762,
      "ἐ": 763,
      "ἔ": 764,
      "Ἕ": 765,
      "ἰ": 766,
      "Ἰ": 767,
      "ὄ": 768,
      "ὐ": 769,
      "ὑ": 770,
      "ὖ": 771,
      "ὤ": 772,
      "ὰ": 773,
      "ὶ": 774,
      "ὸ": 775,
      "ῑ": 776,
      "ῖ": 777,
      "ῥ": 778,
      "ῦ": 779,
      "ῷ": 780,
      "῾": 781,
      "​": 782,
      "‎": 783,
      "‐": 784,
      "‑": 785,
      "‒": 786,
      "–": 787,
      "—": 788,
      "―": 789,
      "‖": 790,
      "‗": 791,
      "‘": 792,
      "’": 793,
      "‚": 794,
      "‛": 795,
      "“": 796,
      "”": 797,
      "„": 798,
      "‟": 799,
      "†": 800,
      "‡": 801,
      "•": 802,
      "…": 803,
      "‰": 804,
      "′": 805,
      "″": 806,
      "›": 807,
      "⁄": 808,
      "⁠": 809,
      "⁰": 810,
      "⁺": 811,
      "₀": 812,
      "₂": 813,
      "₤": 814,
      "€": 815,
      "₹": 816,
      "℃": 817,
      "№": 818,
      "™": 819,
      "⅓": 820,
      "⅔": 821,
      "⅕": 822,
      "⅛": 823,
      "↑": 824,
      "→": 825,
      "↔": 826,
      "∂": 827,
      "∈": 828,
      "−": 829,
      "∞": 830,
      "∨": 831,
      "∴": 832,
      "≈": 833,
      "≠": 834,
      "≡": 835,
      "≤": 836,
      "≥": 837,
      "⊙": 838,
      "⋅": 839,
      "─": 840,
      "□": 841,
      "◄": 842,
      "◦": 843,
      "☉": 844,
      "☼": 845,
      "♀": 846,
      "♂": 847,
      "♘": 848,
      "♠": 849,
      "♡": 850,
      "♭": 851,
      "♯": 852,
      "⟨": 853,
      "⟩": 854,
      "⿱": 855,
      "、": 856,
      "々": 857,
      "〈": 858,
      "〉": 859,
      "《": 860,
      "》": 861,
      "「": 862,
      "」": 863,
      "『": 864,
      "』": 865,
      "〔": 866,
      "〕": 867,
      "〮": 868,
      "〯": 869,
      "あ": 870,
      "い": 871,
      "う": 872,
      "え": 873,
      "お": 874,
      "か": 875,
      "が": 876,
      "き": 877,
      "ぎ": 878,
      "く": 879,
      "け": 880,
      "こ": 881,
      "ご": 882,
      "さ": 883,
      "し": 884,
      "じ": 885,
      "す": 886,
      "せ": 887,
      "た": 888,
      "だ": 889,
      "ち": 890,
      "っ": 891,
      "つ": 892,
      "て": 893,
      "で": 894,
      "と": 895,
      "ど": 896,
      "な": 897,
      "に": 898,
      "ね": 899,
      "の": 900,
      "は": 901,
      "び": 902,
      "ふ": 903,
      "へ": 904,
      "ぼ": 905,
      "ま": 906,
      "み": 907,
      "む": 908,
      "ゃ": 909,
      "ら": 910,
      "り": 911,
      "る": 912,
      "わ": 913,
      "ゑ": 914,
      "を": 915,
      "ん": 916,
      "゜": 917,
      "ア": 918,
      "ィ": 919,
      "イ": 920,
      "ウ": 921,
      "ォ": 922,
      "カ": 923,
      "キ": 924,
      "ク": 925,
      "グ": 926,
      "サ": 927,
      "シ": 928,
      "ジ": 929,
      "ス": 930,
      "ズ": 931,
      "セ": 932,
      "ゼ": 933,
      "ソ": 934,
      "タ": 935,
      "ダ": 936,
      "チ": 937,
      "ッ": 938,
      "デ": 939,
      "ト": 940,
      "ド": 941,
      "ヌ": 942,
      "ノ": 943,
      "ハ": 944,
      "パ": 945,
      "ビ": 946,
      "フ": 947,
      "ブ": 948,
      "プ": 949,
      "ベ": 950,
      "ボ": 951,
      "マ": 952,
      "ミ": 953,
      "ム": 954,
      "メ": 955,
      "ャ": 956,
      "ュ": 957,
      "ユ": 958,
      "ョ": 959,
      "ヨ": 960,
      "ラ": 961,
      "リ": 962,
      "ル": 963,
      "レ": 964,
      "ヱ": 965,
      "ン": 966,
      "・": 967,
      "ー": 968,
      "ㄌ": 969,
      "ㄘ": 970,
      "ㄣ": 971,
      "ㄧ": 972,
      "ㄨ": 973,
      "ㄱ": 974,
      "ㄷ": 975,
      "ㅂ": 976,
      "ㅄ": 977,
      "ㅇ": 978,
      "ㅈ": 979,
      "ㅏ": 980,
      "ㅓ": 981,
      "ㅗ": 982,
      "ㅜ": 983,
      "ㅝ": 984,
      "ㅵ": 985,
      "ㆋ": 986,
      "一": 987,
      "万": 988,
      "三": 989,
      "上": 990,
      "下": 991,
      "世": 992,
      "两": 993,
      "中": 994,
      "丸": 995,
      "主": 996,
      "丽": 997,
      "乃": 998,
      "之": 999,
      "乌": 1000,
      "乔": 1001,
      "九": 1002,
      "乡": 1003,
      "书": 1004,
      "事": 1005,
      "二": 1006,
      "井": 1007,
      "亜": 1008,
      "京": 1009,
      "人": 1010,
      "什": 1011,
      "今": 1012,
      "仝": 1013,
      "代": 1014,
      "仰": 1015,
      "仲": 1016,
      "任": 1017,
      "伊": 1018,
      "伏": 1019,
      "伐": 1020,
      "休": 1021,
      "会": 1022,
      "传": 1023,
      "伯": 1024,
      "伸": 1025,
      "佐": 1026,
      "体": 1027,
      "何": 1028,
      "佛": 1029,
      "作": 1030,
      "佟": 1031,
      "你": 1032,
      "使": 1033,
      "信": 1034,
      "倉": 1035,
      "偕": 1036,
      "偵": 1037,
      "像": 1038,
      "僕": 1039,
      "儿": 1040,
      "元": 1041,
      "先": 1042,
      "光": 1043,
      "克": 1044,
      "全": 1045,
      "八": 1046,
      "公": 1047,
      "六": 1048,
      "兰": 1049,
      "典": 1050,
      "内": 1051,
      "冒": 1052,
      "凍": 1053,
      "出": 1054,
      "切": 1055,
      "列": 1056,
      "別": 1057,
      "利": 1058,
      "制": 1059,
      "前": 1060,
      "剧": 1061,
      "劇": 1062,
      "劉": 1063,
      "力": 1064,
      "加": 1065,
      "动": 1066,
      "助": 1067,
      "劳": 1068,
      "勋": 1069,
      "動": 1070,
      "勞": 1071,
      "包": 1072,
      "北": 1073,
      "区": 1074,
      "十": 1075,
      "千": 1076,
      "华": 1077,
      "协": 1078,
      "協": 1079,
      "南": 1080,
      "博": 1081,
      "厂": 1082,
      "历": 1083,
      "原": 1084,
      "县": 1085,
      "反": 1086,
      "叔": 1087,
      "取": 1088,
      "受": 1089,
      "口": 1090,
      "台": 1091,
      "右": 1092,
      "号": 1093,
      "司": 1094,
      "吃": 1095,
      "合": 1096,
      "同": 1097,
      "名": 1098,
      "向": 1099,
      "君": 1100,
      "吹": 1101,
      "吾": 1102,
      "呪": 1103,
      "味": 1104,
      "命": 1105,
      "和": 1106,
      "品": 1107,
      "哪": 1108,
      "唐": 1109,
      "喃": 1110,
      "善": 1111,
      "喜": 1112,
      "喬": 1113,
      "噂": 1114,
      "四": 1115,
      "回": 1116,
      "园": 1117,
      "囯": 1118,
      "国": 1119,
      "图": 1120,
      "圆": 1121,
      "國": 1122,
      "園": 1123,
      "圖": 1124,
      "土": 1125,
      "在": 1126,
      "坂": 1127,
      "坪": 1128,
      "城": 1129,
      "基": 1130,
      "埼": 1131,
      "堀": 1132,
      "堪": 1133,
      "報": 1134,
      "塼": 1135,
      "塽": 1136,
      "士": 1137,
      "壯": 1138,
      "声": 1139,
      "変": 1140,
      "夏": 1141,
      "外": 1142,
      "多": 1143,
      "大": 1144,
      "天": 1145,
      "太": 1146,
      "夫": 1147,
      "失": 1148,
      "奇": 1149,
      "奉": 1150,
      "奎": 1151,
      "女": 1152,
      "好": 1153,
      "妃": 1154,
      "威": 1155,
      "婉": 1156,
      "媛": 1157,
      "孁": 1158,
      "子": 1159,
      "字": 1160,
      "孝": 1161,
      "季": 1162,
      "孤": 1163,
      "学": 1164,
      "學": 1165,
      "宁": 1166,
      "守": 1167,
      "安": 1168,
      "完": 1169,
      "宓": 1170,
      "宝": 1171,
      "実": 1172,
      "宮": 1173,
      "宵": 1174,
      "家": 1175,
      "容": 1176,
      "寄": 1177,
      "密": 1178,
      "寓": 1179,
      "察": 1180,
      "實": 1181,
      "寿": 1182,
      "小": 1183,
      "尔": 1184,
      "居": 1185,
      "屋": 1186,
      "山": 1187,
      "岛": 1188,
      "岡": 1189,
      "岳": 1190,
      "峡": 1191,
      "島": 1192,
      "川": 1193,
      "州": 1194,
      "巢": 1195,
      "左": 1196,
      "巴": 1197,
      "市": 1198,
      "帅": 1199,
      "希": 1200,
      "師": 1201,
      "平": 1202,
      "年": 1203,
      "幽": 1204,
      "庆": 1205,
      "府": 1206,
      "度": 1207,
      "庭": 1208,
      "庵": 1209,
      "廉": 1210,
      "延": 1211,
      "建": 1212,
      "弓": 1213,
      "弘": 1214,
      "強": 1215,
      "彭": 1216,
      "影": 1217,
      "徐": 1218,
      "微": 1219,
      "徳": 1220,
      "德": 1221,
      "心": 1222,
      "志": 1223,
      "念": 1224,
      "性": 1225,
      "恪": 1226,
      "息": 1227,
      "悪": 1228,
      "悲": 1229,
      "惠": 1230,
      "意": 1231,
      "慎": 1232,
      "成": 1233,
      "我": 1234,
      "战": 1235,
      "戦": 1236,
      "户": 1237,
      "房": 1238,
      "扎": 1239,
      "打": 1240,
      "拉": 1241,
      "持": 1242,
      "挂": 1243,
      "按": 1244,
      "探": 1245,
      "改": 1246,
      "放": 1247,
      "政": 1248,
      "教": 1249,
      "文": 1250,
      "斗": 1251,
      "料": 1252,
      "斥": 1253,
      "斯": 1254,
      "新": 1255,
      "方": 1256,
      "施": 1257,
      "旋": 1258,
      "旗": 1259,
      "既": 1260,
      "日": 1261,
      "明": 1262,
      "星": 1263,
      "映": 1264,
      "昭": 1265,
      "晁": 1266,
      "景": 1267,
      "暗": 1268,
      "暦": 1269,
      "暫": 1270,
      "曲": 1271,
      "曳": 1272,
      "書": 1273,
      "會": 1274,
      "月": 1275,
      "有": 1276,
      "朗": 1277,
      "木": 1278,
      "未": 1279,
      "本": 1280,
      "术": 1281,
      "朱": 1282,
      "朴": 1283,
      "杉": 1284,
      "李": 1285,
      "材": 1286,
      "村": 1287,
      "条": 1288,
      "東": 1289,
      "松": 1290,
      "果": 1291,
      "根": 1292,
      "格": 1293,
      "桂": 1294,
      "案": 1295,
      "桜": 1296,
      "桥": 1297,
      "梅": 1298,
      "梨": 1299,
      "森": 1300,
      "楷": 1301,
      "楽": 1302,
      "榮": 1303,
      "樂": 1304,
      "樊": 1305,
      "橋": 1306,
      "橘": 1307,
      "橫": 1308,
      "檀": 1309,
      "欢": 1310,
      "歌": 1311,
      "正": 1312,
      "步": 1313,
      "武": 1314,
      "歩": 1315,
      "死": 1316,
      "殺": 1317,
      "氏": 1318,
      "民": 1319,
      "気": 1320,
      "水": 1321,
      "永": 1322,
      "江": 1323,
      "池": 1324,
      "汤": 1325,
      "汪": 1326,
      "沤": 1327,
      "河": 1328,
      "沼": 1329,
      "泉": 1330,
      "泰": 1331,
      "泳": 1332,
      "泽": 1333,
      "洛": 1334,
      "活": 1335,
      "浦": 1336,
      "海": 1337,
      "涌": 1338,
      "清": 1339,
      "渝": 1340,
      "渡": 1341,
      "湖": 1342,
      "湾": 1343,
      "源": 1344,
      "漢": 1345,
      "澤": 1346,
      "濟": 1347,
      "瀬": 1348,
      "炊": 1349,
      "炜": 1350,
      "煙": 1351,
      "照": 1352,
      "煮": 1353,
      "熊": 1354,
      "爱": 1355,
      "父": 1356,
      "片": 1357,
      "特": 1358,
      "独": 1359,
      "献": 1360,
      "玄": 1361,
      "玉": 1362,
      "王": 1363,
      "珍": 1364,
      "班": 1365,
      "理": 1366,
      "瑶": 1367,
      "生": 1368,
      "田": 1369,
      "由": 1370,
      "甲": 1371,
      "电": 1372,
      "町": 1373,
      "画": 1374,
      "畅": 1375,
      "疑": 1376,
      "痴": 1377,
      "白": 1378,
      "百": 1379,
      "的": 1380,
      "皇": 1381,
      "盐": 1382,
      "监": 1383,
      "盛": 1384,
      "相": 1385,
      "眞": 1386,
      "真": 1387,
      "矢": 1388,
      "知": 1389,
      "短": 1390,
      "石": 1391,
      "碣": 1392,
      "社": 1393,
      "祁": 1394,
      "神": 1395,
      "禁": 1396,
      "科": 1397,
      "秘": 1398,
      "移": 1399,
      "種": 1400,
      "稲": 1401,
      "穆": 1402,
      "立": 1403,
      "章": 1404,
      "竹": 1405,
      "第": 1406,
      "篇": 1407,
      "築": 1408,
      "簡": 1409,
      "糖": 1410,
      "糸": 1411,
      "紀": 1412,
      "約": 1413,
      "紅": 1414,
      "紙": 1415,
      "素": 1416,
      "紫": 1417,
      "絡": 1418,
      "統": 1419,
      "絶": 1420,
      "絹": 1421,
      "經": 1422,
      "綬": 1423,
      "維": 1424,
      "綿": 1425,
      "総": 1426,
      "縱": 1427,
      "绍": 1428,
      "署": 1429,
      "羅": 1430,
      "美": 1431,
      "羽": 1432,
      "翁": 1433,
      "老": 1434,
      "者": 1435,
      "而": 1436,
      "联": 1437,
      "聯": 1438,
      "脳": 1439,
      "腐": 1440,
      "腹": 1441,
      "膏": 1442,
      "臓": 1443,
      "與": 1444,
      "航": 1445,
      "船": 1446,
      "色": 1447,
      "艺": 1448,
      "花": 1449,
      "苏": 1450,
      "苔": 1451,
      "英": 1452,
      "茜": 1453,
      "華": 1454,
      "营": 1455,
      "葉": 1456,
      "葬": 1457,
      "葱": 1458,
      "薰": 1459,
      "藤": 1460,
      "蘋": 1461,
      "蘭": 1462,
      "蛙": 1463,
      "蜀": 1464,
      "螺": 1465,
      "行": 1466,
      "術": 1467,
      "衣": 1468,
      "裸": 1469,
      "製": 1470,
      "褒": 1471,
      "西": 1472,
      "要": 1473,
      "親": 1474,
      "见": 1475,
      "角": 1476,
      "言": 1477,
      "記": 1478,
      "証": 1479,
      "語": 1480,
      "誰": 1481,
      "調": 1482,
      "諸": 1483,
      "諾": 1484,
      "講": 1485,
      "謡": 1486,
      "譜": 1487,
      "警": 1488,
      "讃": 1489,
      "讲": 1490,
      "豆": 1491,
      "豊": 1492,
      "豐": 1493,
      "豫": 1494,
      "貫": 1495,
      "責": 1496,
      "貴": 1497,
      "賢": 1498,
      "赤": 1499,
      "走": 1500,
      "起": 1501,
      "越": 1502,
      "趙": 1503,
      "跡": 1504,
      "路": 1505,
      "身": 1506,
      "軍": 1507,
      "軒": 1508,
      "輿": 1509,
      "辞": 1510,
      "迅": 1511,
      "过": 1512,
      "迎": 1513,
      "近": 1514,
      "造": 1515,
      "遊": 1516,
      "道": 1517,
      "遺": 1518,
      "邑": 1519,
      "邡": 1520,
      "郎": 1521,
      "郑": 1522,
      "部": 1523,
      "都": 1524,
      "鄕": 1525,
      "鄠": 1526,
      "鄰": 1527,
      "酒": 1528,
      "醂": 1529,
      "醉": 1530,
      "里": 1531,
      "重": 1532,
      "金": 1533,
      "釜": 1534,
      "錢": 1535,
      "镇": 1536,
      "长": 1537,
      "門": 1538,
      "間": 1539,
      "関": 1540,
      "防": 1541,
      "阿": 1542,
      "陛": 1543,
      "陳": 1544,
      "陶": 1545,
      "険": 1546,
      "陽": 1547,
      "隆": 1548,
      "隐": 1549,
      "際": 1550,
      "雄": 1551,
      "雛": 1552,
      "雞": 1553,
      "雨": 1554,
      "雪": 1555,
      "青": 1556,
      "靖": 1557,
      "静": 1558,
      "面": 1559,
      "革": 1560,
      "韓": 1561,
      "韦": 1562,
      "音": 1563,
      "順": 1564,
      "頼": 1565,
      "願": 1566,
      "风": 1567,
      "食": 1568,
      "養": 1569,
      "香": 1570,
      "馨": 1571,
      "馬": 1572,
      "駅": 1573,
      "驻": 1574,
      "體": 1575,
      "鱒": 1576,
      "鲁": 1577,
      "鲤": 1578,
      "鳥": 1579,
      "鳳": 1580,
      "鴨": 1581,
      "鶴": 1582,
      "鸟": 1583,
      "鸡": 1584,
      "鸭": 1585,
      "黃": 1586,
      "黄": 1587,
      "黒": 1588,
      "黨": 1589,
      "龍": 1590,
      "龐": 1591,
      "ꯀ": 1592,
      "ꯂ": 1593,
      "ꯃ": 1594,
      "ꯄ": 1595,
      "ꯅ": 1596,
      "ꯈ": 1597,
      "ꯉ": 1598,
      "ꯊ": 1599,
      "ꯔ": 1600,
      "ꯛ": 1601,
      "ꯜ": 1602,
      "ꯡ": 1603,
      "ꯣ": 1604,
      "ꯤ": 1605,
      "ꯥ": 1606,
      "ꯦ": 1607,
      "ꯧ": 1608,
      "ꯨ": 1609,
      "ꯩ": 1610,
      "가": 1611,
      "감": 1612,
      "강": 1613,
      "개": 1614,
      "거": 1615,
      "경": 1616,
      "계": 1617,
      "고": 1618,
      "곡": 1619,
      "공": 1620,
      "과": 1621,
      "교": 1622,
      "구": 1623,
      "국": 1624,
      "군": 1625,
      "궁": 1626,
      "기": 1627,
      "김": 1628,
      "난": 1629,
      "낮": 1630,
      "내": 1631,
      "너": 1632,
      "누": 1633,
      "단": 1634,
      "당": 1635,
      "대": 1636,
      "데": 1637,
      "도": 1638,
      "동": 1639,
      "따": 1640,
      "때": 1641,
      "라": 1642,
      "례": 1643,
      "리": 1644,
      "만": 1645,
      "무": 1646,
      "문": 1647,
      "뮤": 1648,
      "미": 1649,
      "민": 1650,
      "밀": 1651,
      "박": 1652,
      "밤": 1653,
      "방": 1654,
      "백": 1655,
      "뱅": 1656,
      "번": 1657,
      "본": 1658,
      "부": 1659,
      "북": 1660,
      "불": 1661,
      "뷔": 1662,
      "비": 1663,
      "뻐": 1664,
      "사": 1665,
      "산": 1666,
      "삼": 1667,
      "생": 1668,
      "서": 1669,
      "선": 1670,
      "설": 1671,
      "성": 1672,
      "소": 1673,
      "수": 1674,
      "시": 1675,
      "식": 1676,
      "신": 1677,
      "심": 1678,
      "쌈": 1679,
      "씨": 1680,
      "아": 1681,
      "악": 1682,
      "암": 1683,
      "약": 1684,
      "어": 1685,
      "없": 1686,
      "에": 1687,
      "엣": 1688,
      "연": 1689,
      "염": 1690,
      "영": 1691,
      "예": 1692,
      "옹": 1693,
      "왕": 1694,
      "요": 1695,
      "우": 1696,
      "위": 1697,
      "으": 1698,
      "음": 1699,
      "의": 1700,
      "이": 1701,
      "인": 1702,
      "장": 1703,
      "쟁": 1704,
      "전": 1705,
      "정": 1706,
      "제": 1707,
      "종": 1708,
      "좌": 1709,
      "주": 1710,
      "죽": 1711,
      "줄": 1712,
      "중": 1713,
      "지": 1714,
      "직": 1715,
      "찌": 1716,
      "천": 1717,
      "체": 1718,
      "쳐": 1719,
      "총": 1720,
      "출": 1721,
      "쿵": 1722,
      "크": 1723,
      "토": 1724,
      "통": 1725,
      "티": 1726,
      "파": 1727,
      "판": 1728,
      "팥": 1729,
      "평": 1730,
      "포": 1731,
      "피": 1732,
      "하": 1733,
      "한": 1734,
      "해": 1735,
      "행": 1736,
      "향": 1737,
      "허": 1738,
      "헌": 1739,
      "현": 1740,
      "호": 1741,
      "혹": 1742,
      "환": 1743,
      "횡": 1744,
      "훈": 1745,
      "흥": 1746,
      "": 1747,
      "ﬁ": 1748,
      "ﬂ": 1749,
      "ﷲ": 1750,
      "︠": 1751,
      "︡": 1752,
      "ﺍ": 1753,
      "ﺏ": 1754,
      "ﺤ": 1755,
      "ﺩ": 1756,
      "ﻫ": 1757,
      "！": 1758,
      "（": 1759,
      "）": 1760,
      "，": 1761,
      "／": 1762,
      "：": 1763,
      "｢": 1764,
      "￼": 1765,
      "re": 1766,
      "in": 1767,
      "te": 1768,
      "an": 1769,
      "de": 1770,
      "he": 1771,
      "ri": 1772,
      "al": 1773,
      "on": 1774,
      "at": 1775,
      "or": 1776,
      "ul": 1777,
      "st": 1778,
      "le": 1779,
      "ar": 1780,
      "the": 1781,
      "en": 1782,
      "er": 1783,
      "un": 1784,
      "ce": 1785,
      "it": 1786,
      "în": 1787,
      "se": 1788,
      "is": 1789,
      "are": 1790,
      "ic": 1791,
      "as": 1792,
      "și": 1793,
      "ro": 1794,
      "to": 1795,
      "me": 1796,
      "ți": 1797,
      "la": 1798,
      "cu": 1799,
      "of": 1800,
      "pe": 1801,
      "il": 1802,
      "and": 1803,
      "es": 1804,
      "ti": 1805,
      "co": 1806,
      "ate": 1807,
      "ui": 1808,
      "ent": 1809,
      "ma": 1810,
      "ra": 1811,
      "ing": 1812,
      "au": 1813,
      "ve": 1814,
      "ie": 1815,
      "ru": 1816,
      "ur": 1817,
      "ol": 1818,
      "th": 1819,
      "din": 1820,
      "mp": 1821,
      "di": 1822,
      "ac": 1823,
      "con": 1824,
      "ân": 1825,
      "ca": 1826,
      "lo": 1827,
      "The": 1828,
      "fo": 1829,
      "ch": 1830,
      "ut": 1831,
      "ci": 1832,
      "ter": 1833,
      "be": 1834,
      "li": 1835,
      "19": 1836,
      "si": 1837,
      "că": 1838,
      "for": 1839,
      "să": 1840,
      "po": 1841,
      "ului": 1842,
      "mo": 1843,
      "pro": 1844,
      "su": 1845,
      "ne": 1846,
      "20": 1847,
      "du": 1848,
      "ver": 1849,
      "fi": 1850,
      "was": 1851,
      "ion": 1852,
      "pre": 1853,
      "ge": 1854,
      "care": 1855,
      "do": 1856,
      "fe": 1857,
      "am": 1858,
      "no": 1859,
      "ale": 1860,
      "tre": 1861,
      "nu": 1862,
      "ad": 1863,
      "fost": 1864,
      "so": 1865,
      "lu": 1866,
      "este": 1867,
      "lor": 1868,
      "ace": 1869,
      "ct": 1870,
      "mb": 1871,
      "ori": 1872,
      "vi": 1873,
      "mai": 1874,
      "ap": 1875,
      "ly": 1876,
      "ab": 1877,
      "ine": 1878,
      "ați": 1879,
      "tă": 1880,
      "ată": 1881,
      "man": 1882,
      "ex": 1883,
      "ho": 1884,
      "us": 1885,
      "uri": 1886,
      "ii": 1887,
      "În": 1888,
      "entru": 1889,
      "hi": 1890,
      "we": 1891,
      "ră": 1892,
      "ei": 1893,
      "ia": 1894,
      "par": 1895,
      "pentru": 1896,
      "pri": 1897,
      "ea": 1898,
      "mi": 1899,
      "ation": 1900,
      "per": 1901,
      "pă": 1902,
      "ed": 1903,
      "area": 1904,
      "rea": 1905,
      "ta": 1906,
      "mul": 1907,
      "In": 1908,
      "tr": 1909,
      "gh": 1910,
      "ir": 1911,
      "ste": 1912,
      "rin": 1913,
      "ile": 1914,
      "his": 1915,
      "op": 1916,
      "ici": 1917,
      "ist": 1918,
      "lui": 1919,
      "ment": 1920,
      "unt": 1921,
      "ni": 1922,
      "ză": 1923,
      "va": 1924,
      "ând": 1925,
      "mă": 1926,
      "rom": 1927,
      "ele": 1928,
      "men": 1929,
      "sp": 1930,
      "that": 1931,
      "pu": 1932,
      "ay": 1933,
      "ith": 1934,
      "bo": 1935,
      "ha": 1936,
      "200": 1937,
      "ast": 1938,
      "sc": 1939,
      "zi": 1940,
      "can": 1941,
      "It": 1942,
      "by": 1943,
      "min": 1944,
      "os": 1945,
      "iz": 1946,
      "ag": 1947,
      "He": 1948,
      "der": 1949,
      "ted": 1950,
      "one": 1951,
      "with": 1952,
      "ică": 1953,
      "00": 1954,
      "ten": 1955,
      "el": 1956,
      "ame": 1957,
      "cal": 1958,
      "prin": 1959,
      "rii": 1960,
      "ase": 1961,
      "ind": 1962,
      "ven": 1963,
      "rie": 1964,
      "ke": 1965,
      "ță": 1966,
      "201": 1967,
      "om": 1968,
      "ală": 1969,
      "rit": 1970,
      "ort": 1971,
      "ther": 1972,
      "ții": 1973,
      "ren": 1974,
      "from": 1975,
      "gi": 1976,
      ").": 1977,
      "den": 1978,
      "ști": 1979,
      "ant": 1980,
      "cul": 1981,
      "cre": 1982,
      "com": 1983,
      "chi": 1984,
      "ită": 1985,
      "bu": 1986,
      "mat": 1987,
      "ze": 1988,
      "ani": 1989,
      "sa": 1990,
      "son": 1991,
      "ces": 1992,
      "comp": 1993,
      "ilor": 1994,
      "use": 1995,
      "up": 1996,
      "od": 1997,
      "tra": 1998,
      "ște": 1999,
      "av": 2000,
      "ans": 2001,
      "18": 2002,
      "pla": 2003,
      "gu": 2004,
      "af": 2005,
      "une": 2006,
      "ob": 2007,
      "spe": 2008,
      "De": 2009,
      "des": 2010,
      "wn": 2011,
      "sunt": 2012,
      "pl": 2013,
      "ts": 2014,
      "itate": 2015,
      "go": 2016,
      "und": 2017,
      "not": 2018,
      "wo": 2019,
      "her": 2020,
      "tion": 2021,
      "ța": 2022,
      "all": 2023,
      "tri": 2024,
      "ran": 2025,
      "pul": 2026,
      "gra": 2027,
      "gen": 2028,
      "mar": 2029,
      "peri": 2030,
      "ord": 2031,
      "câ": 2032,
      "were": 2033,
      "lic": 2034,
      "ard": 2035,
      "gă": 2036,
      "tor": 2037,
      "sau": 2038,
      "ers": 2039,
      "tate": 2040,
      "has": 2041,
      "aj": 2042,
      "ou": 2043,
      "res": 2044,
      "bi": 2045,
      "ția": 2046,
      "Re": 2047,
      "red": 2048,
      "ari": 2049,
      "fic": 2050,
      "tu": 2051,
      "ară": 2052,
      "led": 2053,
      "ght": 2054,
      "mon": 2055,
      "cep": 2056,
      "ear": 2057,
      "ity": 2058,
      "ție": 2059,
      "che": 2060,
      "pi": 2061,
      "out": 2062,
      "ck": 2063,
      "olo": 2064,
      "fir": 2065,
      "),": 2066,
      "timp": 2067,
      "imp": 2068,
      "et": 2069,
      "also": 2070,
      "wh": 2071,
      "ople": 2072,
      "tele": 2073,
      "lă": 2074,
      "dis": 2075,
      "cur": 2076,
      "iv": 2077,
      "199": 2078,
      "time": 2079,
      "tea": 2080,
      "acest": 2081,
      "wor": 2082,
      "era": 2083,
      "tur": 2084,
      "ill": 2085,
      "ich": 2086,
      "ll": 2087,
      "iar": 2088,
      "teri": 2089,
      "ane": 2090,
      "seri": 2091,
      "tul": 2092,
      "sub": 2093,
      "ave": 2094,
      "ână": 2095,
      "ice": 2096,
      "rec": 2097,
      "cau": 2098,
      "have": 2099,
      "ded": 2100,
      "les": 2101,
      "cele": 2102,
      "An": 2103,
      "they": 2104,
      "ai": 2105,
      "ali": 2106,
      "âr": 2107,
      "tin": 2108,
      "stru": 2109,
      "iei": 2110,
      "ain": 2111,
      "rat": 2112,
      "Con": 2113,
      "mit": 2114,
      "people": 2115,
      "mil": 2116,
      "fie": 2117,
      "pub": 2118,
      "clu": 2119,
      "rile": 2120,
      "ld": 2121,
      "pol": 2122,
      "ally": 2123,
      "other": 2124,
      "form": 2125,
      "fa": 2126,
      "uni": 2127,
      "dar": 2128,
      "itu": 2129,
      "part": 2130,
      "ser": 2131,
      "Ch": 2132,
      "reg": 2133,
      "fă": 2134,
      "ron": 2135,
      "Co": 2136,
      "oare": 2137,
      "cut": 2138,
      "cer": 2139,
      "mber": 2140,
      "but": 2141,
      "oc": 2142,
      "aș": 2143,
      "had": 2144,
      "rul": 2145,
      "whe": 2146,
      "ok": 2147,
      "inter": 2148,
      "This": 2149,
      "ary": 2150,
      "car": 2151,
      "vol": 2152,
      "qu": 2153,
      "țin": 2154,
      "popul": 2155,
      "tori": 2156,
      "id": 2157,
      "uă": 2158,
      "vă": 2159,
      "ju": 2160,
      "gan": 2161,
      "prez": 2162,
      "Se": 2163,
      "La": 2164,
      "first": 2165,
      "play": 2166,
      "fin": 2167,
      "între": 2168,
      "tro": 2169,
      "ated": 2170,
      "which": 2171,
      "dat": 2172,
      "their": 2173,
      "Ace": 2174,
      "ber": 2175,
      "Ar": 2176,
      "mare": 2177,
      "ved": 2178,
      "vie": 2179,
      "col": 2180,
      "mu": 2181,
      "tat": 2182,
      "vers": 2183,
      "împ": 2184,
      "Du": 2185,
      "Al": 2186,
      "speci": 2187,
      "med": 2188,
      "na": 2189,
      "ty": 2190,
      "cat": 2191,
      "est": 2192,
      "ger": 2193,
      "țe": 2194,
      "produ": 2195,
      "locu": 2196,
      "vo": 2197,
      "cl": 2198,
      "198": 2199,
      "pen": 2200,
      "sol": 2201,
      "Uni": 2202,
      "za": 2203,
      "land": 2204,
      "după": 2205,
      "sing": 2206,
      "anul": 2207,
      "tiv": 2208,
      "Pe": 2209,
      "year": 2210,
      "mele": 2211,
      "this": 2212,
      "They": 2213,
      "cum": 2214,
      "uld": 2215,
      "cent": 2216,
      "cel": 2217,
      "abil": 2218,
      "gin": 2219,
      "țion": 2220,
      "sho": 2221,
      "fiind": 2222,
      "stu": 2223,
      "unc": 2224,
      "very": 2225,
      "pat": 2226,
      "ble": 2227,
      "mân": 2228,
      "anu": 2229,
      "urile": 2230,
      "age": 2231,
      "ree": 2232,
      "Ro": 2233,
      "ack": 2234,
      "dintre": 2235,
      "itatea": 2236,
      "art": 2237,
      "bă": 2238,
      "197": 2239,
      "ical": 2240,
      "scri": 2241,
      "fer": 2242,
      "ong": 2243,
      "bor": 2244,
      "ish": 2245,
      "gro": 2246,
      "its": 2247,
      "name": 2248,
      "im": 2249,
      "who": 2250,
      "sup": 2251,
      "fel": 2252,
      "public": 2253,
      "astă": 2254,
      "ins": 2255,
      "low": 2256,
      "called": 2257,
      "amil": 2258,
      "She": 2259,
      "două": 2260,
      "work": 2261,
      "nă": 2262,
      "aliz": 2263,
      "many": 2264,
      "rican": 2265,
      "ang": 2266,
      "Au": 2267,
      "ach": 2268,
      "So": 2269,
      "kno": 2270,
      "Mar": 2271,
      "luc": 2272,
      "\".": 2273,
      "sti": 2274,
      "some": 2275,
      "stri": 2276,
      "orul": 2277,
      "itori": 2278,
      "fil": 2279,
      "mer": 2280,
      "Ne": 2281,
      "10": 2282,
      "str": 2283,
      "feren": 2284,
      "aceste": 2285,
      "ung": 2286,
      "cât": 2287,
      "rele": 2288,
      "cause": 2289,
      "way": 2290,
      "cea": 2291,
      "ație": 2292,
      "într": 2293,
      "ba": 2294,
      "ini": 2295,
      "loc": 2296,
      "17": 2297,
      "more": 2298,
      "da": 2299,
      "nat": 2300,
      "bil": 2301,
      "tal": 2302,
      "mis": 2303,
      "inclu": 2304,
      "two": 2305,
      "Un": 2306,
      "about": 2307,
      "sion": 2308,
      "ună": 2309,
      "most": 2310,
      "dif": 2311,
      "ive": 2312,
      "ot": 2313,
      "sta": 2314,
      "apro": 2315,
      "um": 2316,
      "pt": 2317,
      "sen": 2318,
      "până": 2319,
      "196": 2320,
      "ara": 2321,
      "când": 2322,
      "15": 2323,
      "ild": 2324,
      "gre": 2325,
      "any": 2326,
      "II": 2327,
      "vin": 2328,
      "încep": 2329,
      "used": 2330,
      "ură": 2331,
      "Mo": 2332,
      "cap": 2333,
      "there": 2334,
      "olog": 2335,
      "ory": 2336,
      "ak": 2337,
      "000": 2338,
      "gener": 2339,
      "mas": 2340,
      "she": 2341,
      "cor": 2342,
      "famil": 2343,
      "mbrie": 2344,
      "ms": 2345,
      "unei": 2346,
      "194": 2347,
      "cun": 2348,
      "cit": 2349,
      "avea": 2350,
      "mate": 2351,
      "dre": 2352,
      "său": 2353,
      "ton": 2354,
      "dent": 2355,
      "lat": 2356,
      "șe": 2357,
      "stat": 2358,
      "iste": 2359,
      "arte": 2360,
      "acă": 2361,
      "val": 2362,
      "amen": 2363,
      "ască": 2364,
      "lea": 2365,
      "sh": 2366,
      "ga": 2367,
      "came": 2368,
      "uro": 2369,
      "Ame": 2370,
      "una": 2371,
      "person": 2372,
      "dă": 2373,
      "ica": 2374,
      "unea": 2375,
      "prezent": 2376,
      "been": 2377,
      "ction": 2378,
      "Bi": 2379,
      "Ho": 2380,
      "zon": 2381,
      "fol": 2382,
      "Bu": 2383,
      "made": 2384,
      "ition": 2385,
      "por": 2386,
      "ina": 2387,
      "parte": 2388,
      "ings": 2389,
      "multe": 2390,
      "ry": 2391,
      "ene": 2392,
      "cop": 2393,
      "side": 2394,
      "sale": 2395,
      "ațion": 2396,
      "known": 2397,
      "lar": 2398,
      "rest": 2399,
      "vern": 2400,
      "port": 2401,
      "16": 2402,
      "ide": 2403,
      "poate": 2404,
      "polit": 2405,
      "end": 2406,
      "rilor": 2407,
      "atul": 2408,
      "lan": 2409,
      "mn": 2410,
      "ure": 2411,
      "them": 2412,
      "tern": 2413,
      "12": 2414,
      "ade": 2415,
      "început": 2416,
      "ced": 2417,
      "ph": 2418,
      "pa": 2419,
      "inte": 2420,
      "into": 2421,
      "lul": 2422,
      "him": 2423,
      "El": 2424,
      "195": 2425,
      "ev": 2426,
      "memb": 2427,
      "unde": 2428,
      "import": 2429,
      "when": 2430,
      "Jo": 2431,
      "unui": 2432,
      "lin": 2433,
      "contin": 2434,
      "dez": 2435,
      "mal": 2436,
      "amp": 2437,
      "Par": 2438,
      "către": 2439,
      "ament": 2440,
      "Bo": 2441,
      "gn": 2442,
      "ază": 2443,
      "organ": 2444,
      "ația": 2445,
      "ful": 2446,
      "leg": 2447,
      "Pro": 2448,
      "ctor": 2449,
      "mun": 2450,
      "asă": 2451,
      "ned": 2452,
      "after": 2453,
      "Su": 2454,
      "No": 2455,
      "new": 2456,
      "apă": 2457,
      "ased": 2458,
      "To": 2459,
      "tit": 2460,
      "than": 2461,
      "perio": 2462,
      "ține": 2463,
      "ses": 2464,
      "pte": 2465,
      "ează": 2466,
      "Le": 2467,
      "toate": 2468,
      "only": 2469,
      "ili": 2470,
      "oraș": 2471,
      "lie": 2472,
      "old": 2473,
      "sed": 2474,
      "30": 2475,
      "menea": 2476,
      "hed": 2477,
      "jo": 2478,
      "tive": 2479,
      "ep": 2480,
      "turi": 2481,
      "După": 2482,
      "ala": 2483,
      "pot": 2484,
      "pie": 2485,
      "Af": 2486,
      "There": 2487,
      "over": 2488,
      "Li": 2489,
      "vor": 2490,
      "alte": 2491,
      "ters": 2492,
      "asemenea": 2493,
      "years": 2494,
      "ous": 2495,
      "ater": 2496,
      "func": 2497,
      "St": 2498,
      "ități": 2499,
      "venit": 2500,
      "sur": 2501,
      "14": 2502,
      "day": 2503,
      "cho": 2504,
      "feri": 2505,
      "medi": 2506,
      "ations": 2507,
      "”.": 2508,
      "albu": 2509,
      "avut": 2510,
      "hn": 2511,
      "ational": 2512,
      "ații": 2513,
      "rez": 2514,
      "\",": 2515,
      "ving": 2516,
      "vel": 2517,
      "sy": 2518,
      "ler": 2519,
      "ției": 2520,
      "Be": 2521,
      "urmă": 2522,
      "țele": 2523,
      "bet": 2524,
      "ws": 2525,
      "die": 2526,
      "differen": 2527,
      "En": 2528,
      "face": 2529,
      "king": 2530,
      "cip": 2531,
      "Po": 2532,
      "ath": 2533,
      "rou": 2534,
      "duce": 2535,
      "je": 2536,
      "local": 2537,
      "mult": 2538,
      "cei": 2539,
      "toare": 2540,
      "star": 2541,
      "come": 2542,
      "ada": 2543,
      "șit": 2544,
      "Me": 2545,
      "ies": 2546,
      "stă": 2547,
      "această": 2548,
      "Rom": 2549,
      "ves": 2550,
      "Car": 2551,
      "13": 2552,
      "ura": 2553,
      "cond": 2554,
      "mus": 2555,
      "înt": 2556,
      "trans": 2557,
      "hip": 2558,
      "sul": 2559,
      "ană": 2560,
      "locuitori": 2561,
      "cin": 2562,
      "Te": 2563,
      "apo": 2564,
      "ana": 2565,
      "trei": 2566,
      "fect": 2567,
      "alt": 2568,
      "Cu": 2569,
      "ward": 2570,
      "Pri": 2571,
      "io": 2572,
      "tului": 2573,
      "became": 2574,
      "spre": 2575,
      "will": 2576,
      "ape": 2577,
      "uring": 2578,
      "sus": 2579,
      "suc": 2580,
      "gat": 2581,
      "put": 2582,
      "len": 2583,
      "because": 2584,
      "Fran": 2585,
      "bui": 2586,
      "ându": 2587,
      "timpul": 2588,
      "Com": 2589,
      "ance": 2590,
      "fac": 2591,
      "nor": 2592,
      "rid": 2593,
      "vis": 2594,
      "doar": 2595,
      "like": 2596,
      "fore": 2597,
      "dy": 2598,
      "xi": 2599,
      "ss": 2600,
      "exist": 2601,
      "American": 2602,
      "cen": 2603,
      "would": 2604,
      "exe": 2605,
      "different": 2606,
      "soci": 2607,
      "mite": 2608,
      "serv": 2609,
      "ks": 2610,
      "Român": 2611,
      "zbo": 2612,
      "able": 2613,
      "temp": 2614,
      "ped": 2615,
      "alul": 2616,
      "serica": 2617,
      "25": 2618,
      "mic": 2619,
      "foarte": 2620,
      "my": 2621,
      "get": 2622,
      "On": 2623,
      "istori": 2624,
      "gust": 2625,
      "prof": 2626,
      "gru": 2627,
      "”,": 2628,
      "iul": 2629,
      "At": 2630,
      "erau": 2631,
      "constru": 2632,
      "pic": 2633,
      "hen": 2634,
      "193": 2635,
      "cri": 2636,
      "Fe": 2637,
      "adă": 2638,
      "fici": 2639,
      "run": 2640,
      "cunos": 2641,
      "tru": 2642,
      "ante": 2643,
      "hel": 2644,
      "îl": 2645,
      "ft": 2646,
      "continu": 2647,
      "ass": 2648,
      "asta": 2649,
      "oper": 2650,
      "Euro": 2651,
      "Din": 2652,
      "echi": 2653,
      "dra": 2654,
      "upra": 2655,
      "game": 2656,
      "then": 2657,
      "comple": 2658,
      "tatea": 2659,
      "For": 2660,
      "rei": 2661,
      "sk": 2662,
      "Ger": 2663,
      "studi": 2664,
      "dul": 2665,
      "îi": 2666,
      "att": 2667,
      "forma": 2668,
      "via": 2669,
      "nici": 2670,
      "times": 2671,
      "fu": 2672,
      "organiz": 2673,
      "mului": 2674,
      "State": 2675,
      "stitu": 2676,
      "act": 2677,
      "sel": 2678,
      "ină": 2679,
      "caz": 2680,
      "As": 2681,
      "căr": 2682,
      "mor": 2683,
      "bru": 2684,
      "later": 2685,
      "under": 2686,
      "where": 2687,
      "limb": 2688,
      "viz": 2689,
      "dus": 2690,
      "Univers": 2691,
      "vit": 2692,
      "Ex": 2693,
      "prima": 2694,
      "aco": 2695,
      "contro": 2696,
      "ua": 2697,
      "Pre": 2698,
      "icul": 2699,
      "activ": 2700,
      "state": 2701,
      "main": 2702,
      "minist": 2703,
      "ason": 2704,
      "2011": 2705,
      "may": 2706,
      "citation": 2707,
      "chan": 2708,
      "Este": 2709,
      "mente": 2710,
      "thou": 2711,
      "român": 2712,
      "clo": 2713,
      "princip": 2714,
      "arti": 2715,
      "asupra": 2716,
      "11": 2717,
      "inf": 2718,
      "mea": 2719,
      "ween": 2720,
      "numă": 2721,
      "ess": 2722,
      "New": 2723,
      "ose": 2724,
      "maj": 2725,
      "did": 2726,
      "Di": 2727,
      "schi": 2728,
      "cii": 2729,
      "dest": 2730,
      "volu": 2731,
      "își": 2732,
      "unii": 2733,
      "Lu": 2734,
      "anii": 2735,
      "dire": 2736,
      "prote": 2737,
      "back": 2738,
      "Ma": 2739,
      "three": 2740,
      "Lo": 2741,
      "cy": 2742,
      "națion": 2743,
      "mag": 2744,
      "iliz": 2745,
      "origin": 2746,
      "vari": 2747,
      "fap": 2748,
      "try": 2749,
      "Do": 2750,
      "war": 2751,
      "Prin": 2752,
      "însă": 2753,
      "propri": 2754,
      "ghe": 2755,
      "released": 2756,
      "ținut": 2757,
      "itor": 2758,
      "asi": 2759,
      "rate": 2760,
      "ick": 2761,
      "ator": 2762,
      "dată": 2763,
      "devenit": 2764,
      "față": 2765,
      "milit": 2766,
      "bur": 2767,
      "veni": 2768,
      "terior": 2769,
      "tes": 2770,
      "ței": 2771,
      "ității": 2772,
      "als": 2773,
      "ple": 2774,
      "Nu": 2775,
      "tot": 2776,
      "ener": 2777,
      "cted": 2778,
      "ined": 2779,
      "Some": 2780,
      "numele": 2781,
      "oase": 2782,
      "țiile": 2783,
      "pozi": 2784,
      "succes": 2785,
      "wer": 2786,
      "sf": 2787,
      "sco": 2788,
      "dist": 2789,
      "ât": 2790,
      "50": 2791,
      "tain": 2792,
      "album": 2793,
      "pres": 2794,
      "again": 2795,
      "world": 2796,
      "Nor": 2797,
      "aro": 2798,
      "Mon": 2799,
      "supra": 2800,
      "trebui": 2801,
      "lis": 2802,
      "between": 2803,
      "proble": 2804,
      "well": 2805,
      "ales": 2806,
      "despre": 2807,
      "folo": 2808,
      "pun": 2809,
      "chool": 2810,
      "astfel": 2811,
      "sin": 2812,
      "peste": 2813,
      "decât": 2814,
      "întâ": 2815,
      "long": 2816,
      "unci": 2817,
      "if": 2818,
      "set": 2819,
      "2010": 2820,
      "cle": 2821,
      "large": 2822,
      "Biserica": 2823,
      "ico": 2824,
      "group": 2825,
      "Mi": 2826,
      "ora": 2827,
      "born": 2828,
      "Ed": 2829,
      "unul": 2830,
      "războ": 2831,
      "fără": 2832,
      "sat": 2833,
      "rești": 2834,
      "until": 2835,
      "resp": 2836,
      "folos": 2837,
      "realiz": 2838,
      "ning": 2839,
      "cad": 2840,
      "wever": 2841,
      "died": 2842,
      "mari": 2843,
      "child": 2844,
      "ship": 2845,
      "team": 2846,
      "whi": 2847,
      "apoi": 2848,
      "make": 2849,
      "played": 2850,
      "city": 2851,
      "ner": 2852,
      "bal": 2853,
      "vede": 2854,
      "roman": 2855,
      "eli": 2856,
      "ps": 2857,
      "uman": 2858,
      "ore": 2859,
      "eni": 2860,
      "general": 2861,
      "indu": 2862,
      "pos": 2863,
      "ding": 2864,
      "2009": 2865,
      "regi": 2866,
      "sele": 2867,
      "tră": 2868,
      "24": 2869,
      "oamen": 2870,
      "reu": 2871,
      "mod": 2872,
      "siste": 2873,
      "depen": 2874,
      "song": 2875,
      "schimb": 2876,
      "bro": 2877,
      "doi": 2878,
      "21": 2879,
      "pra": 2880,
      "dia": 2881,
      "same": 2882,
      "Or": 2883,
      "ged": 2884,
      "sts": 2885,
      "termin": 2886,
      "numit": 2887,
      "plan": 2888,
      "tice": 2889,
      "cis": 2890,
      "air": 2891,
      "kes": 2892,
      "plo": 2893,
      "vâr": 2894,
      "tic": 2895,
      "rează": 2896,
      "Th": 2897,
      "nume": 2898,
      "isten": 2899,
      "mii": 2900,
      "often": 2901,
      "ata": 2902,
      "throu": 2903,
      "pan": 2904,
      "iu": 2905,
      "ting": 2906,
      "Si": 2907,
      "înce": 2908,
      "del": 2909,
      "ților": 2910,
      ".\"": 2911,
      "țat": 2912,
      "ria": 2913,
      "don": 2914,
      "special": 2915,
      "încă": 2916,
      "His": 2917,
      "sem": 2918,
      "book": 2919,
      "iect": 2920,
      "unor": 2921,
      "consi": 2922,
      "arie": 2923,
      "vre": 2924,
      "vine": 2925,
      "van": 2926,
      "partea": 2927,
      "ric": 2928,
      "ments": 2929,
      "won": 2930,
      "stic": 2931,
      "these": 2932,
      "elect": 2933,
      "german": 2934,
      "second": 2935,
      "jur": 2936,
      "usu": 2937,
      "After": 2938,
      "dezvol": 2939,
      "ajun": 2940,
      "vent": 2941,
      "stră": 2942,
      "ue": 2943,
      "Ad": 2944,
      "zat": 2945,
      "ației": 2946,
      "târ": 2947,
      "află": 2948,
      "asa": 2949,
      "perso": 2950,
      "comun": 2951,
      "precum": 2952,
      "2008": 2953,
      "sec": 2954,
      "sig": 2955,
      "locul": 2956,
      "Is": 2957,
      "ov": 2958,
      "Bucu": 2959,
      "ral": 2960,
      "four": 2961,
      "ja": 2962,
      "situ": 2963,
      "count": 2964,
      "urilor": 2965,
      "bul": 2966,
      "decl": 2967,
      "înain": 2968,
      "ries": 2969,
      "important": 2970,
      "cir": 2971,
      "yo": 2972,
      "biseri": 2973,
      "ogra": 2974,
      "atori": 2975,
      "Ge": 2976,
      "char": 2977,
      "primul": 2978,
      "band": 2979,
      "secol": 2980,
      "site": 2981,
      "zile": 2982,
      "ried": 2983,
      "drept": 2984,
      "profes": 2985,
      "ban": 2986,
      "format": 2987,
      "acestea": 2988,
      "Her": 2989,
      "ptă": 2990,
      "câte": 2991,
      "2007": 2992,
      "ocu": 2993,
      "story": 2994,
      "When": 2995,
      "mei": 2996,
      "tată": 2997,
      "ys": 2998,
      "vil": 2999
    },
    "merges": [
      [
        "r",
        "e"
      ],
      [
        "i",
        "n"
      ],
      [
        "t",
        "e"
      ],
      [
        "a",
        "n"
      ],
      [
        "d",
        "e"
      ],
      [
        "h",
        "e"
      ],
      [
        "r",
        "i"
      ],
      [
        "a",
        "l"
      ],
      [
        "o",
        "n"
      ],
      [
        "a",
        "t"
      ],
      [
        "o",
        "r"
      ],
      [
        "u",
        "l"
      ],
      [
        "s",
        "t"
      ],
      [
        "l",
        "e"
      ],
      [
        "a",
        "r"
      ],
      [
        "t",
        "he"
      ],
      [
        "e",
        "n"
      ],
      [
        "e",
        "r"
      ],
      [
        "u",
        "n"
      ],
      [
        "c",
        "e"
      ],
      [
        "i",
        "t"
      ],
      [
        "î",
        "n"
      ],
      [
        "s",
        "e"
      ],
      [
        "i",
        "s"
      ],
      [
        "a",
        "re"
      ],
      [
        "i",
        "c"
      ],
      [
        "a",
        "s"
      ],
      [
        "ș",
        "i"
      ],
      [
        "r",
        "o"
      ],
      [
        "t",
        "o"
      ],
      [
        "m",
        "e"
      ],
      [
        "ț",
        "i"
      ],
      [
        "l",
        "a"
      ],
      [
        "c",
        "u"
      ],
      [
        "o",
        "f"
      ],
      [
        "p",
        "e"
      ],
      [
        "i",
        "l"
      ],
      [
        "an",
        "d"
      ],
      [
        "e",
        "s"
      ],
      [
        "t",
        "i"
      ],
      [
        "c",
        "o"
      ],
      [
        "a",
        "te"
      ],
      [
        "u",
        "i"
      ],
      [
        "en",
        "t"
      ],
      [
        "m",
        "a"
      ],
      [
        "r",
        "a"
      ],
      [
        "in",
        "g"
      ],
      [
        "a",
        "u"
      ],
      [
        "v",
        "e"
      ],
      [
        "i",
        "e"
      ],
      [
        "r",
        "u"
      ],
      [
        "u",
        "r"
      ],
      [
        "o",
        "l"
      ],
      [
        "t",
        "h"
      ],
      [
        "d",
        "in"
      ],
      [
        "m",
        "p"
      ],
      [
        "d",
        "i"
      ],
      [
        "a",
        "c"
      ],
      [
        "c",
        "on"
      ],
      [
        "â",
        "n"
      ],
      [
        "c",
        "a"
      ],
      [
        "l",
        "o"
      ],
      [
        "T",
        "he"
      ],
      [
        "f",
        "o"
      ],
      [
        "c",
        "h"
      ],
      [
        "u",
        "t"
      ],
      [
        "c",
        "i"
      ],
      [
        "te",
        "r"
      ],
      [
        "b",
        "e"
      ],
      [
        "l",
        "i"
      ],
      [
        "1",
        "9"
      ],
      [
        "s",
        "i"
      ],
      [
        "c",
        "ă"
      ],
      [
        "f",
        "or"
      ],
      [
        "s",
        "ă"
      ],
      [
        "p",
        "o"
      ],
      [
        "ul",
        "ui"
      ],
      [
        "m",
        "o"
      ],
      [
        "p",
        "ro"
      ],
      [
        "s",
        "u"
      ],
      [
        "n",
        "e"
      ],
      [
        "2",
        "0"
      ],
      [
        "d",
        "u"
      ],
      [
        "v",
        "er"
      ],
      [
        "f",
        "i"
      ],
      [
        "w",
        "as"
      ],
      [
        "i",
        "on"
      ],
      [
        "p",
        "re"
      ],
      [
        "g",
        "e"
      ],
      [
        "c",
        "are"
      ],
      [
        "d",
        "o"
      ],
      [
        "f",
        "e"
      ],
      [
        "a",
        "m"
      ],
      [
        "n",
        "o"
      ],
      [
        "al",
        "e"
      ],
      [
        "t",
        "re"
      ],
      [
        "n",
        "u"
      ],
      [
        "a",
        "d"
      ],
      [
        "fo",
        "st"
      ],
      [
        "s",
        "o"
      ],
      [
        "l",
        "u"
      ],
      [
        "es",
        "te"
      ],
      [
        "l",
        "or"
      ],
      [
        "a",
        "ce"
      ],
      [
        "c",
        "t"
      ],
      [
        "m",
        "b"
      ],
      [
        "o",
        "ri"
      ],
      [
        "v",
        "i"
      ],
      [
        "ma",
        "i"
      ],
      [
        "a",
        "p"
      ],
      [
        "l",
        "y"
      ],
      [
        "a",
        "b"
      ],
      [
        "in",
        "e"
      ],
      [
        "a",
        "ți"
      ],
      [
        "t",
        "ă"
      ],
      [
        "at",
        "ă"
      ],
      [
        "m",
        "an"
      ],
      [
        "e",
        "x"
      ],
      [
        "h",
        "o"
      ],
      [
        "u",
        "s"
      ],
      [
        "u",
        "ri"
      ],
      [
        "i",
        "i"
      ],
      [
        "Î",
        "n"
      ],
      [
        "ent",
        "ru"
      ],
      [
        "h",
        "i"
      ],
      [
        "w",
        "e"
      ],
      [
        "r",
        "ă"
      ],
      [
        "e",
        "i"
      ],
      [
        "i",
        "a"
      ],
      [
        "p",
        "ar"
      ],
      [
        "p",
        "entru"
      ],
      [
        "p",
        "ri"
      ],
      [
        "e",
        "a"
      ],
      [
        "m",
        "i"
      ],
      [
        "at",
        "ion"
      ],
      [
        "p",
        "er"
      ],
      [
        "p",
        "ă"
      ],
      [
        "e",
        "d"
      ],
      [
        "are",
        "a"
      ],
      [
        "re",
        "a"
      ],
      [
        "t",
        "a"
      ],
      [
        "m",
        "ul"
      ],
      [
        "I",
        "n"
      ],
      [
        "t",
        "r"
      ],
      [
        "g",
        "h"
      ],
      [
        "i",
        "r"
      ],
      [
        "s",
        "te"
      ],
      [
        "r",
        "in"
      ],
      [
        "i",
        "le"
      ],
      [
        "h",
        "is"
      ],
      [
        "o",
        "p"
      ],
      [
        "ic",
        "i"
      ],
      [
        "i",
        "st"
      ],
      [
        "l",
        "ui"
      ],
      [
        "m",
        "ent"
      ],
      [
        "un",
        "t"
      ],
      [
        "n",
        "i"
      ],
      [
        "z",
        "ă"
      ],
      [
        "v",
        "a"
      ],
      [
        "ân",
        "d"
      ],
      [
        "m",
        "ă"
      ],
      [
        "ro",
        "m"
      ],
      [
        "e",
        "le"
      ],
      [
        "m",
        "en"
      ],
      [
        "s",
        "p"
      ],
      [
        "th",
        "at"
      ],
      [
        "p",
        "u"
      ],
      [
        "a",
        "y"
      ],
      [
        "it",
        "h"
      ],
      [
        "b",
        "o"
      ],
      [
        "h",
        "a"
      ],
      [
        "20",
        "0"
      ],
      [
        "a",
        "st"
      ],
      [
        "s",
        "c"
      ],
      [
        "z",
        "i"
      ],
      [
        "c",
        "an"
      ],
      [
        "I",
        "t"
      ],
      [
        "b",
        "y"
      ],
      [
        "m",
        "in"
      ],
      [
        "o",
        "s"
      ],
      [
        "i",
        "z"
      ],
      [
        "a",
        "g"
      ],
      [
        "H",
        "e"
      ],
      [
        "de",
        "r"
      ],
      [
        "te",
        "d"
      ],
      [
        "on",
        "e"
      ],
      [
        "w",
        "ith"
      ],
      [
        "ic",
        "ă"
      ],
      [
        "0",
        "0"
      ],
      [
        "te",
        "n"
      ],
      [
        "e",
        "l"
      ],
      [
        "a",
        "me"
      ],
      [
        "c",
        "al"
      ],
      [
        "p",
        "rin"
      ],
      [
        "ri",
        "i"
      ],
      [
        "a",
        "se"
      ],
      [
        "in",
        "d"
      ],
      [
        "v",
        "en"
      ],
      [
        "ri",
        "e"
      ],
      [
        "k",
        "e"
      ],
      [
        "ț",
        "ă"
      ],
      [
        "20",
        "1"
      ],
      [
        "o",
        "m"
      ],
      [
        "al",
        "ă"
      ],
      [
        "ri",
        "t"
      ],
      [
        "or",
        "t"
      ],
      [
        "the",
        "r"
      ],
      [
        "ți",
        "i"
      ],
      [
        "re",
        "n"
      ],
      [
        "f",
        "rom"
      ],
      [
        "g",
        "i"
      ],
      [
        ")",
        "."
      ],
      [
        "de",
        "n"
      ],
      [
        "ș",
        "ti"
      ],
      [
        "an",
        "t"
      ],
      [
        "c",
        "ul"
      ],
      [
        "c",
        "re"
      ],
      [
        "co",
        "m"
      ],
      [
        "ch",
        "i"
      ],
      [
        "it",
        "ă"
      ],
      [
        "b",
        "u"
      ],
      [
        "m",
        "at"
      ],
      [
        "z",
        "e"
      ],
      [
        "an",
        "i"
      ],
      [
        "s",
        "a"
      ],
      [
        "s",
        "on"
      ],
      [
        "ce",
        "s"
      ],
      [
        "co",
        "mp"
      ],
      [
        "il",
        "or"
      ],
      [
        "u",
        "se"
      ],
      [
        "u",
        "p"
      ],
      [
        "o",
        "d"
      ],
      [
        "t",
        "ra"
      ],
      [
        "ș",
        "te"
      ],
      [
        "a",
        "v"
      ],
      [
        "an",
        "s"
      ],
      [
        "1",
        "8"
      ],
      [
        "p",
        "la"
      ],
      [
        "g",
        "u"
      ],
      [
        "a",
        "f"
      ],
      [
        "un",
        "e"
      ],
      [
        "o",
        "b"
      ],
      [
        "s",
        "pe"
      ],
      [
        "D",
        "e"
      ],
      [
        "de",
        "s"
      ],
      [
        "w",
        "n"
      ],
      [
        "s",
        "unt"
      ],
      [
        "p",
        "l"
      ],
      [
        "t",
        "s"
      ],
      [
        "it",
        "ate"
      ],
      [
        "g",
        "o"
      ],
      [
        "un",
        "d"
      ],
      [
        "no",
        "t"
      ],
      [
        "w",
        "o"
      ],
      [
        "he",
        "r"
      ],
      [
        "ti",
        "on"
      ],
      [
        "ț",
        "a"
      ],
      [
        "al",
        "l"
      ],
      [
        "t",
        "ri"
      ],
      [
        "r",
        "an"
      ],
      [
        "p",
        "ul"
      ],
      [
        "g",
        "ra"
      ],
      [
        "g",
        "en"
      ],
      [
        "m",
        "ar"
      ],
      [
        "pe",
        "ri"
      ],
      [
        "or",
        "d"
      ],
      [
        "c",
        "â"
      ],
      [
        "we",
        "re"
      ],
      [
        "l",
        "ic"
      ],
      [
        "ar",
        "d"
      ],
      [
        "g",
        "ă"
      ],
      [
        "t",
        "or"
      ],
      [
        "s",
        "au"
      ],
      [
        "er",
        "s"
      ],
      [
        "t",
        "ate"
      ],
      [
        "h",
        "as"
      ],
      [
        "a",
        "j"
      ],
      [
        "o",
        "u"
      ],
      [
        "re",
        "s"
      ],
      [
        "b",
        "i"
      ],
      [
        "ți",
        "a"
      ],
      [
        "R",
        "e"
      ],
      [
        "re",
        "d"
      ],
      [
        "a",
        "ri"
      ],
      [
        "f",
        "ic"
      ],
      [
        "t",
        "u"
      ],
      [
        "ar",
        "ă"
      ],
      [
        "le",
        "d"
      ],
      [
        "gh",
        "t"
      ],
      [
        "m",
        "on"
      ],
      [
        "ce",
        "p"
      ],
      [
        "e",
        "ar"
      ],
      [
        "it",
        "y"
      ],
      [
        "ți",
        "e"
      ],
      [
        "c",
        "he"
      ],
      [
        "p",
        "i"
      ],
      [
        "o",
        "ut"
      ],
      [
        "c",
        "k"
      ],
      [
        "ol",
        "o"
      ],
      [
        "fi",
        "r"
      ],
      [
        ")",
        ","
      ],
      [
        "ti",
        "mp"
      ],
      [
        "i",
        "mp"
      ],
      [
        "e",
        "t"
      ],
      [
        "al",
        "so"
      ],
      [
        "w",
        "h"
      ],
      [
        "op",
        "le"
      ],
      [
        "te",
        "le"
      ],
      [
        "l",
        "ă"
      ],
      [
        "d",
        "is"
      ],
      [
        "cu",
        "r"
      ],
      [
        "i",
        "v"
      ],
      [
        "19",
        "9"
      ],
      [
        "ti",
        "me"
      ],
      [
        "te",
        "a"
      ],
      [
        "ace",
        "st"
      ],
      [
        "w",
        "or"
      ],
      [
        "er",
        "a"
      ],
      [
        "t",
        "ur"
      ],
      [
        "il",
        "l"
      ],
      [
        "ic",
        "h"
      ],
      [
        "l",
        "l"
      ],
      [
        "i",
        "ar"
      ],
      [
        "te",
        "ri"
      ],
      [
        "an",
        "e"
      ],
      [
        "se",
        "ri"
      ],
      [
        "t",
        "ul"
      ],
      [
        "su",
        "b"
      ],
      [
        "a",
        "ve"
      ],
      [
        "ân",
        "ă"
      ],
      [
        "i",
        "ce"
      ],
      [
        "re",
        "c"
      ],
      [
        "c",
        "au"
      ],
      [
        "ha",
        "ve"
      ],
      [
        "de",
        "d"
      ],
      [
        "le",
        "s"
      ],
      [
        "ce",
        "le"
      ],
      [
        "A",
        "n"
      ],
      [
        "the",
        "y"
      ],
      [
        "a",
        "i"
      ],
      [
        "al",
        "i"
      ],
      [
        "â",
        "r"
      ],
      [
        "t",
        "in"
      ],
      [
        "st",
        "ru"
      ],
      [
        "ie",
        "i"
      ],
      [
        "a",
        "in"
      ],
      [
        "r",
        "at"
      ],
      [
        "C",
        "on"
      ],
      [
        "m",
        "it"
      ],
      [
        "pe",
        "ople"
      ],
      [
        "m",
        "il"
      ],
      [
        "f",
        "ie"
      ],
      [
        "pu",
        "b"
      ],
      [
        "c",
        "lu"
      ],
      [
        "ri",
        "le"
      ],
      [
        "l",
        "d"
      ],
      [
        "p",
        "ol"
      ],
      [
        "al",
        "ly"
      ],
      [
        "o",
        "ther"
      ],
      [
        "for",
        "m"
      ],
      [
        "f",
        "a"
      ],
      [
        "un",
        "i"
      ],
      [
        "d",
        "ar"
      ],
      [
        "it",
        "u"
      ],
      [
        "par",
        "t"
      ],
      [
        "s",
        "er"
      ],
      [
        "C",
        "h"
      ],
      [
        "re",
        "g"
      ],
      [
        "f",
        "ă"
      ],
      [
        "r",
        "on"
      ],
      [
        "C",
        "o"
      ],
      [
        "o",
        "are"
      ],
      [
        "cu",
        "t"
      ],
      [
        "c",
        "er"
      ],
      [
        "mb",
        "er"
      ],
      [
        "b",
        "ut"
      ],
      [
        "o",
        "c"
      ],
      [
        "a",
        "ș"
      ],
      [
        "h",
        "ad"
      ],
      [
        "r",
        "ul"
      ],
      [
        "w",
        "he"
      ],
      [
        "o",
        "k"
      ],
      [
        "in",
        "ter"
      ],
      [
        "T",
        "his"
      ],
      [
        "ar",
        "y"
      ],
      [
        "c",
        "ar"
      ],
      [
        "v",
        "ol"
      ],
      [
        "q",
        "u"
      ],
      [
        "ț",
        "in"
      ],
      [
        "po",
        "pul"
      ],
      [
        "to",
        "ri"
      ],
      [
        "i",
        "d"
      ],
      [
        "u",
        "ă"
      ],
      [
        "v",
        "ă"
      ],
      [
        "j",
        "u"
      ],
      [
        "g",
        "an"
      ],
      [
        "pre",
        "z"
      ],
      [
        "S",
        "e"
      ],
      [
        "L",
        "a"
      ],
      [
        "fir",
        "st"
      ],
      [
        "pla",
        "y"
      ],
      [
        "f",
        "in"
      ],
      [
        "în",
        "tre"
      ],
      [
        "t",
        "ro"
      ],
      [
        "ate",
        "d"
      ],
      [
        "wh",
        "ich"
      ],
      [
        "d",
        "at"
      ],
      [
        "the",
        "ir"
      ],
      [
        "A",
        "ce"
      ],
      [
        "b",
        "er"
      ],
      [
        "A",
        "r"
      ],
      [
        "m",
        "are"
      ],
      [
        "ve",
        "d"
      ],
      [
        "v",
        "ie"
      ],
      [
        "co",
        "l"
      ],
      [
        "m",
        "u"
      ],
      [
        "t",
        "at"
      ],
      [
        "ver",
        "s"
      ],
      [
        "î",
        "mp"
      ],
      [
        "D",
        "u"
      ],
      [
        "A",
        "l"
      ],
      [
        "spe",
        "ci"
      ],
      [
        "me",
        "d"
      ],
      [
        "n",
        "a"
      ],
      [
        "t",
        "y"
      ],
      [
        "c",
        "at"
      ],
      [
        "e",
        "st"
      ],
      [
        "g",
        "er"
      ],
      [
        "ț",
        "e"
      ],
      [
        "pro",
        "du"
      ],
      [
        "lo",
        "cu"
      ],
      [
        "v",
        "o"
      ],
      [
        "c",
        "l"
      ],
      [
        "19",
        "8"
      ],
      [
        "p",
        "en"
      ],
      [
        "s",
        "ol"
      ],
      [
        "U",
        "ni"
      ],
      [
        "z",
        "a"
      ],
      [
        "l",
        "and"
      ],
      [
        "du",
        "pă"
      ],
      [
        "s",
        "ing"
      ],
      [
        "an",
        "ul"
      ],
      [
        "ti",
        "v"
      ],
      [
        "P",
        "e"
      ],
      [
        "y",
        "ear"
      ],
      [
        "me",
        "le"
      ],
      [
        "th",
        "is"
      ],
      [
        "The",
        "y"
      ],
      [
        "cu",
        "m"
      ],
      [
        "ul",
        "d"
      ],
      [
        "c",
        "ent"
      ],
      [
        "ce",
        "l"
      ],
      [
        "ab",
        "il"
      ],
      [
        "g",
        "in"
      ],
      [
        "ți",
        "on"
      ],
      [
        "s",
        "ho"
      ],
      [
        "fi",
        "ind"
      ],
      [
        "st",
        "u"
      ],
      [
        "un",
        "c"
      ],
      [
        "ver",
        "y"
      ],
      [
        "p",
        "at"
      ],
      [
        "b",
        "le"
      ],
      [
        "m",
        "ân"
      ],
      [
        "an",
        "u"
      ],
      [
        "uri",
        "le"
      ],
      [
        "a",
        "ge"
      ],
      [
        "re",
        "e"
      ],
      [
        "R",
        "o"
      ],
      [
        "ac",
        "k"
      ],
      [
        "din",
        "tre"
      ],
      [
        "itate",
        "a"
      ],
      [
        "ar",
        "t"
      ],
      [
        "b",
        "ă"
      ],
      [
        "19",
        "7"
      ],
      [
        "ic",
        "al"
      ],
      [
        "sc",
        "ri"
      ],
      [
        "f",
        "er"
      ],
      [
        "on",
        "g"
      ],
      [
        "b",
        "or"
      ],
      [
        "is",
        "h"
      ],
      [
        "g",
        "ro"
      ],
      [
        "it",
        "s"
      ],
      [
        "n",
        "ame"
      ],
      [
        "i",
        "m"
      ],
      [
        "w",
        "ho"
      ],
      [
        "su",
        "p"
      ],
      [
        "fe",
        "l"
      ],
      [
        "pub",
        "lic"
      ],
      [
        "ast",
        "ă"
      ],
      [
        "in",
        "s"
      ],
      [
        "lo",
        "w"
      ],
      [
        "cal",
        "led"
      ],
      [
        "am",
        "il"
      ],
      [
        "S",
        "he"
      ],
      [
        "do",
        "uă"
      ],
      [
        "wor",
        "k"
      ],
      [
        "n",
        "ă"
      ],
      [
        "al",
        "iz"
      ],
      [
        "man",
        "y"
      ],
      [
        "ri",
        "can"
      ],
      [
        "an",
        "g"
      ],
      [
        "A",
        "u"
      ],
      [
        "ac",
        "h"
      ],
      [
        "S",
        "o"
      ],
      [
        "k",
        "no"
      ],
      [
        "M",
        "ar"
      ],
      [
        "lu",
        "c"
      ],
      [
        "\"",
        "."
      ],
      [
        "st",
        "i"
      ],
      [
        "so",
        "me"
      ],
      [
        "st",
        "ri"
      ],
      [
        "or",
        "ul"
      ],
      [
        "it",
        "ori"
      ],
      [
        "f",
        "il"
      ],
      [
        "m",
        "er"
      ],
      [
        "N",
        "e"
      ],
      [
        "1",
        "0"
      ],
      [
        "st",
        "r"
      ],
      [
        "fe",
        "ren"
      ],
      [
        "ace",
        "ste"
      ],
      [
        "un",
        "g"
      ],
      [
        "câ",
        "t"
      ],
      [
        "re",
        "le"
      ],
      [
        "cau",
        "se"
      ],
      [
        "w",
        "ay"
      ],
      [
        "ce",
        "a"
      ],
      [
        "ați",
        "e"
      ],
      [
        "în",
        "tr"
      ],
      [
        "b",
        "a"
      ],
      [
        "in",
        "i"
      ],
      [
        "lo",
        "c"
      ],
      [
        "1",
        "7"
      ],
      [
        "mo",
        "re"
      ],
      [
        "d",
        "a"
      ],
      [
        "n",
        "at"
      ],
      [
        "b",
        "il"
      ],
      [
        "t",
        "al"
      ],
      [
        "m",
        "is"
      ],
      [
        "in",
        "clu"
      ],
      [
        "t",
        "wo"
      ],
      [
        "U",
        "n"
      ],
      [
        "ab",
        "out"
      ],
      [
        "si",
        "on"
      ],
      [
        "un",
        "ă"
      ],
      [
        "mo",
        "st"
      ],
      [
        "di",
        "f"
      ],
      [
        "i",
        "ve"
      ],
      [
        "o",
        "t"
      ],
      [
        "st",
        "a"
      ],
      [
        "a",
        "pro"
      ],
      [
        "u",
        "m"
      ],
      [
        "p",
        "t"
      ],
      [
        "s",
        "en"
      ],
      [
        "p",
        "ână"
      ],
      [
        "19",
        "6"
      ],
      [
        "ar",
        "a"
      ],
      [
        "c",
        "ând"
      ],
      [
        "1",
        "5"
      ],
      [
        "il",
        "d"
      ],
      [
        "g",
        "re"
      ],
      [
        "an",
        "y"
      ],
      [
        "I",
        "I"
      ],
      [
        "v",
        "in"
      ],
      [
        "în",
        "cep"
      ],
      [
        "use",
        "d"
      ],
      [
        "ur",
        "ă"
      ],
      [
        "M",
        "o"
      ],
      [
        "ca",
        "p"
      ],
      [
        "the",
        "re"
      ],
      [
        "olo",
        "g"
      ],
      [
        "or",
        "y"
      ],
      [
        "a",
        "k"
      ],
      [
        "00",
        "0"
      ],
      [
        "gen",
        "er"
      ],
      [
        "m",
        "as"
      ],
      [
        "s",
        "he"
      ],
      [
        "c",
        "or"
      ],
      [
        "f",
        "amil"
      ],
      [
        "mb",
        "rie"
      ],
      [
        "m",
        "s"
      ],
      [
        "un",
        "ei"
      ],
      [
        "19",
        "4"
      ],
      [
        "c",
        "un"
      ],
      [
        "c",
        "it"
      ],
      [
        "ave",
        "a"
      ],
      [
        "m",
        "ate"
      ],
      [
        "d",
        "re"
      ],
      [
        "să",
        "u"
      ],
      [
        "t",
        "on"
      ],
      [
        "den",
        "t"
      ],
      [
        "l",
        "at"
      ],
      [
        "ș",
        "e"
      ],
      [
        "st",
        "at"
      ],
      [
        "is",
        "te"
      ],
      [
        "ar",
        "te"
      ],
      [
        "ac",
        "ă"
      ],
      [
        "v",
        "al"
      ],
      [
        "am",
        "en"
      ],
      [
        "as",
        "că"
      ],
      [
        "le",
        "a"
      ],
      [
        "s",
        "h"
      ],
      [
        "g",
        "a"
      ],
      [
        "ca",
        "me"
      ],
      [
        "u",
        "ro"
      ],
      [
        "A",
        "me"
      ],
      [
        "un",
        "a"
      ],
      [
        "per",
        "son"
      ],
      [
        "d",
        "ă"
      ],
      [
        "ic",
        "a"
      ],
      [
        "un",
        "ea"
      ],
      [
        "prez",
        "ent"
      ],
      [
        "be",
        "en"
      ],
      [
        "c",
        "tion"
      ],
      [
        "B",
        "i"
      ],
      [
        "H",
        "o"
      ],
      [
        "z",
        "on"
      ],
      [
        "f",
        "ol"
      ],
      [
        "B",
        "u"
      ],
      [
        "ma",
        "de"
      ],
      [
        "it",
        "ion"
      ],
      [
        "p",
        "or"
      ],
      [
        "in",
        "a"
      ],
      [
        "par",
        "te"
      ],
      [
        "ing",
        "s"
      ],
      [
        "mul",
        "te"
      ],
      [
        "r",
        "y"
      ],
      [
        "en",
        "e"
      ],
      [
        "co",
        "p"
      ],
      [
        "si",
        "de"
      ],
      [
        "s",
        "ale"
      ],
      [
        "ați",
        "on"
      ],
      [
        "kno",
        "wn"
      ],
      [
        "l",
        "ar"
      ],
      [
        "re",
        "st"
      ],
      [
        "ver",
        "n"
      ],
      [
        "p",
        "ort"
      ],
      [
        "1",
        "6"
      ],
      [
        "i",
        "de"
      ],
      [
        "po",
        "ate"
      ],
      [
        "pol",
        "it"
      ],
      [
        "en",
        "d"
      ],
      [
        "ri",
        "lor"
      ],
      [
        "at",
        "ul"
      ],
      [
        "l",
        "an"
      ],
      [
        "m",
        "n"
      ],
      [
        "u",
        "re"
      ],
      [
        "the",
        "m"
      ],
      [
        "ter",
        "n"
      ],
      [
        "1",
        "2"
      ],
      [
        "a",
        "de"
      ],
      [
        "încep",
        "ut"
      ],
      [
        "ce",
        "d"
      ],
      [
        "p",
        "h"
      ],
      [
        "p",
        "a"
      ],
      [
        "in",
        "te"
      ],
      [
        "in",
        "to"
      ],
      [
        "l",
        "ul"
      ],
      [
        "hi",
        "m"
      ],
      [
        "E",
        "l"
      ],
      [
        "19",
        "5"
      ],
      [
        "e",
        "v"
      ],
      [
        "me",
        "mb"
      ],
      [
        "un",
        "de"
      ],
      [
        "imp",
        "ort"
      ],
      [
        "whe",
        "n"
      ],
      [
        "J",
        "o"
      ],
      [
        "un",
        "ui"
      ],
      [
        "l",
        "in"
      ],
      [
        "con",
        "tin"
      ],
      [
        "de",
        "z"
      ],
      [
        "m",
        "al"
      ],
      [
        "a",
        "mp"
      ],
      [
        "P",
        "ar"
      ],
      [
        "că",
        "tre"
      ],
      [
        "am",
        "ent"
      ],
      [
        "B",
        "o"
      ],
      [
        "g",
        "n"
      ],
      [
        "a",
        "ză"
      ],
      [
        "or",
        "gan"
      ],
      [
        "ați",
        "a"
      ],
      [
        "f",
        "ul"
      ],
      [
        "le",
        "g"
      ],
      [
        "P",
        "ro"
      ],
      [
        "ct",
        "or"
      ],
      [
        "m",
        "un"
      ],
      [
        "as",
        "ă"
      ],
      [
        "ne",
        "d"
      ],
      [
        "af",
        "ter"
      ],
      [
        "S",
        "u"
      ],
      [
        "N",
        "o"
      ],
      [
        "ne",
        "w"
      ],
      [
        "ap",
        "ă"
      ],
      [
        "ase",
        "d"
      ],
      [
        "T",
        "o"
      ],
      [
        "t",
        "it"
      ],
      [
        "th",
        "an"
      ],
      [
        "peri",
        "o"
      ],
      [
        "ț",
        "ine"
      ],
      [
        "se",
        "s"
      ],
      [
        "p",
        "te"
      ],
      [
        "ea",
        "ză"
      ],
      [
        "L",
        "e"
      ],
      [
        "to",
        "ate"
      ],
      [
        "on",
        "ly"
      ],
      [
        "il",
        "i"
      ],
      [
        "or",
        "aș"
      ],
      [
        "l",
        "ie"
      ],
      [
        "ol",
        "d"
      ],
      [
        "se",
        "d"
      ],
      [
        "3",
        "0"
      ],
      [
        "men",
        "ea"
      ],
      [
        "he",
        "d"
      ],
      [
        "j",
        "o"
      ],
      [
        "ti",
        "ve"
      ],
      [
        "e",
        "p"
      ],
      [
        "t",
        "uri"
      ],
      [
        "Du",
        "pă"
      ],
      [
        "al",
        "a"
      ],
      [
        "po",
        "t"
      ],
      [
        "p",
        "ie"
      ],
      [
        "A",
        "f"
      ],
      [
        "The",
        "re"
      ],
      [
        "o",
        "ver"
      ],
      [
        "L",
        "i"
      ],
      [
        "v",
        "or"
      ],
      [
        "al",
        "te"
      ],
      [
        "ter",
        "s"
      ],
      [
        "ase",
        "menea"
      ],
      [
        "year",
        "s"
      ],
      [
        "o",
        "us"
      ],
      [
        "ate",
        "r"
      ],
      [
        "f",
        "unc"
      ],
      [
        "S",
        "t"
      ],
      [
        "ită",
        "ți"
      ],
      [
        "ven",
        "it"
      ],
      [
        "s",
        "ur"
      ],
      [
        "1",
        "4"
      ],
      [
        "d",
        "ay"
      ],
      [
        "ch",
        "o"
      ],
      [
        "fe",
        "ri"
      ],
      [
        "me",
        "di"
      ],
      [
        "ation",
        "s"
      ],
      [
        "”",
        "."
      ],
      [
        "al",
        "bu"
      ],
      [
        "av",
        "ut"
      ],
      [
        "h",
        "n"
      ],
      [
        "ation",
        "al"
      ],
      [
        "ați",
        "i"
      ],
      [
        "re",
        "z"
      ],
      [
        "\"",
        ","
      ],
      [
        "v",
        "ing"
      ],
      [
        "ve",
        "l"
      ],
      [
        "s",
        "y"
      ],
      [
        "le",
        "r"
      ],
      [
        "ți",
        "ei"
      ],
      [
        "B",
        "e"
      ],
      [
        "ur",
        "mă"
      ],
      [
        "ț",
        "ele"
      ],
      [
        "be",
        "t"
      ],
      [
        "w",
        "s"
      ],
      [
        "d",
        "ie"
      ],
      [
        "dif",
        "feren"
      ],
      [
        "E",
        "n"
      ],
      [
        "f",
        "ace"
      ],
      [
        "k",
        "ing"
      ],
      [
        "ci",
        "p"
      ],
      [
        "P",
        "o"
      ],
      [
        "at",
        "h"
      ],
      [
        "ro",
        "u"
      ],
      [
        "du",
        "ce"
      ],
      [
        "j",
        "e"
      ],
      [
        "lo",
        "cal"
      ],
      [
        "mul",
        "t"
      ],
      [
        "ce",
        "i"
      ],
      [
        "to",
        "are"
      ],
      [
        "st",
        "ar"
      ],
      [
        "co",
        "me"
      ],
      [
        "ad",
        "a"
      ],
      [
        "ș",
        "it"
      ],
      [
        "M",
        "e"
      ],
      [
        "i",
        "es"
      ],
      [
        "st",
        "ă"
      ],
      [
        "ace",
        "astă"
      ],
      [
        "R",
        "om"
      ],
      [
        "v",
        "es"
      ],
      [
        "C",
        "ar"
      ],
      [
        "1",
        "3"
      ],
      [
        "u",
        "ra"
      ],
      [
        "con",
        "d"
      ],
      [
        "m",
        "us"
      ],
      [
        "în",
        "t"
      ],
      [
        "tr",
        "ans"
      ],
      [
        "hi",
        "p"
      ],
      [
        "s",
        "ul"
      ],
      [
        "an",
        "ă"
      ],
      [
        "locu",
        "itori"
      ],
      [
        "c",
        "in"
      ],
      [
        "T",
        "e"
      ],
      [
        "a",
        "po"
      ],
      [
        "an",
        "a"
      ],
      [
        "tre",
        "i"
      ],
      [
        "fe",
        "ct"
      ],
      [
        "al",
        "t"
      ],
      [
        "C",
        "u"
      ],
      [
        "w",
        "ard"
      ],
      [
        "P",
        "ri"
      ],
      [
        "i",
        "o"
      ],
      [
        "t",
        "ului"
      ],
      [
        "be",
        "came"
      ],
      [
        "s",
        "pre"
      ],
      [
        "w",
        "ill"
      ],
      [
        "a",
        "pe"
      ],
      [
        "ur",
        "ing"
      ],
      [
        "su",
        "s"
      ],
      [
        "su",
        "c"
      ],
      [
        "g",
        "at"
      ],
      [
        "p",
        "ut"
      ],
      [
        "le",
        "n"
      ],
      [
        "be",
        "cause"
      ],
      [
        "F",
        "ran"
      ],
      [
        "b",
        "ui"
      ],
      [
        "ân",
        "du"
      ],
      [
        "timp",
        "ul"
      ],
      [
        "C",
        "om"
      ],
      [
        "an",
        "ce"
      ],
      [
        "f",
        "ac"
      ],
      [
        "n",
        "or"
      ],
      [
        "ri",
        "d"
      ],
      [
        "v",
        "is"
      ],
      [
        "do",
        "ar"
      ],
      [
        "li",
        "ke"
      ],
      [
        "fo",
        "re"
      ],
      [
        "d",
        "y"
      ],
      [
        "x",
        "i"
      ],
      [
        "s",
        "s"
      ],
      [
        "ex",
        "ist"
      ],
      [
        "Ame",
        "rican"
      ],
      [
        "c",
        "en"
      ],
      [
        "wo",
        "uld"
      ],
      [
        "ex",
        "e"
      ],
      [
        "differen",
        "t"
      ],
      [
        "so",
        "ci"
      ],
      [
        "mi",
        "te"
      ],
      [
        "ser",
        "v"
      ],
      [
        "k",
        "s"
      ],
      [
        "Rom",
        "ân"
      ],
      [
        "z",
        "bo"
      ],
      [
        "ab",
        "le"
      ],
      [
        "te",
        "mp"
      ],
      [
        "pe",
        "d"
      ],
      [
        "al",
        "ul"
      ],
      [
        "seri",
        "ca"
      ],
      [
        "2",
        "5"
      ],
      [
        "m",
        "ic"
      ],
      [
        "fo",
        "arte"
      ],
      [
        "m",
        "y"
      ],
      [
        "ge",
        "t"
      ],
      [
        "O",
        "n"
      ],
      [
        "ist",
        "ori"
      ],
      [
        "gu",
        "st"
      ],
      [
        "pro",
        "f"
      ],
      [
        "g",
        "ru"
      ],
      [
        "”",
        ","
      ],
      [
        "i",
        "ul"
      ],
      [
        "A",
        "t"
      ],
      [
        "er",
        "au"
      ],
      [
        "con",
        "stru"
      ],
      [
        "p",
        "ic"
      ],
      [
        "he",
        "n"
      ],
      [
        "19",
        "3"
      ],
      [
        "c",
        "ri"
      ],
      [
        "F",
        "e"
      ],
      [
        "ad",
        "ă"
      ],
      [
        "f",
        "ici"
      ],
      [
        "r",
        "un"
      ],
      [
        "cun",
        "os"
      ],
      [
        "t",
        "ru"
      ],
      [
        "an",
        "te"
      ],
      [
        "he",
        "l"
      ],
      [
        "î",
        "l"
      ],
      [
        "f",
        "t"
      ],
      [
        "contin",
        "u"
      ],
      [
        "as",
        "s"
      ],
      [
        "ast",
        "a"
      ],
      [
        "o",
        "per"
      ],
      [
        "E",
        "uro"
      ],
      [
        "D",
        "in"
      ],
      [
        "e",
        "chi"
      ],
      [
        "d",
        "ra"
      ],
      [
        "up",
        "ra"
      ],
      [
        "g",
        "ame"
      ],
      [
        "the",
        "n"
      ],
      [
        "comp",
        "le"
      ],
      [
        "tate",
        "a"
      ],
      [
        "F",
        "or"
      ],
      [
        "re",
        "i"
      ],
      [
        "s",
        "k"
      ],
      [
        "G",
        "er"
      ],
      [
        "stu",
        "di"
      ],
      [
        "d",
        "ul"
      ],
      [
        "î",
        "i"
      ],
      [
        "at",
        "t"
      ],
      [
        "for",
        "ma"
      ],
      [
        "vi",
        "a"
      ],
      [
        "n",
        "ici"
      ],
      [
        "time",
        "s"
      ],
      [
        "f",
        "u"
      ],
      [
        "organ",
        "iz"
      ],
      [
        "m",
        "ului"
      ],
      [
        "S",
        "tate"
      ],
      [
        "st",
        "itu"
      ],
      [
        "ac",
        "t"
      ],
      [
        "se",
        "l"
      ],
      [
        "in",
        "ă"
      ],
      [
        "ca",
        "z"
      ],
      [
        "A",
        "s"
      ],
      [
        "că",
        "r"
      ],
      [
        "m",
        "or"
      ],
      [
        "b",
        "ru"
      ],
      [
        "la",
        "ter"
      ],
      [
        "un",
        "der"
      ],
      [
        "whe",
        "re"
      ],
      [
        "li",
        "mb"
      ],
      [
        "vi",
        "z"
      ],
      [
        "du",
        "s"
      ],
      [
        "Uni",
        "vers"
      ],
      [
        "v",
        "it"
      ],
      [
        "E",
        "x"
      ],
      [
        "pri",
        "ma"
      ],
      [
        "a",
        "co"
      ],
      [
        "con",
        "tro"
      ],
      [
        "u",
        "a"
      ],
      [
        "P",
        "re"
      ],
      [
        "ic",
        "ul"
      ],
      [
        "ac",
        "tiv"
      ],
      [
        "st",
        "ate"
      ],
      [
        "ma",
        "in"
      ],
      [
        "min",
        "ist"
      ],
      [
        "as",
        "on"
      ],
      [
        "201",
        "1"
      ],
      [
        "ma",
        "y"
      ],
      [
        "cit",
        "ation"
      ],
      [
        "ch",
        "an"
      ],
      [
        "E",
        "ste"
      ],
      [
        "men",
        "te"
      ],
      [
        "th",
        "ou"
      ],
      [
        "rom",
        "ân"
      ],
      [
        "c",
        "lo"
      ],
      [
        "prin",
        "cip"
      ],
      [
        "ar",
        "ti"
      ],
      [
        "as",
        "upra"
      ],
      [
        "1",
        "1"
      ],
      [
        "in",
        "f"
      ],
      [
        "me",
        "a"
      ],
      [
        "we",
        "en"
      ],
      [
        "nu",
        "mă"
      ],
      [
        "es",
        "s"
      ],
      [
        "Ne",
        "w"
      ],
      [
        "o",
        "se"
      ],
      [
        "ma",
        "j"
      ],
      [
        "di",
        "d"
      ],
      [
        "D",
        "i"
      ],
      [
        "s",
        "chi"
      ],
      [
        "ci",
        "i"
      ],
      [
        "de",
        "st"
      ],
      [
        "vol",
        "u"
      ],
      [
        "î",
        "și"
      ],
      [
        "un",
        "ii"
      ],
      [
        "L",
        "u"
      ],
      [
        "an",
        "ii"
      ],
      [
        "di",
        "re"
      ],
      [
        "pro",
        "te"
      ],
      [
        "b",
        "ack"
      ],
      [
        "M",
        "a"
      ],
      [
        "th",
        "ree"
      ],
      [
        "L",
        "o"
      ],
      [
        "c",
        "y"
      ],
      [
        "n",
        "ațion"
      ],
      [
        "ma",
        "g"
      ],
      [
        "il",
        "iz"
      ],
      [
        "ori",
        "gin"
      ],
      [
        "va",
        "ri"
      ],
      [
        "f",
        "ap"
      ],
      [
        "tr",
        "y"
      ],
      [
        "D",
        "o"
      ],
      [
        "w",
        "ar"
      ],
      [
        "P",
        "rin"
      ],
      [
        "în",
        "să"
      ],
      [
        "pro",
        "pri"
      ],
      [
        "g",
        "he"
      ],
      [
        "rele",
        "ased"
      ],
      [
        "țin",
        "ut"
      ],
      [
        "it",
        "or"
      ],
      [
        "as",
        "i"
      ],
      [
        "r",
        "ate"
      ],
      [
        "ic",
        "k"
      ],
      [
        "at",
        "or"
      ],
      [
        "d",
        "ată"
      ],
      [
        "de",
        "venit"
      ],
      [
        "fa",
        "ță"
      ],
      [
        "mil",
        "it"
      ],
      [
        "b",
        "ur"
      ],
      [
        "ven",
        "i"
      ],
      [
        "teri",
        "or"
      ],
      [
        "te",
        "s"
      ],
      [
        "ț",
        "ei"
      ],
      [
        "ită",
        "ții"
      ],
      [
        "al",
        "s"
      ],
      [
        "p",
        "le"
      ],
      [
        "N",
        "u"
      ],
      [
        "to",
        "t"
      ],
      [
        "en",
        "er"
      ],
      [
        "c",
        "ted"
      ],
      [
        "ine",
        "d"
      ],
      [
        "So",
        "me"
      ],
      [
        "nu",
        "mele"
      ],
      [
        "o",
        "ase"
      ],
      [
        "ți",
        "ile"
      ],
      [
        "po",
        "zi"
      ],
      [
        "suc",
        "ces"
      ],
      [
        "w",
        "er"
      ],
      [
        "s",
        "f"
      ],
      [
        "s",
        "co"
      ],
      [
        "di",
        "st"
      ],
      [
        "â",
        "t"
      ],
      [
        "5",
        "0"
      ],
      [
        "ta",
        "in"
      ],
      [
        "albu",
        "m"
      ],
      [
        "pre",
        "s"
      ],
      [
        "ag",
        "ain"
      ],
      [
        "wor",
        "ld"
      ],
      [
        "N",
        "or"
      ],
      [
        "ar",
        "o"
      ],
      [
        "M",
        "on"
      ],
      [
        "sup",
        "ra"
      ],
      [
        "tre",
        "bui"
      ],
      [
        "l",
        "is"
      ],
      [
        "bet",
        "ween"
      ],
      [
        "pro",
        "ble"
      ],
      [
        "we",
        "ll"
      ],
      [
        "al",
        "es"
      ],
      [
        "des",
        "pre"
      ],
      [
        "f",
        "olo"
      ],
      [
        "p",
        "un"
      ],
      [
        "cho",
        "ol"
      ],
      [
        "ast",
        "fel"
      ],
      [
        "s",
        "in"
      ],
      [
        "pe",
        "ste"
      ],
      [
        "de",
        "cât"
      ],
      [
        "înt",
        "â"
      ],
      [
        "l",
        "ong"
      ],
      [
        "un",
        "ci"
      ],
      [
        "i",
        "f"
      ],
      [
        "se",
        "t"
      ],
      [
        "201",
        "0"
      ],
      [
        "c",
        "le"
      ],
      [
        "lar",
        "ge"
      ],
      [
        "Bi",
        "serica"
      ],
      [
        "ic",
        "o"
      ],
      [
        "gro",
        "up"
      ],
      [
        "M",
        "i"
      ],
      [
        "or",
        "a"
      ],
      [
        "bor",
        "n"
      ],
      [
        "E",
        "d"
      ],
      [
        "un",
        "ul"
      ],
      [
        "ră",
        "zbo"
      ],
      [
        "fă",
        "ră"
      ],
      [
        "s",
        "at"
      ],
      [
        "re",
        "ști"
      ],
      [
        "unt",
        "il"
      ],
      [
        "re",
        "sp"
      ],
      [
        "fol",
        "os"
      ],
      [
        "re",
        "aliz"
      ],
      [
        "n",
        "ing"
      ],
      [
        "ca",
        "d"
      ],
      [
        "we",
        "ver"
      ],
      [
        "die",
        "d"
      ],
      [
        "ma",
        "ri"
      ],
      [
        "ch",
        "ild"
      ],
      [
        "s",
        "hip"
      ],
      [
        "te",
        "am"
      ],
      [
        "w",
        "hi"
      ],
      [
        "apo",
        "i"
      ],
      [
        "ma",
        "ke"
      ],
      [
        "play",
        "ed"
      ],
      [
        "c",
        "ity"
      ],
      [
        "n",
        "er"
      ],
      [
        "b",
        "al"
      ],
      [
        "ve",
        "de"
      ],
      [
        "ro",
        "man"
      ],
      [
        "e",
        "li"
      ],
      [
        "p",
        "s"
      ],
      [
        "u",
        "man"
      ],
      [
        "o",
        "re"
      ],
      [
        "en",
        "i"
      ],
      [
        "gener",
        "al"
      ],
      [
        "in",
        "du"
      ],
      [
        "po",
        "s"
      ],
      [
        "d",
        "ing"
      ],
      [
        "200",
        "9"
      ],
      [
        "re",
        "gi"
      ],
      [
        "se",
        "le"
      ],
      [
        "t",
        "ră"
      ],
      [
        "2",
        "4"
      ],
      [
        "o",
        "amen"
      ],
      [
        "re",
        "u"
      ],
      [
        "mo",
        "d"
      ],
      [
        "s",
        "iste"
      ],
      [
        "de",
        "pen"
      ],
      [
        "son",
        "g"
      ],
      [
        "schi",
        "mb"
      ],
      [
        "b",
        "ro"
      ],
      [
        "do",
        "i"
      ],
      [
        "2",
        "1"
      ],
      [
        "p",
        "ra"
      ],
      [
        "di",
        "a"
      ],
      [
        "s",
        "ame"
      ],
      [
        "O",
        "r"
      ],
      [
        "ge",
        "d"
      ],
      [
        "st",
        "s"
      ],
      [
        "ter",
        "min"
      ],
      [
        "nu",
        "mit"
      ],
      [
        "pl",
        "an"
      ],
      [
        "ti",
        "ce"
      ],
      [
        "c",
        "is"
      ],
      [
        "a",
        "ir"
      ],
      [
        "k",
        "es"
      ],
      [
        "p",
        "lo"
      ],
      [
        "v",
        "âr"
      ],
      [
        "t",
        "ic"
      ],
      [
        "rea",
        "ză"
      ],
      [
        "T",
        "h"
      ],
      [
        "nu",
        "me"
      ],
      [
        "is",
        "ten"
      ],
      [
        "m",
        "ii"
      ],
      [
        "of",
        "ten"
      ],
      [
        "at",
        "a"
      ],
      [
        "th",
        "rou"
      ],
      [
        "p",
        "an"
      ],
      [
        "i",
        "u"
      ],
      [
        "t",
        "ing"
      ],
      [
        "S",
        "i"
      ],
      [
        "în",
        "ce"
      ],
      [
        "de",
        "l"
      ],
      [
        "ți",
        "lor"
      ],
      [
        ".",
        "\""
      ],
      [
        "ț",
        "at"
      ],
      [
        "ri",
        "a"
      ],
      [
        "d",
        "on"
      ],
      [
        "speci",
        "al"
      ],
      [
        "în",
        "că"
      ],
      [
        "H",
        "is"
      ],
      [
        "se",
        "m"
      ],
      [
        "bo",
        "ok"
      ],
      [
        "ie",
        "ct"
      ],
      [
        "un",
        "or"
      ],
      [
        "con",
        "si"
      ],
      [
        "a",
        "rie"
      ],
      [
        "v",
        "re"
      ],
      [
        "v",
        "ine"
      ],
      [
        "v",
        "an"
      ],
      [
        "par",
        "tea"
      ],
      [
        "ri",
        "c"
      ],
      [
        "ment",
        "s"
      ],
      [
        "w",
        "on"
      ],
      [
        "st",
        "ic"
      ],
      [
        "the",
        "se"
      ],
      [
        "ele",
        "ct"
      ],
      [
        "ger",
        "man"
      ],
      [
        "se",
        "cond"
      ],
      [
        "j",
        "ur"
      ],
      [
        "u",
        "su"
      ],
      [
        "Af",
        "ter"
      ],
      [
        "dez",
        "vol"
      ],
      [
        "aj",
        "un"
      ],
      [
        "v",
        "ent"
      ],
      [
        "st",
        "ră"
      ],
      [
        "u",
        "e"
      ],
      [
        "A",
        "d"
      ],
      [
        "z",
        "at"
      ],
      [
        "ați",
        "ei"
      ],
      [
        "t",
        "âr"
      ],
      [
        "af",
        "lă"
      ],
      [
        "as",
        "a"
      ],
      [
        "per",
        "so"
      ],
      [
        "com",
        "un"
      ],
      [
        "pre",
        "cum"
      ],
      [
        "200",
        "8"
      ],
      [
        "se",
        "c"
      ],
      [
        "si",
        "g"
      ],
      [
        "lo",
        "cul"
      ],
      [
        "I",
        "s"
      ],
      [
        "o",
        "v"
      ],
      [
        "Bu",
        "cu"
      ],
      [
        "r",
        "al"
      ],
      [
        "fo",
        "ur"
      ],
      [
        "j",
        "a"
      ],
      [
        "s",
        "itu"
      ],
      [
        "co",
        "unt"
      ],
      [
        "uri",
        "lor"
      ],
      [
        "b",
        "ul"
      ],
      [
        "de",
        "cl"
      ],
      [
        "în",
        "ain"
      ],
      [
        "ri",
        "es"
      ],
      [
        "import",
        "ant"
      ],
      [
        "ci",
        "r"
      ],
      [
        "y",
        "o"
      ],
      [
        "bi",
        "seri"
      ],
      [
        "o",
        "gra"
      ],
      [
        "at",
        "ori"
      ],
      [
        "G",
        "e"
      ],
      [
        "ch",
        "ar"
      ],
      [
        "pri",
        "mul"
      ],
      [
        "b",
        "and"
      ],
      [
        "se",
        "col"
      ],
      [
        "si",
        "te"
      ],
      [
        "z",
        "ile"
      ],
      [
        "ri",
        "ed"
      ],
      [
        "dre",
        "pt"
      ],
      [
        "prof",
        "es"
      ],
      [
        "b",
        "an"
      ],
      [
        "for",
        "mat"
      ],
      [
        "aceste",
        "a"
      ],
      [
        "H",
        "er"
      ],
      [
        "p",
        "tă"
      ],
      [
        "câ",
        "te"
      ],
      [
        "200",
        "7"
      ],
      [
        "o",
        "cu"
      ],
      [
        "st",
        "ory"
      ],
      [
        "W",
        "hen"
      ],
      [
        "me",
        "i"
      ],
      [
        "t",
        "ată"
      ],
      [
        "y",
        "s"
      ],
      [
        "v",
        "il"
      ]
    ]
  }
}