{
  "version": "1.0",
  "truncation": null,
  "padding": null,
  "added_tokens": [
    {
      "id": 0,
      "content": "<UNK>",
      "single_word": false,
      "lstrip": false,
      "rstrip": false,
      "normalized": false,
      "special": true
    },
    {
      "id": 1,
      "content": "<SEP>",
      "single_word": false,
      "lstrip": false,
      "rstrip": false,
      "normalized": false,
      "special": true
    },
    {
      "id": 2,
      "content": "<MASK>",
      "single_word": false,
      "lstrip": false,
      "rstrip": false,
      "normalized": false,
      "special": true
    },
    {
      "id": 3,
      "content": "<CLS>",
      "single_word": false,
      "lstrip": false,
      "rstrip": false,
      "normalized": false,
      "special": true
    }
  ],
  "normalizer": null,
  "pre_tokenizer": {
    "type": "Whitespace"
  },
  "post_processor": null,
  "decoder": null,
  "model": {
    "type": "BPE",
    "dropout": null,
    "unk_token": "<UNK>",
    "continuing_subword_prefix": null,
    "end_of_word_suffix": null,
    "fuse_unk": false,
    "byte_fallback": false,
    "ignore_merges": false,
    "vocab": {
      "<UNK>": 0,
      "<SEP>": 1,
      "<MASK>": 2,
      "<CLS>": 3,
      "!": 4,
      "\"": 5,
      "$": 6,
      "%": 7,
      "&": 8,
      "'": 9,
      "(": 10,
      ")": 11,
      "*": 12,
      "+": 13,
      ",": 14,
      "-": 15,
      ".": 16,
      "/": 17,
      "0": 18,
      "1": 19,
      "2": 20,
      "3": 21,
      "4": 22,
      "5": 23,
      "6": 24,
      "7": 25,
      "8": 26,
      "9": 27,
      ":": 28,
      ";": 29,
      "<": 30,
      ">": 31,
      "?": 32,
      "A": 33,
      "B": 34,
      "C": 35,
      "D": 36,
      "E": 37,
      "F": 38,
      "G": 39,
      "H": 40,
      "I": 41,
      "J": 42,
      "K": 43,
      "L": 44,
      "M": 45,
      "N": 46,
      "O": 47,
      "P": 48,
      "Q": 49,
      "R": 50,
      "S": 51,
      "T": 52,
      "U": 53,
      "V": 54,
      "W": 55,
      "X": 56,
      "Y": 57,
      "Z": 58,
      "`": 59,
      "a": 60,
      "b": 61,
      "c": 62,
      "d": 63,
      "e": 64,
      "f": 65,
      "g": 66,
      "h": 67,
      "i": 68,
      "j": 69,
      "k": 70,
      "l": 71,
      "m": 72,
      "n": 73,
      "o": 74,
      "p": 75,
      "q": 76,
      "r": 77,
      "s": 78,
      "t": 79,
      "u": 80,
      "v": 81,
      "w": 82,
      "x": 83,
      "y": 84,
      "z": 85,
      "~": 86,
      "¡": 87,
      "¢": 88,
      "£": 89,
      "§": 90,
      "¨": 91,
      "«": 92,
      "¬": 93,
      "®": 94,
      "°": 95,
      "±": 96,
      "²": 97,
      "³": 98,
      "´": 99,
      "µ": 100,
      "¶": 101,
      "·": 102,
      "¹": 103,
      "º": 104,
      "»": 105,
      "¼": 106,
      "½": 107,
      "¾": 108,
      "À": 109,
      "Á": 110,
      "Ä": 111,
      "Å": 112,
      "Æ": 113,
      "Ç": 114,
      "È": 115,
      "É": 116,
      "Ë": 117,
      "Í": 118,
      "Î": 119,
      "Ð": 120,
      "Ñ": 121,
      "Ò": 122,
      "Ó": 123,
      "Ö": 124,
      "×": 125,
      "Ø": 126,
      "Ú": 127,
      "Û": 128,
      "Ü": 129,
      "Þ": 130,
      "ß": 131,
      "à": 132,
      "á": 133,
      "â": 134,
      "ã": 135,
      "ä": 136,
      "å": 137,
      "æ": 138,
      "ç": 139,
      "è": 140,
      "é": 141,
      "ê": 142,
      "ë": 143,
      "ì": 144,
      "í": 145,
      "î": 146,
      "ï": 147,
      "ð": 148,
      "ñ": 149,
      "ò": 150,
      "ó": 151,
      "ô": 152,
      "õ": 153,
      "ö": 154,
      "ø": 155,
      "ù": 156,
      "ú": 157,
      "û": 158,
      "ü": 159,
      "ý": 160,
      "þ": 161,
      "ÿ": 162,
      "Ā": 163,
      "ā": 164,
      "Ă": 165,
      "ă": 166,
      "ą": 167,
      "Ć": 168,
      "ć": 169,
      "Ĉ": 170,
      "ĉ": 171,
      "ċ": 172,
      "Č": 173,
      "č": 174,
      "Ď": 175,
      "ď": 176,
      "Đ": 177,
      "đ": 178,
      "ē": 179,
      "ĕ": 180,
      "ė": 181,
      "ę": 182,
      "ě": 183,
      "ĝ": 184,
      "Ğ": 185,
      "ğ": 186,
      "Ġ": 187,
      "ġ": 188,
      "ģ": 189,
      "ĥ": 190,
      "ħ": 191,
      "Ĩ": 192,
      "ĩ": 193,
      "Ī": 194,
      "ī": 195,
      "ĭ": 196,
      "İ": 197,
      "ı": 198,
      "ĳ": 199,
      "ĵ": 200,
      "Ķ": 201,
      "ķ": 202,
      "ļ": 203,
      "Ľ": 204,
      "ľ": 205,
      "Ł": 206,
      "ł": 207,
      "ń": 208,
      "ņ": 209,
      "ň": 210,
      "Ō": 211,
      "ō": 212,
      "ŏ": 213,
      "Ő": 214,
      "ő": 215,
      "Œ": 216,
      "œ": 217,
      "Ř": 218,
      "ř": 219,
      "Ś": 220,
      "ś": 221,
      "ŝ": 222,
      "Ş": 223,
      "ş": 224,
      "Š": 225,
      "š": 226,
      "Ţ": 227,
      "ţ": 228,
      "Ť": 229,
      "ť": 230,
      "ũ": 231,
      "ū": 232,
      "ŭ": 233,
      "ů": 234,
      "ű": 235,
      "ų": 236,
      "ź": 237,
      "Ż": 238,
      "ż": 239,
      "Ž": 240,
      "ž": 241,
      "Ə": 242,
      "ƒ": 243,
      "ơ": 244,
      "ư": 245,
      "ƴ": 246,
      "ǎ": 247,
      "ǐ": 248,
      "ǔ": 249,
      "ǚ": 250,
      "Ǧ": 251,
      "ǧ": 252,
      "ǫ": 253,
      "ǿ": 254,
      "ȃ": 255,
      "ȉ": 256,
      "Ȋ": 257,
      "ȋ": 258,
      "Ȏ": 259,
      "Ș": 260,
      "ș": 261,
      "Ț": 262,
      "ț": 263,
      "ɔ": 264,
      "ə": 265,
      "ɛ": 266,
      "ɡ": 267,
      "ɨ": 268,
      "ʈ": 269,
      "ʎ": 270,
      "ʹ": 271,
      "ʺ": 272,
      "ʻ": 273,
      "ʼ": 274,
      "ʽ": 275,
      "ʾ": 276,
      "ʿ": 277,
      "ˈ": 278,
      "ː": 279,
      "˚": 280,
      "˝": 281,
      "́": 282,
      "̃": 283,
      "̈": 284,
      "̭": 285,
      "̯": 286,
      "͑": 287,
      "΄": 288,
      "Ά": 289,
      "Έ": 290,
      "Ί": 291,
      "Α": 292,
      "Β": 293,
      "Γ": 294,
      "Δ": 295,
      "Ε": 296,
      "Ζ": 297,
      "Η": 298,
      "Θ": 299,
      "Ι": 300,
      "Κ": 301,
      "Λ": 302,
      "Μ": 303,
      "Ν": 304,
      "Ο": 305,
      "Π": 306,
      "Ρ": 307,
      "Σ": 308,
      "Τ": 309,
      "Υ": 310,
      "Φ": 311,
      "Χ": 312,
      "Ω": 313,
      "ά": 314,
      "έ": 315,
      "ή": 316,
      "ί": 317,
      "α": 318,
      "β": 319,
      "γ": 320,
      "δ": 321,
      "ε": 322,
      "ζ": 323,
      "η": 324,
      "θ": 325,
      "ι": 326,
      "κ": 327,
      "λ": 328,
      "μ": 329,
      "ν": 330,
      "ξ": 331,
      "ο": 332,
      "π": 333,
      "ρ": 334,
      "ς": 335,
      "σ": 336,
      "τ": 337,
      "υ": 338,
      "φ": 339,
      "χ": 340,
      "ψ": 341,
      "ω": 342,
      "ό": 343,
      "ύ": 344,
      "ώ": 345,
      "ϐ": 346,
      "Ё": 347,
      "Є": 348,
      "І": 349,
      "Ј": 350,
      "А": 351,
      "Б": 352,
      "В": 353,
      "Г": 354,
      "Д": 355,
      "Е": 356,
      "Ж": 357,
      "З": 358,
      "И": 359,
      "Й": 360,
      "К": 361,
      "Л": 362,
      "М": 363,
      "Н": 364,
      "О": 365,
      "П": 366,
      "Р": 367,
      "С": 368,
      "Т": 369,
      "У": 370,
      "Ф": 371,
      "Х": 372,
      "Ц": 373,
      "Ч": 374,
      "Ш": 375,
      "Щ": 376,
      "Ь": 377,
      "Э": 378,
      "Ю": 379,
      "Я": 380,
      "а": 381,
      "б": 382,
      "в": 383,
      "г": 384,
      "д": 385,
      "е": 386,
      "ж": 387,
      "з": 388,
      "и": 389,
      "й": 390,
      "к": 391,
      "л": 392,
      "м": 393,
      "н": 394,
      "о": 395,
      "п": 396,
      "р": 397,
      "с": 398,
      "т": 399,
      "у": 400,
      "ф": 401,
      "х": 402,
      "ц": 403,
      "ч": 404,
      "ш": 405,
      "щ": 406,
      "ъ": 407,
      "ы": 408,
      "ь": 409,
      "э": 410,
      "ю": 411,
      "я": 412,
      "ё": 413,
      "і": 414,
      "ї": 415,
      "ј": 416,
      "љ": 417,
      "њ": 418,
      "ћ": 419,
      "ѣ": 420,
      "ғ": 421,
      "Қ": 422,
      "қ": 423,
      "ң": 424,
      "ӑ": 425,
      "ә": 426,
      "ө": 427,
      "Ա": 428,
      "Հ": 429,
      "ա": 430,
      "բ": 431,
      "դ": 432,
      "ե": 433,
      "ի": 434,
      "կ": 435,
      "հ": 436,
      "ղ": 437,
      "յ": 438,
      "ն": 439,
      "ո": 440,
      "չ": 441,
      "ս": 442,
      "վ": 443,
      "տ": 444,
      "ր": 445,
      "ք": 446,
      "ְ": 447,
      "ֲ": 448,
      "ִ": 449,
      "ֵ": 450,
      "ֶ": 451,
      "ַ": 452,
      "ָ": 453,
      "ֹ": 454,
      "ֻ": 455,
      "ּ": 456,
      "ׂ": 457,
      "א": 458,
      "ב": 459,
      "ג": 460,
      "ד": 461,
      "ה": 462,
      "ו": 463,
      "ז": 464,
      "ח": 465,
      "ט": 466,
      "י": 467,
      "ך": 468,
      "כ": 469,
      "ל": 470,
      "ם": 471,
      "מ": 472,
      "ן": 473,
      "נ": 474,
      "ס": 475,
      "ע": 476,
      "ף": 477,
      "פ": 478,
      "צ": 479,
      "ק": 480,
      "ר": 481,
      "ש": 482,
      "ת": 483,
      "װ": 484,
      "ײ": 485,
      "״": 486,
      "ء": 487,
      "آ": 488,
      "أ": 489,
      "ؤ": 490,
      "إ": 491,
      "ئ": 492,
      "ا": 493,
      "ب": 494,
      "ة": 495,
      "ت": 496,
      "ج": 497,
      "ح": 498,
      "خ": 499,
      "د": 500,
      "ذ": 501,
      "ر": 502,
      "ز": 503,
      "س": 504,
      "ش": 505,
      "ص": 506,
      "ض": 507,
      "ظ": 508,
      "ع": 509,
      "ـ": 510,
      "ف": 511,
      "ق": 512,
      "ك": 513,
      "ل": 514,
      "م": 515,
      "ن": 516,
      "ه": 517,
      "و": 518,
      "ى": 519,
      "ي": 520,
      "َ": 521,
      "ُ": 522,
      "ِ": 523,
      "ّ": 524,
      "ْ": 525,
      "٪": 526,
      "٬": 527,
      "٭": 528,
      "ک": 529,
      "ی": 530,
      "ބ": 531,
      "އ": 532,
      "ދ": 533,
      "ަ": 534,
      "ު": 535,
      "ް": 536,
      "ं": 537,
      "क": 538,
      "ख": 539,
      "ग": 540,
      "ड": 541,
      "ण": 542,
      "त": 543,
      "थ": 544,
      "द": 545,
      "ध": 546,
      "न": 547,
      "म": 548,
      "य": 549,
      "र": 550,
      "ल": 551,
      "श": 552,
      "स": 553,
      "़": 554,
      "ा": 555,
      "ि": 556,
      "ी": 557,
      "ु": 558,
      "ू": 559,
      "्": 560,
      "ট": 561,
      "া": 562,
      "ি": 563,
      "ก": 564,
      "ค": 565,
      "ง": 566,
      "ฉ": 567,
      "ด": 568,
      "ต": 569,
      "ท": 570,
      "น": 571,
      "บ": 572,
      "พ": 573,
      "ภ": 574,
      "ม": 575,
      "ย": 576,
      "ร": 577,
      "ฤ": 578,
      "ล": 579,
      "ฦ": 580,
      "ว": 581,
      "ส": 582,
      "ห": 583,
      "อ": 584,
      "ะ": 585,
      "ั": 586,
      "า": 587,
      "ิ": 588,
      "ี": 589,
      "ื": 590,
      "เ": 591,
      "แ": 592,
      "ไ": 593,
      "ๅ": 594,
      "่": 595,
      "้": 596,
      "๎": 597,
      "ຣ": 598,
      "ລ": 599,
      "་": 600,
      "ད": 601,
      "བ": 602,
      "ས": 603,
      "ོ": 604,
      "ྐ": 605,
      "ა": 606,
      "გ": 607,
      "დ": 608,
      "ე": 609,
      "ვ": 610,
      "ზ": 611,
      "თ": 612,
      "ი": 613,
      "ლ": 614,
      "მ": 615,
      "ნ": 616,
      "ო": 617,
      "პ": 618,
      "ჟ": 619,
      "რ": 620,
      "ს": 621,
      "უ": 622,
      "ქ": 623,
      "შ": 624,
      "ც": 625,
      "ძ": 626,
      "ხ": 627,
      "ᅟ": 628,
      "ᅠ": 629,
      "ᛃ": 630,
      "ᛋ": 631,
      "ᵊ": 632,
      "ᶜ": 633,
      "ḍ": 634,
      "ḏ": 635,
      "Ḑ": 636,
      "ḑ": 637,
      "ḗ": 638,
      "Ḥ": 639,
      "ḥ": 640,
      "Ḫ": 641,
      "ḫ": 642,
      "ḳ": 643,
      "Ḵ": 644,
      "ṁ": 645,
      "ṃ": 646,
      "ṅ": 647,
      "ṇ": 648,
      "ṛ": 649,
      "Ṣ": 650,
      "ṣ": 651,
      "Ṭ": 652,
      "ṭ": 653,
      "Ṯ": 654,
      "ṯ": 655,
      "ẓ": 656,
      "ẖ": 657,
      "ẚ": 658,
      "ạ": 659,
      "ả": 660,
      "Ấ": 661,
      "ấ": 662,
      "ầ": 663,
      "ẩ": 664,
      "ậ": 665,
      "ắ": 666,
      "ằ": 667,
      "ễ": 668,
      "ệ": 669,
      "ị": 670,
      "ọ": 671,
      "ồ": 672,
      "ổ": 673,
      "ỗ": 674,
      "ớ": 675,
      "ờ": 676,
      "ợ": 677,
      "ụ": 678,
      "ừ": 679,
      "ử": 680,
      "ự": 681,
      "ỳ": 682,
      "ἀ": 683,
      "ἁ": 684,
      "ἂ": 685,
      "ἄ": 686,
      "Ἀ": 687,
      "Ἄ": 688,
      "ἐ": 689,
      "ἔ": 690,
      "Ἕ": 691,
      "ἠ": 692,
      "ἤ": 693,
      "ἰ": 694,
      "ἴ": 695,
      "Ἰ": 696,
      "ὁ": 697,
      "ὄ": 698,
      "ὐ": 699,
      "ὑ": 700,
      "ὕ": 701,
      "ὖ": 702,
      "ὤ": 703,
      "ὰ": 704,
      "ὶ": 705,
      "ὸ": 706,
      "ᾶ": 707,
      "ῆ": 708,
      "ῑ": 709,
      "ῖ": 710,
      "ῥ": 711,
      "Ῥ": 712,
      "ῳ": 713,
      "ῶ": 714,
      "ῷ": 715,
      "῾": 716,
      "​": 717,
      "‎": 718,
      "‐": 719,
      "‑": 720,
      "‒": 721,
      "–": 722,
      "—": 723,
      "―": 724,
      "‖": 725,
      "‗": 726,
      "‘": 727,
      "’": 728,
      "‚": 729,
      "‛": 730,
      "“": 731,
      "”": 732,
      "„": 733,
      "‟": 734,
      "†": 735,
      "‡": 736,
      "•": 737,
      "…": 738,
      "‰": 739,
      "′": 740,
      "″": 741,
      "‹": 742,
      "›": 743,
      "⁠": 744,
      "⁰": 745,
      "⁺": 746,
      "₀": 747,
      "₂": 748,
      "€": 749,
      "℃": 750,
      "№": 751,
      "™": 752,
      "⅓": 753,
      "⅜": 754,
      "⅝": 755,
      "←": 756,
      "↑": 757,
      "→": 758,
      "↔": 759,
      "↵": 760,
      "∅": 761,
      "∈": 762,
      "−": 763,
      "∞": 764,
      "∧": 765,
      "∨": 766,
      "≃": 767,
      "≈": 768,
      "≠": 769,
      "≡": 770,
      "≤": 771,
      "≥": 772,
      "⊙": 773,
      "⋅": 774,
      "③": 775,
      "─": 776,
      "□": 777,
      "◄": 778,
      "◦": 779,
      "☉": 780,
      "☼": 781,
      "♀": 782,
      "♂": 783,
      "♠": 784,
      "♦": 785,
      "♭": 786,
      "♯": 787,
      "✠": 788,
      "⟨": 789,
      "⟩": 790,
      "ⴰ": 791,
      "ⵉ": 792,
      "ⵎ": 793,
      "ⵖ": 794,
      "ⵜ": 795,
      "ⵥ": 796,
      "、": 797,
      "。": 798,
      "々": 799,
      "《": 800,
      "》": 801,
      "「": 802,
      "」": 803,
      "〮": 804,
      "〯": 805,
      "い": 806,
      "う": 807,
      "え": 808,
      "お": 809,
      "か": 810,
      "が": 811,
      "き": 812,
      "く": 813,
      "け": 814,
      "こ": 815,
      "さ": 816,
      "し": 817,
      "す": 818,
      "た": 819,
      "だ": 820,
      "ち": 821,
      "っ": 822,
      "つ": 823,
      "で": 824,
      "と": 825,
      "な": 826,
      "に": 827,
      "ぬ": 828,
      "ね": 829,
      "の": 830,
      "は": 831,
      "び": 832,
      "ふ": 833,
      "ま": 834,
      "み": 835,
      "ゃ": 836,
      "ら": 837,
      "り": 838,
      "る": 839,
      "ろ": 840,
      "わ": 841,
      "ゐ": 842,
      "ゑ": 843,
      "ん": 844,
      "ァ": 845,
      "ア": 846,
      "ィ": 847,
      "イ": 848,
      "ウ": 849,
      "ェ": 850,
      "ォ": 851,
      "オ": 852,
      "カ": 853,
      "キ": 854,
      "ク": 855,
      "コ": 856,
      "ゴ": 857,
      "シ": 858,
      "ジ": 859,
      "ス": 860,
      "ズ": 861,
      "ソ": 862,
      "ダ": 863,
      "チ": 864,
      "ッ": 865,
      "デ": 866,
      "ト": 867,
      "ド": 868,
      "パ": 869,
      "ヒ": 870,
      "ビ": 871,
      "フ": 872,
      "ブ": 873,
      "プ": 874,
      "ボ": 875,
      "マ": 876,
      "ミ": 877,
      "ム": 878,
      "メ": 879,
      "モ": 880,
      "ャ": 881,
      "ヤ": 882,
      "ュ": 883,
      "ヨ": 884,
      "ラ": 885,
      "リ": 886,
      "ル": 887,
      "レ": 888,
      "ロ": 889,
      "ワ": 890,
      "ヰ": 891,
      "ヱ": 892,
      "ヲ": 893,
      "ン": 894,
      "ヴ": 895,
      "ヷ": 896,
      "・": 897,
      "ー": 898,
      "ㄱ": 899,
      "ㄷ": 900,
      "ㅂ": 901,
      "ㅄ": 902,
      "ㅇ": 903,
      "ㅈ": 904,
      "ㅍ": 905,
      "ㅏ": 906,
      "ㅓ": 907,
      "ㅗ": 908,
      "ㅜ": 909,
      "ㅝ": 910,
      "ㅡ": 911,
      "ㅣ": 912,
      "ㅵ": 913,
      "ㆋ": 914,
      "ㆍ": 915,
      "一": 916,
      "丁": 917,
      "万": 918,
      "三": 919,
      "上": 920,
      "下": 921,
      "东": 922,
      "中": 923,
      "丸": 924,
      "丹": 925,
      "主": 926,
      "丽": 927,
      "乌": 928,
      "乔": 929,
      "书": 930,
      "二": 931,
      "云": 932,
      "亜": 933,
      "京": 934,
      "人": 935,
      "仁": 936,
      "代": 937,
      "仮": 938,
      "仲": 939,
      "伊": 940,
      "休": 941,
      "会": 942,
      "伯": 943,
      "佐": 944,
      "佟": 945,
      "你": 946,
      "使": 947,
      "供": 948,
      "俗": 949,
      "信": 950,
      "俳": 951,
      "借": 952,
      "假": 953,
      "僕": 954,
      "優": 955,
      "元": 956,
      "光": 957,
      "克": 958,
      "八": 959,
      "六": 960,
      "兰": 961,
      "内": 962,
      "军": 963,
      "出": 964,
      "分": 965,
      "切": 966,
      "利": 967,
      "制": 968,
      "剧": 969,
      "劇": 970,
      "劉": 971,
      "力": 972,
      "动": 973,
      "劳": 974,
      "勋": 975,
      "動": 976,
      "勞": 977,
      "包": 978,
      "北": 979,
      "十": 980,
      "千": 981,
      "华": 982,
      "协": 983,
      "南": 984,
      "反": 985,
      "叔": 986,
      "受": 987,
      "口": 988,
      "古": 989,
      "右": 990,
      "合": 991,
      "君": 992,
      "呪": 993,
      "和": 994,
      "唐": 995,
      "善": 996,
      "喬": 997,
      "喰": 998,
      "四": 999,
      "回": 1000,
      "団": 1001,
      "国": 1002,
      "图": 1003,
      "園": 1004,
      "圖": 1005,
      "土": 1006,
      "地": 1007,
      "坪": 1008,
      "型": 1009,
      "堪": 1010,
      "士": 1011,
      "変": 1012,
      "多": 1013,
      "大": 1014,
      "天": 1015,
      "太": 1016,
      "夷": 1017,
      "奉": 1018,
      "女": 1019,
      "好": 1020,
      "妃": 1021,
      "妖": 1022,
      "媛": 1023,
      "嫻": 1024,
      "子": 1025,
      "孔": 1026,
      "季": 1027,
      "孤": 1028,
      "学": 1029,
      "守": 1030,
      "安": 1031,
      "宋": 1032,
      "室": 1033,
      "宮": 1034,
      "家": 1035,
      "容": 1036,
      "小": 1037,
      "尔": 1038,
      "尙": 1039,
      "居": 1040,
      "屋": 1041,
      "山": 1042,
      "岛": 1043,
      "岡": 1044,
      "島": 1045,
      "崎": 1046,
      "川": 1047,
      "州": 1048,
      "市": 1049,
      "師": 1050,
      "帽": 1051,
      "干": 1052,
      "平": 1053,
      "庄": 1054,
      "庆": 1055,
      "府": 1056,
      "座": 1057,
      "庫": 1058,
      "式": 1059,
      "弘": 1060,
      "強": 1061,
      "彭": 1062,
      "影": 1063,
      "役": 1064,
      "徳": 1065,
      "德": 1066,
      "忙": 1067,
      "応": 1068,
      "恋": 1069,
      "悪": 1070,
      "意": 1071,
      "愛": 1072,
      "慶": 1073,
      "我": 1074,
      "战": 1075,
      "戦": 1076,
      "户": 1077,
      "房": 1078,
      "所": 1079,
      "扎": 1080,
      "折": 1081,
      "拉": 1082,
      "拳": 1083,
      "捷": 1084,
      "撥": 1085,
      "支": 1086,
      "改": 1087,
      "放": 1088,
      "教": 1089,
      "文": 1090,
      "斯": 1091,
      "新": 1092,
      "方": 1093,
      "旋": 1094,
      "旗": 1095,
      "星": 1096,
      "映": 1097,
      "昭": 1098,
      "時": 1099,
      "書": 1100,
      "本": 1101,
      "朴": 1102,
      "東": 1103,
      "根": 1104,
      "桥": 1105,
      "極": 1106,
      "楷": 1107,
      "様": 1108,
      "樂": 1109,
      "横": 1110,
      "橋": 1111,
      "欢": 1112,
      "正": 1113,
      "步": 1114,
      "死": 1115,
      "段": 1116,
      "殺": 1117,
      "毛": 1118,
      "氏": 1119,
      "民": 1120,
      "気": 1121,
      "水": 1122,
      "江": 1123,
      "沐": 1124,
      "法": 1125,
      "注": 1126,
      "泽": 1127,
      "浦": 1128,
      "海": 1129,
      "清": 1130,
      "源": 1131,
      "演": 1132,
      "潜": 1133,
      "澤": 1134,
      "煙": 1135,
      "營": 1136,
      "父": 1137,
      "爾": 1138,
      "片": 1139,
      "特": 1140,
      "独": 1141,
      "玉": 1142,
      "王": 1143,
      "田": 1144,
      "甲": 1145,
      "电": 1146,
      "画": 1147,
      "疑": 1148,
      "白": 1149,
      "皇": 1150,
      "益": 1151,
      "盐": 1152,
      "监": 1153,
      "目": 1154,
      "真": 1155,
      "祁": 1156,
      "祖": 1157,
      "神": 1158,
      "祥": 1159,
      "禁": 1160,
      "禄": 1161,
      "種": 1162,
      "稲": 1163,
      "穴": 1164,
      "立": 1165,
      "竹": 1166,
      "筆": 1167,
      "精": 1168,
      "紀": 1169,
      "紅": 1170,
      "絃": 1171,
      "統": 1172,
      "綴": 1173,
      "縣": 1174,
      "縦": 1175,
      "红": 1176,
      "绝": 1177,
      "美": 1178,
      "羽": 1179,
      "老": 1180,
      "者": 1181,
      "肖": 1182,
      "腹": 1183,
      "臺": 1184,
      "艦": 1185,
      "色": 1186,
      "花": 1187,
      "苏": 1188,
      "苑": 1189,
      "苔": 1190,
      "营": 1191,
      "葉": 1192,
      "著": 1193,
      "葱": 1194,
      "蛙": 1195,
      "螺": 1196,
      "行": 1197,
      "術": 1198,
      "街": 1199,
      "衣": 1200,
      "表": 1201,
      "裕": 1202,
      "西": 1203,
      "親": 1204,
      "言": 1205,
      "記": 1206,
      "誤": 1207,
      "豊": 1208,
      "豐": 1209,
      "貴": 1210,
      "賞": 1211,
      "走": 1212,
      "赵": 1213,
      "起": 1214,
      "身": 1215,
      "軍": 1216,
      "輿": 1217,
      "轉": 1218,
      "込": 1219,
      "迎": 1220,
      "近": 1221,
      "通": 1222,
      "造": 1223,
      "遊": 1224,
      "運": 1225,
      "道": 1226,
      "邑": 1227,
      "郎": 1228,
      "都": 1229,
      "鄕": 1230,
      "配": 1231,
      "里": 1232,
      "重": 1233,
      "野": 1234,
      "金": 1235,
      "釜": 1236,
      "鉄": 1237,
      "錬": 1238,
      "锋": 1239,
      "防": 1240,
      "陳": 1241,
      "陵": 1242,
      "陶": 1243,
      "雷": 1244,
      "霍": 1245,
      "青": 1246,
      "静": 1247,
      "非": 1248,
      "面": 1249,
      "音": 1250,
      "領": 1251,
      "頼": 1252,
      "養": 1253,
      "首": 1254,
      "香": 1255,
      "馬": 1256,
      "驻": 1257,
      "體": 1258,
      "鳥": 1259,
      "鶴": 1260,
      "鹿": 1261,
      "黒": 1262,
      "Ꙁ": 1263,
      "가": 1264,
      "감": 1265,
      "거": 1266,
      "경": 1267,
      "고": 1268,
      "교": 1269,
      "구": 1270,
      "군": 1271,
      "궁": 1272,
      "극": 1273,
      "기": 1274,
      "김": 1275,
      "깨": 1276,
      "내": 1277,
      "놉": 1278,
      "니": 1279,
      "다": 1280,
      "단": 1281,
      "달": 1282,
      "대": 1283,
      "도": 1284,
      "동": 1285,
      "렀": 1286,
      "려": 1287,
      "릉": 1288,
      "리": 1289,
      "만": 1290,
      "민": 1291,
      "박": 1292,
      "불": 1293,
      "사": 1294,
      "삼": 1295,
      "상": 1296,
      "색": 1297,
      "서": 1298,
      "선": 1299,
      "성": 1300,
      "소": 1301,
      "속": 1302,
      "수": 1303,
      "순": 1304,
      "신": 1305,
      "씨": 1306,
      "아": 1307,
      "악": 1308,
      "양": 1309,
      "어": 1310,
      "없": 1311,
      "연": 1312,
      "염": 1313,
      "영": 1314,
      "와": 1315,
      "왕": 1316,
      "용": 1317,
      "우": 1318,
      "월": 1319,
      "으": 1320,
      "의": 1321,
      "이": 1322,
      "일": 1323,
      "전": 1324,
      "정": 1325,
      "제": 1326,
      "져": 1327,
      "좌": 1328,
      "죽": 1329,
      "지": 1330,
      "천": 1331,
      "체": 1332,
      "총": 1333,
      "태": 1334,
      "통": 1335,
      "팥": 1336,
      "피": 1337,
      "향": 1338,
      "허": 1339,
      "헌": 1340,
      "현": 1341,
      "환": 1342,
      "훈": 1343,
      "흘": 1344,
      "": 1345,
      "ﬁ": 1346,
      "ﬂ": 1347,
      "ﷲ": 1348,
      "﻿": 1349,
      "！": 1350,
      "（": 1351,
      "）": 1352,
      "／": 1353,
      "￼": 1354,
      "re": 1355,
      "de": 1356,
      "te": 1357,
      "ri": 1358,
      "in": 1359,
      "ul": 1360,
      "le": 1361,
      "at": 1362,
      "în": 1363,
      "st": 1364,
      "ce": 1365,
      "or": 1366,
      "un": 1367,
      "an": 1368,
      "și": 1369,
      "ar": 1370,
      "al": 1371,
      "en": 1372,
      "ți": 1373,
      "on": 1374,
      "are": 1375,
      "se": 1376,
      "cu": 1377,
      "it": 1378,
      "ic": 1379,
      "pe": 1380,
      "ui": 1381,
      "la": 1382,
      "ra": 1383,
      "ma": 1384,
      "ro": 1385,
      "din": 1386,
      "ie": 1387,
      "ru": 1388,
      "au": 1389,
      "ste": 1390,
      "ti": 1391,
      "me": 1392,
      "ân": 1393,
      "ate": 1394,
      "să": 1395,
      "că": 1396,
      "il": 1397,
      "co": 1398,
      "ent": 1399,
      "ca": 1400,
      "fo": 1401,
      "ului": 1402,
      "di": 1403,
      "ve": 1404,
      "ci": 1405,
      "po": 1406,
      "ori": 1407,
      "con": 1408,
      "mp": 1409,
      "care": 1410,
      "lo": 1411,
      "ră": 1412,
      "pri": 1413,
      "si": 1414,
      "fost": 1415,
      "du": 1416,
      "tre": 1417,
      "su": 1418,
      "nu": 1419,
      "ale": 1420,
      "lor": 1421,
      "este": 1422,
      "pre": 1423,
      "li": 1424,
      "tă": 1425,
      "lu": 1426,
      "ace": 1427,
      "fe": 1428,
      "pro": 1429,
      "mai": 1430,
      "ată": 1431,
      "fi": 1432,
      "ea": 1433,
      "ur": 1434,
      "ch": 1435,
      "În": 1436,
      "ați": 1437,
      "do": 1438,
      "ii": 1439,
      "to": 1440,
      "entru": 1441,
      "pă": 1442,
      "ei": 1443,
      "pu": 1444,
      "er": 1445,
      "pentru": 1446,
      "ia": 1447,
      "ac": 1448,
      "19": 1449,
      "uri": 1450,
      "am": 1451,
      "rea": 1452,
      "mi": 1453,
      "mul": 1454,
      "zi": 1455,
      "ne": 1456,
      "area": 1457,
      "ct": 1458,
      "mo": 1459,
      "ză": 1460,
      "lui": 1461,
      "mă": 1462,
      "ând": 1463,
      "mb": 1464,
      "vi": 1465,
      "ex": 1466,
      "20": 1467,
      "par": 1468,
      "so": 1469,
      "ele": 1470,
      "sc": 1471,
      "tr": 1472,
      "va": 1473,
      "ici": 1474,
      "ter": 1475,
      "ții": 1476,
      "ut": 1477,
      "ani": 1478,
      "ine": 1479,
      "for": 1480,
      "ică": 1481,
      "ală": 1482,
      "ab": 1483,
      "chi": 1484,
      "ță": 1485,
      "prin": 1486,
      "men": 1487,
      "rie": 1488,
      "ști": 1489,
      "ni": 1490,
      "ge": 1491,
      "ast": 1492,
      "ol": 1493,
      "gi": 1494,
      "ali": 1495,
      "man": 1496,
      "sa": 1497,
      "rii": 1498,
      "tul": 1499,
      "ită": 1500,
      "mân": 1501,
      "unt": 1502,
      "no": 1503,
      "ad": 1504,
      "ște": 1505,
      "ile": 1506,
      "sp": 1507,
      "min": 1508,
      "ze": 1509,
      "ta": 1510,
      "el": 1511,
      "per": 1512,
      "ilor": 1513,
      "scu": 1514,
      "sunt": 1515,
      "itate": 1516,
      "gă": 1517,
      "ța": 1518,
      "ver": 1519,
      "ind": 1520,
      "ist": 1521,
      "câ": 1522,
      "cul": 1523,
      "era": 1524,
      "ap": 1525,
      "mat": 1526,
      "une": 1527,
      "lă": 1528,
      "ția": 1529,
      "sau": 1530,
      "tori": 1531,
      "ară": 1532,
      "bi": 1533,
      "ven": 1534,
      "peri": 1535,
      "tu": 1536,
      "cre": 1537,
      "ase": 1538,
      "ție": 1539,
      "00": 1540,
      "tate": 1541,
      "av": 1542,
      "tea": 1543,
      "timp": 1544,
      "aj": 1545,
      "iar": 1546,
      ").": 1547,
      "rile": 1548,
      "acest": 1549,
      "ment": 1550,
      "des": 1551,
      "rat": 1552,
      "tri": 1553,
      "vă": 1554,
      "tra": 1555,
      "pul": 1556,
      "înce": 1557,
      "teri": 1558,
      "De": 1559,
      "tele": 1560,
      "cen": 1561,
      "spe": 1562,
      "tor": 1563,
      "lic": 1564,
      "lan": 1565,
      "ari": 1566,
      "iei": 1567,
      "âr": 1568,
      "gu": 1569,
      "vo": 1570,
      "tin": 1571,
      "cele": 1572,
      "da": 1573,
      "țin": 1574,
      "dar": 1575,
      "200": 1576,
      "fă": 1577,
      "gra": 1578,
      "ran": 1579,
      "dat": 1580,
      "bo": 1581,
      "gen": 1582,
      "mun": 1583,
      "uă": 1584,
      "18": 1585,
      "tat": 1586,
      "aș": 1587,
      "pi": 1588,
      "Ro": 1589,
      "rul": 1590,
      "prez": 1591,
      "fic": 1592,
      "între": 1593,
      "oare": 1594,
      "comp": 1595,
      "hi": 1596,
      "ână": 1597,
      "țe": 1598,
      "bu": 1599,
      "mit": 1600,
      "sub": 1601,
      "ave": 1602,
      "den": 1603,
      "he": 1604,
      "mare": 1605,
      "af": 1606,
      "dă": 1607,
      "sul": 1608,
      "seri": 1609,
      "Ace": 1610,
      "ane": 1611,
      "fie": 1612,
      "loc": 1613,
      "pra": 1614,
      "fa": 1615,
      "ob": 1616,
      "sti": 1617,
      "mele": 1618,
      "pa": 1619,
      "ili": 1620,
      "Re": 1621,
      "inte": 1622,
      "locu": 1623,
      "za": 1624,
      "după": 1625,
      "Co": 1626,
      "uni": 1627,
      "stru": 1628,
      "201": 1629,
      "ort": 1630,
      "itu": 1631,
      "țion": 1632,
      "ai": 1633,
      "as": 1634,
      "sat": 1635,
      "lul": 1636,
      "anul": 1637,
      "ini": 1638,
      "mn": 1639,
      "mar": 1640,
      "La": 1641,
      "),": 1642,
      "fiind": 1643,
      "cum": 1644,
      "feri": 1645,
      "os": 1646,
      "cun": 1647,
      "bă": 1648,
      "dintre": 1649,
      "Du": 1650,
      "itatea": 1651,
      "Con": 1652,
      "cat": 1653,
      "astă": 1654,
      "mon": 1655,
      "nă": 1656,
      "turi": 1657,
      "imp": 1658,
      "na": 1659,
      "luc": 1660,
      "inter": 1661,
      "cea": 1662,
      "ju": 1663,
      "orul": 1664,
      "aceste": 1665,
      "două": 1666,
      "tiv": 1667,
      "zat": 1668,
      "pie": 1669,
      "cât": 1670,
      "itori": 1671,
      "ati": 1672,
      "ing": 1673,
      "pub": 1674,
      "într": 1675,
      "ord": 1676,
      "fel": 1677,
      "In": 1678,
      "oc": 1679,
      "us": 1680,
      "când": 1681,
      "Pe": 1682,
      "cuno": 1683,
      "până": 1684,
      "ba": 1685,
      "supra": 1686,
      "cel": 1687,
      "ație": 1688,
      "fun": 1689,
      "apro": 1690,
      "scri": 1691,
      "parte": 1692,
      "împ": 1693,
      "arte": 1694,
      "ag": 1695,
      "dic": 1696,
      "folo": 1697,
      "mu": 1698,
      "mbrie": 1699,
      "pat": 1700,
      "șe": 1701,
      "tic": 1702,
      "avea": 1703,
      "sta": 1704,
      "popul": 1705,
      "său": 1706,
      "ună": 1707,
      "zon": 1708,
      "pt": 1709,
      "ează": 1710,
      "rin": 1711,
      "ren": 1712,
      "son": 1713,
      "multe": 1714,
      "cur": 1715,
      "regi": 1716,
      "prezent": 1717,
      "vin": 1718,
      "amen": 1719,
      "lea": 1720,
      "rilor": 1721,
      "ant": 1722,
      "sale": 1723,
      "put": 1724,
      "unea": 1725,
      "car": 1726,
      "abil": 1727,
      "poate": 1728,
      "pol": 1729,
      "lun": 1730,
      "ațion": 1731,
      "anu": 1732,
      "lin": 1733,
      "be": 1734,
      "An": 1735,
      "dată": 1736,
      "fin": 1737,
      "bil": 1738,
      "199": 1739,
      "produ": 1740,
      "fil": 1741,
      "unui": 1742,
      "Po": 1743,
      "unde": 1744,
      "speci": 1745,
      "che": 1746,
      "por": 1747,
      "scă": 1748,
      "org": 1749,
      "ces": 1750,
      "stat": 1751,
      "ten": 1752,
      "unei": 1753,
      "public": 1754,
      "Bi": 1755,
      "comun": 1756,
      "tro": 1757,
      "perio": 1758,
      "dez": 1759,
      "către": 1760,
      "log": 1761,
      "ron": 1762,
      "ser": 1763,
      "clu": 1764,
      "dre": 1765,
      "Ar": 1766,
      "om": 1767,
      "tului": 1768,
      "cei": 1769,
      "menea": 1770,
      "ara": 1771,
      "cut": 1772,
      "toate": 1773,
      "II": 1774,
      "tran": 1775,
      "ația": 1776,
      "oraș": 1777,
      "Se": 1778,
      "tur": 1779,
      "ho": 1780,
      "urile": 1781,
      "După": 1782,
      "mea": 1783,
      "fu": 1784,
      "asemenea": 1785,
      "stă": 1786,
      "venit": 1787,
      "ități": 1788,
      "ană": 1789,
      "avut": 1790,
      "alte": 1791,
      "alul": 1792,
      "gin": 1793,
      "Un": 1794,
      "col": 1795,
      "ției": 1796,
      "der": 1797,
      "rit": 1798,
      "cop": 1799,
      "ric": 1800,
      "țele": 1801,
      "ica": 1802,
      "dul": 1803,
      "urmă": 1804,
      "sit": 1805,
      "stu": 1806,
      "apă": 1807,
      "ga": 1808,
      "ala": 1809,
      "ându": 1810,
      "ber": 1811,
      "”.": 1812,
      "ene": 1813,
      "cunoscu": 1814,
      "is": 1815,
      "et": 1816,
      "ține": 1817,
      "Al": 1818,
      "cin": 1819,
      "această": 1820,
      "nume": 1821,
      "toare": 1822,
      "ații": 1823,
      "Bu": 1824,
      "tatea": 1825,
      "Cu": 1826,
      "gre": 1827,
      "ade": 1828,
      "El": 1829,
      "mult": 1830,
      "gat": 1831,
      "of": 1832,
      "cor": 1833,
      "go": 1834,
      "locuitori": 1835,
      "tot": 1836,
      "cip": 1837,
      "vor": 1838,
      "uie": 1839,
      "înt": 1840,
      "duce": 1841,
      "vre": 1842,
      "pot": 1843,
      "Român": 1844,
      "român": 1845,
      "and": 1846,
      "trei": 1847,
      "vol": 1848,
      "spre": 1849,
      "func": 1850,
      "xi": 1851,
      "stan": 1852,
      "ger": 1853,
      "forma": 1854,
      "str": 1855,
      "timpul": 1856,
      "lat": 1857,
      "vie": 1858,
      "nici": 1859,
      "aliz": 1860,
      "ame": 1861,
      "Uni": 1862,
      "mil": 1863,
      "uro": 1864,
      "doar": 1865,
      "form": 1866,
      "To": 1867,
      "cer": 1868,
      "Ch": 1869,
      "apo": 1870,
      "17": 1871,
      "zbo": 1872,
      "serica": 1873,
      "perioad": 1874,
      "cap": 1875,
      "asta": 1876,
      "dep": 1877,
      "ape": 1878,
      "mului": 1879,
      "10": 1880,
      "ament": 1881,
      "gru": 1882,
      "15": 1883,
      "amil": 1884,
      "foarte": 1885,
      "erau": 1886,
      "vit": 1887,
      "consi": 1888,
      "mite": 1889,
      "”,": 1890,
      "pozi": 1891,
      "sen": 1892,
      "ua": 1893,
      "tru": 1894,
      "cla": 1895,
      "one": 1896,
      "început": 1897,
      "medi": 1898,
      "echi": 1899,
      "Din": 1900,
      "îl": 1901,
      "contin": 1902,
      "națion": 1903,
      "îi": 1904,
      "oni": 1905,
      "memb": 1906,
      "gul": 1907,
      "cii": 1908,
      "ura": 1909,
      "zul": 1910,
      "Su": 1911,
      "cau": 1912,
      "alt": 1913,
      "istori": 1914,
      "iul": 1915,
      "una": 1916,
      "ocu": 1917,
      "cal": 1918,
      "dea": 1919,
      "polit": 1920,
      "iv": 1921,
      "tit": 1922,
      "stul": 1923,
      "mer": 1924,
      "schi": 1925,
      "194": 1926,
      "anii": 1927,
      "lar": 1928,
      "căr": 1929,
      "rec": 1930,
      "rate": 1931,
      "pte": 1932,
      "sus": 1933,
      "val": 1934,
      "siste": 1935,
      "Este": 1936,
      "exist": 1937,
      "mente": 1938,
      "vers": 1939,
      "gener": 1940,
      "pun": 1941,
      "prima": 1942,
      "dus": 1943,
      "000": 1944,
      "arti": 1945,
      "aco": 1946,
      "numă": 1947,
      "198": 1948,
      "stri": 1949,
      "ice": 1950,
      "organi": 1951,
      "tie": 1952,
      "exe": 1953,
      "famil": 1954,
      "își": 1955,
      "fap": 1956,
      "ptă": 1957,
      "limb": 1958,
      "via": 1959,
      "uti": 1960,
      "Ca": 1961,
      "mari": 1962,
      "însă": 1963,
      "Me": 1964,
      "constru": 1965,
      "16": 1966,
      "ajun": 1967,
      "devenit": 1968,
      "nat": 1969,
      "veni": 1970,
      "stră": 1971,
      "țiile": 1972,
      "face": 1973,
      "treb": 1974,
      "princip": 1975,
      "plan": 1976,
      "propri": 1977,
      "197": 1978,
      "ței": 1979,
      "numele": 1980,
      "față": 1981,
      "ha": 1982,
      "import": 1983,
      "ității": 1984,
      "ât": 1985,
      "cri": 1986,
      "gh": 1987,
      "sin": 1988,
      "soci": 1989,
      "unul": 1990,
      "Le": 1991,
      "mii": 1992,
      "dis": 1993,
      "inclu": 1994,
      "cad": 1995,
      "tră": 1996,
      "apoi": 1997,
      "peste": 1998,
      "Biserica": 1999,
      "mpo": 2000,
      "astfel": 2001,
      "lie": 2002,
      "Mi": 2003,
      "fără": 2004,
      "Pro": 2005,
      "întâ": 2006,
      "trans": 2007,
      "ante": 2008,
      "decât": 2009,
      "Ma": 2010,
      "războ": 2011,
      "cte": 2012,
      "12": 2013,
      "viz": 2014,
      "schimb": 2015,
      "ana": 2016,
      "Au": 2017,
      "Do": 2018,
      "rești": 2019,
      "despre": 2020,
      "serv": 2021,
      "cep": 2022,
      "semn": 2023,
      "pus": 2024,
      "prob": 2025,
      "Pri": 2026,
      "Te": 2027,
      "studi": 2028,
      "mic": 2029,
      "mor": 2030,
      "unci": 2031,
      "oamen": 2032,
      "Li": 2033,
      "vâr": 2034,
      "sf": 2035,
      "terior": 2036,
      "tăți": 2037,
      "unii": 2038,
      "unor": 2039,
      "volu": 2040,
      "196": 2041,
      "eni": 2042,
      "rut": 2043,
      "ținut": 2044,
      "minist": 2045,
      "oane": 2046,
      "activ": 2047,
      "sol": 2048,
      "cole": 2049,
      "numit": 2050,
      "țat": 2051,
      "doi": 2052,
      "conside": 2053,
      "diferi": 2054,
      "încă": 2055,
      "sco": 2056,
      "ină": 2057,
      "reu": 2058,
      "Nu": 2059,
      "op": 2060,
      "perso": 2061,
      "mod": 2062,
      "Ne": 2063,
      "atul": 2064,
      "ton": 2065,
      "fect": 2066,
      "part": 2067,
      "locul": 2068,
      "târ": 2069,
      "partea": 2070,
      "mis": 2071,
      "30": 2072,
      "can": 2073,
      "primul": 2074,
      "Si": 2075,
      "îna": 2076,
      "dezvol": 2077,
      "arie": 2078,
      "person": 2079,
      "mei": 2080,
      "câte": 2081,
      "Lu": 2082,
      "rează": 2083,
      "cti": 2084,
      "14": 2085,
      "Prin": 2086,
      "ina": 2087,
      "precum": 2088,
      "acestea": 2089,
      "local": 2090,
      "biseri": 2091,
      "iect": 2092,
      "află": 2093,
      "ora": 2094,
      "muri": 2095,
      "zile": 2096,
      "tată": 2097,
      "utili": 2098,
      "ației": 2099,
      "mate": 2100,
      "dere": 2101,
      "asupra": 2102,
      "Bucu": 2103,
      "făcut": 2104,
      "Car": 2105,
      "termin": 2106,
      "Di": 2107,
      "ier": 2108,
      "roman": 2109,
      "puțin": 2110,
      "ore": 2111,
      "ang": 2112,
      "anului": 2113,
      "atunci": 2114,
      "sea": 2115,
      "dec": 2116,
      "oa": 2117,
      "exp": 2118,
      "asi": 2119,
      "eli": 2120,
      "ziu": 2121,
      "pute": 2122,
      "scur": 2123,
      "muz": 2124,
      "fra": 2125,
      "ard": 2126,
      "ov": 2127,
      "sele": 2128,
      "București": 2129,
      "populație": 2130,
      "nic": 2131,
      "13": 2132,
      "Mar": 2133,
      "vizi": 2134,
      "format": 2135,
      "Pre": 2136,
      "intă": 2137,
      "pere": 2138,
      "fici": 2139,
      "ților": 2140,
      "dent": 2141,
      "Fran": 2142,
      "bor": 2143,
      "195": 2144,
      "păr": 2145,
      "ctor": 2146,
      "Bo": 2147,
      "sur": 2148,
      "guver": 2149,
      "tura": 2150,
      "câști": 2151,
      "jur": 2152,
      "obi": 2153,
      "trat": 2154,
      "torii": 2155,
      "misi": 2156,
      "lucru": 2157,
      "Pentru": 2158,
      "vine": 2159,
      "scul": 2160,
      "prezintă": 2161,
      "scris": 2162,
      "olog": 2163,
      "ședin": 2164,
      "fiecare": 2165,
      "situ": 2166,
      "ria": 2167,
      "orii": 2168,
      "die": 2169,
      "târziu": 2170,
      "Ex": 2171,
      "șit": 2172,
      "milit": 2173,
      "Mo": 2174,
      "iu": 2175,
      "uia": 2176,
      "suc": 2177,
      "celor": 2178,
      "lex": 2179,
      "fon": 2180,
      "nou": 2181,
      "\".": 2182,
      "sfâr": 2183,
      "stin": 2184,
      "pic": 2185,
      "urma": 2186,
      "război": 2187,
      "ulti": 2188,
      "itor": 2189,
      "ască": 2190,
      "german": 2191,
      "mentul": 2192,
      "caz": 2193,
      "ata": 2194,
      "leg": 2195,
      "cân": 2196,
      "maj": 2197,
      "fran": 2198,
      "sing": 2199,
      "So": 2200,
      "fir": 2201,
      "\",": 2202,
      "reg": 2203,
      "profe": 2204,
      "general": 2205,
      "dece": 2206,
      "bine": 2207,
      "reprezent": 2208,
      "acela": 2209,
      "sten": 2210,
      "Euro": 2211,
      "ăr": 2212,
      "cție": 2213,
      "ură": 2214,
      "mas": 2215,
      "spect": 2216,
      "perioada": 2217,
      "dra": 2218,
      "chiar": 2219,
      "aceea": 2220,
      "nive": 2221,
      "uș": 2222,
      "date": 2223,
      "continu": 2224,
      "pla": 2225,
      "dacă": 2226,
      "tal": 2227,
      "deci": 2228,
      "fiin": 2229,
      "stit": 2230,
      "oară": 2231,
      "ilea": 2232,
      "atât": 2233,
      "stitu": 2234,
      "acesta": 2235,
      "fac": 2236,
      "împre": 2237,
      "ales": 2238,
      "torul": 2239,
      "mili": 2240,
      "iile": 2241,
      "25": 2242,
      "stra": 2243,
      "patru": 2244,
      "cere": 2245,
      "resp": 2246,
      "tice": 2247,
      "ceea": 2248,
      "ctiv": 2249,
      "tare": 2250,
      "Jo": 2251,
      "bun": 2252,
      "gust": 2253,
      "pier": 2254,
      "România": 2255,
      "siv": 2256,
      "mită": 2257,
      "oarece": 2258,
      "ania": 2259,
      "fața": 2260,
      "șco": 2261,
      "împo": 2262,
      "cate": 2263,
      "Da": 2264,
      "fică": 2265,
      "diferite": 2266,
      "tură": 2267,
      "țial": 2268,
      "căsă": 2269,
      "rei": 2270,
      "drept": 2271,
      "com": 2272,
      "cadrul": 2273,
      "193": 2274,
      "ki": 2275,
      "alb": 2276,
      "ximat": 2277,
      "flu": 2278,
      "deschi": 2279,
      "exemp": 2280,
      "rele": 2281,
      "fer": 2282,
      "ide": 2283,
      "2011": 2284,
      "lice": 2285,
      "ion": 2286,
      "scut": 2287,
      "cția": 2288,
      "est": 2289,
      "orită": 2290,
      "scrie": 2291,
      "aște": 2292,
      "există": 2293,
      "ximativ": 2294,
      "apar": 2295,
      "nord": 2296,
      "ja": 2297,
      "ciu": 2298,
      "trebuie": 2299,
      "The": 2300,
      "fr": 2301,
      "organiz": 2302,
      "iz": 2303,
      "înainte": 2304,
      "țul": 2305,
      "No": 2306,
      "formă": 2307,
      "dire": 2308,
      "împotri": 2309,
      "vân": 2310,
      "urilor": 2311,
      "feră": 2312,
      "im": 2313,
      "râ": 2314,
      "coman": 2315,
      "amb": 2316,
      "prote": 2317,
      "ajut": 2318,
      "teh": 2319,
      "Ed": 2320,
      "mani": 2321,
      "copii": 2322,
      "ke": 2323,
      "cie": 2324,
      "mulți": 2325,
      "știin": 2326,
      "recen": 2327,
      "carac": 2328,
      "Acest": 2329,
      "același": 2330,
      "arul": 2331,
      "administ": 2332,
      "primit": 2333,
      "deo": 2334,
      "rest": 2335,
      "11": 2336,
      "ativ": 2337,
      "ir": 2338,
      "partici": 2339,
      "sion": 2340,
      "altă": 2341,
      "ogra": 2342,
      "împotriva": 2343,
      "albu": 2344,
      "Mon": 2345,
      "oase": 2346,
      "centr": 2347,
      "tează": 2348,
      "numai": 2349,
      "aceasta": 2350,
      "ute": 2351,
      "unele": 2352,
      "aproape": 2353,
      "sibil": 2354,
      "ck": 2355,
      "cunoscut": 2356,
      "icii": 2357,
      "bul": 2358,
      "încer": 2359,
      "câteva": 2360,
      "guvern": 2361,
      "je": 2362,
      "bile": 2363,
      "șitul": 2364,
      "metri": 2365,
      "france": 2366,
      "stea": 2367,
      "împreună": 2368,
      "cir": 2369,
      "aproximativ": 2370,
      "zit": 2371,
      "lucră": 2372,
      "cți": 2373,
      "tarea": 2374,
      "strat": 2375,
      "km": 2376,
      "Par": 2377,
      "cetă": 2378,
      "contra": 2379,
      "File": 2380,
      "contro": 2381,
      "indi": 2382,
      "lemn": 2383,
      "ple": 2384,
      "cauza": 2385,
      "punct": 2386,
      "unile": 2387,
      "putea": 2388,
      "mag": 2389,
      "Mu": 2390,
      "zii": 2391,
      "econ": 2392,
      "miș": 2393,
      "Mari": 2394,
      "sate": 2395,
      "mici": 2396,
      "satul": 2397,
      "cons": 2398,
      "sia": 2399,
      "mode": 2400,
      "proble": 2401,
      "sfârșitul": 2402,
      "închi": 2403,
      "gur": 2404,
      "nor": 2405,
      "lip": 2406,
      "RO": 2407,
      "desco": 2408,
      "ed": 2409,
      "2009": 2410,
      "puter": 2411,
      "ole": 2412,
      "auto": 2413,
      "căsători": 2414,
      "americ": 2415,
      "ator": 2416,
      "uci": 2417,
      "ero": 2418,
      "Sf": 2419,
      "bru": 2420,
      "special": 2421,
      "liter": 2422,
      "deoarece": 2423,
      "fice": 2424,
      "ot": 2425,
      "începu": 2426,
      "pera": 2427,
      "lân": 2428,
      "derea": 2429,
      "întâl": 2430,
      "neces": 2431,
      "Această": 2432,
      "alizat": 2433,
      "pune": 2434,
      "curi": 2435,
      "50": 2436,
      "Or": 2437,
      "indu": 2438,
      "luat": 2439,
      "port": 2440,
      "noi": 2441,
      "sud": 2442,
      "odată": 2443,
      "persoane": 2444,
      "puri": 2445,
      "spi": 2446,
      "rului": 2447,
      "perioadă": 2448,
      "teritori": 2449,
      "ofici": 2450,
      "bit": 2451,
      "milioane": 2452,
      "ridic": 2453,
      "rez": 2454,
      "doua": 2455,
      "vic": 2456,
      "ească": 2457,
      "vari": 2458,
      "folosi": 2459,
      "stic": 2460,
      "ung": 2461,
      "răsp": 2462,
      "rând": 2463,
      "dru": 2464,
      "având": 2465,
      "res": 2466,
      "pei": 2467,
      "acți": 2468,
      "ența": 2469,
      "folosit": 2470,
      "sal": 2471,
      "atac": 2472,
      "crește": 2473,
      "cade": 2474,
      "realiz": 2475,
      "domen": 2476,
      "Ea": 2477,
      "mică": 2478,
      "ka": 2479,
      "rezul": 2480,
      "vechi": 2481,
      "Ru": 2482,
      "dia": 2483,
      "oameni": 2484,
      "zut": 2485,
      "înregi": 2486,
      "numero": 2487,
      "Mai": 2488,
      "orașului": 2489,
      "Ger": 2490,
      "simp": 2491,
      "lică": 2492,
      "van": 2493,
      "Ad": 2494,
      "adă": 2495,
      "octo": 2496,
      "îmb": 2497,
      "gri": 2498,
      "ez": 2499,
      "unie": 2500,
      "artă": 2501,
      "plă": 2502,
      "rela": 2503,
      "Ge": 2504,
      "vent": 2505,
      "epi": 2506,
      "rare": 2507,
      "telor": 2508,
      "24": 2509,
      "Fe": 2510,
      "reli": 2511,
      "bal": 2512,
      "data": 2513,
      "pove": 2514,
      "utiliz": 2515,
      "așa": 2516,
      "lungi": 2517,
      "gle": 2518,
      "numi": 2519,
      "tine": 2520,
      "sei": 2521,
      "lansat": 2522,
      "sor": 2523,
      "dove": 2524,
      "distru": 2525,
      "jude": 2526,
      "prie": 2527,
      "iunie": 2528,
      "Ra": 2529,
      "ico": 2530,
      "Lo": 2531,
      "efect": 2532,
      "scen": 2533,
      "președin": 2534,
      "funcțion": 2535,
      "ptembrie": 2536,
      "trecut": 2537,
      "condu": 2538,
      "Ast": 2539,
      "exi": 2540,
      "octombrie": 2541,
      "grup": 2542,
      "oritatea": 2543,
      "ener": 2544,
      "cinci": 2545,
      "Pa": 2546,
      "decembrie": 2547,
      "afla": 2548,
      "turile": 2549,
      "cit": 2550,
      "începutul": 2551,
      "carea": 2552,
      "tății": 2553,
      "spune": 2554,
      "nit": 2555,
      "comer": 2556,
      "th": 2557,
      "cale": 2558,
      "septembrie": 2559,
      "știn": 2560,
      "tive": 2561,
      "iulie": 2562,
      "apri": 2563,
      "limba": 2564,
      "St": 2565,
      "obicei": 2566,
      "Ră": 2567,
      "ordin": 2568,
      "Ti": 2569,
      "urii": 2570,
      "plu": 2571,
      "succes": 2572,
      "od": 2573,
      "murit": 2574,
      "bur": 2575,
      "Pă": 2576,
      "săi": 2577,
      "secol": 2578,
      "rămân": 2579,
      "Mol": 2580,
      "ianu": 2581,
      "oria": 2582,
      "medic": 2583,
      "Acesta": 2584,
      "rată": 2585,
      "drep": 2586,
      "Cor": 2587,
      "siune": 2588,
      "ațiile": 2589,
      "martie": 2590,
      "declar": 2591,
      "moder": 2592,
      "aprilie": 2593,
      "deose": 2594,
      "colul": 2595,
      "sește": 2596,
      "ritan": 2597,
      "cunoscută": 2598,
      "luri": 2599,
      "interpre": 2600,
      "depen": 2601,
      "pen": 2602,
      "mut": 2603,
      "rb": 2604,
      "Vi": 2605,
      "comple": 2606,
      "oan": 2607,
      "august": 2608,
      "materi": 2609,
      "Univers": 2610,
      "iembrie": 2611,
      "ficat": 2612,
      "23": 2613,
      "elect": 2614,
      "progra": 2615,
      "euro": 2616,
      "III": 2617,
      "faptul": 2618,
      "eta": 2619,
      "sla": 2620,
      "camp": 2621,
      "dan": 2622,
      "serie": 2623,
      "sese": 2624,
      "proiect": 2625,
      "tip": 2626,
      "gerea": 2627,
      "tuși": 2628,
      "descoperi": 2629,
      "pur": 2630,
      "acestei": 2631,
      "oarea": 2632,
      "act": 2633,
      "noiembrie": 2634,
      "feren": 2635,
      "Ba": 2636,
      "nr": 2637,
      "tex": 2638,
      "antă": 2639,
      "dio": 2640,
      "mij": 2641,
      "proce": 2642,
      "parti": 2643,
      "autori": 2644,
      "măsu": 2645,
      "22": 2646,
      "ghe": 2647,
      "stil": 2648,
      "șii": 2649,
      "origin": 2650,
      "doilea": 2651,
      "baz": 2652,
      "rămas": 2653,
      "membru": 2654,
      "dial": 2655,
      "Conform": 2656,
      "clă": 2657,
      "icul": 2658,
      "lângă": 2659,
      "dului": 2660,
      "itățile": 2661,
      "viață": 2662,
      "feme": 2663,
      "număr": 2664,
      "onul": 2665,
      "es": 2666,
      "ăl": 2667,
      "înfiin": 2668,
      "constr": 2669,
      "aga": 2670,
      "ianuarie": 2671,
      "ban": 2672,
      "labor": 2673,
      "național": 2674,
      "orice": 2675,
      "Astfel": 2676,
      "siunea": 2677,
      "21": 2678,
      "ko": 2679,
      "artea": 2680,
      "cia": 2681,
      "datorită": 2682,
      "Ho": 2683,
      "lia": 2684,
      "apărut": 2685,
      "ută": 2686,
      "tradi": 2687,
      "ajuns": 2688,
      "oasă": 2689,
      "învă": 2690,
      "vest": 2691,
      "medie": 2692,
      "viața": 2693,
      "tei": 2694,
      "itudin": 2695,
      "mănă": 2696,
      "române": 2697,
      "zia": 2698,
      "retra": 2699,
      "2008": 2700,
      "vat": 2701,
      "struct": 2702,
      "abile": 2703,
      "Deși": 2704,
      "40": 2705,
      "rarea": 2706,
      "sezon": 2707,
      "apare": 2708,
      "vedere": 2709,
      "mează": 2710,
      "dintr": 2711,
      "nouă": 2712,
      "secolului": 2713,
      "amp": 2714,
      "mântului": 2715,
      "evre": 2716,
      "deși": 2717,
      "mânt": 2718,
      "arhi": 2719,
      "exemplu": 2720,
      "mată": 2721,
      "nea": 2722,
      "condi": 2723,
      "rica": 2724,
      "amentul": 2725,
      "pta": 2726,
      "orașul": 2727,
      "docu": 2728,
      "începe": 2729,
      "Ce": 2730,
      "posibil": 2731,
      "Națion": 2732,
      "logi": 2733,
      "revi": 2734,
      "reprezintă": 2735,
      "duri": 2736,
      "refu": 2737,
      "țelor": 2738,
      "influ": 2739,
      "obie": 2740,
      "sem": 2741,
      "acu": 2742,
      "German": 2743,
      "luptă": 2744,
      "nică": 2745,
      "avi": 2746,
      "inten": 2747,
      "legi": 2748,
      "ado": 2749,
      "înțele": 2750,
      "istă": 2751,
      "numărul": 2752,
      "melor": 2753,
      "gură": 2754,
      "acoperi": 2755,
      "pele": 2756,
      "insul": 2757,
      "post": 2758,
      "spați": 2759,
      "econom": 2760,
      "anta": 2761,
      "numeroase": 2762,
      "capit": 2763,
      "secolul": 2764,
      "principal": 2765,
      "27": 2766,
      "actu": 2767,
      "zona": 2768,
      "ful": 2769,
      "Mare": 2770,
      "casă": 2771,
      "părți": 2772,
      "singur": 2773,
      "mice": 2774,
      "reușit": 2775,
      "Alex": 2776,
      "Fil": 2777,
      "liber": 2778,
      "cine": 2779,
      "știi": 2780,
      "Be": 2781,
      "film": 2782,
      "respe": 2783,
      "gră": 2784,
      "um": 2785,
      "aici": 2786,
      "ry": 2787,
      "printre": 2788,
      "itura": 2789,
      "moartea": 2790,
      "las": 2791,
      "ază": 2792,
      "știa": 2793,
      "fle": 2794,
      "poli": 2795,
      "male": 2796,
      "190": 2797,
      "ative": 2798,
      "gro": 2799,
      "sm": 2800,
      "meci": 2801,
      "bra": 2802,
      "dele": 2803,
      "zo": 2804,
      "Gu": 2805,
      "vale": 2806,
      "nice": 2807,
      "tab": 2808,
      "26": 2809,
      "sex": 2810,
      "cuprin": 2811,
      "Între": 2812,
      "personaj": 2813,
      "28": 2814,
      "alți": 2815,
      "conduce": 2816,
      "caracteri": 2817,
      "anilor": 2818,
      "anță": 2819,
      "vârsta": 2820,
      "ner": 2821,
      "Aceasta": 2822,
      "ive": 2823,
      "urmare": 2824,
      "alului": 2825,
      "adevă": 2826,
      "Dar": 2827,
      "uman": 2828,
      "ieri": 2829,
      "gura": 2830,
      "nevo": 2831,
      "șul": 2832,
      "țu": 2833,
      "onat": 2834,
      "lume": 2835,
      "Ju": 2836,
      "călă": 2837,
      "XV": 2838,
      "eveni": 2839,
      "priv": 2840,
      "Aceste": 2841,
      "urmat": 2842,
      "atra": 2843,
      "cali": 2844,
      "alele": 2845,
      "For": 2846,
      "diver": 2847,
      "bărb": 2848,
      "baza": 2849,
      "câștigat": 2850,
      "nivel": 2851,
      "recensă": 2852,
      "existen": 2853,
      "dific": 2854,
      "rezi": 2855,
      "mata": 2856,
      "lii": 2857,
      "cursul": 2858,
      "tect": 2859,
      "prij": 2860,
      "socie": 2861,
      "termen": 2862,
      "jurul": 2863,
      "60": 2864,
      "pract": 2865,
      "pare": 2866,
      "ada": 2867,
      "vreme": 2868,
      "bruarie": 2869,
      "dit": 2870,
      "fapt": 2871,
      "perat": 2872,
      "acea": 2873,
      "mentele": 2874,
      "und": 2875,
      "cra": 2876,
      "trece": 2877,
      "ptat": 2878,
      "uite": 2879,
      "temp": 2880,
      "cazul": 2881,
      "acul": 2882,
      "acestui": 2883,
      "Cele": 2884,
      "sprij": 2885,
      "ler": 2886,
      "dro": 2887,
      "februarie": 2888,
      "aceeași": 2889,
      "onia": 2890,
      "atele": 2891,
      "mie": 2892,
      "Comun": 2893,
      "Când": 2894,
      "Inter": 2895,
      "acce": 2896,
      "intro": 2897,
      "copil": 2898,
      "acum": 2899,
      "rel": 2900,
      "anti": 2901,
      "regul": 2902,
      "sec": 2903,
      "Pol": 2904,
      "artic": 2905,
      "lungul": 2906,
      "Ame": 2907,
      "Ele": 2908,
      "moment": 2909,
      "29": 2910,
      "pozit": 2911,
      "utul": 2912,
      "pără": 2913,
      "ferin": 2914,
      "Unite": 2915,
      "Wil": 2916,
      "naționale": 2917,
      "XI": 2918,
      "gar": 2919,
      "bar": 2920,
      "ași": 2921,
      "numită": 2922,
      "făș": 2923,
      "colo": 2924,
      "opera": 2925,
      "engle": 2926,
      "2010": 2927,
      "fab": 2928,
      "scop": 2929,
      "apte": 2930,
      "tem": 2931,
      "sesc": 2932,
      "aplic": 2933,
      "șu": 2934,
      "determin": 2935,
      "80": 2936,
      "alitate": 2937,
      "suri": 2938,
      "orie": 2939,
      "comerci": 2940,
      "Sa": 2941,
      "experi": 2942,
      "les": 2943,
      "alitatea": 2944,
      "rește": 2945,
      "han": 2946,
      "Republic": 2947,
      "asă": 2948,
      "stabil": 2949,
      "țiilor": 2950,
      "jucă": 2951,
      "Bar": 2952,
      "acestuia": 2953,
      "cru": 2954,
      "născut": 2955,
      "dependen": 2956,
      "fan": 2957,
      "luj": 2958,
      "legă": 2959,
      "fru": 2960,
      "sim": 2961,
      "2007": 2962,
      "transp": 2963,
      "Mun": 2964,
      "cunoaște": 2965,
      "At": 2966,
      "tere": 2967,
      "2006": 2968,
      "apropie": 2969,
      "publicat": 2970,
      "atului": 2971,
      "denumi": 2972,
      "dor": 2973,
      "Fi": 2974,
      "informa": 2975,
      "creat": 2976,
      "ly": 2977,
      "acord": 2978,
      "State": 2979,
      "gând": 2980,
      "100": 2981,
      "afir": 2982,
      "inclusiv": 2983,
      "țară": 2984,
      "luni": 2985,
      "nele": 2986,
      "jumă": 2987,
      "folos": 2988,
      "desfăș": 2989,
      "stice": 2990,
      "zare": 2991,
      "deri": 2992,
      "promo": 2993,
      "bună": 2994,
      "pit": 2995,
      "189": 2996,
      "funcție": 2997,
      "cle": 2998,
      "zie": 2999
    },
    "merges": [
      [
        "r",
        "e"
      ],
      [
        "d",
        "e"
      ],
      [
        "t",
        "e"
      ],
      [
        "r",
        "i"
      ],
      [
        "i",
        "n"
      ],
      [
        "u",
        "l"
      ],
      [
        "l",
        "e"
      ],
      [
        "a",
        "t"
      ],
      [
        "î",
        "n"
      ],
      [
        "s",
        "t"
      ],
      [
        "c",
        "e"
      ],
      [
        "o",
        "r"
      ],
      [
        "u",
        "n"
      ],
      [
        "a",
        "n"
      ],
      [
        "ș",
        "i"
      ],
      [
        "a",
        "r"
      ],
      [
        "a",
        "l"
      ],
      [
        "e",
        "n"
      ],
      [
        "ț",
        "i"
      ],
      [
        "o",
        "n"
      ],
      [
        "a",
        "re"
      ],
      [
        "s",
        "e"
      ],
      [
        "c",
        "u"
      ],
      [
        "i",
        "t"
      ],
      [
        "i",
        "c"
      ],
      [
        "p",
        "e"
      ],
      [
        "u",
        "i"
      ],
      [
        "l",
        "a"
      ],
      [
        "r",
        "a"
      ],
      [
        "m",
        "a"
      ],
      [
        "r",
        "o"
      ],
      [
        "d",
        "in"
      ],
      [
        "i",
        "e"
      ],
      [
        "r",
        "u"
      ],
      [
        "a",
        "u"
      ],
      [
        "s",
        "te"
      ],
      [
        "t",
        "i"
      ],
      [
        "m",
        "e"
      ],
      [
        "â",
        "n"
      ],
      [
        "a",
        "te"
      ],
      [
        "s",
        "ă"
      ],
      [
        "c",
        "ă"
      ],
      [
        "i",
        "l"
      ],
      [
        "c",
        "o"
      ],
      [
        "en",
        "t"
      ],
      [
        "c",
        "a"
      ],
      [
        "f",
        "o"
      ],
      [
        "ul",
        "ui"
      ],
      [
        "d",
        "i"
      ],
      [
        "v",
        "e"
      ],
      [
        "c",
        "i"
      ],
      [
        "p",
        "o"
      ],
      [
        "o",
        "ri"
      ],
      [
        "c",
        "on"
      ],
      [
        "m",
        "p"
      ],
      [
        "c",
        "are"
      ],
      [
        "l",
        "o"
      ],
      [
        "r",
        "ă"
      ],
      [
        "p",
        "ri"
      ],
      [
        "s",
        "i"
      ],
      [
        "fo",
        "st"
      ],
      [
        "d",
        "u"
      ],
      [
        "t",
        "re"
      ],
      [
        "s",
        "u"
      ],
      [
        "n",
        "u"
      ],
      [
        "a",
        "le"
      ],
      [
        "l",
        "or"
      ],
      [
        "e",
        "ste"
      ],
      [
        "p",
        "re"
      ],
      [
        "l",
        "i"
      ],
      [
        "t",
        "ă"
      ],
      [
        "l",
        "u"
      ],
      [
        "a",
        "ce"
      ],
      [
        "f",
        "e"
      ],
      [
        "p",
        "ro"
      ],
      [
        "ma",
        "i"
      ],
      [
        "at",
        "ă"
      ],
      [
        "f",
        "i"
      ],
      [
        "e",
        "a"
      ],
      [
        "u",
        "r"
      ],
      [
        "c",
        "h"
      ],
      [
        "Î",
        "n"
      ],
      [
        "a",
        "ți"
      ],
      [
        "d",
        "o"
      ],
      [
        "i",
        "i"
      ],
      [
        "t",
        "o"
      ],
      [
        "ent",
        "ru"
      ],
      [
        "p",
        "ă"
      ],
      [
        "e",
        "i"
      ],
      [
        "p",
        "u"
      ],
      [
        "e",
        "r"
      ],
      [
        "p",
        "entru"
      ],
      [
        "i",
        "a"
      ],
      [
        "a",
        "c"
      ],
      [
        "1",
        "9"
      ],
      [
        "u",
        "ri"
      ],
      [
        "a",
        "m"
      ],
      [
        "re",
        "a"
      ],
      [
        "m",
        "i"
      ],
      [
        "m",
        "ul"
      ],
      [
        "z",
        "i"
      ],
      [
        "n",
        "e"
      ],
      [
        "are",
        "a"
      ],
      [
        "c",
        "t"
      ],
      [
        "m",
        "o"
      ],
      [
        "z",
        "ă"
      ],
      [
        "l",
        "ui"
      ],
      [
        "m",
        "ă"
      ],
      [
        "ân",
        "d"
      ],
      [
        "m",
        "b"
      ],
      [
        "v",
        "i"
      ],
      [
        "e",
        "x"
      ],
      [
        "2",
        "0"
      ],
      [
        "p",
        "ar"
      ],
      [
        "s",
        "o"
      ],
      [
        "e",
        "le"
      ],
      [
        "s",
        "c"
      ],
      [
        "t",
        "r"
      ],
      [
        "v",
        "a"
      ],
      [
        "ic",
        "i"
      ],
      [
        "te",
        "r"
      ],
      [
        "ți",
        "i"
      ],
      [
        "u",
        "t"
      ],
      [
        "an",
        "i"
      ],
      [
        "in",
        "e"
      ],
      [
        "f",
        "or"
      ],
      [
        "ic",
        "ă"
      ],
      [
        "al",
        "ă"
      ],
      [
        "a",
        "b"
      ],
      [
        "ch",
        "i"
      ],
      [
        "ț",
        "ă"
      ],
      [
        "pri",
        "n"
      ],
      [
        "m",
        "en"
      ],
      [
        "ri",
        "e"
      ],
      [
        "ș",
        "ti"
      ],
      [
        "n",
        "i"
      ],
      [
        "g",
        "e"
      ],
      [
        "a",
        "st"
      ],
      [
        "o",
        "l"
      ],
      [
        "g",
        "i"
      ],
      [
        "al",
        "i"
      ],
      [
        "m",
        "an"
      ],
      [
        "s",
        "a"
      ],
      [
        "ri",
        "i"
      ],
      [
        "t",
        "ul"
      ],
      [
        "it",
        "ă"
      ],
      [
        "m",
        "ân"
      ],
      [
        "un",
        "t"
      ],
      [
        "n",
        "o"
      ],
      [
        "a",
        "d"
      ],
      [
        "ș",
        "te"
      ],
      [
        "i",
        "le"
      ],
      [
        "s",
        "p"
      ],
      [
        "m",
        "in"
      ],
      [
        "z",
        "e"
      ],
      [
        "t",
        "a"
      ],
      [
        "e",
        "l"
      ],
      [
        "pe",
        "r"
      ],
      [
        "il",
        "or"
      ],
      [
        "s",
        "cu"
      ],
      [
        "s",
        "unt"
      ],
      [
        "it",
        "ate"
      ],
      [
        "g",
        "ă"
      ],
      [
        "ț",
        "a"
      ],
      [
        "ve",
        "r"
      ],
      [
        "in",
        "d"
      ],
      [
        "i",
        "st"
      ],
      [
        "c",
        "â"
      ],
      [
        "c",
        "ul"
      ],
      [
        "e",
        "ra"
      ],
      [
        "a",
        "p"
      ],
      [
        "m",
        "at"
      ],
      [
        "un",
        "e"
      ],
      [
        "l",
        "ă"
      ],
      [
        "ți",
        "a"
      ],
      [
        "s",
        "au"
      ],
      [
        "t",
        "ori"
      ],
      [
        "ar",
        "ă"
      ],
      [
        "b",
        "i"
      ],
      [
        "v",
        "en"
      ],
      [
        "pe",
        "ri"
      ],
      [
        "t",
        "u"
      ],
      [
        "c",
        "re"
      ],
      [
        "a",
        "se"
      ],
      [
        "ți",
        "e"
      ],
      [
        "0",
        "0"
      ],
      [
        "t",
        "ate"
      ],
      [
        "a",
        "v"
      ],
      [
        "te",
        "a"
      ],
      [
        "ti",
        "mp"
      ],
      [
        "a",
        "j"
      ],
      [
        "i",
        "ar"
      ],
      [
        ")",
        "."
      ],
      [
        "ri",
        "le"
      ],
      [
        "ace",
        "st"
      ],
      [
        "m",
        "ent"
      ],
      [
        "de",
        "s"
      ],
      [
        "r",
        "at"
      ],
      [
        "t",
        "ri"
      ],
      [
        "v",
        "ă"
      ],
      [
        "t",
        "ra"
      ],
      [
        "p",
        "ul"
      ],
      [
        "în",
        "ce"
      ],
      [
        "te",
        "ri"
      ],
      [
        "D",
        "e"
      ],
      [
        "te",
        "le"
      ],
      [
        "ce",
        "n"
      ],
      [
        "s",
        "pe"
      ],
      [
        "t",
        "or"
      ],
      [
        "l",
        "ic"
      ],
      [
        "l",
        "an"
      ],
      [
        "a",
        "ri"
      ],
      [
        "ie",
        "i"
      ],
      [
        "â",
        "r"
      ],
      [
        "g",
        "u"
      ],
      [
        "v",
        "o"
      ],
      [
        "t",
        "in"
      ],
      [
        "ce",
        "le"
      ],
      [
        "d",
        "a"
      ],
      [
        "ț",
        "in"
      ],
      [
        "d",
        "ar"
      ],
      [
        "20",
        "0"
      ],
      [
        "f",
        "ă"
      ],
      [
        "g",
        "ra"
      ],
      [
        "r",
        "an"
      ],
      [
        "d",
        "at"
      ],
      [
        "b",
        "o"
      ],
      [
        "g",
        "en"
      ],
      [
        "m",
        "un"
      ],
      [
        "u",
        "ă"
      ],
      [
        "1",
        "8"
      ],
      [
        "t",
        "at"
      ],
      [
        "a",
        "ș"
      ],
      [
        "p",
        "i"
      ],
      [
        "R",
        "o"
      ],
      [
        "r",
        "ul"
      ],
      [
        "pre",
        "z"
      ],
      [
        "f",
        "ic"
      ],
      [
        "în",
        "tre"
      ],
      [
        "o",
        "are"
      ],
      [
        "co",
        "mp"
      ],
      [
        "h",
        "i"
      ],
      [
        "ân",
        "ă"
      ],
      [
        "ț",
        "e"
      ],
      [
        "b",
        "u"
      ],
      [
        "m",
        "it"
      ],
      [
        "su",
        "b"
      ],
      [
        "a",
        "ve"
      ],
      [
        "de",
        "n"
      ],
      [
        "h",
        "e"
      ],
      [
        "m",
        "are"
      ],
      [
        "a",
        "f"
      ],
      [
        "d",
        "ă"
      ],
      [
        "s",
        "ul"
      ],
      [
        "se",
        "ri"
      ],
      [
        "A",
        "ce"
      ],
      [
        "an",
        "e"
      ],
      [
        "f",
        "ie"
      ],
      [
        "lo",
        "c"
      ],
      [
        "p",
        "ra"
      ],
      [
        "f",
        "a"
      ],
      [
        "o",
        "b"
      ],
      [
        "st",
        "i"
      ],
      [
        "me",
        "le"
      ],
      [
        "p",
        "a"
      ],
      [
        "il",
        "i"
      ],
      [
        "R",
        "e"
      ],
      [
        "in",
        "te"
      ],
      [
        "lo",
        "cu"
      ],
      [
        "z",
        "a"
      ],
      [
        "du",
        "pă"
      ],
      [
        "C",
        "o"
      ],
      [
        "un",
        "i"
      ],
      [
        "st",
        "ru"
      ],
      [
        "20",
        "1"
      ],
      [
        "or",
        "t"
      ],
      [
        "it",
        "u"
      ],
      [
        "ți",
        "on"
      ],
      [
        "a",
        "i"
      ],
      [
        "a",
        "s"
      ],
      [
        "s",
        "at"
      ],
      [
        "l",
        "ul"
      ],
      [
        "an",
        "ul"
      ],
      [
        "in",
        "i"
      ],
      [
        "m",
        "n"
      ],
      [
        "m",
        "ar"
      ],
      [
        "L",
        "a"
      ],
      [
        ")",
        ","
      ],
      [
        "fi",
        "ind"
      ],
      [
        "cu",
        "m"
      ],
      [
        "fe",
        "ri"
      ],
      [
        "o",
        "s"
      ],
      [
        "c",
        "un"
      ],
      [
        "b",
        "ă"
      ],
      [
        "din",
        "tre"
      ],
      [
        "D",
        "u"
      ],
      [
        "itate",
        "a"
      ],
      [
        "C",
        "on"
      ],
      [
        "c",
        "at"
      ],
      [
        "ast",
        "ă"
      ],
      [
        "m",
        "on"
      ],
      [
        "n",
        "ă"
      ],
      [
        "t",
        "uri"
      ],
      [
        "i",
        "mp"
      ],
      [
        "n",
        "a"
      ],
      [
        "lu",
        "c"
      ],
      [
        "in",
        "ter"
      ],
      [
        "ce",
        "a"
      ],
      [
        "j",
        "u"
      ],
      [
        "or",
        "ul"
      ],
      [
        "ace",
        "ste"
      ],
      [
        "do",
        "uă"
      ],
      [
        "ti",
        "v"
      ],
      [
        "z",
        "at"
      ],
      [
        "p",
        "ie"
      ],
      [
        "câ",
        "t"
      ],
      [
        "it",
        "ori"
      ],
      [
        "at",
        "i"
      ],
      [
        "in",
        "g"
      ],
      [
        "pu",
        "b"
      ],
      [
        "în",
        "tr"
      ],
      [
        "or",
        "d"
      ],
      [
        "fe",
        "l"
      ],
      [
        "I",
        "n"
      ],
      [
        "o",
        "c"
      ],
      [
        "u",
        "s"
      ],
      [
        "c",
        "ând"
      ],
      [
        "P",
        "e"
      ],
      [
        "cun",
        "o"
      ],
      [
        "p",
        "ână"
      ],
      [
        "b",
        "a"
      ],
      [
        "su",
        "pra"
      ],
      [
        "ce",
        "l"
      ],
      [
        "ați",
        "e"
      ],
      [
        "f",
        "un"
      ],
      [
        "a",
        "pro"
      ],
      [
        "sc",
        "ri"
      ],
      [
        "par",
        "te"
      ],
      [
        "î",
        "mp"
      ],
      [
        "ar",
        "te"
      ],
      [
        "a",
        "g"
      ],
      [
        "d",
        "ic"
      ],
      [
        "fo",
        "lo"
      ],
      [
        "m",
        "u"
      ],
      [
        "mb",
        "rie"
      ],
      [
        "p",
        "at"
      ],
      [
        "ș",
        "e"
      ],
      [
        "t",
        "ic"
      ],
      [
        "ave",
        "a"
      ],
      [
        "st",
        "a"
      ],
      [
        "po",
        "pul"
      ],
      [
        "să",
        "u"
      ],
      [
        "un",
        "ă"
      ],
      [
        "z",
        "on"
      ],
      [
        "p",
        "t"
      ],
      [
        "ea",
        "ză"
      ],
      [
        "ri",
        "n"
      ],
      [
        "re",
        "n"
      ],
      [
        "s",
        "on"
      ],
      [
        "mul",
        "te"
      ],
      [
        "cu",
        "r"
      ],
      [
        "re",
        "gi"
      ],
      [
        "prez",
        "ent"
      ],
      [
        "v",
        "in"
      ],
      [
        "am",
        "en"
      ],
      [
        "le",
        "a"
      ],
      [
        "ri",
        "lor"
      ],
      [
        "an",
        "t"
      ],
      [
        "s",
        "ale"
      ],
      [
        "pu",
        "t"
      ],
      [
        "un",
        "ea"
      ],
      [
        "c",
        "ar"
      ],
      [
        "ab",
        "il"
      ],
      [
        "po",
        "ate"
      ],
      [
        "po",
        "l"
      ],
      [
        "l",
        "un"
      ],
      [
        "ați",
        "on"
      ],
      [
        "an",
        "u"
      ],
      [
        "l",
        "in"
      ],
      [
        "b",
        "e"
      ],
      [
        "A",
        "n"
      ],
      [
        "d",
        "ată"
      ],
      [
        "f",
        "in"
      ],
      [
        "b",
        "il"
      ],
      [
        "19",
        "9"
      ],
      [
        "pro",
        "du"
      ],
      [
        "f",
        "il"
      ],
      [
        "un",
        "ui"
      ],
      [
        "P",
        "o"
      ],
      [
        "un",
        "de"
      ],
      [
        "spe",
        "ci"
      ],
      [
        "ch",
        "e"
      ],
      [
        "p",
        "or"
      ],
      [
        "s",
        "că"
      ],
      [
        "or",
        "g"
      ],
      [
        "ce",
        "s"
      ],
      [
        "st",
        "at"
      ],
      [
        "te",
        "n"
      ],
      [
        "un",
        "ei"
      ],
      [
        "pub",
        "lic"
      ],
      [
        "B",
        "i"
      ],
      [
        "co",
        "mun"
      ],
      [
        "t",
        "ro"
      ],
      [
        "peri",
        "o"
      ],
      [
        "de",
        "z"
      ],
      [
        "că",
        "tre"
      ],
      [
        "lo",
        "g"
      ],
      [
        "r",
        "on"
      ],
      [
        "se",
        "r"
      ],
      [
        "c",
        "lu"
      ],
      [
        "d",
        "re"
      ],
      [
        "A",
        "r"
      ],
      [
        "o",
        "m"
      ],
      [
        "t",
        "ului"
      ],
      [
        "ce",
        "i"
      ],
      [
        "men",
        "ea"
      ],
      [
        "ar",
        "a"
      ],
      [
        "cu",
        "t"
      ],
      [
        "to",
        "ate"
      ],
      [
        "I",
        "I"
      ],
      [
        "tr",
        "an"
      ],
      [
        "ați",
        "a"
      ],
      [
        "or",
        "aș"
      ],
      [
        "S",
        "e"
      ],
      [
        "t",
        "ur"
      ],
      [
        "h",
        "o"
      ],
      [
        "uri",
        "le"
      ],
      [
        "Du",
        "pă"
      ],
      [
        "me",
        "a"
      ],
      [
        "f",
        "u"
      ],
      [
        "ase",
        "menea"
      ],
      [
        "st",
        "ă"
      ],
      [
        "ven",
        "it"
      ],
      [
        "ită",
        "ți"
      ],
      [
        "an",
        "ă"
      ],
      [
        "av",
        "ut"
      ],
      [
        "al",
        "te"
      ],
      [
        "al",
        "ul"
      ],
      [
        "g",
        "in"
      ],
      [
        "U",
        "n"
      ],
      [
        "co",
        "l"
      ],
      [
        "ți",
        "ei"
      ],
      [
        "de",
        "r"
      ],
      [
        "ri",
        "t"
      ],
      [
        "co",
        "p"
      ],
      [
        "ri",
        "c"
      ],
      [
        "ț",
        "ele"
      ],
      [
        "ic",
        "a"
      ],
      [
        "d",
        "ul"
      ],
      [
        "ur",
        "mă"
      ],
      [
        "s",
        "it"
      ],
      [
        "st",
        "u"
      ],
      [
        "a",
        "pă"
      ],
      [
        "g",
        "a"
      ],
      [
        "al",
        "a"
      ],
      [
        "ân",
        "du"
      ],
      [
        "b",
        "er"
      ],
      [
        "”",
        "."
      ],
      [
        "en",
        "e"
      ],
      [
        "cuno",
        "scu"
      ],
      [
        "i",
        "s"
      ],
      [
        "e",
        "t"
      ],
      [
        "ț",
        "ine"
      ],
      [
        "A",
        "l"
      ],
      [
        "c",
        "in"
      ],
      [
        "ace",
        "astă"
      ],
      [
        "nu",
        "me"
      ],
      [
        "to",
        "are"
      ],
      [
        "ați",
        "i"
      ],
      [
        "B",
        "u"
      ],
      [
        "tate",
        "a"
      ],
      [
        "C",
        "u"
      ],
      [
        "g",
        "re"
      ],
      [
        "a",
        "de"
      ],
      [
        "E",
        "l"
      ],
      [
        "mul",
        "t"
      ],
      [
        "g",
        "at"
      ],
      [
        "o",
        "f"
      ],
      [
        "c",
        "or"
      ],
      [
        "g",
        "o"
      ],
      [
        "locu",
        "itori"
      ],
      [
        "to",
        "t"
      ],
      [
        "ci",
        "p"
      ],
      [
        "v",
        "or"
      ],
      [
        "ui",
        "e"
      ],
      [
        "în",
        "t"
      ],
      [
        "du",
        "ce"
      ],
      [
        "v",
        "re"
      ],
      [
        "po",
        "t"
      ],
      [
        "Ro",
        "mân"
      ],
      [
        "ro",
        "mân"
      ],
      [
        "an",
        "d"
      ],
      [
        "tre",
        "i"
      ],
      [
        "v",
        "ol"
      ],
      [
        "s",
        "pre"
      ],
      [
        "fun",
        "c"
      ],
      [
        "x",
        "i"
      ],
      [
        "st",
        "an"
      ],
      [
        "g",
        "er"
      ],
      [
        "for",
        "ma"
      ],
      [
        "st",
        "r"
      ],
      [
        "timp",
        "ul"
      ],
      [
        "l",
        "at"
      ],
      [
        "v",
        "ie"
      ],
      [
        "n",
        "ici"
      ],
      [
        "ali",
        "z"
      ],
      [
        "a",
        "me"
      ],
      [
        "U",
        "ni"
      ],
      [
        "m",
        "il"
      ],
      [
        "u",
        "ro"
      ],
      [
        "do",
        "ar"
      ],
      [
        "for",
        "m"
      ],
      [
        "T",
        "o"
      ],
      [
        "ce",
        "r"
      ],
      [
        "C",
        "h"
      ],
      [
        "a",
        "po"
      ],
      [
        "1",
        "7"
      ],
      [
        "z",
        "bo"
      ],
      [
        "seri",
        "ca"
      ],
      [
        "perio",
        "ad"
      ],
      [
        "ca",
        "p"
      ],
      [
        "ast",
        "a"
      ],
      [
        "de",
        "p"
      ],
      [
        "a",
        "pe"
      ],
      [
        "m",
        "ului"
      ],
      [
        "1",
        "0"
      ],
      [
        "am",
        "ent"
      ],
      [
        "g",
        "ru"
      ],
      [
        "1",
        "5"
      ],
      [
        "am",
        "il"
      ],
      [
        "fo",
        "arte"
      ],
      [
        "era",
        "u"
      ],
      [
        "v",
        "it"
      ],
      [
        "con",
        "si"
      ],
      [
        "mi",
        "te"
      ],
      [
        "”",
        ","
      ],
      [
        "po",
        "zi"
      ],
      [
        "s",
        "en"
      ],
      [
        "u",
        "a"
      ],
      [
        "t",
        "ru"
      ],
      [
        "c",
        "la"
      ],
      [
        "on",
        "e"
      ],
      [
        "înce",
        "put"
      ],
      [
        "me",
        "di"
      ],
      [
        "e",
        "chi"
      ],
      [
        "D",
        "in"
      ],
      [
        "î",
        "l"
      ],
      [
        "con",
        "tin"
      ],
      [
        "n",
        "ațion"
      ],
      [
        "î",
        "i"
      ],
      [
        "on",
        "i"
      ],
      [
        "me",
        "mb"
      ],
      [
        "g",
        "ul"
      ],
      [
        "ci",
        "i"
      ],
      [
        "u",
        "ra"
      ],
      [
        "z",
        "ul"
      ],
      [
        "S",
        "u"
      ],
      [
        "c",
        "au"
      ],
      [
        "al",
        "t"
      ],
      [
        "ist",
        "ori"
      ],
      [
        "i",
        "ul"
      ],
      [
        "un",
        "a"
      ],
      [
        "o",
        "cu"
      ],
      [
        "c",
        "al"
      ],
      [
        "de",
        "a"
      ],
      [
        "pol",
        "it"
      ],
      [
        "i",
        "v"
      ],
      [
        "t",
        "it"
      ],
      [
        "st",
        "ul"
      ],
      [
        "me",
        "r"
      ],
      [
        "s",
        "chi"
      ],
      [
        "19",
        "4"
      ],
      [
        "an",
        "ii"
      ],
      [
        "l",
        "ar"
      ],
      [
        "că",
        "r"
      ],
      [
        "re",
        "c"
      ],
      [
        "ra",
        "te"
      ],
      [
        "p",
        "te"
      ],
      [
        "su",
        "s"
      ],
      [
        "v",
        "al"
      ],
      [
        "si",
        "ste"
      ],
      [
        "E",
        "ste"
      ],
      [
        "ex",
        "ist"
      ],
      [
        "men",
        "te"
      ],
      [
        "ver",
        "s"
      ],
      [
        "gen",
        "er"
      ],
      [
        "p",
        "un"
      ],
      [
        "pri",
        "ma"
      ],
      [
        "du",
        "s"
      ],
      [
        "00",
        "0"
      ],
      [
        "ar",
        "ti"
      ],
      [
        "a",
        "co"
      ],
      [
        "nu",
        "mă"
      ],
      [
        "19",
        "8"
      ],
      [
        "st",
        "ri"
      ],
      [
        "i",
        "ce"
      ],
      [
        "org",
        "ani"
      ],
      [
        "t",
        "ie"
      ],
      [
        "ex",
        "e"
      ],
      [
        "f",
        "amil"
      ],
      [
        "î",
        "și"
      ],
      [
        "f",
        "ap"
      ],
      [
        "p",
        "tă"
      ],
      [
        "li",
        "mb"
      ],
      [
        "v",
        "ia"
      ],
      [
        "u",
        "ti"
      ],
      [
        "C",
        "a"
      ],
      [
        "ma",
        "ri"
      ],
      [
        "în",
        "să"
      ],
      [
        "M",
        "e"
      ],
      [
        "con",
        "stru"
      ],
      [
        "1",
        "6"
      ],
      [
        "aj",
        "un"
      ],
      [
        "de",
        "venit"
      ],
      [
        "n",
        "at"
      ],
      [
        "ven",
        "i"
      ],
      [
        "st",
        "ră"
      ],
      [
        "ții",
        "le"
      ],
      [
        "f",
        "ace"
      ],
      [
        "tre",
        "b"
      ],
      [
        "prin",
        "cip"
      ],
      [
        "p",
        "lan"
      ],
      [
        "pro",
        "pri"
      ],
      [
        "19",
        "7"
      ],
      [
        "ț",
        "ei"
      ],
      [
        "nu",
        "mele"
      ],
      [
        "fa",
        "ță"
      ],
      [
        "h",
        "a"
      ],
      [
        "imp",
        "ort"
      ],
      [
        "ită",
        "ții"
      ],
      [
        "â",
        "t"
      ],
      [
        "c",
        "ri"
      ],
      [
        "g",
        "h"
      ],
      [
        "s",
        "in"
      ],
      [
        "so",
        "ci"
      ],
      [
        "un",
        "ul"
      ],
      [
        "L",
        "e"
      ],
      [
        "m",
        "ii"
      ],
      [
        "di",
        "s"
      ],
      [
        "in",
        "clu"
      ],
      [
        "ca",
        "d"
      ],
      [
        "t",
        "ră"
      ],
      [
        "apo",
        "i"
      ],
      [
        "pe",
        "ste"
      ],
      [
        "Bi",
        "serica"
      ],
      [
        "m",
        "po"
      ],
      [
        "ast",
        "fel"
      ],
      [
        "l",
        "ie"
      ],
      [
        "M",
        "i"
      ],
      [
        "fă",
        "ră"
      ],
      [
        "P",
        "ro"
      ],
      [
        "înt",
        "â"
      ],
      [
        "tran",
        "s"
      ],
      [
        "an",
        "te"
      ],
      [
        "de",
        "cât"
      ],
      [
        "M",
        "a"
      ],
      [
        "ră",
        "zbo"
      ],
      [
        "c",
        "te"
      ],
      [
        "1",
        "2"
      ],
      [
        "vi",
        "z"
      ],
      [
        "schi",
        "mb"
      ],
      [
        "an",
        "a"
      ],
      [
        "A",
        "u"
      ],
      [
        "D",
        "o"
      ],
      [
        "re",
        "ști"
      ],
      [
        "des",
        "pre"
      ],
      [
        "ser",
        "v"
      ],
      [
        "ce",
        "p"
      ],
      [
        "se",
        "mn"
      ],
      [
        "pu",
        "s"
      ],
      [
        "pro",
        "b"
      ],
      [
        "P",
        "ri"
      ],
      [
        "T",
        "e"
      ],
      [
        "stu",
        "di"
      ],
      [
        "m",
        "ic"
      ],
      [
        "m",
        "or"
      ],
      [
        "un",
        "ci"
      ],
      [
        "o",
        "amen"
      ],
      [
        "L",
        "i"
      ],
      [
        "v",
        "âr"
      ],
      [
        "s",
        "f"
      ],
      [
        "teri",
        "or"
      ],
      [
        "tă",
        "ți"
      ],
      [
        "un",
        "ii"
      ],
      [
        "un",
        "or"
      ],
      [
        "vo",
        "lu"
      ],
      [
        "19",
        "6"
      ],
      [
        "en",
        "i"
      ],
      [
        "ru",
        "t"
      ],
      [
        "țin",
        "ut"
      ],
      [
        "min",
        "ist"
      ],
      [
        "o",
        "ane"
      ],
      [
        "ac",
        "tiv"
      ],
      [
        "so",
        "l"
      ],
      [
        "co",
        "le"
      ],
      [
        "nu",
        "mit"
      ],
      [
        "ț",
        "at"
      ],
      [
        "do",
        "i"
      ],
      [
        "consi",
        "de"
      ],
      [
        "di",
        "feri"
      ],
      [
        "în",
        "că"
      ],
      [
        "s",
        "co"
      ],
      [
        "in",
        "ă"
      ],
      [
        "re",
        "u"
      ],
      [
        "N",
        "u"
      ],
      [
        "o",
        "p"
      ],
      [
        "per",
        "so"
      ],
      [
        "mo",
        "d"
      ],
      [
        "N",
        "e"
      ],
      [
        "at",
        "ul"
      ],
      [
        "t",
        "on"
      ],
      [
        "fe",
        "ct"
      ],
      [
        "par",
        "t"
      ],
      [
        "lo",
        "cul"
      ],
      [
        "t",
        "âr"
      ],
      [
        "par",
        "tea"
      ],
      [
        "mi",
        "s"
      ],
      [
        "3",
        "0"
      ],
      [
        "c",
        "an"
      ],
      [
        "pri",
        "mul"
      ],
      [
        "S",
        "i"
      ],
      [
        "în",
        "a"
      ],
      [
        "dez",
        "vol"
      ],
      [
        "a",
        "rie"
      ],
      [
        "per",
        "son"
      ],
      [
        "me",
        "i"
      ],
      [
        "câ",
        "te"
      ],
      [
        "L",
        "u"
      ],
      [
        "rea",
        "ză"
      ],
      [
        "c",
        "ti"
      ],
      [
        "1",
        "4"
      ],
      [
        "P",
        "rin"
      ],
      [
        "in",
        "a"
      ],
      [
        "pre",
        "cum"
      ],
      [
        "aceste",
        "a"
      ],
      [
        "loc",
        "al"
      ],
      [
        "bi",
        "seri"
      ],
      [
        "ie",
        "ct"
      ],
      [
        "af",
        "lă"
      ],
      [
        "or",
        "a"
      ],
      [
        "m",
        "uri"
      ],
      [
        "zi",
        "le"
      ],
      [
        "t",
        "ată"
      ],
      [
        "uti",
        "li"
      ],
      [
        "ați",
        "ei"
      ],
      [
        "ma",
        "te"
      ],
      [
        "de",
        "re"
      ],
      [
        "a",
        "supra"
      ],
      [
        "Bu",
        "cu"
      ],
      [
        "fă",
        "cut"
      ],
      [
        "C",
        "ar"
      ],
      [
        "ter",
        "min"
      ],
      [
        "D",
        "i"
      ],
      [
        "ie",
        "r"
      ],
      [
        "ro",
        "man"
      ],
      [
        "pu",
        "țin"
      ],
      [
        "o",
        "re"
      ],
      [
        "an",
        "g"
      ],
      [
        "an",
        "ului"
      ],
      [
        "at",
        "unci"
      ],
      [
        "se",
        "a"
      ],
      [
        "de",
        "c"
      ],
      [
        "o",
        "a"
      ],
      [
        "ex",
        "p"
      ],
      [
        "a",
        "si"
      ],
      [
        "e",
        "li"
      ],
      [
        "zi",
        "u"
      ],
      [
        "pu",
        "te"
      ],
      [
        "scu",
        "r"
      ],
      [
        "mu",
        "z"
      ],
      [
        "f",
        "ra"
      ],
      [
        "ar",
        "d"
      ],
      [
        "o",
        "v"
      ],
      [
        "se",
        "le"
      ],
      [
        "Bucu",
        "rești"
      ],
      [
        "popul",
        "ație"
      ],
      [
        "n",
        "ic"
      ],
      [
        "1",
        "3"
      ],
      [
        "M",
        "ar"
      ],
      [
        "vi",
        "zi"
      ],
      [
        "for",
        "mat"
      ],
      [
        "P",
        "re"
      ],
      [
        "in",
        "tă"
      ],
      [
        "pe",
        "re"
      ],
      [
        "f",
        "ici"
      ],
      [
        "ți",
        "lor"
      ],
      [
        "den",
        "t"
      ],
      [
        "F",
        "ran"
      ],
      [
        "b",
        "or"
      ],
      [
        "19",
        "5"
      ],
      [
        "pă",
        "r"
      ],
      [
        "ct",
        "or"
      ],
      [
        "B",
        "o"
      ],
      [
        "su",
        "r"
      ],
      [
        "gu",
        "ver"
      ],
      [
        "tu",
        "ra"
      ],
      [
        "câ",
        "ști"
      ],
      [
        "j",
        "ur"
      ],
      [
        "o",
        "bi"
      ],
      [
        "tr",
        "at"
      ],
      [
        "tori",
        "i"
      ],
      [
        "mi",
        "si"
      ],
      [
        "luc",
        "ru"
      ],
      [
        "P",
        "entru"
      ],
      [
        "v",
        "ine"
      ],
      [
        "sc",
        "ul"
      ],
      [
        "prez",
        "intă"
      ],
      [
        "scri",
        "s"
      ],
      [
        "o",
        "log"
      ],
      [
        "șe",
        "din"
      ],
      [
        "fie",
        "care"
      ],
      [
        "s",
        "itu"
      ],
      [
        "ri",
        "a"
      ],
      [
        "ori",
        "i"
      ],
      [
        "d",
        "ie"
      ],
      [
        "târ",
        "ziu"
      ],
      [
        "E",
        "x"
      ],
      [
        "și",
        "t"
      ],
      [
        "mil",
        "it"
      ],
      [
        "M",
        "o"
      ],
      [
        "i",
        "u"
      ],
      [
        "ui",
        "a"
      ],
      [
        "su",
        "c"
      ],
      [
        "ce",
        "lor"
      ],
      [
        "le",
        "x"
      ],
      [
        "f",
        "on"
      ],
      [
        "no",
        "u"
      ],
      [
        "\"",
        "."
      ],
      [
        "sf",
        "âr"
      ],
      [
        "st",
        "in"
      ],
      [
        "p",
        "ic"
      ],
      [
        "ur",
        "ma"
      ],
      [
        "războ",
        "i"
      ],
      [
        "ul",
        "ti"
      ],
      [
        "it",
        "or"
      ],
      [
        "as",
        "că"
      ],
      [
        "ger",
        "man"
      ],
      [
        "ment",
        "ul"
      ],
      [
        "ca",
        "z"
      ],
      [
        "at",
        "a"
      ],
      [
        "le",
        "g"
      ],
      [
        "c",
        "ân"
      ],
      [
        "ma",
        "j"
      ],
      [
        "f",
        "ran"
      ],
      [
        "s",
        "ing"
      ],
      [
        "S",
        "o"
      ],
      [
        "fi",
        "r"
      ],
      [
        "\"",
        ","
      ],
      [
        "re",
        "g"
      ],
      [
        "pro",
        "fe"
      ],
      [
        "gener",
        "al"
      ],
      [
        "de",
        "ce"
      ],
      [
        "b",
        "ine"
      ],
      [
        "re",
        "prezent"
      ],
      [
        "ace",
        "la"
      ],
      [
        "ste",
        "n"
      ],
      [
        "E",
        "uro"
      ],
      [
        "ă",
        "r"
      ],
      [
        "c",
        "ție"
      ],
      [
        "u",
        "ră"
      ],
      [
        "ma",
        "s"
      ],
      [
        "spe",
        "ct"
      ],
      [
        "perioad",
        "a"
      ],
      [
        "d",
        "ra"
      ],
      [
        "chi",
        "ar"
      ],
      [
        "ace",
        "ea"
      ],
      [
        "ni",
        "ve"
      ],
      [
        "u",
        "ș"
      ],
      [
        "d",
        "ate"
      ],
      [
        "contin",
        "u"
      ],
      [
        "p",
        "la"
      ],
      [
        "da",
        "că"
      ],
      [
        "t",
        "al"
      ],
      [
        "de",
        "ci"
      ],
      [
        "fi",
        "in"
      ],
      [
        "st",
        "it"
      ],
      [
        "o",
        "ară"
      ],
      [
        "ile",
        "a"
      ],
      [
        "at",
        "ât"
      ],
      [
        "st",
        "itu"
      ],
      [
        "acest",
        "a"
      ],
      [
        "f",
        "ac"
      ],
      [
        "împ",
        "re"
      ],
      [
        "ale",
        "s"
      ],
      [
        "tor",
        "ul"
      ],
      [
        "m",
        "ili"
      ],
      [
        "ii",
        "le"
      ],
      [
        "2",
        "5"
      ],
      [
        "st",
        "ra"
      ],
      [
        "pat",
        "ru"
      ],
      [
        "ce",
        "re"
      ],
      [
        "re",
        "sp"
      ],
      [
        "ti",
        "ce"
      ],
      [
        "ce",
        "ea"
      ],
      [
        "c",
        "tiv"
      ],
      [
        "t",
        "are"
      ],
      [
        "J",
        "o"
      ],
      [
        "b",
        "un"
      ],
      [
        "gu",
        "st"
      ],
      [
        "pie",
        "r"
      ],
      [
        "Român",
        "ia"
      ],
      [
        "si",
        "v"
      ],
      [
        "m",
        "ită"
      ],
      [
        "oare",
        "ce"
      ],
      [
        "an",
        "ia"
      ],
      [
        "fa",
        "ța"
      ],
      [
        "ș",
        "co"
      ],
      [
        "î",
        "mpo"
      ],
      [
        "c",
        "ate"
      ],
      [
        "D",
        "a"
      ],
      [
        "f",
        "ică"
      ],
      [
        "diferi",
        "te"
      ],
      [
        "tu",
        "ră"
      ],
      [
        "ți",
        "al"
      ],
      [
        "că",
        "să"
      ],
      [
        "re",
        "i"
      ],
      [
        "dre",
        "pt"
      ],
      [
        "co",
        "m"
      ],
      [
        "cad",
        "rul"
      ],
      [
        "19",
        "3"
      ],
      [
        "k",
        "i"
      ],
      [
        "al",
        "b"
      ],
      [
        "xi",
        "mat"
      ],
      [
        "f",
        "lu"
      ],
      [
        "des",
        "chi"
      ],
      [
        "exe",
        "mp"
      ],
      [
        "re",
        "le"
      ],
      [
        "fe",
        "r"
      ],
      [
        "i",
        "de"
      ],
      [
        "201",
        "1"
      ],
      [
        "li",
        "ce"
      ],
      [
        "i",
        "on"
      ],
      [
        "scu",
        "t"
      ],
      [
        "c",
        "ția"
      ],
      [
        "e",
        "st"
      ],
      [
        "ori",
        "tă"
      ],
      [
        "sc",
        "rie"
      ],
      [
        "a",
        "ște"
      ],
      [
        "exist",
        "ă"
      ],
      [
        "ximat",
        "iv"
      ],
      [
        "a",
        "par"
      ],
      [
        "n",
        "ord"
      ],
      [
        "j",
        "a"
      ],
      [
        "ci",
        "u"
      ],
      [
        "treb",
        "uie"
      ],
      [
        "T",
        "he"
      ],
      [
        "f",
        "r"
      ],
      [
        "organi",
        "z"
      ],
      [
        "i",
        "z"
      ],
      [
        "îna",
        "inte"
      ],
      [
        "ț",
        "ul"
      ],
      [
        "N",
        "o"
      ],
      [
        "for",
        "mă"
      ],
      [
        "di",
        "re"
      ],
      [
        "împo",
        "tri"
      ],
      [
        "v",
        "ân"
      ],
      [
        "uri",
        "lor"
      ],
      [
        "fe",
        "ră"
      ],
      [
        "i",
        "m"
      ],
      [
        "r",
        "â"
      ],
      [
        "co",
        "man"
      ],
      [
        "am",
        "b"
      ],
      [
        "pro",
        "te"
      ],
      [
        "aj",
        "ut"
      ],
      [
        "te",
        "h"
      ],
      [
        "E",
        "d"
      ],
      [
        "m",
        "ani"
      ],
      [
        "cop",
        "ii"
      ],
      [
        "k",
        "e"
      ],
      [
        "c",
        "ie"
      ],
      [
        "mul",
        "ți"
      ],
      [
        "ști",
        "in"
      ],
      [
        "re",
        "cen"
      ],
      [
        "car",
        "ac"
      ],
      [
        "Ace",
        "st"
      ],
      [
        "acela",
        "și"
      ],
      [
        "ar",
        "ul"
      ],
      [
        "ad",
        "minist"
      ],
      [
        "pri",
        "mit"
      ],
      [
        "de",
        "o"
      ],
      [
        "re",
        "st"
      ],
      [
        "1",
        "1"
      ],
      [
        "ati",
        "v"
      ],
      [
        "i",
        "r"
      ],
      [
        "part",
        "ici"
      ],
      [
        "si",
        "on"
      ],
      [
        "al",
        "tă"
      ],
      [
        "o",
        "gra"
      ],
      [
        "împotri",
        "va"
      ],
      [
        "al",
        "bu"
      ],
      [
        "M",
        "on"
      ],
      [
        "o",
        "ase"
      ],
      [
        "cen",
        "tr"
      ],
      [
        "tea",
        "ză"
      ],
      [
        "nu",
        "mai"
      ],
      [
        "ace",
        "asta"
      ],
      [
        "u",
        "te"
      ],
      [
        "un",
        "ele"
      ],
      [
        "apro",
        "ape"
      ],
      [
        "si",
        "bil"
      ],
      [
        "c",
        "k"
      ],
      [
        "cunoscu",
        "t"
      ],
      [
        "ic",
        "ii"
      ],
      [
        "b",
        "ul"
      ],
      [
        "înce",
        "r"
      ],
      [
        "câte",
        "va"
      ],
      [
        "guver",
        "n"
      ],
      [
        "j",
        "e"
      ],
      [
        "b",
        "ile"
      ],
      [
        "și",
        "tul"
      ],
      [
        "me",
        "tri"
      ],
      [
        "fran",
        "ce"
      ],
      [
        "ste",
        "a"
      ],
      [
        "împre",
        "ună"
      ],
      [
        "ci",
        "r"
      ],
      [
        "apro",
        "ximativ"
      ],
      [
        "z",
        "it"
      ],
      [
        "luc",
        "ră"
      ],
      [
        "c",
        "ți"
      ],
      [
        "t",
        "area"
      ],
      [
        "st",
        "rat"
      ],
      [
        "k",
        "m"
      ],
      [
        "P",
        "ar"
      ],
      [
        "ce",
        "tă"
      ],
      [
        "con",
        "tra"
      ],
      [
        "F",
        "ile"
      ],
      [
        "con",
        "tro"
      ],
      [
        "in",
        "di"
      ],
      [
        "le",
        "mn"
      ],
      [
        "p",
        "le"
      ],
      [
        "cau",
        "za"
      ],
      [
        "pun",
        "ct"
      ],
      [
        "un",
        "ile"
      ],
      [
        "pu",
        "tea"
      ],
      [
        "ma",
        "g"
      ],
      [
        "M",
        "u"
      ],
      [
        "z",
        "ii"
      ],
      [
        "e",
        "con"
      ],
      [
        "mi",
        "ș"
      ],
      [
        "M",
        "ari"
      ],
      [
        "s",
        "ate"
      ],
      [
        "m",
        "ici"
      ],
      [
        "sat",
        "ul"
      ],
      [
        "con",
        "s"
      ],
      [
        "si",
        "a"
      ],
      [
        "mo",
        "de"
      ],
      [
        "prob",
        "le"
      ],
      [
        "sfâr",
        "șitul"
      ],
      [
        "în",
        "chi"
      ],
      [
        "g",
        "ur"
      ],
      [
        "n",
        "or"
      ],
      [
        "li",
        "p"
      ],
      [
        "R",
        "O"
      ],
      [
        "des",
        "co"
      ],
      [
        "e",
        "d"
      ],
      [
        "200",
        "9"
      ],
      [
        "pu",
        "ter"
      ],
      [
        "o",
        "le"
      ],
      [
        "au",
        "to"
      ],
      [
        "căsă",
        "tori"
      ],
      [
        "ame",
        "ric"
      ],
      [
        "at",
        "or"
      ],
      [
        "u",
        "ci"
      ],
      [
        "e",
        "ro"
      ],
      [
        "S",
        "f"
      ],
      [
        "b",
        "ru"
      ],
      [
        "speci",
        "al"
      ],
      [
        "li",
        "ter"
      ],
      [
        "de",
        "oarece"
      ],
      [
        "fi",
        "ce"
      ],
      [
        "o",
        "t"
      ],
      [
        "înce",
        "pu"
      ],
      [
        "pe",
        "ra"
      ],
      [
        "l",
        "ân"
      ],
      [
        "de",
        "rea"
      ],
      [
        "întâ",
        "l"
      ],
      [
        "ne",
        "ces"
      ],
      [
        "Ace",
        "astă"
      ],
      [
        "ali",
        "zat"
      ],
      [
        "p",
        "une"
      ],
      [
        "cu",
        "ri"
      ],
      [
        "5",
        "0"
      ],
      [
        "O",
        "r"
      ],
      [
        "in",
        "du"
      ],
      [
        "lu",
        "at"
      ],
      [
        "p",
        "ort"
      ],
      [
        "no",
        "i"
      ],
      [
        "su",
        "d"
      ],
      [
        "o",
        "dată"
      ],
      [
        "perso",
        "ane"
      ],
      [
        "pu",
        "ri"
      ],
      [
        "sp",
        "i"
      ],
      [
        "r",
        "ului"
      ],
      [
        "perioad",
        "ă"
      ],
      [
        "teri",
        "tori"
      ],
      [
        "of",
        "ici"
      ],
      [
        "b",
        "it"
      ],
      [
        "mili",
        "oane"
      ],
      [
        "ri",
        "dic"
      ],
      [
        "re",
        "z"
      ],
      [
        "do",
        "ua"
      ],
      [
        "v",
        "ic"
      ],
      [
        "ea",
        "scă"
      ],
      [
        "va",
        "ri"
      ],
      [
        "folo",
        "si"
      ],
      [
        "st",
        "ic"
      ],
      [
        "un",
        "g"
      ],
      [
        "ră",
        "sp"
      ],
      [
        "r",
        "ând"
      ],
      [
        "d",
        "ru"
      ],
      [
        "av",
        "ând"
      ],
      [
        "re",
        "s"
      ],
      [
        "pe",
        "i"
      ],
      [
        "ac",
        "ți"
      ],
      [
        "en",
        "ța"
      ],
      [
        "folo",
        "sit"
      ],
      [
        "s",
        "al"
      ],
      [
        "at",
        "ac"
      ],
      [
        "cre",
        "ște"
      ],
      [
        "ca",
        "de"
      ],
      [
        "re",
        "aliz"
      ],
      [
        "do",
        "men"
      ],
      [
        "E",
        "a"
      ],
      [
        "m",
        "ică"
      ],
      [
        "k",
        "a"
      ],
      [
        "re",
        "zul"
      ],
      [
        "ve",
        "chi"
      ],
      [
        "R",
        "u"
      ],
      [
        "di",
        "a"
      ],
      [
        "oamen",
        "i"
      ],
      [
        "z",
        "ut"
      ],
      [
        "în",
        "regi"
      ],
      [
        "nume",
        "ro"
      ],
      [
        "M",
        "ai"
      ],
      [
        "oraș",
        "ului"
      ],
      [
        "G",
        "er"
      ],
      [
        "si",
        "mp"
      ],
      [
        "l",
        "ică"
      ],
      [
        "v",
        "an"
      ],
      [
        "A",
        "d"
      ],
      [
        "ad",
        "ă"
      ],
      [
        "oc",
        "to"
      ],
      [
        "î",
        "mb"
      ],
      [
        "g",
        "ri"
      ],
      [
        "e",
        "z"
      ],
      [
        "un",
        "ie"
      ],
      [
        "ar",
        "tă"
      ],
      [
        "p",
        "lă"
      ],
      [
        "re",
        "la"
      ],
      [
        "G",
        "e"
      ],
      [
        "v",
        "ent"
      ],
      [
        "e",
        "pi"
      ],
      [
        "r",
        "are"
      ],
      [
        "te",
        "lor"
      ],
      [
        "2",
        "4"
      ],
      [
        "F",
        "e"
      ],
      [
        "re",
        "li"
      ],
      [
        "b",
        "al"
      ],
      [
        "dat",
        "a"
      ],
      [
        "po",
        "ve"
      ],
      [
        "utili",
        "z"
      ],
      [
        "aș",
        "a"
      ],
      [
        "lun",
        "gi"
      ],
      [
        "g",
        "le"
      ],
      [
        "nu",
        "mi"
      ],
      [
        "t",
        "ine"
      ],
      [
        "se",
        "i"
      ],
      [
        "lan",
        "sat"
      ],
      [
        "s",
        "or"
      ],
      [
        "do",
        "ve"
      ],
      [
        "di",
        "stru"
      ],
      [
        "ju",
        "de"
      ],
      [
        "pri",
        "e"
      ],
      [
        "i",
        "unie"
      ],
      [
        "R",
        "a"
      ],
      [
        "ic",
        "o"
      ],
      [
        "L",
        "o"
      ],
      [
        "e",
        "fect"
      ],
      [
        "s",
        "cen"
      ],
      [
        "pre",
        "ședin"
      ],
      [
        "func",
        "țion"
      ],
      [
        "pte",
        "mbrie"
      ],
      [
        "tre",
        "cut"
      ],
      [
        "con",
        "du"
      ],
      [
        "A",
        "st"
      ],
      [
        "ex",
        "i"
      ],
      [
        "octo",
        "mbrie"
      ],
      [
        "gru",
        "p"
      ],
      [
        "ori",
        "tatea"
      ],
      [
        "en",
        "er"
      ],
      [
        "cin",
        "ci"
      ],
      [
        "P",
        "a"
      ],
      [
        "dece",
        "mbrie"
      ],
      [
        "af",
        "la"
      ],
      [
        "turi",
        "le"
      ],
      [
        "c",
        "it"
      ],
      [
        "începu",
        "tul"
      ],
      [
        "care",
        "a"
      ],
      [
        "tă",
        "ții"
      ],
      [
        "sp",
        "une"
      ],
      [
        "n",
        "it"
      ],
      [
        "co",
        "mer"
      ],
      [
        "t",
        "h"
      ],
      [
        "ca",
        "le"
      ],
      [
        "se",
        "ptembrie"
      ],
      [
        "ș",
        "tin"
      ],
      [
        "ti",
        "ve"
      ],
      [
        "iul",
        "ie"
      ],
      [
        "a",
        "pri"
      ],
      [
        "limb",
        "a"
      ],
      [
        "S",
        "t"
      ],
      [
        "obi",
        "cei"
      ],
      [
        "R",
        "ă"
      ],
      [
        "or",
        "din"
      ],
      [
        "T",
        "i"
      ],
      [
        "uri",
        "i"
      ],
      [
        "p",
        "lu"
      ],
      [
        "suc",
        "ces"
      ],
      [
        "o",
        "d"
      ],
      [
        "muri",
        "t"
      ],
      [
        "b",
        "ur"
      ],
      [
        "P",
        "ă"
      ],
      [
        "să",
        "i"
      ],
      [
        "se",
        "col"
      ],
      [
        "ră",
        "mân"
      ],
      [
        "M",
        "ol"
      ],
      [
        "i",
        "anu"
      ],
      [
        "ori",
        "a"
      ],
      [
        "me",
        "dic"
      ],
      [
        "Ace",
        "sta"
      ],
      [
        "r",
        "ată"
      ],
      [
        "dre",
        "p"
      ],
      [
        "C",
        "or"
      ],
      [
        "si",
        "une"
      ],
      [
        "ați",
        "ile"
      ],
      [
        "mar",
        "tie"
      ],
      [
        "dec",
        "lar"
      ],
      [
        "mo",
        "der"
      ],
      [
        "apri",
        "lie"
      ],
      [
        "deo",
        "se"
      ],
      [
        "co",
        "lul"
      ],
      [
        "se",
        "ște"
      ],
      [
        "rit",
        "an"
      ],
      [
        "cunoscu",
        "tă"
      ],
      [
        "lu",
        "ri"
      ],
      [
        "inter",
        "pre"
      ],
      [
        "dep",
        "en"
      ],
      [
        "p",
        "en"
      ],
      [
        "m",
        "ut"
      ],
      [
        "r",
        "b"
      ],
      [
        "V",
        "i"
      ],
      [
        "comp",
        "le"
      ],
      [
        "o",
        "an"
      ],
      [
        "au",
        "gust"
      ],
      [
        "ma",
        "teri"
      ],
      [
        "Uni",
        "vers"
      ],
      [
        "ie",
        "mbrie"
      ],
      [
        "fic",
        "at"
      ],
      [
        "2",
        "3"
      ],
      [
        "ele",
        "ct"
      ],
      [
        "pro",
        "gra"
      ],
      [
        "e",
        "uro"
      ],
      [
        "II",
        "I"
      ],
      [
        "fap",
        "tul"
      ],
      [
        "e",
        "ta"
      ],
      [
        "s",
        "la"
      ],
      [
        "ca",
        "mp"
      ],
      [
        "d",
        "an"
      ],
      [
        "se",
        "rie"
      ],
      [
        "se",
        "se"
      ],
      [
        "pro",
        "iect"
      ],
      [
        "ti",
        "p"
      ],
      [
        "ge",
        "rea"
      ],
      [
        "tu",
        "și"
      ],
      [
        "desco",
        "peri"
      ],
      [
        "p",
        "ur"
      ],
      [
        "aceste",
        "i"
      ],
      [
        "o",
        "area"
      ],
      [
        "ac",
        "t"
      ],
      [
        "no",
        "iembrie"
      ],
      [
        "fe",
        "ren"
      ],
      [
        "B",
        "a"
      ],
      [
        "n",
        "r"
      ],
      [
        "te",
        "x"
      ],
      [
        "an",
        "tă"
      ],
      [
        "di",
        "o"
      ],
      [
        "mi",
        "j"
      ],
      [
        "pro",
        "ce"
      ],
      [
        "par",
        "ti"
      ],
      [
        "au",
        "tori"
      ],
      [
        "mă",
        "su"
      ],
      [
        "2",
        "2"
      ],
      [
        "g",
        "he"
      ],
      [
        "st",
        "il"
      ],
      [
        "și",
        "i"
      ],
      [
        "ori",
        "gin"
      ],
      [
        "do",
        "ilea"
      ],
      [
        "ba",
        "z"
      ],
      [
        "ră",
        "mas"
      ],
      [
        "memb",
        "ru"
      ],
      [
        "di",
        "al"
      ],
      [
        "Con",
        "form"
      ],
      [
        "c",
        "lă"
      ],
      [
        "ic",
        "ul"
      ],
      [
        "lân",
        "gă"
      ],
      [
        "d",
        "ului"
      ],
      [
        "ități",
        "le"
      ],
      [
        "via",
        "ță"
      ],
      [
        "fe",
        "me"
      ],
      [
        "numă",
        "r"
      ],
      [
        "on",
        "ul"
      ],
      [
        "e",
        "s"
      ],
      [
        "ă",
        "l"
      ],
      [
        "în",
        "fiin"
      ],
      [
        "con",
        "str"
      ],
      [
        "ag",
        "a"
      ],
      [
        "ianu",
        "arie"
      ],
      [
        "b",
        "an"
      ],
      [
        "la",
        "bor"
      ],
      [
        "națion",
        "al"
      ],
      [
        "ori",
        "ce"
      ],
      [
        "Ast",
        "fel"
      ],
      [
        "si",
        "unea"
      ],
      [
        "2",
        "1"
      ],
      [
        "k",
        "o"
      ],
      [
        "ar",
        "tea"
      ],
      [
        "ci",
        "a"
      ],
      [
        "dat",
        "orită"
      ],
      [
        "H",
        "o"
      ],
      [
        "li",
        "a"
      ],
      [
        "apă",
        "rut"
      ],
      [
        "u",
        "tă"
      ],
      [
        "tra",
        "di"
      ],
      [
        "ajun",
        "s"
      ],
      [
        "oa",
        "să"
      ],
      [
        "în",
        "vă"
      ],
      [
        "ve",
        "st"
      ],
      [
        "me",
        "die"
      ],
      [
        "via",
        "ța"
      ],
      [
        "te",
        "i"
      ],
      [
        "itu",
        "din"
      ],
      [
        "mă",
        "nă"
      ],
      [
        "român",
        "e"
      ],
      [
        "z",
        "ia"
      ],
      [
        "re",
        "tra"
      ],
      [
        "200",
        "8"
      ],
      [
        "v",
        "at"
      ],
      [
        "stru",
        "ct"
      ],
      [
        "ab",
        "ile"
      ],
      [
        "De",
        "și"
      ],
      [
        "4",
        "0"
      ],
      [
        "r",
        "area"
      ],
      [
        "se",
        "zon"
      ],
      [
        "ap",
        "are"
      ],
      [
        "ve",
        "dere"
      ],
      [
        "mea",
        "ză"
      ],
      [
        "din",
        "tr"
      ],
      [
        "no",
        "uă"
      ],
      [
        "secol",
        "ului"
      ],
      [
        "a",
        "mp"
      ],
      [
        "mân",
        "tului"
      ],
      [
        "e",
        "vre"
      ],
      [
        "de",
        "și"
      ],
      [
        "mân",
        "t"
      ],
      [
        "ar",
        "hi"
      ],
      [
        "exemp",
        "lu"
      ],
      [
        "m",
        "ată"
      ],
      [
        "n",
        "ea"
      ],
      [
        "con",
        "di"
      ],
      [
        "ri",
        "ca"
      ],
      [
        "ament",
        "ul"
      ],
      [
        "p",
        "ta"
      ],
      [
        "oraș",
        "ul"
      ],
      [
        "do",
        "cu"
      ],
      [
        "înce",
        "pe"
      ],
      [
        "C",
        "e"
      ],
      [
        "po",
        "sibil"
      ],
      [
        "N",
        "ațion"
      ],
      [
        "lo",
        "gi"
      ],
      [
        "re",
        "vi"
      ],
      [
        "re",
        "prezintă"
      ],
      [
        "du",
        "ri"
      ],
      [
        "re",
        "fu"
      ],
      [
        "țe",
        "lor"
      ],
      [
        "in",
        "flu"
      ],
      [
        "ob",
        "ie"
      ],
      [
        "se",
        "m"
      ],
      [
        "a",
        "cu"
      ],
      [
        "Ger",
        "man"
      ],
      [
        "lu",
        "ptă"
      ],
      [
        "n",
        "ică"
      ],
      [
        "a",
        "vi"
      ],
      [
        "inte",
        "n"
      ],
      [
        "le",
        "gi"
      ],
      [
        "a",
        "do"
      ],
      [
        "în",
        "țele"
      ],
      [
        "ist",
        "ă"
      ],
      [
        "numă",
        "rul"
      ],
      [
        "me",
        "lor"
      ],
      [
        "gu",
        "ră"
      ],
      [
        "aco",
        "peri"
      ],
      [
        "pe",
        "le"
      ],
      [
        "in",
        "sul"
      ],
      [
        "po",
        "st"
      ],
      [
        "sp",
        "ați"
      ],
      [
        "econ",
        "om"
      ],
      [
        "an",
        "ta"
      ],
      [
        "numero",
        "ase"
      ],
      [
        "cap",
        "it"
      ],
      [
        "se",
        "colul"
      ],
      [
        "princip",
        "al"
      ],
      [
        "2",
        "7"
      ],
      [
        "ac",
        "tu"
      ],
      [
        "zon",
        "a"
      ],
      [
        "f",
        "ul"
      ],
      [
        "M",
        "are"
      ],
      [
        "ca",
        "să"
      ],
      [
        "păr",
        "ți"
      ],
      [
        "sing",
        "ur"
      ],
      [
        "mi",
        "ce"
      ],
      [
        "reu",
        "șit"
      ],
      [
        "A",
        "lex"
      ],
      [
        "F",
        "il"
      ],
      [
        "li",
        "ber"
      ],
      [
        "c",
        "ine"
      ],
      [
        "ști",
        "i"
      ],
      [
        "B",
        "e"
      ],
      [
        "fil",
        "m"
      ],
      [
        "re",
        "spe"
      ],
      [
        "g",
        "ră"
      ],
      [
        "u",
        "m"
      ],
      [
        "a",
        "ici"
      ],
      [
        "r",
        "y"
      ],
      [
        "prin",
        "tre"
      ],
      [
        "itu",
        "ra"
      ],
      [
        "mo",
        "artea"
      ],
      [
        "la",
        "s"
      ],
      [
        "a",
        "ză"
      ],
      [
        "ști",
        "a"
      ],
      [
        "f",
        "le"
      ],
      [
        "po",
        "li"
      ],
      [
        "ma",
        "le"
      ],
      [
        "19",
        "0"
      ],
      [
        "ati",
        "ve"
      ],
      [
        "g",
        "ro"
      ],
      [
        "s",
        "m"
      ],
      [
        "me",
        "ci"
      ],
      [
        "b",
        "ra"
      ],
      [
        "de",
        "le"
      ],
      [
        "z",
        "o"
      ],
      [
        "G",
        "u"
      ],
      [
        "v",
        "ale"
      ],
      [
        "ni",
        "ce"
      ],
      [
        "t",
        "ab"
      ],
      [
        "2",
        "6"
      ],
      [
        "se",
        "x"
      ],
      [
        "cu",
        "prin"
      ],
      [
        "În",
        "tre"
      ],
      [
        "person",
        "aj"
      ],
      [
        "2",
        "8"
      ],
      [
        "al",
        "ți"
      ],
      [
        "con",
        "duce"
      ],
      [
        "carac",
        "teri"
      ],
      [
        "an",
        "ilor"
      ],
      [
        "an",
        "ță"
      ],
      [
        "vâr",
        "sta"
      ],
      [
        "n",
        "er"
      ],
      [
        "Ace",
        "asta"
      ],
      [
        "i",
        "ve"
      ],
      [
        "ur",
        "mare"
      ],
      [
        "al",
        "ului"
      ],
      [
        "ade",
        "vă"
      ],
      [
        "D",
        "ar"
      ],
      [
        "u",
        "man"
      ],
      [
        "ie",
        "ri"
      ],
      [
        "gu",
        "ra"
      ],
      [
        "ne",
        "vo"
      ],
      [
        "ș",
        "ul"
      ],
      [
        "ț",
        "u"
      ],
      [
        "on",
        "at"
      ],
      [
        "lu",
        "me"
      ],
      [
        "J",
        "u"
      ],
      [
        "că",
        "lă"
      ],
      [
        "X",
        "V"
      ],
      [
        "e",
        "veni"
      ],
      [
        "pri",
        "v"
      ],
      [
        "Ace",
        "ste"
      ],
      [
        "ur",
        "mat"
      ],
      [
        "at",
        "ra"
      ],
      [
        "c",
        "ali"
      ],
      [
        "ale",
        "le"
      ],
      [
        "F",
        "or"
      ],
      [
        "di",
        "ver"
      ],
      [
        "bă",
        "rb"
      ],
      [
        "ba",
        "za"
      ],
      [
        "câști",
        "gat"
      ],
      [
        "nive",
        "l"
      ],
      [
        "recen",
        "să"
      ],
      [
        "exi",
        "sten"
      ],
      [
        "di",
        "fic"
      ],
      [
        "re",
        "zi"
      ],
      [
        "mat",
        "a"
      ],
      [
        "li",
        "i"
      ],
      [
        "cur",
        "sul"
      ],
      [
        "te",
        "ct"
      ],
      [
        "pri",
        "j"
      ],
      [
        "so",
        "cie"
      ],
      [
        "ter",
        "men"
      ],
      [
        "jur",
        "ul"
      ],
      [
        "6",
        "0"
      ],
      [
        "pra",
        "ct"
      ],
      [
        "p",
        "are"
      ],
      [
        "ad",
        "a"
      ],
      [
        "vre",
        "me"
      ],
      [
        "bru",
        "arie"
      ],
      [
        "d",
        "it"
      ],
      [
        "fap",
        "t"
      ],
      [
        "per",
        "at"
      ],
      [
        "ace",
        "a"
      ],
      [
        "men",
        "tele"
      ],
      [
        "un",
        "d"
      ],
      [
        "c",
        "ra"
      ],
      [
        "tre",
        "ce"
      ],
      [
        "p",
        "tat"
      ],
      [
        "ui",
        "te"
      ],
      [
        "te",
        "mp"
      ],
      [
        "ca",
        "zul"
      ],
      [
        "ac",
        "ul"
      ],
      [
        "acest",
        "ui"
      ],
      [
        "C",
        "ele"
      ],
      [
        "s",
        "prij"
      ],
      [
        "le",
        "r"
      ],
      [
        "d",
        "ro"
      ],
      [
        "fe",
        "bruarie"
      ],
      [
        "aceea",
        "și"
      ],
      [
        "on",
        "ia"
      ],
      [
        "ate",
        "le"
      ],
      [
        "m",
        "ie"
      ],
      [
        "Co",
        "mun"
      ],
      [
        "C",
        "ând"
      ],
      [
        "In",
        "ter"
      ],
      [
        "ac",
        "ce"
      ],
      [
        "in",
        "tro"
      ],
      [
        "cop",
        "il"
      ],
      [
        "a",
        "cum"
      ],
      [
        "re",
        "l"
      ],
      [
        "an",
        "ti"
      ],
      [
        "re",
        "gul"
      ],
      [
        "se",
        "c"
      ],
      [
        "P",
        "ol"
      ],
      [
        "ar",
        "tic"
      ],
      [
        "lun",
        "gul"
      ],
      [
        "A",
        "me"
      ],
      [
        "E",
        "le"
      ],
      [
        "mo",
        "ment"
      ],
      [
        "2",
        "9"
      ],
      [
        "po",
        "zit"
      ],
      [
        "ut",
        "ul"
      ],
      [
        "pă",
        "ră"
      ],
      [
        "feri",
        "n"
      ],
      [
        "Uni",
        "te"
      ],
      [
        "W",
        "il"
      ],
      [
        "națion",
        "ale"
      ],
      [
        "X",
        "I"
      ],
      [
        "g",
        "ar"
      ],
      [
        "b",
        "ar"
      ],
      [
        "a",
        "și"
      ],
      [
        "nu",
        "mită"
      ],
      [
        "fă",
        "ș"
      ],
      [
        "co",
        "lo"
      ],
      [
        "o",
        "pera"
      ],
      [
        "en",
        "gle"
      ],
      [
        "201",
        "0"
      ],
      [
        "f",
        "ab"
      ],
      [
        "s",
        "cop"
      ],
      [
        "ap",
        "te"
      ],
      [
        "te",
        "m"
      ],
      [
        "se",
        "sc"
      ],
      [
        "ap",
        "lic"
      ],
      [
        "ș",
        "u"
      ],
      [
        "de",
        "termin"
      ],
      [
        "8",
        "0"
      ],
      [
        "al",
        "itate"
      ],
      [
        "su",
        "ri"
      ],
      [
        "ori",
        "e"
      ],
      [
        "comer",
        "ci"
      ],
      [
        "S",
        "a"
      ],
      [
        "ex",
        "peri"
      ],
      [
        "le",
        "s"
      ],
      [
        "al",
        "itatea"
      ],
      [
        "re",
        "ște"
      ],
      [
        "h",
        "an"
      ],
      [
        "Re",
        "public"
      ],
      [
        "a",
        "să"
      ],
      [
        "st",
        "abil"
      ],
      [
        "ți",
        "ilor"
      ],
      [
        "ju",
        "că"
      ],
      [
        "B",
        "ar"
      ],
      [
        "acest",
        "uia"
      ],
      [
        "c",
        "ru"
      ],
      [
        "nă",
        "scut"
      ],
      [
        "depen",
        "den"
      ],
      [
        "f",
        "an"
      ],
      [
        "lu",
        "j"
      ],
      [
        "le",
        "gă"
      ],
      [
        "f",
        "ru"
      ],
      [
        "si",
        "m"
      ],
      [
        "200",
        "7"
      ],
      [
        "tran",
        "sp"
      ],
      [
        "M",
        "un"
      ],
      [
        "cuno",
        "aște"
      ],
      [
        "A",
        "t"
      ],
      [
        "te",
        "re"
      ],
      [
        "200",
        "6"
      ],
      [
        "apro",
        "pie"
      ],
      [
        "public",
        "at"
      ],
      [
        "at",
        "ului"
      ],
      [
        "de",
        "numi"
      ],
      [
        "d",
        "or"
      ],
      [
        "F",
        "i"
      ],
      [
        "in",
        "forma"
      ],
      [
        "cre",
        "at"
      ],
      [
        "l",
        "y"
      ],
      [
        "ac",
        "ord"
      ],
      [
        "S",
        "tate"
      ],
      [
        "g",
        "ând"
      ],
      [
        "1",
        "00"
      ],
      [
        "a",
        "fir"
      ],
      [
        "inclu",
        "siv"
      ],
      [
        "ț",
        "ară"
      ],
      [
        "l",
        "uni"
      ],
      [
        "ne",
        "le"
      ],
      [
        "ju",
        "mă"
      ],
      [
        "folo",
        "s"
      ],
      [
        "des",
        "făș"
      ],
      [
        "sti",
        "ce"
      ],
      [
        "z",
        "are"
      ],
      [
        "de",
        "ri"
      ],
      [
        "pro",
        "mo"
      ],
      [
        "b",
        "ună"
      ],
      [
        "p",
        "it"
      ],
      [
        "18",
        "9"
      ],
      [
        "func",
        "ție"
      ],
      [
        "c",
        "le"
      ],
      [
        "z",
        "ie"
      ]
    ]
  }
}