{
  "version": "1.0",
  "truncation": null,
  "padding": null,
  "added_tokens": [
    {
      "id": 0,
      "content": "<UNK>",
      "single_word": false,
      "lstrip": false,
      "rstrip": false,
      "normalized": false,
      "special": true
    },
    {
      "id": 1,
      "content": "<SEP>",
      "single_word": false,
      "lstrip": false,
      "rstrip": false,
      "normalized": false,
      "special": true
    },
    {
      "id": 2,
      "content": "<MASK>",
      "single_word": false,
      "lstrip": false,
      "rstrip": false,
      "normalized": false,
      "special": true
    },
    {
      "id": 3,
      "content": "<CLS>",
      "single_word": false,
      "lstrip": false,
      "rstrip": false,
      "normalized": false,
      "special": true
    }
  ],
  "normalizer": null,
  "pre_tokenizer": {
    "type": "Whitespace"
  },
  "post_processor": null,
  "decoder": null,
  "model": {
    "type": "BPE",
    "dropout": null,
    "unk_token": "<UNK>",
    "continuing_subword_prefix": null,
    "end_of_word_suffix": null,
    "fuse_unk": false,
    "byte_fallback": false,
    "ignore_merges": false,
    "vocab": {
      "<UNK>": 0,
      "<SEP>": 1,
      "<MASK>": 2,
      "<CLS>": 3,
      "!": 4,
      "\"": 5,
      "$": 6,
      "%": 7,
      "&": 8,
      "'": 9,
      "(": 10,
      ")": 11,
      "*": 12,
      "+": 13,
      ",": 14,
      "-": 15,
      ".": 16,
      "/": 17,
      "0": 18,
      "1": 19,
      "2": 20,
      "3": 21,
      "4": 22,
      "5": 23,
      "6": 24,
      "7": 25,
      "8": 26,
      "9": 27,
      ":": 28,
      ";": 29,
      "<": 30,
      ">": 31,
      "?": 32,
      "`": 33,
      "a": 34,
      "b": 35,
      "c": 36,
      "d": 37,
      "e": 38,
      "f": 39,
      "g": 40,
      "h": 41,
      "i": 42,
      "j": 43,
      "k": 44,
      "l": 45,
      "m": 46,
      "n": 47,
      "o": 48,
      "p": 49,
      "q": 50,
      "r": 51,
      "s": 52,
      "t": 53,
      "u": 54,
      "v": 55,
      "w": 56,
      "x": 57,
      "y": 58,
      "z": 59,
      "~": 60,
      "£": 61,
      "§": 62,
      "¨": 63,
      "ª": 64,
      "«": 65,
      "®": 66,
      "°": 67,
      "±": 68,
      "²": 69,
      "³": 70,
      "´": 71,
      "µ": 72,
      "·": 73,
      "¹": 74,
      "º": 75,
      "»": 76,
      "¼": 77,
      "½": 78,
      "¾": 79,
      "×": 80,
      "ß": 81,
      "à": 82,
      "á": 83,
      "â": 84,
      "ã": 85,
      "ä": 86,
      "å": 87,
      "æ": 88,
      "ç": 89,
      "è": 90,
      "é": 91,
      "ê": 92,
      "ë": 93,
      "ì": 94,
      "í": 95,
      "î": 96,
      "ï": 97,
      "ð": 98,
      "ñ": 99,
      "ò": 100,
      "ó": 101,
      "ô": 102,
      "õ": 103,
      "ö": 104,
      "÷": 105,
      "ø": 106,
      "ù": 107,
      "ú": 108,
      "û": 109,
      "ü": 110,
      "ý": 111,
      "þ": 112,
      "ÿ": 113,
      "ā": 114,
      "ă": 115,
      "ą": 116,
      "ć": 117,
      "č": 118,
      "ď": 119,
      "đ": 120,
      "ē": 121,
      "ĕ": 122,
      "ė": 123,
      "ę": 124,
      "ě": 125,
      "ğ": 126,
      "ġ": 127,
      "ģ": 128,
      "ħ": 129,
      "ĩ": 130,
      "ī": 131,
      "į": 132,
      "ı": 133,
      "ĳ": 134,
      "ļ": 135,
      "ľ": 136,
      "ł": 137,
      "ń": 138,
      "ņ": 139,
      "ň": 140,
      "ŋ": 141,
      "ō": 142,
      "ŏ": 143,
      "ő": 144,
      "œ": 145,
      "ř": 146,
      "ś": 147,
      "ŝ": 148,
      "ş": 149,
      "š": 150,
      "ţ": 151,
      "ť": 152,
      "ū": 153,
      "ŭ": 154,
      "ů": 155,
      "ű": 156,
      "ų": 157,
      "ź": 158,
      "ż": 159,
      "ž": 160,
      "ſ": 161,
      "ơ": 162,
      "ư": 163,
      "ǎ": 164,
      "ǐ": 165,
      "ǔ": 166,
      "ǧ": 167,
      "ǿ": 168,
      "ȏ": 169,
      "ș": 170,
      "ț": 171,
      "ɐ": 172,
      "ɑ": 173,
      "ə": 174,
      "ɛ": 175,
      "ɲ": 176,
      "ʒ": 177,
      "ʹ": 178,
      "ʻ": 179,
      "ʼ": 180,
      "ʾ": 181,
      "ʿ": 182,
      "ˈ": 183,
      "ˌ": 184,
      "˚": 185,
      "˥": 186,
      "́": 187,
      "̂": 188,
      "̇": 189,
      "̓": 190,
      "ά": 191,
      "έ": 192,
      "ή": 193,
      "ί": 194,
      "α": 195,
      "β": 196,
      "γ": 197,
      "δ": 198,
      "ε": 199,
      "ζ": 200,
      "η": 201,
      "θ": 202,
      "ι": 203,
      "κ": 204,
      "λ": 205,
      "μ": 206,
      "ν": 207,
      "ξ": 208,
      "ο": 209,
      "π": 210,
      "ρ": 211,
      "ς": 212,
      "σ": 213,
      "τ": 214,
      "υ": 215,
      "φ": 216,
      "χ": 217,
      "ψ": 218,
      "ω": 219,
      "ό": 220,
      "ύ": 221,
      "ώ": 222,
      "ϑ": 223,
      "а": 224,
      "б": 225,
      "в": 226,
      "г": 227,
      "д": 228,
      "е": 229,
      "ж": 230,
      "з": 231,
      "и": 232,
      "й": 233,
      "к": 234,
      "л": 235,
      "м": 236,
      "н": 237,
      "о": 238,
      "п": 239,
      "р": 240,
      "с": 241,
      "т": 242,
      "у": 243,
      "ф": 244,
      "х": 245,
      "ц": 246,
      "ч": 247,
      "ш": 248,
      "щ": 249,
      "ъ": 250,
      "ы": 251,
      "ь": 252,
      "э": 253,
      "ю": 254,
      "я": 255,
      "ё": 256,
      "і": 257,
      "ј": 258,
      "ѳ": 259,
      "҃": 260,
      "ғ": 261,
      "қ": 262,
      "ә": 263,
      "՛": 264,
      "ա": 265,
      "բ": 266,
      "ե": 267,
      "թ": 268,
      "ի": 269,
      "ծ": 270,
      "կ": 271,
      "ձ": 272,
      "մ": 273,
      "ն": 274,
      "ո": 275,
      "տ": 276,
      "ր": 277,
      "ց": 278,
      "ւ": 279,
      "֣": 280,
      "ְ": 281,
      "ִ": 282,
      "ֵ": 283,
      "ֶ": 284,
      "ַ": 285,
      "ָ": 286,
      "ּ": 287,
      "א": 288,
      "ב": 289,
      "ג": 290,
      "ד": 291,
      "ה": 292,
      "ו": 293,
      "ז": 294,
      "ח": 295,
      "ט": 296,
      "י": 297,
      "ך": 298,
      "ל": 299,
      "ם": 300,
      "מ": 301,
      "ן": 302,
      "נ": 303,
      "ס": 304,
      "ע": 305,
      "פ": 306,
      "ץ": 307,
      "ק": 308,
      "ר": 309,
      "ש": 310,
      "ת": 311,
      "آ": 312,
      "أ": 313,
      "ا": 314,
      "ب": 315,
      "ة": 316,
      "ت": 317,
      "خ": 318,
      "د": 319,
      "ر": 320,
      "ز": 321,
      "س": 322,
      "ع": 323,
      "ق": 324,
      "ك": 325,
      "ل": 326,
      "م": 327,
      "ن": 328,
      "ه": 329,
      "و": 330,
      "ى": 331,
      "ي": 332,
      "پ": 333,
      "ژ": 334,
      "ک": 335,
      "ی": 336,
      "ې": 337,
      "क": 338,
      "ग": 339,
      "च": 340,
      "त": 341,
      "र": 342,
      "ा": 343,
      "ि": 344,
      "ै": 345,
      "्": 346,
      "আ": 347,
      "গ": 348,
      "চ": 349,
      "জ": 350,
      "ঞ": 351,
      "ন": 352,
      "প": 353,
      "ম": 354,
      "র": 355,
      "শ": 356,
      "স": 357,
      "া": 358,
      "ু": 359,
      "ো": 360,
      "্": 361,
      "க": 362,
      "ட": 363,
      "ண": 364,
      "ள": 365,
      "வ": 366,
      "ா": 367,
      "ு": 368,
      "ொ": 369,
      "்": 370,
      "ก": 371,
      "ง": 372,
      "ช": 373,
      "น": 374,
      "บ": 375,
      "ร": 376,
      "ศ": 377,
      "ั": 378,
      "า": 379,
      "ึ": 380,
      "้": 381,
      "་": 382,
      "ག": 383,
      "འ": 384,
      "ས": 385,
      "ི": 386,
      "ོ": 387,
      "ბ": 388,
      "ჩ": 389,
      "წ": 390,
      "ḍ": 391,
      "ḏ": 392,
      "ḗ": 393,
      "ḥ": 394,
      "ḫ": 395,
      "ḷ": 396,
      "ṇ": 397,
      "ṣ": 398,
      "ṭ": 399,
      "ṯ": 400,
      "ẓ": 401,
      "ạ": 402,
      "ả": 403,
      "ấ": 404,
      "ầ": 405,
      "ẩ": 406,
      "ậ": 407,
      "ắ": 408,
      "ẵ": 409,
      "ế": 410,
      "ề": 411,
      "ễ": 412,
      "ệ": 413,
      "ị": 414,
      "ọ": 415,
      "ố": 416,
      "ồ": 417,
      "ổ": 418,
      "ộ": 419,
      "ớ": 420,
      "ờ": 421,
      "ủ": 422,
      "ứ": 423,
      "ừ": 424,
      "ữ": 425,
      "ự": 426,
      "ỳ": 427,
      "ἀ": 428,
      "ἄ": 429,
      "ἐ": 430,
      "ἰ": 431,
      "ἶ": 432,
      "ὀ": 433,
      "ὁ": 434,
      "ὐ": 435,
      "ὴ": 436,
      "ὸ": 437,
      "ῆ": 438,
      "ῖ": 439,
      "ῦ": 440,
      "‐": 441,
      "‒": 442,
      "–": 443,
      "—": 444,
      "‘": 445,
      "’": 446,
      "‚": 447,
      "‛": 448,
      "“": 449,
      "”": 450,
      "„": 451,
      "†": 452,
      "•": 453,
      "…": 454,
      "‰": 455,
      "′": 456,
      "″": 457,
      "‹": 458,
      "›": 459,
      "⁄": 460,
      "⁵": 461,
      "₂": 462,
      "€": 463,
      "№": 464,
      "™": 465,
      "⅓": 466,
      "⅔": 467,
      "←": 468,
      "→": 469,
      "↔": 470,
      "⇑": 471,
      "⇓": 472,
      "−": 473,
      "∙": 474,
      "∞": 475,
      "≈": 476,
      "≠": 477,
      "≤": 478,
      "≥": 479,
      "⊆": 480,
      "▭": 481,
      "◎": 482,
      "☆": 483,
      "♠": 484,
      "♣": 485,
      "⚭": 486,
      "ⲏ": 487,
      "ⲕ": 488,
      "ⲧ": 489,
      "ⲱ": 490,
      "、": 491,
      "々": 492,
      "い": 493,
      "お": 494,
      "さ": 495,
      "て": 496,
      "の": 497,
      "は": 498,
      "ば": 499,
      "る": 500,
      "ろ": 501,
      "ん": 502,
      "ポ": 503,
      "㎡": 504,
      "丁": 505,
      "三": 506,
      "上": 507,
      "下": 508,
      "世": 509,
      "东": 510,
      "中": 511,
      "丰": 512,
      "丸": 513,
      "主": 514,
      "义": 515,
      "之": 516,
      "乙": 517,
      "乡": 518,
      "二": 519,
      "于": 520,
      "五": 521,
      "京": 522,
      "人": 523,
      "以": 524,
      "任": 525,
      "会": 526,
      "传": 527,
      "住": 528,
      "作": 529,
      "來": 530,
      "保": 531,
      "信": 532,
      "傳": 533,
      "充": 534,
      "党": 535,
      "全": 536,
      "八": 537,
      "共": 538,
      "关": 539,
      "内": 540,
      "冠": 541,
      "决": 542,
      "勒": 543,
      "務": 544,
      "勤": 545,
      "化": 546,
      "北": 547,
      "十": 548,
      "千": 549,
      "华": 550,
      "卑": 551,
      "協": 552,
      "南": 553,
      "博": 554,
      "卯": 555,
      "危": 556,
      "历": 557,
      "厉": 558,
      "县": 559,
      "友": 560,
      "古": 561,
      "只": 562,
      "史": 563,
      "号": 564,
      "合": 565,
      "吉": 566,
      "君": 567,
      "听": 568,
      "味": 569,
      "品": 570,
      "員": 571,
      "喜": 572,
      "営": 573,
      "団": 574,
      "図": 575,
      "国": 576,
      "地": 577,
      "坪": 578,
      "型": 579,
      "城": 580,
      "堂": 581,
      "報": 582,
      "場": 583,
      "塘": 584,
      "塾": 585,
      "境": 586,
      "士": 587,
      "大": 588,
      "天": 589,
      "夫": 590,
      "央": 591,
      "奈": 592,
      "始": 593,
      "姜": 594,
      "娜": 595,
      "娟": 596,
      "子": 597,
      "学": 598,
      "守": 599,
      "宣": 600,
      "宵": 601,
      "家": 602,
      "寅": 603,
      "寺": 604,
      "寿": 605,
      "専": 606,
      "尊": 607,
      "居": 608,
      "展": 609,
      "山": 610,
      "岡": 611,
      "岩": 612,
      "岭": 613,
      "島": 614,
      "崇": 615,
      "崔": 616,
      "川": 617,
      "州": 618,
      "工": 619,
      "巴": 620,
      "市": 621,
      "布": 622,
      "师": 623,
      "師": 624,
      "干": 625,
      "年": 626,
      "庐": 627,
      "座": 628,
      "建": 629,
      "张": 630,
      "弥": 631,
      "張": 632,
      "徐": 633,
      "得": 634,
      "徹": 635,
      "忠": 636,
      "念": 637,
      "总": 638,
      "懲": 639,
      "成": 640,
      "我": 641,
      "戦": 642,
      "所": 643,
      "手": 644,
      "持": 645,
      "指": 646,
      "挥": 647,
      "振": 648,
      "摩": 649,
      "支": 650,
      "改": 651,
      "政": 652,
      "教": 653,
      "文": 654,
      "斜": 655,
      "新": 656,
      "族": 657,
      "日": 658,
      "旰": 659,
      "昕": 660,
      "是": 661,
      "時": 662,
      "普": 663,
      "會": 664,
      "期": 665,
      "木": 666,
      "本": 667,
      "村": 668,
      "来": 669,
      "東": 670,
      "松": 671,
      "柯": 672,
      "柱": 673,
      "校": 674,
      "桥": 675,
      "業": 676,
      "楼": 677,
      "楽": 678,
      "樂": 679,
      "橋": 680,
      "機": 681,
      "歌": 682,
      "歓": 683,
      "正": 684,
      "比": 685,
      "民": 686,
      "氣": 687,
      "水": 688,
      "江": 689,
      "沙": 690,
      "河": 691,
      "況": 692,
      "法": 693,
      "津": 694,
      "海": 695,
      "湖": 696,
      "溪": 697,
      "演": 698,
      "漠": 699,
      "潔": 700,
      "潮": 701,
      "澳": 702,
      "瀬": 703,
      "炮": 704,
      "燕": 705,
      "版": 706,
      "牛": 707,
      "物": 708,
      "牯": 709,
      "獄": 710,
      "玄": 711,
      "王": 712,
      "瑞": 713,
      "田": 714,
      "甲": 715,
      "男": 716,
      "町": 717,
      "画": 718,
      "界": 719,
      "留": 720,
      "畠": 721,
      "發": 722,
      "的": 723,
      "皇": 724,
      "盗": 725,
      "盛": 726,
      "盟": 727,
      "監": 728,
      "直": 729,
      "県": 730,
      "知": 731,
      "石": 732,
      "祖": 733,
      "祥": 734,
      "禅": 735,
      "福": 736,
      "科": 737,
      "程": 738,
      "立": 739,
      "管": 740,
      "素": 741,
      "経": 742,
      "絵": 743,
      "綸": 744,
      "総": 745,
      "緑": 746,
      "縣": 747,
      "纪": 748,
      "绛": 749,
      "美": 750,
      "義": 751,
      "老": 752,
      "联": 753,
      "聖": 754,
      "聞": 755,
      "聯": 756,
      "興": 757,
      "航": 758,
      "船": 759,
      "芸": 760,
      "若": 761,
      "荀": 762,
      "草": 763,
      "華": 764,
      "营": 765,
      "葉": 766,
      "蒙": 767,
      "蒲": 768,
      "藝": 769,
      "虞": 770,
      "行": 771,
      "術": 772,
      "街": 773,
      "衡": 774,
      "衣": 775,
      "袴": 776,
      "西": 777,
      "覚": 778,
      "親": 779,
      "観": 780,
      "解": 781,
      "言": 782,
      "語": 783,
      "論": 784,
      "議": 785,
      "護": 786,
      "计": 787,
      "议": 788,
      "设": 789,
      "说": 790,
      "豐": 791,
      "財": 792,
      "貫": 793,
      "贡": 794,
      "贼": 795,
      "赛": 796,
      "赞": 797,
      "赤": 798,
      "走": 799,
      "踏": 800,
      "車": 801,
      "载": 802,
      "辣": 803,
      "进": 804,
      "連": 805,
      "進": 806,
      "道": 807,
      "郎": 808,
      "部": 809,
      "郷": 810,
      "都": 811,
      "里": 812,
      "金": 813,
      "鐘": 814,
      "钱": 815,
      "镇": 816,
      "長": 817,
      "門": 818,
      "閣": 819,
      "门": 820,
      "问": 821,
      "阳": 822,
      "阴": 823,
      "除": 824,
      "陽": 825,
      "隈": 826,
      "際": 827,
      "隽": 828,
      "雅": 829,
      "集": 830,
      "靈": 831,
      "青": 832,
      "靓": 833,
      "音": 834,
      "頂": 835,
      "頭": 836,
      "顶": 837,
      "题": 838,
      "风": 839,
      "食": 840,
      "館": 841,
      "饣": 842,
      "馆": 843,
      "首": 844,
      "馬": 845,
      "高": 846,
      "髙": 847,
      "魔": 848,
      "鵜": 849,
      "鶯": 850,
      "鹗": 851,
      "鹿": 852,
      "麻": 853,
      "黒": 854,
      "齐": 855,
      "꜒": 856,
      "꜖": 857,
      "고": 858,
      "귀": 859,
      "꽂": 860,
      "꽃": 861,
      "녀": 862,
      "누": 863,
      "님": 864,
      "도": 865,
      "리": 866,
      "맛": 867,
      "머": 868,
      "무": 869,
      "민": 870,
      "백": 871,
      "북": 872,
      "불": 873,
      "비": 874,
      "빈": 875,
      "소": 876,
      "숙": 877,
      "심": 878,
      "아": 879,
      "악": 880,
      "양": 881,
      "에": 882,
      "연": 883,
      "의": 884,
      "이": 885,
      "인": 886,
      "장": 887,
      "제": 888,
      "주": 889,
      "처": 890,
      "탈": 891,
      "탑": 892,
      "파": 893,
      "한": 894,
      "합": 895,
      "홉": 896,
      "er": 897,
      "en": 898,
      "ch": 899,
      "ei": 900,
      "ie": 901,
      "un": 902,
      "st": 903,
      "an": 904,
      "der": 905,
      "in": 906,
      "de": 907,
      "ge": 908,
      "ein": 909,
      "sch": 910,
      "au": 911,
      "die": 912,
      "te": 913,
      "on": 914,
      "al": 915,
      "ar": 916,
      "ich": 917,
      "und": 918,
      "ur": 919,
      "den": 920,
      "or": 921,
      "it": 922,
      "ung": 923,
      "be": 924,
      "hr": 925,
      "ten": 926,
      "as": 927,
      "at": 928,
      "ver": 929,
      "el": 930,
      "ter": 931,
      "gen": 932,
      "am": 933,
      "zu": 934,
      "le": 935,
      "ber": 936,
      "es": 937,
      "im": 938,
      "se": 939,
      "auf": 940,
      "ol": 941,
      "ach": 942,
      "eine": 943,
      "lich": 944,
      "mit": 945,
      "re": 946,
      "is": 947,
      "von": 948,
      "das": 949,
      "isch": 950,
      "aus": 951,
      "des": 952,
      "eit": 953,
      "ier": 954,
      "ig": 955,
      "sp": 956,
      "gr": 957,
      "ab": 958,
      "fü": 959,
      "ist": 960,
      "il": 961,
      "wur": 962,
      "19": 963,
      "tr": 964,
      "um": 965,
      "ne": 966,
      "ck": 967,
      "wei": 968,
      "dem": 969,
      "als": 970,
      "and": 971,
      "ahr": 972,
      "ion": 973,
      "ent": 974,
      "ir": 975,
      "sich": 976,
      "om": 977,
      "bei": 978,
      "ben": 979,
      "rei": 980,
      "sen": 981,
      "war": 982,
      "tz": 983,
      "wurde": 984,
      "ann": 985,
      "20": 986,
      "wer": 987,
      "af": 988,
      "sie": 989,
      "ah": 990,
      "für": 991,
      "pr": 992,
      "nach": 993,
      "us": 994,
      "kt": 995,
      "men": 996,
      "jahr": 997,
      "ischen": 998,
      "icht": 999,
      "me": 1000,
      "vor": 1001,
      "ste": 1002,
      "än": 1003,
      "he": 1004,
      "ell": 1005,
      "ger": 1006,
      "über": 1007,
      "ut": 1008,
      "lie": 1009,
      "iel": 1010,
      "so": 1011,
      "br": 1012,
      "och": 1013,
      "einer": 1014,
      "auch": 1015,
      "unter": 1016,
      "la": 1017,
      "wie": 1018,
      "ff": 1019,
      "ik": 1020,
      "fr": 1021,
      "wir": 1022,
      "ungen": 1023,
      "di": 1024,
      "we": 1025,
      "bis": 1026,
      "hn": 1027,
      "her": 1028,
      "all": 1029,
      "dur": 1030,
      "eich": 1031,
      "ind": 1032,
      "schaf": 1033,
      "ser": 1034,
      "durch": 1035,
      "ort": 1036,
      "einen": 1037,
      "tei": 1038,
      "ad": 1039,
      "sten": 1040,
      "os": 1041,
      "geb": 1042,
      "str": 1043,
      "ihr": 1044,
      "nicht": 1045,
      "ot": 1046,
      "gel": 1047,
      "ern": 1048,
      "da": 1049,
      "ang": 1050,
      "je": 1051,
      "ag": 1052,
      "einem": 1053,
      "ün": 1054,
      "hat": 1055,
      "hen": 1056,
      "ation": 1057,
      "ul": 1058,
      "kon": 1059,
      "zur": 1060,
      "hal": 1061,
      "werden": 1062,
      "kl": 1063,
      "ts": 1064,
      "fe": 1065,
      "fl": 1066,
      "stell": 1067,
      "ze": 1068,
      "18": 1069,
      "uch": 1070,
      "kr": 1071,
      "zeit": 1072,
      "sam": 1073,
      "ische": 1074,
      "gt": 1075,
      "teil": 1076,
      "ien": 1077,
      "ungs": 1078,
      "pro": 1079,
      "00": 1080,
      "nen": 1081,
      "ör": 1082,
      "gesch": 1083,
      "zum": 1084,
      "op": 1085,
      "wo": 1086,
      "iv": 1087,
      "gl": 1088,
      "igen": 1089,
      "wird": 1090,
      "fol": 1091,
      "ster": 1092,
      "sind": 1093,
      "ige": 1094,
      "hl": 1095,
      "tet": 1096,
      "zwei": 1097,
      "ück": 1098,
      "ft": 1099,
      "ing": 1100,
      "oll": 1101,
      "är": 1102,
      "schaft": 1103,
      "dass": 1104,
      "end": 1105,
      "lichen": 1106,
      "pl": 1107,
      "dr": 1108,
      "em": 1109,
      "kom": 1110,
      "bau": 1111,
      "son": 1112,
      "ma": 1113,
      "gem": 1114,
      "iert": 1115,
      "for": 1116,
      "sel": 1117,
      "ho": 1118,
      "et": 1119,
      "zen": 1120,
      "tel": 1121,
      "hin": 1122,
      "spiel": 1123,
      "bl": 1124,
      "mer": 1125,
      "diese": 1126,
      "reich": 1127,
      "200": 1128,
      "zw": 1129,
      "ander": 1130,
      "schl": 1131,
      "führ": 1132,
      "wurden": 1133,
      "deut": 1134,
      "ür": 1135,
      "201": 1136,
      "det": 1137,
      "ap": 1138,
      "gew": 1139,
      "ahl": 1140,
      "ät": 1141,
      "spr": 1142,
      "oder": 1143,
      "setz": 1144,
      "weiter": 1145,
      "pf": 1146,
      "art": 1147,
      "neu": 1148,
      "dar": 1149,
      "mehr": 1150,
      "fin": 1151,
      "hei": 1152,
      "äch": 1153,
      "per": 1154,
      "man": 1155,
      "ke": 1156,
      "liche": 1157,
      "ken": 1158,
      "äl": 1159,
      "noch": 1160,
      "kann": 1161,
      "rech": 1162,
      "sein": 1163,
      "mal": 1164,
      "stand": 1165,
      "nur": 1166,
      "ön": 1167,
      "gegen": 1168,
      "anz": 1169,
      "seit": 1170,
      "mus": 1171,
      "äu": 1172,
      "seine": 1173,
      "wen": 1174,
      "ner": 1175,
      "del": 1176,
      "ähr": 1177,
      "bil": 1178,
      "atz": 1179,
      "stad": 1180,
      "fen": 1181,
      "mar": 1182,
      "aber": 1183,
      "bar": 1184,
      "sit": 1185,
      "ht": 1186,
      "land": 1187,
      "pp": 1188,
      "nah": 1189,
      "alt": 1190,
      "bt": 1191,
      "erst": 1192,
      "qu": 1193,
      "wieder": 1194,
      "wel": 1195,
      "lin": 1196,
      "ange": 1197,
      "fer": 1198,
      "ende": 1199,
      "oß": 1200,
      "ill": 1201,
      "wa": 1202,
      "doch": 1203,
      "sei": 1204,
      "sa": 1205,
      "stadt": 1206,
      "ließ": 1207,
      "dieser": 1208,
      "gemein": 1209,
      "ober": 1210,
      "fahr": 1211,
      "kam": 1212,
      "to": 1213,
      "aben": 1214,
      "che": 1215,
      "ord": 1216,
      "ick": 1217,
      "seiner": 1218,
      "og": 1219,
      "ug": 1220,
      "ant": 1221,
      "ler": 1222,
      "betr": 1223,
      "zwischen": 1224,
      "schr": 1225,
      "was": 1226,
      "groß": 1227,
      "199": 1228,
      "keit": 1229,
      "mei": 1230,
      "ra": 1231,
      "ges": 1232,
      "kön": 1233,
      "schen": 1234,
      "schie": 1235,
      "acht": 1236,
      "ierte": 1237,
      "jahre": 1238,
      "ta": 1239,
      "alle": 1240,
      "haus": 1241,
      "hatte": 1242,
      "iz": 1243,
      "chen": 1244,
      "arb": 1245,
      "eigen": 1246,
      "bo": 1247,
      "vom": 1248,
      "par": 1249,
      "mann": 1250,
      "grund": 1251,
      "du": 1252,
      "lei": 1253,
      "dam": 1254,
      "ass": 1255,
      "uss": 1256,
      "ins": 1257,
      ").": 1258,
      "reg": 1259,
      "such": 1260,
      "bur": 1261,
      "hö": 1262,
      "ic": 1263,
      "öff": 1264,
      "fall": 1265,
      "bez": 1266,
      "waren": 1267,
      "nam": 1268,
      "nis": 1269,
      "ob": 1270,
      "att": 1271,
      "dig": 1272,
      "iff": 1273,
      "jahren": 1274,
      "drei": 1275,
      "kir": 1276,
      "eits": 1277,
      "ute": 1278,
      "dies": 1279,
      "17": 1280,
      "han": 1281,
      "aut": 1282,
      "grün": 1283,
      "tern": 1284,
      "utz": 1285,
      "arbei": 1286,
      "dien": 1287,
      "verb": 1288,
      "dern": 1289,
      "hör": 1290,
      "ktion": 1291,
      "ak": 1292,
      "under": 1293,
      "jedoch": 1294,
      "ßer": 1295,
      "gleich": 1296,
      "pol": 1297,
      "min": 1298,
      "ale": 1299,
      "off": 1300,
      "tes": 1301,
      "pt": 1302,
      "ank": 1303,
      "ieren": 1304,
      "leben": 1305,
      "glich": 1306,
      "tre": 1307,
      "hm": 1308,
      "eines": 1309,
      "wohn": 1310,
      "15": 1311,
      "ro": 1312,
      "hau": 1313,
      "upp": 1314,
      "assen": 1315,
      "vier": 1316,
      "hunder": 1317,
      "lo": 1318,
      "beg": 1319,
      "halten": 1320,
      "äs": 1321,
      "fel": 1322,
      "net": 1323,
      "län": 1324,
      "ichte": 1325,
      "ha": 1326,
      "kur": 1327,
      "the": 1328,
      "konn": 1329,
      "ess": 1330,
      "198": 1331,
      "spä": 1332,
      "ahn": 1333,
      "tig": 1334,
      "gi": 1335,
      "stu": 1336,
      "ihre": 1337,
      "letz": 1338,
      "16": 1339,
      "sy": 1340,
      "sta": 1341,
      "ko": 1342,
      "schließ": 1343,
      "zahl": 1344,
      "jahrhunder": 1345,
      "form": 1346,
      "ater": 1347,
      "mö": 1348,
      "soll": 1349,
      "hol": 1350,
      "mittel": 1351,
      "mber": 1352,
      "weise": 1353,
      "uni": 1354,
      "ex": 1355,
      "elle": 1356,
      "heit": 1357,
      "fil": 1358,
      "bst": 1359,
      "gte": 1360,
      "tur": 1361,
      "ausge": 1362,
      "hmen": 1363,
      "stra": 1364,
      "zurück": 1365,
      "tra": 1366,
      "schn": 1367,
      "erfol": 1368,
      "ierung": 1369,
      "werk": 1370,
      "sowie": 1371,
      "imm": 1372,
      "ph": 1373,
      "ersten": 1374,
      "ieg": 1375,
      "lag": 1376,
      "unden": 1377,
      "oren": 1378,
      "öl": 1379,
      "dung": 1380,
      "stellt": 1381,
      "burg": 1382,
      "itt": 1383,
      "zusam": 1384,
      "später": 1385,
      "zi": 1386,
      "zusammen": 1387,
      "gesam": 1388,
      "197": 1389,
      "welt": 1390,
      "eben": 1391,
      "lung": 1392,
      "sü": 1393,
      "frei": 1394,
      "verl": 1395,
      "no": 1396,
      "dort": 1397,
      "mo": 1398,
      "stän": 1399,
      "glie": 1400,
      "ßen": 1401,
      "194": 1402,
      "lan": 1403,
      "mon": 1404,
      "nie": 1405,
      "ia": 1406,
      "gef": 1407,
      "berg": 1408,
      "ieb": 1409,
      "10": 1410,
      "hier": 1411,
      "währ": 1412,
      "bel": 1413,
      "bahn": 1414,
      "wor": 1415,
      "kar": 1416,
      "alen": 1417,
      "grö": 1418,
      "196": 1419,
      "tete": 1420,
      "ihn": 1421,
      "geben": 1422,
      "akt": 1423,
      "öffent": 1424,
      "ähl": 1425,
      "pun": 1426,
      "iger": 1427,
      "halb": 1428,
      "ße": 1429,
      "ischer": 1430,
      "ka": 1431,
      "nung": 1432,
      "haben": 1433,
      "komm": 1434,
      "zer": 1435,
      "id": 1436,
      "gan": 1437,
      "ätz": 1438,
      "14": 1439,
      "uar": 1440,
      "oh": 1441,
      "etwa": 1442,
      "ingen": 1443,
      "während": 1444,
      "setzt": 1445,
      "gebie": 1446,
      "schw": 1447,
      "satz": 1448,
      "einz": 1449,
      "inter": 1450,
      "sol": 1451,
      "dor": 1452,
      "kehr": 1453,
      "einge": 1454,
      "platz": 1455,
      "fest": 1456,
      "lu": 1457,
      "bereits": 1458,
      "ga": 1459,
      "aum": 1460,
      "seinen": 1461,
      "pe": 1462,
      "wick": 1463,
      "dab": 1464,
      "lage": 1465,
      "kin": 1466,
      "000": 1467,
      "13": 1468,
      "bekann": 1469,
      "namen": 1470,
      "ihm": 1471,
      "iele": 1472,
      "ker": 1473,
      "verein": 1474,
      "195": 1475,
      "frau": 1476,
      "193": 1477,
      "dabei": 1478,
      "denen": 1479,
      "richt": 1480,
      "12": 1481,
      "konnte": 1482,
      "len": 1483,
      "sonder": 1484,
      "hand": 1485,
      "lang": 1486,
      "häl": 1487,
      "atur": 1488,
      "rich": 1489,
      "seinem": 1490,
      "selbst": 1491,
      "statt": 1492,
      "co": 1493,
      "grupp": 1494,
      "if": 1495,
      "gu": 1496,
      "hof": 1497,
      "ren": 1498,
      "nehmen": 1499,
      "sche": 1500,
      "ru": 1501,
      "heute": 1502,
      "cken": 1503,
      "ersch": 1504,
      "aller": 1505,
      "do": 1506,
      "star": 1507,
      "amm": 1508,
      "gibt": 1509,
      "kte": 1510,
      "weg": 1511,
      "gehör": 1512,
      "mitglie": 1513,
      "können": 1514,
      "kun": 1515,
      "auer": 1516,
      "gang": 1517,
      "wirt": 1518,
      "best": 1519,
      "ihrer": 1520,
      "oss": 1521,
      "schul": 1522,
      "ba": 1523,
      "inn": 1524,
      "entwick": 1525,
      "fre": 1526,
      "hiel": 1527,
      "issen": 1528,
      "tt": 1529,
      "ionen": 1530,
      "dann": 1531,
      "damit": 1532,
      "stehen": 1533,
      "zeich": 1534,
      "igkeit": 1535,
      "führt": 1536,
      "ding": 1537,
      "meister": 1538,
      "steht": 1539,
      "erste": 1540,
      "gest": 1541,
      "amil": 1542,
      "anden": 1543,
      "),": 1544,
      "gab": 1545,
      "eur": 1546,
      "gemeinde": 1547,
      "kirche": 1548,
      "heim": 1549,
      "zun": 1550,
      "dan": 1551,
      "sehen": 1552,
      "sitz": 1553,
      "weil": 1554,
      "produ": 1555,
      "gar": 1556,
      "mü": 1557,
      "fern": 1558,
      "haupt": 1559,
      "ive": 1560,
      "möglich": 1561,
      "film": 1562,
      "po": 1563,
      "frü": 1564,
      "verw": 1565,
      "ks": 1566,
      "ju": 1567,
      "zei": 1568,
      "ehe": 1569,
      "trag": 1570,
      "öffentlich": 1571,
      "ziel": 1572,
      "ossen": 1573,
      "beiden": 1574,
      "famil": 1575,
      "wohl": 1576,
      "ütz": 1577,
      "west": 1578,
      "olle": 1579,
      "beim": 1580,
      "wasser": 1581,
      "schei": 1582,
      "fach": 1583,
      "kommen": 1584,
      "schu": 1585,
      "reis": 1586,
      "besonder": 1587,
      "immer": 1588,
      "erreich": 1589,
      "ats": 1590,
      "ti": 1591,
      "findet": 1592,
      "handel": 1593,
      "diesem": 1594,
      "viel": 1595,
      "hän": 1596,
      "ift": 1597,
      "stellung": 1598,
      "th": 1599,
      "sehr": 1600,
      "sk": 1601,
      "alter": 1602,
      "anderen": 1603,
      "io": 1604,
      "außer": 1605,
      "geschichte": 1606,
      "gesamt": 1607,
      "buch": 1608,
      "ierten": 1609,
      "keine": 1610,
      "ellen": 1611,
      "neben": 1612,
      "weitere": 1613,
      "arbeit": 1614,
      "süd": 1615,
      "bereich": 1616,
      "gele": 1617,
      "ard": 1618,
      "krieg": 1619,
      "lauf": 1620,
      "stein": 1621,
      "zentr": 1622,
      "gebäu": 1623,
      "sprach": 1624,
      "verschie": 1625,
      "inner": 1626,
      "zug": 1627,
      "innen": 1628,
      "iss": 1629,
      "falls": 1630,
      "hoch": 1631,
      "pa": 1632,
      "gend": 1633,
      "ommen": 1634,
      "polit": 1635,
      "olog": 1636,
      "lagen": 1637,
      "rück": 1638,
      "voll": 1639,
      "haf": 1640,
      "cke": 1641,
      "chr": 1642,
      "jan": 1643,
      "mu": 1644,
      "dorf": 1645,
      "0er": 1646,
      "lig": 1647,
      "ition": 1648,
      "hielt": 1649,
      "kauf": 1650,
      "musik": 1651,
      "bür": 1652,
      "“.": 1653,
      "stre": 1654,
      "wahl": 1655,
      "kre": 1656,
      "fte": 1657,
      "mals": 1658,
      "ös": 1659,
      "mehrer": 1660,
      "dieses": 1661,
      "dessen": 1662,
      "30": 1663,
      "ian": 1664,
      "nahm": 1665,
      "vol": 1666,
      "enz": 1667,
      "licher": 1668,
      "annt": 1669,
      "mut": 1670,
      "wissen": 1671,
      "ald": 1672,
      "person": 1673,
      "25": 1674,
      "ationen": 1675,
      "bekannt": 1676,
      "jo": 1677,
      "bezeich": 1678,
      "jahrhundert": 1679,
      "schaften": 1680,
      "hält": 1681,
      "fün": 1682,
      "vers": 1683,
      "besch": 1684,
      "vi": 1685,
      "pen": 1686,
      "unde": 1687,
      "kün": 1688,
      "ele": 1689,
      "straße": 1690,
      "juni": 1691,
      "tag": 1692,
      "ast": 1693,
      "kul": 1694,
      "bild": 1695,
      "folgen": 1696,
      "fläch": 1697,
      "deutschen": 1698,
      "äm": 1699,
      "griff": 1700,
      "sicher": 1701,
      "seite": 1702,
      "tät": 1703,
      "ihren": 1704,
      "wegen": 1705,
      "frie": 1706,
      "ce": 1707,
      "nord": 1708,
      "rat": 1709,
      "nor": 1710,
      "raum": 1711,
      "punkt": 1712,
      "ine": 1713,
      "band": 1714,
      "fas": 1715,
      "ogen": 1716,
      "uck": 1717,
      "ärz": 1718,
      "sport": 1719,
      "finden": 1720,
      "ähn": 1721,
      "folge": 1722,
      "enden": 1723,
      "gebiet": 1724,
      "fang": 1725,
      "tember": 1726,
      "darauf": 1727,
      "sicht": 1728,
      "wes": 1729,
      "nieder": 1730,
      "fünf": 1731,
      "iere": 1732,
      "spe": 1733,
      "schland": 1734,
      "ton": 1735,
      "pu": 1736,
      "deutschland": 1737,
      "okt": 1738,
      "ison": 1739,
      "fig": 1740,
      "aten": 1741,
      "fort": 1742,
      "mä": 1743,
      "schiff": 1744,
      "veröffentlich": 1745,
      "ächst": 1746,
      "recht": 1747,
      "schule": 1748,
      "iden": 1749,
      "nov": 1750,
      "gestellt": 1751,
      "bun": 1752,
      "weit": 1753,
      "liegt": 1754,
      "neue": 1755,
      "rund": 1756,
      "halt": 1757,
      "schon": 1758,
      "kei": 1759,
      "dings": 1760,
      "lieb": 1761,
      "wenn": 1762,
      "wür": 1763,
      "wirtschaft": 1764,
      "itz": 1765,
      "betrieb": 1766,
      "einige": 1767,
      "sätz": 1768,
      "gebäude": 1769,
      "mach": 1770,
      "uer": 1771,
      "änder": 1772,
      "ität": 1773,
      "ca": 1774,
      "nation": 1775,
      "isten": 1776,
      "oktober": 1777,
      "ium": 1778,
      "mai": 1779,
      "bü": 1780,
      "tro": 1781,
      "kap": 1782,
      "arch": 1783,
      "komp": 1784,
      "allerdings": 1785,
      "schließlich": 1786,
      "wohner": 1787,
      "sep": 1788,
      "tor": 1789,
      "of": 1790,
      "ieben": 1791,
      "regel": 1792,
      "fäl": 1793,
      "ve": 1794,
      "kan": 1795,
      "einzel": 1796,
      "su": 1797,
      "mün": 1798,
      "mel": 1799,
      "gesell": 1800,
      "zähl": 1801,
      "trä": 1802,
      "apr": 1803,
      "ohne": 1804,
      "hel": 1805,
      "europ": 1806,
      "kinder": 1807,
      "ebenfalls": 1808,
      "bes": 1809,
      "april": 1810,
      "jul": 1811,
      "50": 1812,
      "fu": 1813,
      "gehen": 1814,
      "genommen": 1815,
      "lehr": 1816,
      "hinter": 1817,
      "asse": 1818,
      "dire": 1819,
      "mill": 1820,
      "wert": 1821,
      "deze": 1822,
      "dezember": 1823,
      "schied": 1824,
      "nun": 1825,
      "september": 1826,
      "herr": 1827,
      "zeu": 1828,
      "schrift": 1829,
      "jähr": 1830,
      "januar": 1831,
      "km": 1832,
      "deren": 1833,
      "augu": 1834,
      "will": 1835,
      "unternehmen": 1836,
      "titel": 1837,
      "stellen": 1838,
      "saison": 1839,
      "för": 1840,
      "ochen": 1841,
      "les": 1842,
      "sprech": 1843,
      "offen": 1844,
      "zweiten": 1845,
      "syste": 1846,
      "na": 1847,
      "völ": 1848,
      "11": 1849,
      "fand": 1850,
      "zunächst": 1851,
      "gung": 1852,
      "192": 1853,
      "alten": 1854,
      "stru": 1855,
      "könig": 1856,
      "august": 1857,
      "fahren": 1858,
      "worden": 1859,
      "begann": 1860,
      "vater": 1861,
      "abge": 1862,
      "organ": 1863,
      "menschen": 1864,
      "chn": 1865,
      "dete": 1866,
      "flü": 1867,
      "lebens": 1868,
      "feld": 1869,
      "präs": 1870,
      "gruppe": 1871,
      "bürger": 1872,
      "alb": 1873,
      "kat": 1874,
      "märz": 1875,
      "gut": 1876,
      "liegen": 1877,
      "schwer": 1878,
      "bach": 1879,
      "flug": 1880,
      "rä": 1881,
      "lau": 1882,
      "mot": 1883,
      "stei": 1884,
      "bundes": 1885,
      "neuen": 1886,
      "juli": 1887,
      "fra": 1888,
      "ember": 1889,
      "sech": 1890,
      "gebaut": 1891,
      "november": 1892,
      "mil": 1893,
      "ty": 1894,
      "druck": 1895,
      "zehn": 1896,
      "anfang": 1897,
      "dah": 1898,
      "sohn": 1899,
      "uten": 1900,
      "insgesamt": 1901,
      "itten": 1902,
      "viele": 1903,
      "hil": 1904,
      "versuch": 1905,
      "kten": 1906,
      "landes": 1907,
      "fun": 1908,
      "tem": 1909,
      "berlin": 1910,
      "amt": 1911,
      "meter": 1912,
      "familie": 1913,
      "kel": 1914,
      "zie": 1915,
      "wech": 1916,
      "kunst": 1917,
      "erw": 1918,
      "jahrhunderts": 1919,
      "amer": 1920,
      "ome": 1921,
      "intern": 1922,
      "arbeiten": 1923,
      "ys": 1924,
      "plan": 1925,
      "daten": 1926,
      "zent": 1927,
      "gän": 1928,
      "ers": 1929,
      "dienst": 1930,
      "igt": 1931,
      "hä": 1932,
      "kurz": 1933,
      "rel": 1934,
      "öst": 1935,
      "mat": 1936,
      "res": 1937,
      "einander": 1938,
      "richtung": 1939,
      "schafts": 1940,
      "pel": 1941,
      "ja": 1942,
      "dazu": 1943,
      "ii": 1944,
      "verkehr": 1945,
      "befindet": 1946,
      "schluss": 1947,
      "urspr": 1948,
      "andere": 1949,
      "män": 1950,
      "ital": 1951,
      "li": 1952,
      "allem": 1953,
      "außerdem": 1954,
      "lit": 1955,
      "franz": 1956,
      "zahlreich": 1957,
      "keiten": 1958,
      "leich": 1959,
      "diesen": 1960,
      "char": 1961,
      "ums": 1962,
      "erhielt": 1963,
      "ikan": 1964,
      "wahr": 1965,
      "tragen": 1966,
      "führung": 1967,
      "stück": 1968,
      "nahmen": 1969,
      "190": 1970,
      "erhalten": 1971,
      "verfü": 1972,
      "wechsel": 1973,
      "jeweil": 1974,
      "21": 1975,
      "hle": 1976,
      "schloss": 1977,
      "kor": 1978,
      "nahme": 1979,
      "iven": 1980,
      "aufgrund": 1981,
      "lassen": 1982,
      "techn": 1983,
      "angen": 1984,
      "mor": 1985,
      "sondern": 1986,
      "kreis": 1987,
      "frank": 1988,
      "letzten": 1989,
      "leb": 1990,
      "ans": 1991,
      "mitglied": 1992,
      "forsch": 1993,
      "mehrere": 1994,
      "kultur": 1995,
      "“,": 1996,
      "cht": 1997,
      "arr": 1998,
      "deck": 1999,
      "cher": 2000,
      "einwohner": 2001,
      "met": 2002,
      "nt": 2003,
      "klär": 2004,
      "mitte": 2005,
      "wort": 2006,
      "bi": 2007,
      "ihrem": 2008,
      "bas": 2009,
      "treten": 2010,
      "ven": 2011,
      "zial": 2012,
      "wissenschaft": 2013,
      "nachdem": 2014,
      "gabe": 2015,
      "aufge": 2016,
      "ost": 2017,
      "ock": 2018,
      "ble": 2019,
      "erschien": 2020,
      "zeug": 2021,
      "kop": 2022,
      "verwen": 2023,
      "allen": 2024,
      "heira": 2025,
      "hist": 2026,
      "hatten": 2027,
      "fehl": 2028,
      "altung": 2029,
      "besuch": 2030,
      "ktur": 2031,
      "anst": 2032,
      "beru": 2033,
      "sollte": 2034,
      "gesellschaft": 2035,
      "personen": 2036,
      "lager": 2037,
      "schutz": 2038,
      "große": 2039,
      "großen": 2040,
      "pre": 2041,
      "ial": 2042,
      "starb": 2043,
      "graf": 2044,
      "geschä": 2045,
      "prä": 2046,
      "schnitt": 2047,
      "entwickel": 2048,
      "besitz": 2049,
      "24": 2050,
      "nutz": 2051,
      "publ": 2052,
      "beginn": 2053,
      "ite": 2054,
      "häu": 2055,
      "com": 2056,
      "port": 2057,
      "pos": 2058,
      "danach": 2059,
      "gener": 2060,
      "internation": 2061,
      "forder": 2062,
      "völker": 2063,
      "dis": 2064,
      "bildung": 2065,
      "kü": 2066,
      "stamm": 2067,
      "fläche": 2068,
      "stütz": 2069,
      "wil": 2070,
      "tex": 2071,
      "zudem": 2072,
      "fluss": 2073,
      "weiteren": 2074,
      "versit": 2075,
      "spieler": 2076,
      "ister": 2077,
      "krit": 2078,
      "kal": 2079,
      "gten": 2080,
      "engl": 2081,
      "ate": 2082,
      "organis": 2083,
      "wirk": 2084,
      "ursprün": 2085,
      "con": 2086,
      "läs": 2087,
      "got": 2088,
      "febr": 2089,
      "februar": 2090,
      "leist": 2091,
      "histor": 2092,
      "rom": 2093,
      "189": 2094,
      "tod": 2095,
      "universit": 2096,
      "größer": 2097,
      "essen": 2098,
      "inst": 2099,
      "ina": 2100,
      "direkt": 2101,
      "kommt": 2102,
      "23": 2103,
      "führte": 2104,
      "ging": 2105,
      "kör": 2106,
      "sechs": 2107,
      "gesetz": 2108,
      "kirchen": 2109,
      "gebr": 2110,
      "trat": 2111,
      "verlag": 2112,
      "greich": 2113,
      "gol": 2114,
      "deutsche": 2115,
      "ham": 2116,
      "ow": 2117,
      "bestand": 2118,
      "größ": 2119,
      "standen": 2120,
      "gegrün": 2121,
      "ständig": 2122,
      "frauen": 2123,
      "rechts": 2124,
      "geschl": 2125,
      "region": 2126,
      "seines": 2127,
      "mäß": 2128,
      "nisse": 2129,
      "bzw": 2130,
      "stelle": 2131,
      "bestimm": 2132,
      "part": 2133,
      "far": 2134,
      "wicht": 2135,
      "beispiel": 2136,
      "jahres": 2137,
      "ri": 2138,
      "hung": 2139,
      "ations": 2140,
      "achsen": 2141,
      "40": 2142,
      "gü": 2143,
      "oft": 2144,
      "stat": 2145,
      "erstmals": 2146,
      "mitt": 2147,
      "seiten": 2148,
      "ident": 2149,
      "blieb": 2150,
      "ief": 2151,
      "ps": 2152,
      "verschieden": 2153,
      "äd": 2154,
      "are": 2155,
      "umen": 2156,
      "2011": 2157,
      "kn": 2158,
      "22": 2159,
      "muss": 2160,
      "geschlossen": 2161,
      "künst": 2162,
      "system": 2163,
      "inen": 2164,
      "lt": 2165,
      "hü": 2166,
      "deutsch": 2167,
      "don": 2168,
      "los": 2169,
      "eitung": 2170,
      "christ": 2171,
      "ide": 2172,
      "dre": 2173,
      "aft": 2174,
      "brach": 2175,
      "jekt": 2176,
      "see": 2177,
      "tätig": 2178,
      "vis": 2179,
      "unterschied": 2180,
      "natur": 2181,
      "verkauf": 2182,
      "ym": 2183,
      "sh": 2184,
      "produktion": 2185,
      "bevölker": 2186,
      ".“": 2187,
      "höhe": 2188,
      "habe": 2189,
      "san": 2190,
      "also": 2191,
      "gemeinsam": 2192,
      "daher": 2193,
      "van": 2194,
      "sitzen": 2195,
      "bie": 2196,
      "stär": 2197,
      "legt": 2198,
      "urt": 2199,
      "meist": 2200,
      "schein": 2201,
      "schwei": 2202,
      "hren": 2203,
      "macht": 2204,
      "wagen": 2205,
      "26": 2206,
      "rad": 2207,
      "licht": 2208,
      "teile": 2209,
      "sal": 2210,
      "arten": 2211,
      "öster": 2212,
      "anken": 2213,
      "schrei": 2214,
      "mag": 2215,
      "körper": 2216,
      "besondere": 2217,
      "davon": 2218,
      "besteht": 2219,
      "2010": 2220,
      "188": 2221,
      "erken": 2222,
      "mannschaft": 2223,
      "ime": 2224,
      "sied": 2225,
      "zin": 2226,
      "fertig": 2227,
      "lern": 2228,
      "folgenden": 2229,
      "schü": 2230,
      "lam": 2231,
      "stieg": 2232,
      "187": 2233,
      "musste": 2234,
      "igung": 2235,
      "beide": 2236,
      "lungen": 2237,
      "rest": 2238,
      "bung": 2239,
      "woll": 2240,
      "blei": 2241,
      "ände": 2242,
      "ku": 2243,
      "sor": 2244,
      "2012": 2245,
      "ingt": 2246,
      "offiz": 2247,
      "konnten": 2248,
      "muse": 2249,
      "ball": 2250,
      "fast": 2251,
      "gramm": 2252,
      "qual": 2253,
      "funktion": 2254,
      "inger": 2255,
      "2009": 2256,
      "hein": 2257,
      "ens": 2258,
      "schwar": 2259,
      "team": 2260,
      "maß": 2261,
      "gruppen": 2262,
      "27": 2263,
      "car": 2264,
      "ismus": 2265,
      "gie": 2266,
      "teilt": 2267,
      "unterstütz": 2268,
      "utzt": 2269,
      "heut": 2270,
      "mutter": 2271,
      "ustr": 2272,
      "mark": 2273,
      "uren": 2274,
      "priv": 2275,
      "go": 2276,
      "2007": 2277,
      "holz": 2278,
      "zeigt": 2279,
      "var": 2280,
      "samm": 2281,
      "liter": 2282,
      "häus": 2283,
      "brit": 2284,
      "wi": 2285,
      "model": 2286,
      "wald": 2287,
      "ech": 2288,
      "besser": 2289,
      "28": 2290,
      "vo": 2291,
      "zog": 2292,
      "spielen": 2293,
      "2008": 2294,
      "lange": 2295,
      "wand": 2296,
      "not": 2297,
      "genann": 2298,
      "ehemal": 2299,
      "angeb": 2300,
      "jugend": 2301,
      "finanz": 2302,
      "ac": 2303,
      "stark": 2304,
      "100": 2305,
      "österreich": 2306,
      "bu": 2307,
      "2014": 2308,
      "partei": 2309,
      "genannt": 2310,
      "2013": 2311,
      "album": 2312,
      "fuß": 2313,
      "zogen": 2314,
      "prof": 2315,
      "tö": 2316,
      "lö": 2317,
      "kil": 2318,
      "städ": 2319,
      "arbeitete": 2320,
      "fass": 2321,
      "name": 2322,
      "staat": 2323,
      "ssen": 2324,
      "itär": 2325,
      "heraus": 2326,
      "esse": 2327,
      "ochter": 2328,
      "mm": 2329,
      "eig": 2330,
      "erne": 2331,
      "einsatz": 2332,
      "bezie": 2333,
      "entwicklung": 2334,
      "60": 2335,
      "ed": 2336,
      "dert": 2337,
      "gegenüber": 2338,
      "tlich": 2339,
      "liga": 2340,
      "gaben": 2341,
      "bede": 2342,
      "pat": 2343,
      "liefer": 2344,
      "stellte": 2345,
      "jeweils": 2346,
      "one": 2347,
      "richtet": 2348,
      "führen": 2349,
      "gewann": 2350,
      "setzung": 2351,
      "mitglieder": 2352,
      "gren": 2353,
      "wobei": 2354,
      "moder": 2355,
      "kreu": 2356,
      "har": 2357,
      "straßen": 2358,
      "insel": 2359,
      "spiele": 2360,
      "2016": 2361,
      "anschließ": 2362,
      "2017": 2363,
      "nete": 2364,
      "schwe": 2365,
      "geführt": 2366,
      "2006": 2367,
      "verschiedenen": 2368,
      "meisten": 2369,
      "legen": 2370,
      "verbind": 2371,
      "deten": 2372,
      "isches": 2373,
      "kraft": 2374,
      "werke": 2375,
      "gericht": 2376,
      "eigenen": 2377,
      "tochter": 2378,
      "2015": 2379,
      "brück": 2380,
      "hy": 2381,
      "wär": 2382,
      "erfolgte": 2383,
      "kampf": 2384,
      "aun": 2385,
      "29": 2386,
      "national": 2387,
      "bezeichnet": 2388,
      "aktiv": 2389,
      "fir": 2390,
      "itte": 2391,
      "gil": 2392,
      "rik": 2393,
      "regierung": 2394,
      "abhän": 2395,
      "turm": 2396,
      "brei": 2397,
      "tal": 2398,
      "glichen": 2399,
      "som": 2400,
      "ument": 2401,
      "beschä": 2402,
      "ktr": 2403,
      "ichtet": 2404,
      "markt": 2405,
      "millionen": 2406,
      "teten": 2407,
      "gewähl": 2408,
      "haup": 2409,
      "rö": 2410,
      "leg": 2411,
      "gelegen": 2412,
      "ucht": 2413,
      "verwendet": 2414,
      "sil": 2415,
      "geboren": 2416,
      "arbeiter": 2417,
      "französ": 2418,
      "hor": 2419,
      "wal": 2420,
      "stoff": 2421,
      "schlag": 2422,
      "mb": 2423,
      "eisen": 2424,
      "struktur": 2425,
      "2000": 2426,
      "bre": 2427,
      "handelt": 2428,
      "eist": 2429,
      "entsprech": 2430,
      "lieben": 2431,
      "nä": 2432,
      "militär": 2433,
      "künstler": 2434,
      "heiten": 2435,
      "staats": 2436,
      "kriegs": 2437,
      "erwähn": 2438,
      "gegründet": 2439,
      "beruf": 2440,
      "entschei": 2441,
      "welche": 2442,
      "käm": 2443,
      "up": 2444,
      "geht": 2445,
      "serie": 2446,
      "spielte": 2447,
      "zusätz": 2448,
      "rot": 2449,
      "teilung": 2450,
      "bru": 2451,
      "länger": 2452,
      "por": 2453,
      "wehr": 2454,
      "wiesen": 2455,
      "ator": 2456,
      "ade": 2457,
      "außen": 2458,
      "abhäng": 2459,
      "anderem": 2460,
      "minister": 2461,
      "wind": 2462,
      "ativ": 2463,
      "esen": 2464,
      "ihnen": 2465,
      "üb": 2466,
      "studi": 2467,
      "strecke": 2468,
      "ip": 2469,
      "dauer": 2470,
      "zahlreiche": 2471,
      "äh": 2472,
      "äre": 2473,
      "neuer": 2474,
      "ichten": 2475,
      "bewer": 2476,
      "boden": 2477,
      "amerikan": 2478,
      "erneut": 2479,
      "rah": 2480,
      "test": 2481,
      "kleiner": 2482,
      "proble": 2483,
      "industr": 2484,
      "setzen": 2485,
      "masch": 2486,
      "besonders": 2487,
      "untersuch": 2488,
      "linie": 2489,
      "eröff": 2490,
      "erklär": 2491,
      "2018": 2492,
      "ologie": 2493,
      "instit": 2494,
      "publik": 2495,
      "bestehen": 2496,
      "luft": 2497,
      "länge": 2498,
      "bedeut": 2499,
      "innerhalb": 2500,
      "sig": 2501,
      "2005": 2502,
      "volks": 2503,
      "wett": 2504,
      "zweite": 2505,
      "treff": 2506,
      "früher": 2507,
      "tür": 2508,
      "sowohl": 2509,
      "gelang": 2510,
      "aur": 2511,
      "beteil": 2512,
      "zü": 2513,
      "zuge": 2514,
      "bs": 2515,
      "oster": 2516,
      "2019": 2517,
      "pfl": 2518,
      "zerst": 2519,
      "familien": 2520,
      "ganz": 2521,
      "lässt": 2522,
      "kreuz": 2523,
      "jen": 2524,
      "erfolgreich": 2525,
      "bisher": 2526,
      "legte": 2527,
      "immt": 2528,
      "setzte": 2529,
      "ok": 2530,
      "getr": 2531,
      "italien": 2532,
      "186": 2533,
      "wend": 2534,
      "tritt": 2535,
      "anlage": 2536,
      "iker": 2537,
      "kosten": 2538,
      "phil": 2539,
      "digen": 2540,
      "häufig": 2541,
      "höch": 2542,
      "sommer": 2543,
      "31": 2544,
      "bezir": 2545,
      "sieben": 2546,
      "somit": 2547,
      "glei": 2548,
      "etwas": 2549,
      "sach": 2550,
      "eller": 2551,
      "zeitig": 2552,
      "waf": 2553,
      "inform": 2554,
      "cker": 2555,
      "tour": 2556,
      "oper": 2557,
      "az": 2558,
      "reise": 2559,
      "insbesondere": 2560,
      "trotz": 2561,
      "dach": 2562,
      "kein": 2563,
      "poliz": 2564,
      "kilome": 2565,
      "preis": 2566,
      "ions": 2567,
      "läu": 2568,
      "wien": 2569,
      "iges": 2570,
      "eng": 2571,
      "hu": 2572,
      "fiel": 2573,
      "klein": 2574,
      "medi": 2575,
      "dadurch": 2576,
      "darüber": 2577,
      "1945": 2578,
      "gs": 2579,
      "dischen": 2580,
      "joh": 2581,
      "vertrag": 2582,
      "verschiedene": 2583,
      "zess": 2584,
      "reihe": 2585,
      "dafür": 2586,
      "zerstör": 2587,
      "rolle": 2588,
      "uchs": 2589,
      "selben": 2590,
      "pfer": 2591,
      "rit": 2592,
      "üs": 2593,
      "verhält": 2594,
      "bin": 2595,
      "geld": 2596,
      "orden": 2597,
      "netz": 2598,
      "lass": 2599,
      "max": 2600,
      "bahnhof": 2601,
      "verbr": 2602,
      "grab": 2603,
      "weiß": 2604,
      "deutlich": 2605,
      "haft": 2606,
      "stil": 2607,
      "gilt": 2608,
      "ont": 2609,
      "2004": 2610,
      "exist": 2611,
      "johann": 2612,
      "anschließend": 2613,
      "motor": 2614,
      "miss": 2615,
      "nungen": 2616,
      "beschr": 2617,
      "universität": 2618,
      "ix": 2619,
      "hlen": 2620,
      "errichtet": 2621,
      "prozent": 2622,
      "fasst": 2623,
      "lex": 2624,
      "grenz": 2625,
      "spielt": 2626,
      "tage": 2627,
      "gehörte": 2628,
      "od": 2629,
      "arbeits": 2630,
      "denk": 2631,
      "mäßig": 2632,
      "heiratet": 2633,
      "erweiter": 2634,
      "train": 2635,
      "mittler": 2636,
      "mes": 2637,
      "ätte": 2638,
      "akter": 2639,
      "uppen": 2640,
      "ment": 2641,
      "mater": 2642,
      "männ": 2643,
      "wider": 2644,
      "entstand": 2645,
      "80": 2646,
      "schle": 2647,
      "immen": 2648,
      "erreichte": 2649,
      "ehmen": 2650,
      "bor": 2651,
      "krä": 2652,
      "teilweise": 2653,
      "bevölkerung": 2654,
      "genutzt": 2655,
      "kleinen": 2656,
      "wenig": 2657,
      "tran": 2658,
      "früh": 2659,
      "eier": 2660,
      "stens": 2661,
      "geg": 2662,
      "plat": 2663,
      "dat": 2664,
      "klasse": 2665,
      "err": 2666,
      "kopf": 2667,
      "fan": 2668,
      "heits": 2669,
      "zwar": 2670,
      "35": 2671,
      "ase": 2672,
      "leicht": 2673,
      "riere": 2674,
      "kamen": 2675,
      "dlich": 2676,
      "schaffen": 2677,
      "fts": 2678,
      "gangen": 2679,
      "park": 2680,
      "pass": 2681,
      "gegeben": 2682,
      "new": 2683,
      "itä": 2684,
      "braun": 2685,
      "weisen": 2686,
      "pers": 2687,
      "münchen": 2688,
      "zt": 2689,
      "usa": 2690,
      "institut": 2691,
      "gelegt": 2692,
      "bedeutung": 2693,
      "gleichen": 2694,
      "elektr": 2695,
      "vent": 2696,
      "beweg": 2697,
      "russ": 2698,
      "veranst": 2699,
      "schrif": 2700,
      "cor": 2701,
      "offiziel": 2702,
      "weis": 2703,
      "steuer": 2704,
      "ursprünglich": 2705,
      "arbeitet": 2706,
      "sprache": 2707,
      "pla": 2708,
      "rahmen": 2709,
      "ov": 2710,
      "merk": 2711,
      "zentrum": 2712,
      "gewählt": 2713,
      "fung": 2714,
      "runde": 2715,
      "yer": 2716,
      "feuer": 2717,
      "veröffentlicht": 2718,
      "185": 2719,
      "ue": 2720,
      "weiterhin": 2721,
      "184": 2722,
      "lös": 2723,
      "let": 2724,
      "eigene": 2725,
      "bald": 2726,
      "spit": 2727,
      "ice": 2728,
      "kommun": 2729,
      "ifiz": 2730,
      "übernahm": 2731,
      "letzte": 2732,
      "dom": 2733,
      "hinaus": 2734,
      "orts": 2735,
      "freund": 2736,
      "dür": 2737,
      "vin": 2738,
      "bevor": 2739,
      "gehört": 2740,
      "entstanden": 2741,
      "ägt": 2742,
      "projekt": 2743,
      "nör": 2744,
      "olf": 2745,
      "karriere": 2746,
      "ächlich": 2747,
      "zeichnet": 2748,
      "win": 2749,
      "hilfe": 2750,
      "unge": 2751,
      "heimat": 2752,
      "2020": 2753,
      "sweise": 2754,
      "grei": 2755,
      "ds": 2756,
      "fanden": 2757,
      "pau": 2758,
      "begriff": 2759,
      "endete": 2760,
      "erreicht": 2761,
      "kol": 2762,
      "entfern": 2763,
      "dun": 2764,
      "tin": 2765,
      "beit": 2766,
      "kloster": 2767,
      "bruch": 2768,
      "klass": 2769,
      "mich": 2770,
      "igten": 2771,
      "sammlung": 2772,
      "2003": 2773,
      "app": 2774,
      "damals": 2775,
      "dop": 2776,
      "veränder": 2777,
      "grap": 2778,
      "daraufhin": 2779,
      "fa": 2780,
      "oten": 2781,
      "näch": 2782,
      "alte": 2783,
      "befinden": 2784,
      "verheiratet": 2785,
      "nahe": 2786,
      "müssen": 2787,
      "typ": 2788,
      "schriften": 2789,
      "isiert": 2790,
      "fried": 2791,
      "trieb": 2792,
      "fäh": 2793,
      "zuvor": 2794,
      "programm": 2795,
      "lichkeit": 2796,
      "trad": 2797,
      "stellungen": 2798,
      "flügel": 2799,
      "rie": 2800,
      "weniger": 2801,
      "einmal": 2802,
      "ons": 2803,
      "rechte": 2804,
      "leitung": 2805,
      "verfahren": 2806,
      "sozial": 2807,
      "hard": 2808,
      "förder": 2809,
      "hervor": 2810,
      "höher": 2811,
      "zeuge": 2812,
      "ume": 2813,
      "gewesen": 2814,
      "agt": 2815,
      "kleine": 2816,
      "literatur": 2817,
      "anten": 2818,
      "bank": 2819,
      "gesetzt": 2820,
      "einfach": 2821,
      "bert": 2822,
      "euro": 2823,
      "onen": 2824,
      "westen": 2825,
      "nimmt": 2826,
      "einigen": 2827,
      "ative": 2828,
      "museum": 2829,
      "70": 2830,
      "straf": 2831,
      "heil": 2832,
      "prü": 2833,
      "dige": 2834,
      "ordnung": 2835,
      "anischen": 2836,
      "auftrag": 2837,
      "obwohl": 2838,
      "fallen": 2839,
      "fül": 2840,
      "geschr": 2841,
      "maler": 2842,
      "iser": 2843,
      "gefähr": 2844,
      "verwaltung": 2845,
      "bern": 2846,
      "archite": 2847,
      "iste": 2848,
      "blick": 2849,
      "krie": 2850,
      "2002": 2851,
      "ledig": 2852,
      "leiter": 2853,
      "vorsitzen": 2854,
      "brü": 2855,
      "zunehmen": 2856,
      "text": 2857,
      "ient": 2858,
      "wander": 2859,
      "anzen": 2860,
      "indi": 2861,
      "neten": 2862,
      "pal": 2863,
      "sing": 2864,
      "prin": 2865,
      "jeder": 2866,
      "beschäft": 2867,
      "eln": 2868,
      "stan": 2869,
      "2001": 2870,
      "antwort": 2871,
      "dok": 2872,
      "zeiten": 2873,
      "vergleich": 2874,
      "bus": 2875,
      "ille": 2876,
      "ika": 2877,
      "ebenso": 2878,
      "wach": 2879,
      "zy": 2880,
      "ergeb": 2881,
      "geschäfts": 2882,
      "schnell": 2883,
      "gebil": 2884,
      "charakter": 2885,
      "häuser": 2886,
      "stimm": 2887,
      "ften": 2888,
      "schm": 2889,
      "zept": 2890,
      "kilometer": 2891,
      "hälfte": 2892,
      "vielen": 2893,
      "ener": 2894,
      "vorhan": 2895,
      "politik": 2896,
      "ax": 2897,
      "istischen": 2898,
      "pfarr": 2899,
      "machen": 2900,
      "chor": 2901,
      "länder": 2902,
      "karl": 2903,
      "führer": 2904,
      "position": 2905,
      "jap": 2906,
      "ings": 2907,
      "bruder": 2908,
      "ep": 2909,
      "ierungs": 2910,
      "eigent": 2911,
      "gehend": 2912,
      "staf": 2913,
      "aler": 2914,
      "hohen": 2915,
      "förm": 2916,
      "polizei": 2917,
      "tie": 2918,
      "vertre": 2919,
      "präsent": 2920,
      "tun": 2921,
      "zig": 2922,
      "theater": 2923,
      "eingesetzt": 2924,
      "wesen": 2925,
      "rang": 2926,
      "sin": 2927,
      "stag": 2928,
      "scher": 2929,
      "othe": 2930,
      "empf": 2931,
      "verbunden": 2932,
      "hang": 2933,
      "kund": 2934,
      "verband": 2935,
      "steller": 2936,
      "brachte": 2937,
      "ius": 2938,
      "erziel": 2939,
      "erzähl": 2940,
      "europä": 2941,
      "lungs": 2942,
      "stor": 2943,
      "onnen": 2944,
      "klei": 2945,
      "piel": 2946,
      "iken": 2947,
      "krank": 2948,
      "staaten": 2949,
      "paar": 2950,
      "vie": 2951,
      "seits": 2952,
      "frage": 2953,
      "forschung": 2954,
      "verlauf": 2955,
      "punkte": 2956,
      "osten": 2957,
      "fassung": 2958,
      "oben": 2959,
      "laut": 2960,
      "amts": 2961,
      "takt": 2962,
      "doppel": 2963,
      "spricht": 2964,
      "kür": 2965,
      "letzt": 2966,
      "europa": 2967,
      "hne": 2968,
      "mein": 2969,
      "fenster": 2970,
      "bö": 2971,
      "wochen": 2972,
      "geor": 2973,
      "schuss": 2974,
      "lediglich": 2975,
      "igte": 2976,
      "absol": 2977,
      "bisch": 2978,
      "hmer": 2979,
      "kind": 2980,
      "sc": 2981,
      "bezeichnung": 2982,
      "schüler": 2983,
      "graph": 2984,
      "erster": 2985,
      "verz": 2986,
      "flächen": 2987,
      "tä": 2988,
      "cm": 2989,
      "bauten": 2990,
      "gleichzeitig": 2991,
      "kontr": 2992,
      "selten": 2993,
      "helm": 2994,
      "tradition": 2995,
      "teilen": 2996,
      "gold": 2997,
      "modell": 2998,
      "ihres": 2999
    },
    "merges": [
      [
        "e",
        "r"
      ],
      [
        "e",
        "n"
      ],
      [
        "c",
        "h"
      ],
      [
        "e",
        "i"
      ],
      [
        "i",
        "e"
      ],
      [
        "u",
        "n"
      ],
      [
        "s",
        "t"
      ],
      [
        "a",
        "n"
      ],
      [
        "d",
        "er"
      ],
      [
        "i",
        "n"
      ],
      [
        "d",
        "e"
      ],
      [
        "g",
        "e"
      ],
      [
        "ei",
        "n"
      ],
      [
        "s",
        "ch"
      ],
      [
        "a",
        "u"
      ],
      [
        "d",
        "ie"
      ],
      [
        "t",
        "e"
      ],
      [
        "o",
        "n"
      ],
      [
        "a",
        "l"
      ],
      [
        "a",
        "r"
      ],
      [
        "i",
        "ch"
      ],
      [
        "un",
        "d"
      ],
      [
        "u",
        "r"
      ],
      [
        "d",
        "en"
      ],
      [
        "o",
        "r"
      ],
      [
        "i",
        "t"
      ],
      [
        "un",
        "g"
      ],
      [
        "b",
        "e"
      ],
      [
        "h",
        "r"
      ],
      [
        "t",
        "en"
      ],
      [
        "a",
        "s"
      ],
      [
        "a",
        "t"
      ],
      [
        "v",
        "er"
      ],
      [
        "e",
        "l"
      ],
      [
        "t",
        "er"
      ],
      [
        "g",
        "en"
      ],
      [
        "a",
        "m"
      ],
      [
        "z",
        "u"
      ],
      [
        "l",
        "e"
      ],
      [
        "b",
        "er"
      ],
      [
        "e",
        "s"
      ],
      [
        "i",
        "m"
      ],
      [
        "s",
        "e"
      ],
      [
        "au",
        "f"
      ],
      [
        "o",
        "l"
      ],
      [
        "a",
        "ch"
      ],
      [
        "ein",
        "e"
      ],
      [
        "l",
        "ich"
      ],
      [
        "m",
        "it"
      ],
      [
        "r",
        "e"
      ],
      [
        "i",
        "s"
      ],
      [
        "v",
        "on"
      ],
      [
        "d",
        "as"
      ],
      [
        "i",
        "sch"
      ],
      [
        "au",
        "s"
      ],
      [
        "de",
        "s"
      ],
      [
        "ei",
        "t"
      ],
      [
        "i",
        "er"
      ],
      [
        "i",
        "g"
      ],
      [
        "s",
        "p"
      ],
      [
        "g",
        "r"
      ],
      [
        "a",
        "b"
      ],
      [
        "f",
        "ü"
      ],
      [
        "i",
        "st"
      ],
      [
        "i",
        "l"
      ],
      [
        "w",
        "ur"
      ],
      [
        "1",
        "9"
      ],
      [
        "t",
        "r"
      ],
      [
        "u",
        "m"
      ],
      [
        "n",
        "e"
      ],
      [
        "c",
        "k"
      ],
      [
        "w",
        "ei"
      ],
      [
        "de",
        "m"
      ],
      [
        "al",
        "s"
      ],
      [
        "an",
        "d"
      ],
      [
        "a",
        "hr"
      ],
      [
        "i",
        "on"
      ],
      [
        "en",
        "t"
      ],
      [
        "i",
        "r"
      ],
      [
        "s",
        "ich"
      ],
      [
        "o",
        "m"
      ],
      [
        "b",
        "ei"
      ],
      [
        "b",
        "en"
      ],
      [
        "r",
        "ei"
      ],
      [
        "s",
        "en"
      ],
      [
        "w",
        "ar"
      ],
      [
        "t",
        "z"
      ],
      [
        "wur",
        "de"
      ],
      [
        "an",
        "n"
      ],
      [
        "2",
        "0"
      ],
      [
        "w",
        "er"
      ],
      [
        "a",
        "f"
      ],
      [
        "s",
        "ie"
      ],
      [
        "a",
        "h"
      ],
      [
        "fü",
        "r"
      ],
      [
        "p",
        "r"
      ],
      [
        "n",
        "ach"
      ],
      [
        "u",
        "s"
      ],
      [
        "k",
        "t"
      ],
      [
        "m",
        "en"
      ],
      [
        "j",
        "ahr"
      ],
      [
        "isch",
        "en"
      ],
      [
        "ich",
        "t"
      ],
      [
        "m",
        "e"
      ],
      [
        "v",
        "or"
      ],
      [
        "st",
        "e"
      ],
      [
        "ä",
        "n"
      ],
      [
        "h",
        "e"
      ],
      [
        "el",
        "l"
      ],
      [
        "g",
        "er"
      ],
      [
        "ü",
        "ber"
      ],
      [
        "u",
        "t"
      ],
      [
        "l",
        "ie"
      ],
      [
        "ie",
        "l"
      ],
      [
        "s",
        "o"
      ],
      [
        "b",
        "r"
      ],
      [
        "o",
        "ch"
      ],
      [
        "ein",
        "er"
      ],
      [
        "au",
        "ch"
      ],
      [
        "un",
        "ter"
      ],
      [
        "l",
        "a"
      ],
      [
        "w",
        "ie"
      ],
      [
        "f",
        "f"
      ],
      [
        "i",
        "k"
      ],
      [
        "f",
        "r"
      ],
      [
        "w",
        "ir"
      ],
      [
        "ung",
        "en"
      ],
      [
        "d",
        "i"
      ],
      [
        "w",
        "e"
      ],
      [
        "b",
        "is"
      ],
      [
        "h",
        "n"
      ],
      [
        "h",
        "er"
      ],
      [
        "al",
        "l"
      ],
      [
        "d",
        "ur"
      ],
      [
        "ei",
        "ch"
      ],
      [
        "in",
        "d"
      ],
      [
        "sch",
        "af"
      ],
      [
        "s",
        "er"
      ],
      [
        "dur",
        "ch"
      ],
      [
        "or",
        "t"
      ],
      [
        "ein",
        "en"
      ],
      [
        "t",
        "ei"
      ],
      [
        "a",
        "d"
      ],
      [
        "st",
        "en"
      ],
      [
        "o",
        "s"
      ],
      [
        "ge",
        "b"
      ],
      [
        "st",
        "r"
      ],
      [
        "i",
        "hr"
      ],
      [
        "n",
        "icht"
      ],
      [
        "o",
        "t"
      ],
      [
        "ge",
        "l"
      ],
      [
        "er",
        "n"
      ],
      [
        "d",
        "a"
      ],
      [
        "an",
        "g"
      ],
      [
        "j",
        "e"
      ],
      [
        "a",
        "g"
      ],
      [
        "eine",
        "m"
      ],
      [
        "ü",
        "n"
      ],
      [
        "h",
        "at"
      ],
      [
        "h",
        "en"
      ],
      [
        "at",
        "ion"
      ],
      [
        "u",
        "l"
      ],
      [
        "k",
        "on"
      ],
      [
        "z",
        "ur"
      ],
      [
        "h",
        "al"
      ],
      [
        "wer",
        "den"
      ],
      [
        "k",
        "l"
      ],
      [
        "t",
        "s"
      ],
      [
        "f",
        "e"
      ],
      [
        "f",
        "l"
      ],
      [
        "st",
        "ell"
      ],
      [
        "z",
        "e"
      ],
      [
        "1",
        "8"
      ],
      [
        "u",
        "ch"
      ],
      [
        "k",
        "r"
      ],
      [
        "z",
        "eit"
      ],
      [
        "s",
        "am"
      ],
      [
        "isch",
        "e"
      ],
      [
        "g",
        "t"
      ],
      [
        "tei",
        "l"
      ],
      [
        "i",
        "en"
      ],
      [
        "ung",
        "s"
      ],
      [
        "pr",
        "o"
      ],
      [
        "0",
        "0"
      ],
      [
        "n",
        "en"
      ],
      [
        "ö",
        "r"
      ],
      [
        "ge",
        "sch"
      ],
      [
        "zu",
        "m"
      ],
      [
        "o",
        "p"
      ],
      [
        "w",
        "o"
      ],
      [
        "i",
        "v"
      ],
      [
        "g",
        "l"
      ],
      [
        "i",
        "gen"
      ],
      [
        "wir",
        "d"
      ],
      [
        "f",
        "ol"
      ],
      [
        "st",
        "er"
      ],
      [
        "s",
        "ind"
      ],
      [
        "i",
        "ge"
      ],
      [
        "h",
        "l"
      ],
      [
        "te",
        "t"
      ],
      [
        "z",
        "wei"
      ],
      [
        "ü",
        "ck"
      ],
      [
        "f",
        "t"
      ],
      [
        "in",
        "g"
      ],
      [
        "ol",
        "l"
      ],
      [
        "ä",
        "r"
      ],
      [
        "schaf",
        "t"
      ],
      [
        "das",
        "s"
      ],
      [
        "en",
        "d"
      ],
      [
        "lich",
        "en"
      ],
      [
        "p",
        "l"
      ],
      [
        "d",
        "r"
      ],
      [
        "e",
        "m"
      ],
      [
        "k",
        "om"
      ],
      [
        "b",
        "au"
      ],
      [
        "s",
        "on"
      ],
      [
        "m",
        "a"
      ],
      [
        "ge",
        "m"
      ],
      [
        "ier",
        "t"
      ],
      [
        "f",
        "or"
      ],
      [
        "s",
        "el"
      ],
      [
        "h",
        "o"
      ],
      [
        "e",
        "t"
      ],
      [
        "z",
        "en"
      ],
      [
        "te",
        "l"
      ],
      [
        "h",
        "in"
      ],
      [
        "sp",
        "iel"
      ],
      [
        "b",
        "l"
      ],
      [
        "m",
        "er"
      ],
      [
        "die",
        "se"
      ],
      [
        "rei",
        "ch"
      ],
      [
        "20",
        "0"
      ],
      [
        "z",
        "w"
      ],
      [
        "an",
        "der"
      ],
      [
        "sch",
        "l"
      ],
      [
        "fü",
        "hr"
      ],
      [
        "wur",
        "den"
      ],
      [
        "de",
        "ut"
      ],
      [
        "ü",
        "r"
      ],
      [
        "20",
        "1"
      ],
      [
        "de",
        "t"
      ],
      [
        "a",
        "p"
      ],
      [
        "ge",
        "w"
      ],
      [
        "ah",
        "l"
      ],
      [
        "ä",
        "t"
      ],
      [
        "sp",
        "r"
      ],
      [
        "o",
        "der"
      ],
      [
        "se",
        "tz"
      ],
      [
        "wei",
        "ter"
      ],
      [
        "p",
        "f"
      ],
      [
        "ar",
        "t"
      ],
      [
        "ne",
        "u"
      ],
      [
        "d",
        "ar"
      ],
      [
        "me",
        "hr"
      ],
      [
        "f",
        "in"
      ],
      [
        "h",
        "ei"
      ],
      [
        "ä",
        "ch"
      ],
      [
        "p",
        "er"
      ],
      [
        "m",
        "an"
      ],
      [
        "k",
        "e"
      ],
      [
        "lich",
        "e"
      ],
      [
        "k",
        "en"
      ],
      [
        "ä",
        "l"
      ],
      [
        "n",
        "och"
      ],
      [
        "k",
        "ann"
      ],
      [
        "re",
        "ch"
      ],
      [
        "s",
        "ein"
      ],
      [
        "m",
        "al"
      ],
      [
        "st",
        "and"
      ],
      [
        "n",
        "ur"
      ],
      [
        "ö",
        "n"
      ],
      [
        "ge",
        "gen"
      ],
      [
        "an",
        "z"
      ],
      [
        "s",
        "eit"
      ],
      [
        "m",
        "us"
      ],
      [
        "ä",
        "u"
      ],
      [
        "s",
        "eine"
      ],
      [
        "w",
        "en"
      ],
      [
        "n",
        "er"
      ],
      [
        "de",
        "l"
      ],
      [
        "ä",
        "hr"
      ],
      [
        "b",
        "il"
      ],
      [
        "at",
        "z"
      ],
      [
        "st",
        "ad"
      ],
      [
        "f",
        "en"
      ],
      [
        "m",
        "ar"
      ],
      [
        "a",
        "ber"
      ],
      [
        "b",
        "ar"
      ],
      [
        "s",
        "it"
      ],
      [
        "h",
        "t"
      ],
      [
        "l",
        "and"
      ],
      [
        "p",
        "p"
      ],
      [
        "n",
        "ah"
      ],
      [
        "al",
        "t"
      ],
      [
        "b",
        "t"
      ],
      [
        "er",
        "st"
      ],
      [
        "q",
        "u"
      ],
      [
        "wie",
        "der"
      ],
      [
        "w",
        "el"
      ],
      [
        "l",
        "in"
      ],
      [
        "an",
        "ge"
      ],
      [
        "f",
        "er"
      ],
      [
        "en",
        "de"
      ],
      [
        "o",
        "ß"
      ],
      [
        "il",
        "l"
      ],
      [
        "w",
        "a"
      ],
      [
        "d",
        "och"
      ],
      [
        "s",
        "ei"
      ],
      [
        "s",
        "a"
      ],
      [
        "stad",
        "t"
      ],
      [
        "lie",
        "ß"
      ],
      [
        "die",
        "ser"
      ],
      [
        "gem",
        "ein"
      ],
      [
        "o",
        "ber"
      ],
      [
        "f",
        "ahr"
      ],
      [
        "k",
        "am"
      ],
      [
        "t",
        "o"
      ],
      [
        "ab",
        "en"
      ],
      [
        "ch",
        "e"
      ],
      [
        "or",
        "d"
      ],
      [
        "i",
        "ck"
      ],
      [
        "s",
        "einer"
      ],
      [
        "o",
        "g"
      ],
      [
        "u",
        "g"
      ],
      [
        "an",
        "t"
      ],
      [
        "l",
        "er"
      ],
      [
        "be",
        "tr"
      ],
      [
        "zw",
        "ischen"
      ],
      [
        "sch",
        "r"
      ],
      [
        "w",
        "as"
      ],
      [
        "gr",
        "oß"
      ],
      [
        "19",
        "9"
      ],
      [
        "k",
        "eit"
      ],
      [
        "m",
        "ei"
      ],
      [
        "r",
        "a"
      ],
      [
        "ge",
        "s"
      ],
      [
        "k",
        "ön"
      ],
      [
        "sch",
        "en"
      ],
      [
        "sch",
        "ie"
      ],
      [
        "ach",
        "t"
      ],
      [
        "ier",
        "te"
      ],
      [
        "jahr",
        "e"
      ],
      [
        "t",
        "a"
      ],
      [
        "al",
        "le"
      ],
      [
        "h",
        "aus"
      ],
      [
        "hat",
        "te"
      ],
      [
        "i",
        "z"
      ],
      [
        "ch",
        "en"
      ],
      [
        "ar",
        "b"
      ],
      [
        "ei",
        "gen"
      ],
      [
        "b",
        "o"
      ],
      [
        "v",
        "om"
      ],
      [
        "p",
        "ar"
      ],
      [
        "m",
        "ann"
      ],
      [
        "gr",
        "und"
      ],
      [
        "d",
        "u"
      ],
      [
        "l",
        "ei"
      ],
      [
        "d",
        "am"
      ],
      [
        "as",
        "s"
      ],
      [
        "us",
        "s"
      ],
      [
        "in",
        "s"
      ],
      [
        ")",
        "."
      ],
      [
        "re",
        "g"
      ],
      [
        "s",
        "uch"
      ],
      [
        "b",
        "ur"
      ],
      [
        "h",
        "ö"
      ],
      [
        "i",
        "c"
      ],
      [
        "ö",
        "ff"
      ],
      [
        "f",
        "all"
      ],
      [
        "be",
        "z"
      ],
      [
        "war",
        "en"
      ],
      [
        "n",
        "am"
      ],
      [
        "n",
        "is"
      ],
      [
        "o",
        "b"
      ],
      [
        "at",
        "t"
      ],
      [
        "d",
        "ig"
      ],
      [
        "i",
        "ff"
      ],
      [
        "jahr",
        "en"
      ],
      [
        "d",
        "rei"
      ],
      [
        "k",
        "ir"
      ],
      [
        "eit",
        "s"
      ],
      [
        "u",
        "te"
      ],
      [
        "die",
        "s"
      ],
      [
        "1",
        "7"
      ],
      [
        "h",
        "an"
      ],
      [
        "au",
        "t"
      ],
      [
        "gr",
        "ün"
      ],
      [
        "ter",
        "n"
      ],
      [
        "u",
        "tz"
      ],
      [
        "ar",
        "bei"
      ],
      [
        "di",
        "en"
      ],
      [
        "ver",
        "b"
      ],
      [
        "der",
        "n"
      ],
      [
        "h",
        "ör"
      ],
      [
        "kt",
        "ion"
      ],
      [
        "a",
        "k"
      ],
      [
        "un",
        "der"
      ],
      [
        "je",
        "doch"
      ],
      [
        "ß",
        "er"
      ],
      [
        "gl",
        "eich"
      ],
      [
        "p",
        "ol"
      ],
      [
        "m",
        "in"
      ],
      [
        "al",
        "e"
      ],
      [
        "o",
        "ff"
      ],
      [
        "te",
        "s"
      ],
      [
        "p",
        "t"
      ],
      [
        "an",
        "k"
      ],
      [
        "ier",
        "en"
      ],
      [
        "le",
        "ben"
      ],
      [
        "g",
        "lich"
      ],
      [
        "t",
        "re"
      ],
      [
        "h",
        "m"
      ],
      [
        "ein",
        "es"
      ],
      [
        "wo",
        "hn"
      ],
      [
        "1",
        "5"
      ],
      [
        "r",
        "o"
      ],
      [
        "h",
        "au"
      ],
      [
        "u",
        "pp"
      ],
      [
        "as",
        "sen"
      ],
      [
        "v",
        "ier"
      ],
      [
        "h",
        "under"
      ],
      [
        "l",
        "o"
      ],
      [
        "be",
        "g"
      ],
      [
        "hal",
        "ten"
      ],
      [
        "ä",
        "s"
      ],
      [
        "f",
        "el"
      ],
      [
        "ne",
        "t"
      ],
      [
        "l",
        "än"
      ],
      [
        "ich",
        "te"
      ],
      [
        "h",
        "a"
      ],
      [
        "k",
        "ur"
      ],
      [
        "t",
        "he"
      ],
      [
        "kon",
        "n"
      ],
      [
        "es",
        "s"
      ],
      [
        "19",
        "8"
      ],
      [
        "sp",
        "ä"
      ],
      [
        "ah",
        "n"
      ],
      [
        "t",
        "ig"
      ],
      [
        "g",
        "i"
      ],
      [
        "st",
        "u"
      ],
      [
        "ihr",
        "e"
      ],
      [
        "le",
        "tz"
      ],
      [
        "1",
        "6"
      ],
      [
        "s",
        "y"
      ],
      [
        "st",
        "a"
      ],
      [
        "k",
        "o"
      ],
      [
        "sch",
        "ließ"
      ],
      [
        "z",
        "ahl"
      ],
      [
        "jahr",
        "hunder"
      ],
      [
        "for",
        "m"
      ],
      [
        "at",
        "er"
      ],
      [
        "m",
        "ö"
      ],
      [
        "s",
        "oll"
      ],
      [
        "h",
        "ol"
      ],
      [
        "mit",
        "tel"
      ],
      [
        "m",
        "ber"
      ],
      [
        "wei",
        "se"
      ],
      [
        "un",
        "i"
      ],
      [
        "e",
        "x"
      ],
      [
        "el",
        "le"
      ],
      [
        "h",
        "eit"
      ],
      [
        "f",
        "il"
      ],
      [
        "b",
        "st"
      ],
      [
        "g",
        "te"
      ],
      [
        "t",
        "ur"
      ],
      [
        "aus",
        "ge"
      ],
      [
        "h",
        "men"
      ],
      [
        "str",
        "a"
      ],
      [
        "zur",
        "ück"
      ],
      [
        "tr",
        "a"
      ],
      [
        "sch",
        "n"
      ],
      [
        "er",
        "fol"
      ],
      [
        "ier",
        "ung"
      ],
      [
        "wer",
        "k"
      ],
      [
        "so",
        "wie"
      ],
      [
        "im",
        "m"
      ],
      [
        "p",
        "h"
      ],
      [
        "er",
        "sten"
      ],
      [
        "ie",
        "g"
      ],
      [
        "la",
        "g"
      ],
      [
        "und",
        "en"
      ],
      [
        "or",
        "en"
      ],
      [
        "ö",
        "l"
      ],
      [
        "d",
        "ung"
      ],
      [
        "stell",
        "t"
      ],
      [
        "bur",
        "g"
      ],
      [
        "it",
        "t"
      ],
      [
        "zu",
        "sam"
      ],
      [
        "spä",
        "ter"
      ],
      [
        "z",
        "i"
      ],
      [
        "zusam",
        "men"
      ],
      [
        "ge",
        "sam"
      ],
      [
        "19",
        "7"
      ],
      [
        "wel",
        "t"
      ],
      [
        "e",
        "ben"
      ],
      [
        "l",
        "ung"
      ],
      [
        "s",
        "ü"
      ],
      [
        "f",
        "rei"
      ],
      [
        "ver",
        "l"
      ],
      [
        "n",
        "o"
      ],
      [
        "d",
        "ort"
      ],
      [
        "m",
        "o"
      ],
      [
        "st",
        "än"
      ],
      [
        "g",
        "lie"
      ],
      [
        "ß",
        "en"
      ],
      [
        "19",
        "4"
      ],
      [
        "l",
        "an"
      ],
      [
        "m",
        "on"
      ],
      [
        "n",
        "ie"
      ],
      [
        "i",
        "a"
      ],
      [
        "ge",
        "f"
      ],
      [
        "ber",
        "g"
      ],
      [
        "ie",
        "b"
      ],
      [
        "1",
        "0"
      ],
      [
        "h",
        "ier"
      ],
      [
        "w",
        "ähr"
      ],
      [
        "be",
        "l"
      ],
      [
        "b",
        "ahn"
      ],
      [
        "w",
        "or"
      ],
      [
        "k",
        "ar"
      ],
      [
        "al",
        "en"
      ],
      [
        "gr",
        "ö"
      ],
      [
        "19",
        "6"
      ],
      [
        "te",
        "te"
      ],
      [
        "i",
        "hn"
      ],
      [
        "ge",
        "ben"
      ],
      [
        "a",
        "kt"
      ],
      [
        "öff",
        "ent"
      ],
      [
        "ä",
        "hl"
      ],
      [
        "p",
        "un"
      ],
      [
        "ig",
        "er"
      ],
      [
        "hal",
        "b"
      ],
      [
        "ß",
        "e"
      ],
      [
        "isch",
        "er"
      ],
      [
        "k",
        "a"
      ],
      [
        "n",
        "ung"
      ],
      [
        "h",
        "aben"
      ],
      [
        "kom",
        "m"
      ],
      [
        "z",
        "er"
      ],
      [
        "i",
        "d"
      ],
      [
        "g",
        "an"
      ],
      [
        "ä",
        "tz"
      ],
      [
        "1",
        "4"
      ],
      [
        "u",
        "ar"
      ],
      [
        "o",
        "h"
      ],
      [
        "et",
        "wa"
      ],
      [
        "in",
        "gen"
      ],
      [
        "währ",
        "end"
      ],
      [
        "setz",
        "t"
      ],
      [
        "geb",
        "ie"
      ],
      [
        "sch",
        "w"
      ],
      [
        "s",
        "atz"
      ],
      [
        "ein",
        "z"
      ],
      [
        "in",
        "ter"
      ],
      [
        "s",
        "ol"
      ],
      [
        "d",
        "or"
      ],
      [
        "ke",
        "hr"
      ],
      [
        "ein",
        "ge"
      ],
      [
        "pl",
        "atz"
      ],
      [
        "fe",
        "st"
      ],
      [
        "l",
        "u"
      ],
      [
        "ber",
        "eits"
      ],
      [
        "g",
        "a"
      ],
      [
        "au",
        "m"
      ],
      [
        "s",
        "einen"
      ],
      [
        "p",
        "e"
      ],
      [
        "w",
        "ick"
      ],
      [
        "d",
        "ab"
      ],
      [
        "la",
        "ge"
      ],
      [
        "k",
        "in"
      ],
      [
        "00",
        "0"
      ],
      [
        "1",
        "3"
      ],
      [
        "be",
        "kann"
      ],
      [
        "nam",
        "en"
      ],
      [
        "i",
        "hm"
      ],
      [
        "ie",
        "le"
      ],
      [
        "k",
        "er"
      ],
      [
        "ver",
        "ein"
      ],
      [
        "19",
        "5"
      ],
      [
        "fr",
        "au"
      ],
      [
        "19",
        "3"
      ],
      [
        "dab",
        "ei"
      ],
      [
        "den",
        "en"
      ],
      [
        "r",
        "icht"
      ],
      [
        "1",
        "2"
      ],
      [
        "konn",
        "te"
      ],
      [
        "l",
        "en"
      ],
      [
        "son",
        "der"
      ],
      [
        "h",
        "and"
      ],
      [
        "l",
        "ang"
      ],
      [
        "h",
        "äl"
      ],
      [
        "at",
        "ur"
      ],
      [
        "r",
        "ich"
      ],
      [
        "s",
        "einem"
      ],
      [
        "sel",
        "bst"
      ],
      [
        "st",
        "att"
      ],
      [
        "c",
        "o"
      ],
      [
        "gr",
        "upp"
      ],
      [
        "i",
        "f"
      ],
      [
        "g",
        "u"
      ],
      [
        "ho",
        "f"
      ],
      [
        "r",
        "en"
      ],
      [
        "ne",
        "hmen"
      ],
      [
        "sch",
        "e"
      ],
      [
        "r",
        "u"
      ],
      [
        "he",
        "ute"
      ],
      [
        "ck",
        "en"
      ],
      [
        "er",
        "sch"
      ],
      [
        "all",
        "er"
      ],
      [
        "d",
        "o"
      ],
      [
        "st",
        "ar"
      ],
      [
        "am",
        "m"
      ],
      [
        "gi",
        "bt"
      ],
      [
        "k",
        "te"
      ],
      [
        "we",
        "g"
      ],
      [
        "ge",
        "hör"
      ],
      [
        "mit",
        "glie"
      ],
      [
        "kön",
        "nen"
      ],
      [
        "k",
        "un"
      ],
      [
        "au",
        "er"
      ],
      [
        "g",
        "ang"
      ],
      [
        "wir",
        "t"
      ],
      [
        "be",
        "st"
      ],
      [
        "ihr",
        "er"
      ],
      [
        "os",
        "s"
      ],
      [
        "sch",
        "ul"
      ],
      [
        "b",
        "a"
      ],
      [
        "in",
        "n"
      ],
      [
        "ent",
        "wick"
      ],
      [
        "f",
        "re"
      ],
      [
        "h",
        "iel"
      ],
      [
        "is",
        "sen"
      ],
      [
        "t",
        "t"
      ],
      [
        "ion",
        "en"
      ],
      [
        "d",
        "ann"
      ],
      [
        "dam",
        "it"
      ],
      [
        "ste",
        "hen"
      ],
      [
        "z",
        "eich"
      ],
      [
        "ig",
        "keit"
      ],
      [
        "führ",
        "t"
      ],
      [
        "d",
        "ing"
      ],
      [
        "mei",
        "ster"
      ],
      [
        "ste",
        "ht"
      ],
      [
        "er",
        "ste"
      ],
      [
        "ge",
        "st"
      ],
      [
        "am",
        "il"
      ],
      [
        "an",
        "den"
      ],
      [
        ")",
        ","
      ],
      [
        "g",
        "ab"
      ],
      [
        "e",
        "ur"
      ],
      [
        "gemein",
        "de"
      ],
      [
        "kir",
        "che"
      ],
      [
        "hei",
        "m"
      ],
      [
        "z",
        "un"
      ],
      [
        "d",
        "an"
      ],
      [
        "se",
        "hen"
      ],
      [
        "sit",
        "z"
      ],
      [
        "wei",
        "l"
      ],
      [
        "pro",
        "du"
      ],
      [
        "g",
        "ar"
      ],
      [
        "m",
        "ü"
      ],
      [
        "f",
        "ern"
      ],
      [
        "hau",
        "pt"
      ],
      [
        "iv",
        "e"
      ],
      [
        "mö",
        "glich"
      ],
      [
        "fil",
        "m"
      ],
      [
        "p",
        "o"
      ],
      [
        "fr",
        "ü"
      ],
      [
        "ver",
        "w"
      ],
      [
        "k",
        "s"
      ],
      [
        "j",
        "u"
      ],
      [
        "z",
        "ei"
      ],
      [
        "e",
        "he"
      ],
      [
        "tr",
        "ag"
      ],
      [
        "öffent",
        "lich"
      ],
      [
        "z",
        "iel"
      ],
      [
        "os",
        "sen"
      ],
      [
        "bei",
        "den"
      ],
      [
        "f",
        "amil"
      ],
      [
        "wo",
        "hl"
      ],
      [
        "ü",
        "tz"
      ],
      [
        "we",
        "st"
      ],
      [
        "ol",
        "le"
      ],
      [
        "bei",
        "m"
      ],
      [
        "was",
        "ser"
      ],
      [
        "sch",
        "ei"
      ],
      [
        "f",
        "ach"
      ],
      [
        "kom",
        "men"
      ],
      [
        "sch",
        "u"
      ],
      [
        "rei",
        "s"
      ],
      [
        "be",
        "sonder"
      ],
      [
        "im",
        "mer"
      ],
      [
        "er",
        "reich"
      ],
      [
        "at",
        "s"
      ],
      [
        "t",
        "i"
      ],
      [
        "fin",
        "det"
      ],
      [
        "han",
        "del"
      ],
      [
        "diese",
        "m"
      ],
      [
        "v",
        "iel"
      ],
      [
        "h",
        "än"
      ],
      [
        "i",
        "ft"
      ],
      [
        "stell",
        "ung"
      ],
      [
        "t",
        "h"
      ],
      [
        "se",
        "hr"
      ],
      [
        "s",
        "k"
      ],
      [
        "al",
        "ter"
      ],
      [
        "ander",
        "en"
      ],
      [
        "i",
        "o"
      ],
      [
        "au",
        "ßer"
      ],
      [
        "gesch",
        "ichte"
      ],
      [
        "gesam",
        "t"
      ],
      [
        "b",
        "uch"
      ],
      [
        "ier",
        "ten"
      ],
      [
        "k",
        "eine"
      ],
      [
        "ell",
        "en"
      ],
      [
        "ne",
        "ben"
      ],
      [
        "weiter",
        "e"
      ],
      [
        "arb",
        "eit"
      ],
      [
        "sü",
        "d"
      ],
      [
        "ber",
        "eich"
      ],
      [
        "ge",
        "le"
      ],
      [
        "ar",
        "d"
      ],
      [
        "kr",
        "ieg"
      ],
      [
        "l",
        "auf"
      ],
      [
        "st",
        "ein"
      ],
      [
        "zen",
        "tr"
      ],
      [
        "geb",
        "äu"
      ],
      [
        "spr",
        "ach"
      ],
      [
        "ver",
        "schie"
      ],
      [
        "in",
        "ner"
      ],
      [
        "zu",
        "g"
      ],
      [
        "in",
        "nen"
      ],
      [
        "is",
        "s"
      ],
      [
        "fall",
        "s"
      ],
      [
        "h",
        "och"
      ],
      [
        "p",
        "a"
      ],
      [
        "gen",
        "d"
      ],
      [
        "om",
        "men"
      ],
      [
        "pol",
        "it"
      ],
      [
        "ol",
        "og"
      ],
      [
        "la",
        "gen"
      ],
      [
        "r",
        "ück"
      ],
      [
        "v",
        "oll"
      ],
      [
        "h",
        "af"
      ],
      [
        "ck",
        "e"
      ],
      [
        "ch",
        "r"
      ],
      [
        "j",
        "an"
      ],
      [
        "m",
        "u"
      ],
      [
        "dor",
        "f"
      ],
      [
        "0",
        "er"
      ],
      [
        "l",
        "ig"
      ],
      [
        "it",
        "ion"
      ],
      [
        "hiel",
        "t"
      ],
      [
        "k",
        "auf"
      ],
      [
        "mus",
        "ik"
      ],
      [
        "b",
        "ür"
      ],
      [
        "“",
        "."
      ],
      [
        "st",
        "re"
      ],
      [
        "w",
        "ahl"
      ],
      [
        "k",
        "re"
      ],
      [
        "f",
        "te"
      ],
      [
        "m",
        "als"
      ],
      [
        "ö",
        "s"
      ],
      [
        "mehr",
        "er"
      ],
      [
        "dies",
        "es"
      ],
      [
        "des",
        "sen"
      ],
      [
        "3",
        "0"
      ],
      [
        "i",
        "an"
      ],
      [
        "nah",
        "m"
      ],
      [
        "v",
        "ol"
      ],
      [
        "en",
        "z"
      ],
      [
        "lich",
        "er"
      ],
      [
        "ann",
        "t"
      ],
      [
        "m",
        "ut"
      ],
      [
        "w",
        "issen"
      ],
      [
        "al",
        "d"
      ],
      [
        "per",
        "son"
      ],
      [
        "2",
        "5"
      ],
      [
        "ation",
        "en"
      ],
      [
        "bekann",
        "t"
      ],
      [
        "j",
        "o"
      ],
      [
        "bez",
        "eich"
      ],
      [
        "jahrhunder",
        "t"
      ],
      [
        "schaf",
        "ten"
      ],
      [
        "häl",
        "t"
      ],
      [
        "fü",
        "n"
      ],
      [
        "ver",
        "s"
      ],
      [
        "be",
        "sch"
      ],
      [
        "v",
        "i"
      ],
      [
        "p",
        "en"
      ],
      [
        "un",
        "de"
      ],
      [
        "k",
        "ün"
      ],
      [
        "el",
        "e"
      ],
      [
        "stra",
        "ße"
      ],
      [
        "j",
        "uni"
      ],
      [
        "t",
        "ag"
      ],
      [
        "a",
        "st"
      ],
      [
        "k",
        "ul"
      ],
      [
        "bil",
        "d"
      ],
      [
        "fol",
        "gen"
      ],
      [
        "fl",
        "äch"
      ],
      [
        "deut",
        "schen"
      ],
      [
        "ä",
        "m"
      ],
      [
        "gr",
        "iff"
      ],
      [
        "sich",
        "er"
      ],
      [
        "sei",
        "te"
      ],
      [
        "t",
        "ät"
      ],
      [
        "ihr",
        "en"
      ],
      [
        "we",
        "gen"
      ],
      [
        "fr",
        "ie"
      ],
      [
        "c",
        "e"
      ],
      [
        "n",
        "ord"
      ],
      [
        "r",
        "at"
      ],
      [
        "n",
        "or"
      ],
      [
        "r",
        "aum"
      ],
      [
        "pun",
        "kt"
      ],
      [
        "in",
        "e"
      ],
      [
        "b",
        "and"
      ],
      [
        "f",
        "as"
      ],
      [
        "o",
        "gen"
      ],
      [
        "u",
        "ck"
      ],
      [
        "är",
        "z"
      ],
      [
        "sp",
        "ort"
      ],
      [
        "fin",
        "den"
      ],
      [
        "ä",
        "hn"
      ],
      [
        "fol",
        "ge"
      ],
      [
        "en",
        "den"
      ],
      [
        "gebie",
        "t"
      ],
      [
        "f",
        "ang"
      ],
      [
        "te",
        "mber"
      ],
      [
        "dar",
        "auf"
      ],
      [
        "sich",
        "t"
      ],
      [
        "w",
        "es"
      ],
      [
        "nie",
        "der"
      ],
      [
        "fün",
        "f"
      ],
      [
        "ier",
        "e"
      ],
      [
        "sp",
        "e"
      ],
      [
        "schl",
        "and"
      ],
      [
        "t",
        "on"
      ],
      [
        "p",
        "u"
      ],
      [
        "deut",
        "schland"
      ],
      [
        "o",
        "kt"
      ],
      [
        "is",
        "on"
      ],
      [
        "f",
        "ig"
      ],
      [
        "a",
        "ten"
      ],
      [
        "f",
        "ort"
      ],
      [
        "m",
        "ä"
      ],
      [
        "sch",
        "iff"
      ],
      [
        "ver",
        "öffentlich"
      ],
      [
        "äch",
        "st"
      ],
      [
        "rech",
        "t"
      ],
      [
        "schu",
        "le"
      ],
      [
        "i",
        "den"
      ],
      [
        "no",
        "v"
      ],
      [
        "ge",
        "stellt"
      ],
      [
        "b",
        "un"
      ],
      [
        "w",
        "eit"
      ],
      [
        "lie",
        "gt"
      ],
      [
        "neu",
        "e"
      ],
      [
        "r",
        "und"
      ],
      [
        "hal",
        "t"
      ],
      [
        "sch",
        "on"
      ],
      [
        "k",
        "ei"
      ],
      [
        "ding",
        "s"
      ],
      [
        "lie",
        "b"
      ],
      [
        "wen",
        "n"
      ],
      [
        "w",
        "ür"
      ],
      [
        "wirt",
        "schaft"
      ],
      [
        "it",
        "z"
      ],
      [
        "betr",
        "ieb"
      ],
      [
        "ein",
        "ige"
      ],
      [
        "s",
        "ätz"
      ],
      [
        "gebäu",
        "de"
      ],
      [
        "m",
        "ach"
      ],
      [
        "u",
        "er"
      ],
      [
        "än",
        "der"
      ],
      [
        "it",
        "ät"
      ],
      [
        "c",
        "a"
      ],
      [
        "n",
        "ation"
      ],
      [
        "ist",
        "en"
      ],
      [
        "okt",
        "ober"
      ],
      [
        "i",
        "um"
      ],
      [
        "ma",
        "i"
      ],
      [
        "b",
        "ü"
      ],
      [
        "tr",
        "o"
      ],
      [
        "k",
        "ap"
      ],
      [
        "ar",
        "ch"
      ],
      [
        "kom",
        "p"
      ],
      [
        "aller",
        "dings"
      ],
      [
        "schließ",
        "lich"
      ],
      [
        "wohn",
        "er"
      ],
      [
        "se",
        "p"
      ],
      [
        "t",
        "or"
      ],
      [
        "o",
        "f"
      ],
      [
        "ie",
        "ben"
      ],
      [
        "re",
        "gel"
      ],
      [
        "f",
        "äl"
      ],
      [
        "v",
        "e"
      ],
      [
        "k",
        "an"
      ],
      [
        "einz",
        "el"
      ],
      [
        "s",
        "u"
      ],
      [
        "m",
        "ün"
      ],
      [
        "m",
        "el"
      ],
      [
        "ges",
        "ell"
      ],
      [
        "z",
        "ähl"
      ],
      [
        "tr",
        "ä"
      ],
      [
        "a",
        "pr"
      ],
      [
        "oh",
        "ne"
      ],
      [
        "h",
        "el"
      ],
      [
        "eur",
        "op"
      ],
      [
        "kin",
        "der"
      ],
      [
        "eben",
        "falls"
      ],
      [
        "be",
        "s"
      ],
      [
        "apr",
        "il"
      ],
      [
        "j",
        "ul"
      ],
      [
        "5",
        "0"
      ],
      [
        "f",
        "u"
      ],
      [
        "ge",
        "hen"
      ],
      [
        "gen",
        "ommen"
      ],
      [
        "le",
        "hr"
      ],
      [
        "hin",
        "ter"
      ],
      [
        "as",
        "se"
      ],
      [
        "di",
        "re"
      ],
      [
        "m",
        "ill"
      ],
      [
        "wer",
        "t"
      ],
      [
        "de",
        "ze"
      ],
      [
        "deze",
        "mber"
      ],
      [
        "schie",
        "d"
      ],
      [
        "n",
        "un"
      ],
      [
        "sep",
        "tember"
      ],
      [
        "her",
        "r"
      ],
      [
        "ze",
        "u"
      ],
      [
        "schr",
        "ift"
      ],
      [
        "j",
        "ähr"
      ],
      [
        "jan",
        "uar"
      ],
      [
        "k",
        "m"
      ],
      [
        "der",
        "en"
      ],
      [
        "au",
        "gu"
      ],
      [
        "w",
        "ill"
      ],
      [
        "unter",
        "nehmen"
      ],
      [
        "ti",
        "tel"
      ],
      [
        "stell",
        "en"
      ],
      [
        "sa",
        "ison"
      ],
      [
        "f",
        "ör"
      ],
      [
        "och",
        "en"
      ],
      [
        "le",
        "s"
      ],
      [
        "sp",
        "rech"
      ],
      [
        "off",
        "en"
      ],
      [
        "zwei",
        "ten"
      ],
      [
        "sy",
        "ste"
      ],
      [
        "n",
        "a"
      ],
      [
        "v",
        "öl"
      ],
      [
        "1",
        "1"
      ],
      [
        "f",
        "and"
      ],
      [
        "zun",
        "ächst"
      ],
      [
        "g",
        "ung"
      ],
      [
        "19",
        "2"
      ],
      [
        "al",
        "ten"
      ],
      [
        "str",
        "u"
      ],
      [
        "kön",
        "ig"
      ],
      [
        "augu",
        "st"
      ],
      [
        "fahr",
        "en"
      ],
      [
        "wor",
        "den"
      ],
      [
        "beg",
        "ann"
      ],
      [
        "v",
        "ater"
      ],
      [
        "ab",
        "ge"
      ],
      [
        "or",
        "gan"
      ],
      [
        "men",
        "schen"
      ],
      [
        "ch",
        "n"
      ],
      [
        "de",
        "te"
      ],
      [
        "fl",
        "ü"
      ],
      [
        "leben",
        "s"
      ],
      [
        "fel",
        "d"
      ],
      [
        "pr",
        "äs"
      ],
      [
        "grupp",
        "e"
      ],
      [
        "bür",
        "ger"
      ],
      [
        "al",
        "b"
      ],
      [
        "k",
        "at"
      ],
      [
        "m",
        "ärz"
      ],
      [
        "g",
        "ut"
      ],
      [
        "lie",
        "gen"
      ],
      [
        "sch",
        "wer"
      ],
      [
        "b",
        "ach"
      ],
      [
        "fl",
        "ug"
      ],
      [
        "r",
        "ä"
      ],
      [
        "l",
        "au"
      ],
      [
        "m",
        "ot"
      ],
      [
        "st",
        "ei"
      ],
      [
        "bun",
        "des"
      ],
      [
        "neu",
        "en"
      ],
      [
        "jul",
        "i"
      ],
      [
        "fr",
        "a"
      ],
      [
        "em",
        "ber"
      ],
      [
        "se",
        "ch"
      ],
      [
        "geb",
        "aut"
      ],
      [
        "nov",
        "ember"
      ],
      [
        "m",
        "il"
      ],
      [
        "t",
        "y"
      ],
      [
        "dr",
        "uck"
      ],
      [
        "ze",
        "hn"
      ],
      [
        "an",
        "fang"
      ],
      [
        "d",
        "ah"
      ],
      [
        "so",
        "hn"
      ],
      [
        "u",
        "ten"
      ],
      [
        "ins",
        "gesamt"
      ],
      [
        "it",
        "ten"
      ],
      [
        "v",
        "iele"
      ],
      [
        "h",
        "il"
      ],
      [
        "ver",
        "such"
      ],
      [
        "k",
        "ten"
      ],
      [
        "lan",
        "des"
      ],
      [
        "f",
        "un"
      ],
      [
        "te",
        "m"
      ],
      [
        "ber",
        "lin"
      ],
      [
        "am",
        "t"
      ],
      [
        "me",
        "ter"
      ],
      [
        "famil",
        "ie"
      ],
      [
        "k",
        "el"
      ],
      [
        "z",
        "ie"
      ],
      [
        "we",
        "ch"
      ],
      [
        "kun",
        "st"
      ],
      [
        "er",
        "w"
      ],
      [
        "jahrhunder",
        "ts"
      ],
      [
        "am",
        "er"
      ],
      [
        "om",
        "e"
      ],
      [
        "in",
        "tern"
      ],
      [
        "arbei",
        "ten"
      ],
      [
        "y",
        "s"
      ],
      [
        "pl",
        "an"
      ],
      [
        "da",
        "ten"
      ],
      [
        "z",
        "ent"
      ],
      [
        "g",
        "än"
      ],
      [
        "er",
        "s"
      ],
      [
        "dien",
        "st"
      ],
      [
        "ig",
        "t"
      ],
      [
        "h",
        "ä"
      ],
      [
        "kur",
        "z"
      ],
      [
        "r",
        "el"
      ],
      [
        "ö",
        "st"
      ],
      [
        "m",
        "at"
      ],
      [
        "r",
        "es"
      ],
      [
        "ein",
        "ander"
      ],
      [
        "richt",
        "ung"
      ],
      [
        "schaf",
        "ts"
      ],
      [
        "p",
        "el"
      ],
      [
        "j",
        "a"
      ],
      [
        "da",
        "zu"
      ],
      [
        "i",
        "i"
      ],
      [
        "ver",
        "kehr"
      ],
      [
        "be",
        "findet"
      ],
      [
        "schl",
        "uss"
      ],
      [
        "ur",
        "spr"
      ],
      [
        "ander",
        "e"
      ],
      [
        "m",
        "än"
      ],
      [
        "it",
        "al"
      ],
      [
        "l",
        "i"
      ],
      [
        "alle",
        "m"
      ],
      [
        "außer",
        "dem"
      ],
      [
        "l",
        "it"
      ],
      [
        "fr",
        "anz"
      ],
      [
        "zahl",
        "reich"
      ],
      [
        "kei",
        "ten"
      ],
      [
        "l",
        "eich"
      ],
      [
        "die",
        "sen"
      ],
      [
        "ch",
        "ar"
      ],
      [
        "um",
        "s"
      ],
      [
        "er",
        "hielt"
      ],
      [
        "ik",
        "an"
      ],
      [
        "w",
        "ahr"
      ],
      [
        "tra",
        "gen"
      ],
      [
        "führ",
        "ung"
      ],
      [
        "st",
        "ück"
      ],
      [
        "nah",
        "men"
      ],
      [
        "19",
        "0"
      ],
      [
        "er",
        "halten"
      ],
      [
        "ver",
        "fü"
      ],
      [
        "wech",
        "sel"
      ],
      [
        "je",
        "weil"
      ],
      [
        "2",
        "1"
      ],
      [
        "h",
        "le"
      ],
      [
        "schl",
        "oss"
      ],
      [
        "k",
        "or"
      ],
      [
        "nah",
        "me"
      ],
      [
        "iv",
        "en"
      ],
      [
        "auf",
        "grund"
      ],
      [
        "l",
        "assen"
      ],
      [
        "te",
        "chn"
      ],
      [
        "an",
        "gen"
      ],
      [
        "m",
        "or"
      ],
      [
        "son",
        "dern"
      ],
      [
        "k",
        "reis"
      ],
      [
        "fr",
        "ank"
      ],
      [
        "letz",
        "ten"
      ],
      [
        "le",
        "b"
      ],
      [
        "an",
        "s"
      ],
      [
        "mitglie",
        "d"
      ],
      [
        "for",
        "sch"
      ],
      [
        "mehrer",
        "e"
      ],
      [
        "kul",
        "tur"
      ],
      [
        "“",
        ","
      ],
      [
        "ch",
        "t"
      ],
      [
        "ar",
        "r"
      ],
      [
        "de",
        "ck"
      ],
      [
        "ch",
        "er"
      ],
      [
        "ein",
        "wohner"
      ],
      [
        "me",
        "t"
      ],
      [
        "n",
        "t"
      ],
      [
        "kl",
        "är"
      ],
      [
        "mit",
        "te"
      ],
      [
        "w",
        "ort"
      ],
      [
        "b",
        "i"
      ],
      [
        "ihr",
        "em"
      ],
      [
        "b",
        "as"
      ],
      [
        "tre",
        "ten"
      ],
      [
        "v",
        "en"
      ],
      [
        "zi",
        "al"
      ],
      [
        "wissen",
        "schaft"
      ],
      [
        "nach",
        "dem"
      ],
      [
        "ga",
        "be"
      ],
      [
        "auf",
        "ge"
      ],
      [
        "o",
        "st"
      ],
      [
        "o",
        "ck"
      ],
      [
        "b",
        "le"
      ],
      [
        "ersch",
        "ien"
      ],
      [
        "ze",
        "ug"
      ],
      [
        "k",
        "op"
      ],
      [
        "ver",
        "wen"
      ],
      [
        "all",
        "en"
      ],
      [
        "hei",
        "ra"
      ],
      [
        "h",
        "ist"
      ],
      [
        "hat",
        "ten"
      ],
      [
        "fe",
        "hl"
      ],
      [
        "alt",
        "ung"
      ],
      [
        "be",
        "such"
      ],
      [
        "kt",
        "ur"
      ],
      [
        "an",
        "st"
      ],
      [
        "ber",
        "u"
      ],
      [
        "soll",
        "te"
      ],
      [
        "gesell",
        "schaft"
      ],
      [
        "person",
        "en"
      ],
      [
        "la",
        "ger"
      ],
      [
        "sch",
        "utz"
      ],
      [
        "groß",
        "e"
      ],
      [
        "groß",
        "en"
      ],
      [
        "p",
        "re"
      ],
      [
        "i",
        "al"
      ],
      [
        "st",
        "arb"
      ],
      [
        "gr",
        "af"
      ],
      [
        "gesch",
        "ä"
      ],
      [
        "pr",
        "ä"
      ],
      [
        "schn",
        "itt"
      ],
      [
        "entwick",
        "el"
      ],
      [
        "be",
        "sitz"
      ],
      [
        "2",
        "4"
      ],
      [
        "n",
        "utz"
      ],
      [
        "pu",
        "bl"
      ],
      [
        "beg",
        "inn"
      ],
      [
        "i",
        "te"
      ],
      [
        "h",
        "äu"
      ],
      [
        "c",
        "om"
      ],
      [
        "p",
        "ort"
      ],
      [
        "p",
        "os"
      ],
      [
        "dan",
        "ach"
      ],
      [
        "gen",
        "er"
      ],
      [
        "intern",
        "ation"
      ],
      [
        "for",
        "der"
      ],
      [
        "völ",
        "ker"
      ],
      [
        "d",
        "is"
      ],
      [
        "bil",
        "dung"
      ],
      [
        "k",
        "ü"
      ],
      [
        "st",
        "amm"
      ],
      [
        "fläch",
        "e"
      ],
      [
        "st",
        "ütz"
      ],
      [
        "w",
        "il"
      ],
      [
        "te",
        "x"
      ],
      [
        "zu",
        "dem"
      ],
      [
        "fl",
        "uss"
      ],
      [
        "weiter",
        "en"
      ],
      [
        "ver",
        "sit"
      ],
      [
        "spiel",
        "er"
      ],
      [
        "ist",
        "er"
      ],
      [
        "kr",
        "it"
      ],
      [
        "k",
        "al"
      ],
      [
        "g",
        "ten"
      ],
      [
        "en",
        "gl"
      ],
      [
        "a",
        "te"
      ],
      [
        "organ",
        "is"
      ],
      [
        "wir",
        "k"
      ],
      [
        "urspr",
        "ün"
      ],
      [
        "c",
        "on"
      ],
      [
        "l",
        "äs"
      ],
      [
        "g",
        "ot"
      ],
      [
        "fe",
        "br"
      ],
      [
        "febr",
        "uar"
      ],
      [
        "lei",
        "st"
      ],
      [
        "hist",
        "or"
      ],
      [
        "r",
        "om"
      ],
      [
        "18",
        "9"
      ],
      [
        "to",
        "d"
      ],
      [
        "uni",
        "versit"
      ],
      [
        "grö",
        "ßer"
      ],
      [
        "es",
        "sen"
      ],
      [
        "in",
        "st"
      ],
      [
        "in",
        "a"
      ],
      [
        "dire",
        "kt"
      ],
      [
        "komm",
        "t"
      ],
      [
        "2",
        "3"
      ],
      [
        "führ",
        "te"
      ],
      [
        "g",
        "ing"
      ],
      [
        "k",
        "ör"
      ],
      [
        "sech",
        "s"
      ],
      [
        "ge",
        "setz"
      ],
      [
        "kir",
        "chen"
      ],
      [
        "ge",
        "br"
      ],
      [
        "tr",
        "at"
      ],
      [
        "ver",
        "lag"
      ],
      [
        "gr",
        "eich"
      ],
      [
        "g",
        "ol"
      ],
      [
        "deut",
        "sche"
      ],
      [
        "h",
        "am"
      ],
      [
        "o",
        "w"
      ],
      [
        "be",
        "stand"
      ],
      [
        "grö",
        "ß"
      ],
      [
        "st",
        "anden"
      ],
      [
        "ge",
        "grün"
      ],
      [
        "stän",
        "dig"
      ],
      [
        "frau",
        "en"
      ],
      [
        "rech",
        "ts"
      ],
      [
        "gesch",
        "l"
      ],
      [
        "reg",
        "ion"
      ],
      [
        "sein",
        "es"
      ],
      [
        "mä",
        "ß"
      ],
      [
        "nis",
        "se"
      ],
      [
        "b",
        "zw"
      ],
      [
        "st",
        "elle"
      ],
      [
        "best",
        "imm"
      ],
      [
        "p",
        "art"
      ],
      [
        "f",
        "ar"
      ],
      [
        "w",
        "icht"
      ],
      [
        "bei",
        "spiel"
      ],
      [
        "jahr",
        "es"
      ],
      [
        "r",
        "i"
      ],
      [
        "h",
        "ung"
      ],
      [
        "ation",
        "s"
      ],
      [
        "ach",
        "sen"
      ],
      [
        "4",
        "0"
      ],
      [
        "g",
        "ü"
      ],
      [
        "o",
        "ft"
      ],
      [
        "st",
        "at"
      ],
      [
        "erst",
        "mals"
      ],
      [
        "mit",
        "t"
      ],
      [
        "sei",
        "ten"
      ],
      [
        "iden",
        "t"
      ],
      [
        "b",
        "lieb"
      ],
      [
        "ie",
        "f"
      ],
      [
        "p",
        "s"
      ],
      [
        "verschie",
        "den"
      ],
      [
        "ä",
        "d"
      ],
      [
        "ar",
        "e"
      ],
      [
        "um",
        "en"
      ],
      [
        "201",
        "1"
      ],
      [
        "k",
        "n"
      ],
      [
        "2",
        "2"
      ],
      [
        "mus",
        "s"
      ],
      [
        "geschl",
        "ossen"
      ],
      [
        "kün",
        "st"
      ],
      [
        "syste",
        "m"
      ],
      [
        "in",
        "en"
      ],
      [
        "l",
        "t"
      ],
      [
        "h",
        "ü"
      ],
      [
        "deut",
        "sch"
      ],
      [
        "d",
        "on"
      ],
      [
        "l",
        "os"
      ],
      [
        "eit",
        "ung"
      ],
      [
        "chr",
        "ist"
      ],
      [
        "i",
        "de"
      ],
      [
        "d",
        "re"
      ],
      [
        "af",
        "t"
      ],
      [
        "br",
        "ach"
      ],
      [
        "je",
        "kt"
      ],
      [
        "se",
        "e"
      ],
      [
        "tät",
        "ig"
      ],
      [
        "v",
        "is"
      ],
      [
        "unter",
        "schied"
      ],
      [
        "n",
        "atur"
      ],
      [
        "ver",
        "kauf"
      ],
      [
        "y",
        "m"
      ],
      [
        "s",
        "h"
      ],
      [
        "produ",
        "ktion"
      ],
      [
        "be",
        "völker"
      ],
      [
        ".",
        "“"
      ],
      [
        "hö",
        "he"
      ],
      [
        "ha",
        "be"
      ],
      [
        "s",
        "an"
      ],
      [
        "als",
        "o"
      ],
      [
        "gemein",
        "sam"
      ],
      [
        "dah",
        "er"
      ],
      [
        "v",
        "an"
      ],
      [
        "sit",
        "zen"
      ],
      [
        "b",
        "ie"
      ],
      [
        "st",
        "är"
      ],
      [
        "le",
        "gt"
      ],
      [
        "ur",
        "t"
      ],
      [
        "mei",
        "st"
      ],
      [
        "sch",
        "ein"
      ],
      [
        "sch",
        "wei"
      ],
      [
        "hr",
        "en"
      ],
      [
        "m",
        "acht"
      ],
      [
        "wa",
        "gen"
      ],
      [
        "2",
        "6"
      ],
      [
        "r",
        "ad"
      ],
      [
        "lich",
        "t"
      ],
      [
        "tei",
        "le"
      ],
      [
        "s",
        "al"
      ],
      [
        "ar",
        "ten"
      ],
      [
        "ö",
        "ster"
      ],
      [
        "an",
        "ken"
      ],
      [
        "sch",
        "rei"
      ],
      [
        "m",
        "ag"
      ],
      [
        "kör",
        "per"
      ],
      [
        "besonder",
        "e"
      ],
      [
        "da",
        "von"
      ],
      [
        "be",
        "steht"
      ],
      [
        "201",
        "0"
      ],
      [
        "18",
        "8"
      ],
      [
        "er",
        "ken"
      ],
      [
        "mann",
        "schaft"
      ],
      [
        "im",
        "e"
      ],
      [
        "sie",
        "d"
      ],
      [
        "z",
        "in"
      ],
      [
        "fer",
        "tig"
      ],
      [
        "l",
        "ern"
      ],
      [
        "folgen",
        "den"
      ],
      [
        "sch",
        "ü"
      ],
      [
        "l",
        "am"
      ],
      [
        "st",
        "ieg"
      ],
      [
        "18",
        "7"
      ],
      [
        "mus",
        "ste"
      ],
      [
        "ig",
        "ung"
      ],
      [
        "bei",
        "de"
      ],
      [
        "l",
        "ungen"
      ],
      [
        "re",
        "st"
      ],
      [
        "b",
        "ung"
      ],
      [
        "w",
        "oll"
      ],
      [
        "bl",
        "ei"
      ],
      [
        "än",
        "de"
      ],
      [
        "k",
        "u"
      ],
      [
        "s",
        "or"
      ],
      [
        "201",
        "2"
      ],
      [
        "in",
        "gt"
      ],
      [
        "off",
        "iz"
      ],
      [
        "konn",
        "ten"
      ],
      [
        "mu",
        "se"
      ],
      [
        "b",
        "all"
      ],
      [
        "f",
        "ast"
      ],
      [
        "gr",
        "amm"
      ],
      [
        "qu",
        "al"
      ],
      [
        "fun",
        "ktion"
      ],
      [
        "in",
        "ger"
      ],
      [
        "200",
        "9"
      ],
      [
        "h",
        "ein"
      ],
      [
        "en",
        "s"
      ],
      [
        "sch",
        "war"
      ],
      [
        "te",
        "am"
      ],
      [
        "ma",
        "ß"
      ],
      [
        "grupp",
        "en"
      ],
      [
        "2",
        "7"
      ],
      [
        "c",
        "ar"
      ],
      [
        "is",
        "mus"
      ],
      [
        "g",
        "ie"
      ],
      [
        "teil",
        "t"
      ],
      [
        "unter",
        "stütz"
      ],
      [
        "utz",
        "t"
      ],
      [
        "he",
        "ut"
      ],
      [
        "mut",
        "ter"
      ],
      [
        "u",
        "str"
      ],
      [
        "mar",
        "k"
      ],
      [
        "ur",
        "en"
      ],
      [
        "pr",
        "iv"
      ],
      [
        "g",
        "o"
      ],
      [
        "200",
        "7"
      ],
      [
        "hol",
        "z"
      ],
      [
        "zei",
        "gt"
      ],
      [
        "v",
        "ar"
      ],
      [
        "sam",
        "m"
      ],
      [
        "lit",
        "er"
      ],
      [
        "hä",
        "us"
      ],
      [
        "br",
        "it"
      ],
      [
        "w",
        "i"
      ],
      [
        "mo",
        "del"
      ],
      [
        "w",
        "ald"
      ],
      [
        "e",
        "ch"
      ],
      [
        "bes",
        "ser"
      ],
      [
        "2",
        "8"
      ],
      [
        "v",
        "o"
      ],
      [
        "z",
        "og"
      ],
      [
        "spiel",
        "en"
      ],
      [
        "200",
        "8"
      ],
      [
        "l",
        "ange"
      ],
      [
        "w",
        "and"
      ],
      [
        "n",
        "ot"
      ],
      [
        "gen",
        "ann"
      ],
      [
        "ehe",
        "mal"
      ],
      [
        "an",
        "geb"
      ],
      [
        "ju",
        "gend"
      ],
      [
        "fin",
        "anz"
      ],
      [
        "a",
        "c"
      ],
      [
        "star",
        "k"
      ],
      [
        "1",
        "00"
      ],
      [
        "öster",
        "reich"
      ],
      [
        "b",
        "u"
      ],
      [
        "201",
        "4"
      ],
      [
        "par",
        "tei"
      ],
      [
        "gen",
        "annt"
      ],
      [
        "201",
        "3"
      ],
      [
        "alb",
        "um"
      ],
      [
        "fu",
        "ß"
      ],
      [
        "z",
        "ogen"
      ],
      [
        "pro",
        "f"
      ],
      [
        "t",
        "ö"
      ],
      [
        "l",
        "ö"
      ],
      [
        "k",
        "il"
      ],
      [
        "st",
        "äd"
      ],
      [
        "arbei",
        "tete"
      ],
      [
        "f",
        "ass"
      ],
      [
        "nam",
        "e"
      ],
      [
        "sta",
        "at"
      ],
      [
        "s",
        "sen"
      ],
      [
        "it",
        "är"
      ],
      [
        "her",
        "aus"
      ],
      [
        "es",
        "se"
      ],
      [
        "och",
        "ter"
      ],
      [
        "m",
        "m"
      ],
      [
        "ei",
        "g"
      ],
      [
        "er",
        "ne"
      ],
      [
        "ein",
        "satz"
      ],
      [
        "bez",
        "ie"
      ],
      [
        "entwick",
        "lung"
      ],
      [
        "6",
        "0"
      ],
      [
        "e",
        "d"
      ],
      [
        "der",
        "t"
      ],
      [
        "gegen",
        "über"
      ],
      [
        "t",
        "lich"
      ],
      [
        "lig",
        "a"
      ],
      [
        "g",
        "aben"
      ],
      [
        "be",
        "de"
      ],
      [
        "p",
        "at"
      ],
      [
        "lie",
        "fer"
      ],
      [
        "stell",
        "te"
      ],
      [
        "jeweil",
        "s"
      ],
      [
        "on",
        "e"
      ],
      [
        "rich",
        "tet"
      ],
      [
        "führ",
        "en"
      ],
      [
        "gew",
        "ann"
      ],
      [
        "setz",
        "ung"
      ],
      [
        "mitglie",
        "der"
      ],
      [
        "gr",
        "en"
      ],
      [
        "wo",
        "bei"
      ],
      [
        "m",
        "oder"
      ],
      [
        "kre",
        "u"
      ],
      [
        "h",
        "ar"
      ],
      [
        "stra",
        "ßen"
      ],
      [
        "in",
        "sel"
      ],
      [
        "sp",
        "iele"
      ],
      [
        "201",
        "6"
      ],
      [
        "an",
        "schließ"
      ],
      [
        "201",
        "7"
      ],
      [
        "ne",
        "te"
      ],
      [
        "sch",
        "we"
      ],
      [
        "ge",
        "führt"
      ],
      [
        "200",
        "6"
      ],
      [
        "verschie",
        "denen"
      ],
      [
        "mei",
        "sten"
      ],
      [
        "le",
        "gen"
      ],
      [
        "verb",
        "ind"
      ],
      [
        "de",
        "ten"
      ],
      [
        "isch",
        "es"
      ],
      [
        "kr",
        "aft"
      ],
      [
        "wer",
        "ke"
      ],
      [
        "ger",
        "icht"
      ],
      [
        "eigen",
        "en"
      ],
      [
        "t",
        "ochter"
      ],
      [
        "201",
        "5"
      ],
      [
        "br",
        "ück"
      ],
      [
        "h",
        "y"
      ],
      [
        "w",
        "är"
      ],
      [
        "erfol",
        "gte"
      ],
      [
        "kam",
        "pf"
      ],
      [
        "a",
        "un"
      ],
      [
        "2",
        "9"
      ],
      [
        "nation",
        "al"
      ],
      [
        "bezeich",
        "net"
      ],
      [
        "akt",
        "iv"
      ],
      [
        "f",
        "ir"
      ],
      [
        "it",
        "te"
      ],
      [
        "g",
        "il"
      ],
      [
        "r",
        "ik"
      ],
      [
        "reg",
        "ierung"
      ],
      [
        "ab",
        "hän"
      ],
      [
        "tur",
        "m"
      ],
      [
        "b",
        "rei"
      ],
      [
        "t",
        "al"
      ],
      [
        "g",
        "lichen"
      ],
      [
        "s",
        "om"
      ],
      [
        "um",
        "ent"
      ],
      [
        "besch",
        "ä"
      ],
      [
        "k",
        "tr"
      ],
      [
        "ich",
        "tet"
      ],
      [
        "mar",
        "kt"
      ],
      [
        "mill",
        "ionen"
      ],
      [
        "te",
        "ten"
      ],
      [
        "gew",
        "ähl"
      ],
      [
        "hau",
        "p"
      ],
      [
        "r",
        "ö"
      ],
      [
        "le",
        "g"
      ],
      [
        "gele",
        "gen"
      ],
      [
        "uch",
        "t"
      ],
      [
        "verwen",
        "det"
      ],
      [
        "s",
        "il"
      ],
      [
        "geb",
        "oren"
      ],
      [
        "arbei",
        "ter"
      ],
      [
        "franz",
        "ös"
      ],
      [
        "h",
        "or"
      ],
      [
        "w",
        "al"
      ],
      [
        "st",
        "off"
      ],
      [
        "sch",
        "lag"
      ],
      [
        "m",
        "b"
      ],
      [
        "ei",
        "sen"
      ],
      [
        "stru",
        "ktur"
      ],
      [
        "20",
        "00"
      ],
      [
        "b",
        "re"
      ],
      [
        "handel",
        "t"
      ],
      [
        "ei",
        "st"
      ],
      [
        "ent",
        "sprech"
      ],
      [
        "lie",
        "ben"
      ],
      [
        "n",
        "ä"
      ],
      [
        "mil",
        "itär"
      ],
      [
        "künst",
        "ler"
      ],
      [
        "hei",
        "ten"
      ],
      [
        "sta",
        "ats"
      ],
      [
        "krieg",
        "s"
      ],
      [
        "erw",
        "ähn"
      ],
      [
        "gegrün",
        "det"
      ],
      [
        "beru",
        "f"
      ],
      [
        "ent",
        "schei"
      ],
      [
        "wel",
        "che"
      ],
      [
        "k",
        "äm"
      ],
      [
        "u",
        "p"
      ],
      [
        "ge",
        "ht"
      ],
      [
        "ser",
        "ie"
      ],
      [
        "spiel",
        "te"
      ],
      [
        "zu",
        "sätz"
      ],
      [
        "r",
        "ot"
      ],
      [
        "teil",
        "ung"
      ],
      [
        "br",
        "u"
      ],
      [
        "län",
        "ger"
      ],
      [
        "p",
        "or"
      ],
      [
        "we",
        "hr"
      ],
      [
        "wie",
        "sen"
      ],
      [
        "at",
        "or"
      ],
      [
        "a",
        "de"
      ],
      [
        "au",
        "ßen"
      ],
      [
        "abhän",
        "g"
      ],
      [
        "ander",
        "em"
      ],
      [
        "min",
        "ister"
      ],
      [
        "w",
        "ind"
      ],
      [
        "at",
        "iv"
      ],
      [
        "es",
        "en"
      ],
      [
        "ihn",
        "en"
      ],
      [
        "ü",
        "b"
      ],
      [
        "stu",
        "di"
      ],
      [
        "stre",
        "cke"
      ],
      [
        "i",
        "p"
      ],
      [
        "d",
        "auer"
      ],
      [
        "zahlreich",
        "e"
      ],
      [
        "ä",
        "h"
      ],
      [
        "ä",
        "re"
      ],
      [
        "neu",
        "er"
      ],
      [
        "ich",
        "ten"
      ],
      [
        "be",
        "wer"
      ],
      [
        "bo",
        "den"
      ],
      [
        "amer",
        "ikan"
      ],
      [
        "erne",
        "ut"
      ],
      [
        "r",
        "ah"
      ],
      [
        "te",
        "st"
      ],
      [
        "kl",
        "einer"
      ],
      [
        "pro",
        "ble"
      ],
      [
        "ind",
        "ustr"
      ],
      [
        "setz",
        "en"
      ],
      [
        "ma",
        "sch"
      ],
      [
        "besonder",
        "s"
      ],
      [
        "unter",
        "such"
      ],
      [
        "lin",
        "ie"
      ],
      [
        "er",
        "öff"
      ],
      [
        "er",
        "klär"
      ],
      [
        "20",
        "18"
      ],
      [
        "olog",
        "ie"
      ],
      [
        "inst",
        "it"
      ],
      [
        "publ",
        "ik"
      ],
      [
        "be",
        "stehen"
      ],
      [
        "lu",
        "ft"
      ],
      [
        "län",
        "ge"
      ],
      [
        "be",
        "deut"
      ],
      [
        "inner",
        "halb"
      ],
      [
        "s",
        "ig"
      ],
      [
        "200",
        "5"
      ],
      [
        "vol",
        "ks"
      ],
      [
        "we",
        "tt"
      ],
      [
        "zwei",
        "te"
      ],
      [
        "tre",
        "ff"
      ],
      [
        "frü",
        "her"
      ],
      [
        "t",
        "ür"
      ],
      [
        "so",
        "wohl"
      ],
      [
        "gel",
        "ang"
      ],
      [
        "au",
        "r"
      ],
      [
        "be",
        "teil"
      ],
      [
        "z",
        "ü"
      ],
      [
        "zu",
        "ge"
      ],
      [
        "b",
        "s"
      ],
      [
        "o",
        "ster"
      ],
      [
        "20",
        "19"
      ],
      [
        "p",
        "fl"
      ],
      [
        "z",
        "erst"
      ],
      [
        "famil",
        "ien"
      ],
      [
        "g",
        "anz"
      ],
      [
        "läs",
        "st"
      ],
      [
        "kreu",
        "z"
      ],
      [
        "j",
        "en"
      ],
      [
        "erfol",
        "greich"
      ],
      [
        "bis",
        "her"
      ],
      [
        "le",
        "gte"
      ],
      [
        "imm",
        "t"
      ],
      [
        "setz",
        "te"
      ],
      [
        "o",
        "k"
      ],
      [
        "ge",
        "tr"
      ],
      [
        "ital",
        "ien"
      ],
      [
        "18",
        "6"
      ],
      [
        "w",
        "end"
      ],
      [
        "tr",
        "itt"
      ],
      [
        "an",
        "lage"
      ],
      [
        "ik",
        "er"
      ],
      [
        "ko",
        "sten"
      ],
      [
        "ph",
        "il"
      ],
      [
        "di",
        "gen"
      ],
      [
        "häu",
        "fig"
      ],
      [
        "hö",
        "ch"
      ],
      [
        "som",
        "mer"
      ],
      [
        "3",
        "1"
      ],
      [
        "bez",
        "ir"
      ],
      [
        "sie",
        "ben"
      ],
      [
        "so",
        "mit"
      ],
      [
        "gl",
        "ei"
      ],
      [
        "et",
        "was"
      ],
      [
        "s",
        "ach"
      ],
      [
        "ell",
        "er"
      ],
      [
        "zeit",
        "ig"
      ],
      [
        "w",
        "af"
      ],
      [
        "in",
        "form"
      ],
      [
        "ck",
        "er"
      ],
      [
        "to",
        "ur"
      ],
      [
        "op",
        "er"
      ],
      [
        "a",
        "z"
      ],
      [
        "rei",
        "se"
      ],
      [
        "ins",
        "besondere"
      ],
      [
        "tro",
        "tz"
      ],
      [
        "d",
        "ach"
      ],
      [
        "k",
        "ein"
      ],
      [
        "pol",
        "iz"
      ],
      [
        "kil",
        "ome"
      ],
      [
        "p",
        "reis"
      ],
      [
        "ion",
        "s"
      ],
      [
        "l",
        "äu"
      ],
      [
        "w",
        "ien"
      ],
      [
        "ige",
        "s"
      ],
      [
        "en",
        "g"
      ],
      [
        "h",
        "u"
      ],
      [
        "f",
        "iel"
      ],
      [
        "kl",
        "ein"
      ],
      [
        "me",
        "di"
      ],
      [
        "da",
        "durch"
      ],
      [
        "dar",
        "über"
      ],
      [
        "194",
        "5"
      ],
      [
        "g",
        "s"
      ],
      [
        "d",
        "ischen"
      ],
      [
        "j",
        "oh"
      ],
      [
        "ver",
        "trag"
      ],
      [
        "verschieden",
        "e"
      ],
      [
        "z",
        "ess"
      ],
      [
        "rei",
        "he"
      ],
      [
        "da",
        "für"
      ],
      [
        "zerst",
        "ör"
      ],
      [
        "r",
        "olle"
      ],
      [
        "uch",
        "s"
      ],
      [
        "sel",
        "ben"
      ],
      [
        "pf",
        "er"
      ],
      [
        "r",
        "it"
      ],
      [
        "ü",
        "s"
      ],
      [
        "ver",
        "hält"
      ],
      [
        "b",
        "in"
      ],
      [
        "gel",
        "d"
      ],
      [
        "or",
        "den"
      ],
      [
        "ne",
        "tz"
      ],
      [
        "l",
        "ass"
      ],
      [
        "ma",
        "x"
      ],
      [
        "bahn",
        "hof"
      ],
      [
        "ver",
        "br"
      ],
      [
        "gr",
        "ab"
      ],
      [
        "wei",
        "ß"
      ],
      [
        "deut",
        "lich"
      ],
      [
        "haf",
        "t"
      ],
      [
        "st",
        "il"
      ],
      [
        "gil",
        "t"
      ],
      [
        "on",
        "t"
      ],
      [
        "200",
        "4"
      ],
      [
        "ex",
        "ist"
      ],
      [
        "joh",
        "ann"
      ],
      [
        "anschließ",
        "end"
      ],
      [
        "mot",
        "or"
      ],
      [
        "m",
        "iss"
      ],
      [
        "n",
        "ungen"
      ],
      [
        "be",
        "schr"
      ],
      [
        "universit",
        "ät"
      ],
      [
        "i",
        "x"
      ],
      [
        "hl",
        "en"
      ],
      [
        "er",
        "richtet"
      ],
      [
        "pro",
        "zent"
      ],
      [
        "fas",
        "st"
      ],
      [
        "le",
        "x"
      ],
      [
        "gr",
        "enz"
      ],
      [
        "spiel",
        "t"
      ],
      [
        "ta",
        "ge"
      ],
      [
        "gehör",
        "te"
      ],
      [
        "o",
        "d"
      ],
      [
        "arb",
        "eits"
      ],
      [
        "den",
        "k"
      ],
      [
        "mäß",
        "ig"
      ],
      [
        "heira",
        "tet"
      ],
      [
        "er",
        "weiter"
      ],
      [
        "tra",
        "in"
      ],
      [
        "mitt",
        "ler"
      ],
      [
        "m",
        "es"
      ],
      [
        "ät",
        "te"
      ],
      [
        "ak",
        "ter"
      ],
      [
        "upp",
        "en"
      ],
      [
        "m",
        "ent"
      ],
      [
        "m",
        "ater"
      ],
      [
        "män",
        "n"
      ],
      [
        "wi",
        "der"
      ],
      [
        "ent",
        "stand"
      ],
      [
        "8",
        "0"
      ],
      [
        "sch",
        "le"
      ],
      [
        "im",
        "men"
      ],
      [
        "erreich",
        "te"
      ],
      [
        "e",
        "hmen"
      ],
      [
        "b",
        "or"
      ],
      [
        "kr",
        "ä"
      ],
      [
        "teil",
        "weise"
      ],
      [
        "bevölker",
        "ung"
      ],
      [
        "gen",
        "utzt"
      ],
      [
        "kl",
        "einen"
      ],
      [
        "wen",
        "ig"
      ],
      [
        "tr",
        "an"
      ],
      [
        "frü",
        "h"
      ],
      [
        "ei",
        "er"
      ],
      [
        "sten",
        "s"
      ],
      [
        "ge",
        "g"
      ],
      [
        "pl",
        "at"
      ],
      [
        "d",
        "at"
      ],
      [
        "kl",
        "asse"
      ],
      [
        "er",
        "r"
      ],
      [
        "kop",
        "f"
      ],
      [
        "f",
        "an"
      ],
      [
        "h",
        "eits"
      ],
      [
        "z",
        "war"
      ],
      [
        "3",
        "5"
      ],
      [
        "as",
        "e"
      ],
      [
        "leich",
        "t"
      ],
      [
        "r",
        "iere"
      ],
      [
        "kam",
        "en"
      ],
      [
        "d",
        "lich"
      ],
      [
        "schaf",
        "fen"
      ],
      [
        "f",
        "ts"
      ],
      [
        "gan",
        "gen"
      ],
      [
        "par",
        "k"
      ],
      [
        "p",
        "ass"
      ],
      [
        "ge",
        "geben"
      ],
      [
        "ne",
        "w"
      ],
      [
        "it",
        "ä"
      ],
      [
        "br",
        "aun"
      ],
      [
        "wei",
        "sen"
      ],
      [
        "per",
        "s"
      ],
      [
        "mün",
        "chen"
      ],
      [
        "z",
        "t"
      ],
      [
        "us",
        "a"
      ],
      [
        "instit",
        "ut"
      ],
      [
        "gele",
        "gt"
      ],
      [
        "bedeut",
        "ung"
      ],
      [
        "gleich",
        "en"
      ],
      [
        "ele",
        "ktr"
      ],
      [
        "v",
        "ent"
      ],
      [
        "be",
        "weg"
      ],
      [
        "r",
        "uss"
      ],
      [
        "ver",
        "anst"
      ],
      [
        "schr",
        "if"
      ],
      [
        "c",
        "or"
      ],
      [
        "offiz",
        "iel"
      ],
      [
        "wei",
        "s"
      ],
      [
        "ste",
        "uer"
      ],
      [
        "ursprün",
        "glich"
      ],
      [
        "arbei",
        "tet"
      ],
      [
        "sprach",
        "e"
      ],
      [
        "p",
        "la"
      ],
      [
        "rah",
        "men"
      ],
      [
        "o",
        "v"
      ],
      [
        "mer",
        "k"
      ],
      [
        "zentr",
        "um"
      ],
      [
        "gewähl",
        "t"
      ],
      [
        "f",
        "ung"
      ],
      [
        "r",
        "unde"
      ],
      [
        "y",
        "er"
      ],
      [
        "fe",
        "uer"
      ],
      [
        "veröffentlich",
        "t"
      ],
      [
        "18",
        "5"
      ],
      [
        "u",
        "e"
      ],
      [
        "weiter",
        "hin"
      ],
      [
        "18",
        "4"
      ],
      [
        "l",
        "ös"
      ],
      [
        "le",
        "t"
      ],
      [
        "eigen",
        "e"
      ],
      [
        "b",
        "ald"
      ],
      [
        "sp",
        "it"
      ],
      [
        "ic",
        "e"
      ],
      [
        "komm",
        "un"
      ],
      [
        "if",
        "iz"
      ],
      [
        "über",
        "nahm"
      ],
      [
        "letz",
        "te"
      ],
      [
        "d",
        "om"
      ],
      [
        "hin",
        "aus"
      ],
      [
        "ort",
        "s"
      ],
      [
        "fre",
        "und"
      ],
      [
        "d",
        "ür"
      ],
      [
        "v",
        "in"
      ],
      [
        "be",
        "vor"
      ],
      [
        "gehör",
        "t"
      ],
      [
        "ent",
        "standen"
      ],
      [
        "ä",
        "gt"
      ],
      [
        "pro",
        "jekt"
      ],
      [
        "n",
        "ör"
      ],
      [
        "ol",
        "f"
      ],
      [
        "kar",
        "riere"
      ],
      [
        "äch",
        "lich"
      ],
      [
        "zeich",
        "net"
      ],
      [
        "w",
        "in"
      ],
      [
        "hil",
        "fe"
      ],
      [
        "un",
        "ge"
      ],
      [
        "heim",
        "at"
      ],
      [
        "20",
        "20"
      ],
      [
        "s",
        "weise"
      ],
      [
        "gr",
        "ei"
      ],
      [
        "d",
        "s"
      ],
      [
        "f",
        "anden"
      ],
      [
        "p",
        "au"
      ],
      [
        "be",
        "griff"
      ],
      [
        "ende",
        "te"
      ],
      [
        "erreich",
        "t"
      ],
      [
        "k",
        "ol"
      ],
      [
        "ent",
        "fern"
      ],
      [
        "d",
        "un"
      ],
      [
        "t",
        "in"
      ],
      [
        "b",
        "eit"
      ],
      [
        "kl",
        "oster"
      ],
      [
        "br",
        "uch"
      ],
      [
        "kl",
        "ass"
      ],
      [
        "m",
        "ich"
      ],
      [
        "ig",
        "ten"
      ],
      [
        "samm",
        "lung"
      ],
      [
        "200",
        "3"
      ],
      [
        "ap",
        "p"
      ],
      [
        "dam",
        "als"
      ],
      [
        "d",
        "op"
      ],
      [
        "ver",
        "änder"
      ],
      [
        "gr",
        "ap"
      ],
      [
        "darauf",
        "hin"
      ],
      [
        "f",
        "a"
      ],
      [
        "o",
        "ten"
      ],
      [
        "n",
        "äch"
      ],
      [
        "al",
        "te"
      ],
      [
        "be",
        "finden"
      ],
      [
        "ver",
        "heiratet"
      ],
      [
        "nah",
        "e"
      ],
      [
        "mü",
        "ssen"
      ],
      [
        "ty",
        "p"
      ],
      [
        "schrif",
        "ten"
      ],
      [
        "is",
        "iert"
      ],
      [
        "frie",
        "d"
      ],
      [
        "tr",
        "ieb"
      ],
      [
        "f",
        "äh"
      ],
      [
        "zu",
        "vor"
      ],
      [
        "pro",
        "gramm"
      ],
      [
        "lich",
        "keit"
      ],
      [
        "tr",
        "ad"
      ],
      [
        "stell",
        "ungen"
      ],
      [
        "flü",
        "gel"
      ],
      [
        "r",
        "ie"
      ],
      [
        "wen",
        "iger"
      ],
      [
        "ein",
        "mal"
      ],
      [
        "on",
        "s"
      ],
      [
        "rech",
        "te"
      ],
      [
        "l",
        "eitung"
      ],
      [
        "ver",
        "fahren"
      ],
      [
        "so",
        "zial"
      ],
      [
        "h",
        "ard"
      ],
      [
        "för",
        "der"
      ],
      [
        "her",
        "vor"
      ],
      [
        "hö",
        "her"
      ],
      [
        "zeu",
        "ge"
      ],
      [
        "um",
        "e"
      ],
      [
        "gew",
        "esen"
      ],
      [
        "ag",
        "t"
      ],
      [
        "kl",
        "eine"
      ],
      [
        "liter",
        "atur"
      ],
      [
        "an",
        "ten"
      ],
      [
        "b",
        "ank"
      ],
      [
        "ge",
        "setzt"
      ],
      [
        "ein",
        "fach"
      ],
      [
        "ber",
        "t"
      ],
      [
        "eur",
        "o"
      ],
      [
        "on",
        "en"
      ],
      [
        "we",
        "sten"
      ],
      [
        "n",
        "immt"
      ],
      [
        "ein",
        "igen"
      ],
      [
        "at",
        "ive"
      ],
      [
        "muse",
        "um"
      ],
      [
        "7",
        "0"
      ],
      [
        "str",
        "af"
      ],
      [
        "hei",
        "l"
      ],
      [
        "pr",
        "ü"
      ],
      [
        "di",
        "ge"
      ],
      [
        "ord",
        "nung"
      ],
      [
        "an",
        "ischen"
      ],
      [
        "auf",
        "trag"
      ],
      [
        "ob",
        "wohl"
      ],
      [
        "fall",
        "en"
      ],
      [
        "fü",
        "l"
      ],
      [
        "gesch",
        "r"
      ],
      [
        "mal",
        "er"
      ],
      [
        "is",
        "er"
      ],
      [
        "gef",
        "ähr"
      ],
      [
        "verw",
        "altung"
      ],
      [
        "ber",
        "n"
      ],
      [
        "arch",
        "ite"
      ],
      [
        "ist",
        "e"
      ],
      [
        "bl",
        "ick"
      ],
      [
        "kr",
        "ie"
      ],
      [
        "200",
        "2"
      ],
      [
        "le",
        "dig"
      ],
      [
        "lei",
        "ter"
      ],
      [
        "vor",
        "sitzen"
      ],
      [
        "br",
        "ü"
      ],
      [
        "zun",
        "ehmen"
      ],
      [
        "tex",
        "t"
      ],
      [
        "i",
        "ent"
      ],
      [
        "w",
        "ander"
      ],
      [
        "an",
        "zen"
      ],
      [
        "in",
        "di"
      ],
      [
        "ne",
        "ten"
      ],
      [
        "p",
        "al"
      ],
      [
        "s",
        "ing"
      ],
      [
        "pr",
        "in"
      ],
      [
        "je",
        "der"
      ],
      [
        "beschä",
        "ft"
      ],
      [
        "el",
        "n"
      ],
      [
        "st",
        "an"
      ],
      [
        "200",
        "1"
      ],
      [
        "ant",
        "wort"
      ],
      [
        "do",
        "k"
      ],
      [
        "zei",
        "ten"
      ],
      [
        "ver",
        "gleich"
      ],
      [
        "b",
        "us"
      ],
      [
        "il",
        "le"
      ],
      [
        "ik",
        "a"
      ],
      [
        "eben",
        "so"
      ],
      [
        "w",
        "ach"
      ],
      [
        "z",
        "y"
      ],
      [
        "er",
        "geb"
      ],
      [
        "geschä",
        "fts"
      ],
      [
        "schn",
        "ell"
      ],
      [
        "geb",
        "il"
      ],
      [
        "char",
        "akter"
      ],
      [
        "häus",
        "er"
      ],
      [
        "st",
        "imm"
      ],
      [
        "f",
        "ten"
      ],
      [
        "sch",
        "m"
      ],
      [
        "ze",
        "pt"
      ],
      [
        "kilome",
        "ter"
      ],
      [
        "häl",
        "fte"
      ],
      [
        "viel",
        "en"
      ],
      [
        "en",
        "er"
      ],
      [
        "vor",
        "han"
      ],
      [
        "polit",
        "ik"
      ],
      [
        "a",
        "x"
      ],
      [
        "ist",
        "ischen"
      ],
      [
        "pf",
        "arr"
      ],
      [
        "mach",
        "en"
      ],
      [
        "ch",
        "or"
      ],
      [
        "län",
        "der"
      ],
      [
        "kar",
        "l"
      ],
      [
        "führ",
        "er"
      ],
      [
        "pos",
        "ition"
      ],
      [
        "j",
        "ap"
      ],
      [
        "ing",
        "s"
      ],
      [
        "bru",
        "der"
      ],
      [
        "e",
        "p"
      ],
      [
        "ier",
        "ungs"
      ],
      [
        "eigen",
        "t"
      ],
      [
        "gehen",
        "d"
      ],
      [
        "st",
        "af"
      ],
      [
        "al",
        "er"
      ],
      [
        "ho",
        "hen"
      ],
      [
        "för",
        "m"
      ],
      [
        "poliz",
        "ei"
      ],
      [
        "t",
        "ie"
      ],
      [
        "ver",
        "tre"
      ],
      [
        "präs",
        "ent"
      ],
      [
        "t",
        "un"
      ],
      [
        "z",
        "ig"
      ],
      [
        "the",
        "ater"
      ],
      [
        "einge",
        "setzt"
      ],
      [
        "wes",
        "en"
      ],
      [
        "r",
        "ang"
      ],
      [
        "s",
        "in"
      ],
      [
        "st",
        "ag"
      ],
      [
        "sch",
        "er"
      ],
      [
        "ot",
        "he"
      ],
      [
        "em",
        "pf"
      ],
      [
        "verb",
        "unden"
      ],
      [
        "h",
        "ang"
      ],
      [
        "k",
        "und"
      ],
      [
        "verb",
        "and"
      ],
      [
        "stell",
        "er"
      ],
      [
        "brach",
        "te"
      ],
      [
        "i",
        "us"
      ],
      [
        "er",
        "ziel"
      ],
      [
        "er",
        "zähl"
      ],
      [
        "europ",
        "ä"
      ],
      [
        "l",
        "ungs"
      ],
      [
        "st",
        "or"
      ],
      [
        "on",
        "nen"
      ],
      [
        "kl",
        "ei"
      ],
      [
        "p",
        "iel"
      ],
      [
        "ik",
        "en"
      ],
      [
        "kr",
        "ank"
      ],
      [
        "sta",
        "aten"
      ],
      [
        "pa",
        "ar"
      ],
      [
        "v",
        "ie"
      ],
      [
        "seit",
        "s"
      ],
      [
        "fra",
        "ge"
      ],
      [
        "forsch",
        "ung"
      ],
      [
        "verl",
        "auf"
      ],
      [
        "pun",
        "kte"
      ],
      [
        "o",
        "sten"
      ],
      [
        "fass",
        "ung"
      ],
      [
        "o",
        "ben"
      ],
      [
        "l",
        "aut"
      ],
      [
        "am",
        "ts"
      ],
      [
        "ta",
        "kt"
      ],
      [
        "dop",
        "pel"
      ],
      [
        "spr",
        "icht"
      ],
      [
        "k",
        "ür"
      ],
      [
        "letz",
        "t"
      ],
      [
        "europ",
        "a"
      ],
      [
        "h",
        "ne"
      ],
      [
        "m",
        "ein"
      ],
      [
        "fen",
        "ster"
      ],
      [
        "b",
        "ö"
      ],
      [
        "w",
        "ochen"
      ],
      [
        "ge",
        "or"
      ],
      [
        "sch",
        "uss"
      ],
      [
        "ledig",
        "lich"
      ],
      [
        "ig",
        "te"
      ],
      [
        "ab",
        "sol"
      ],
      [
        "b",
        "isch"
      ],
      [
        "h",
        "mer"
      ],
      [
        "k",
        "ind"
      ],
      [
        "s",
        "c"
      ],
      [
        "bezeich",
        "nung"
      ],
      [
        "schü",
        "ler"
      ],
      [
        "grap",
        "h"
      ],
      [
        "er",
        "ster"
      ],
      [
        "ver",
        "z"
      ],
      [
        "fläch",
        "en"
      ],
      [
        "t",
        "ä"
      ],
      [
        "c",
        "m"
      ],
      [
        "bau",
        "ten"
      ],
      [
        "gleich",
        "zeitig"
      ],
      [
        "kon",
        "tr"
      ],
      [
        "sel",
        "ten"
      ],
      [
        "hel",
        "m"
      ],
      [
        "trad",
        "ition"
      ],
      [
        "teil",
        "en"
      ],
      [
        "gol",
        "d"
      ],
      [
        "model",
        "l"
      ],
      [
        "ihr",
        "es"
      ]
    ]
  }
}