{
  "version": "1.0",
  "truncation": null,
  "padding": null,
  "added_tokens": [
    {
      "id": 0,
      "content": "<UNK>",
      "single_word": false,
      "lstrip": false,
      "rstrip": false,
      "normalized": false,
      "special": true
    },
    {
      "id": 1,
      "content": "<SEP>",
      "single_word": false,
      "lstrip": false,
      "rstrip": false,
      "normalized": false,
      "special": true
    },
    {
      "id": 2,
      "content": "<MASK>",
      "single_word": false,
      "lstrip": false,
      "rstrip": false,
      "normalized": false,
      "special": true
    },
    {
      "id": 3,
      "content": "<CLS>",
      "single_word": false,
      "lstrip": false,
      "rstrip": false,
      "normalized": false,
      "special": true
    }
  ],
  "normalizer": null,
  "pre_tokenizer": {
    "type": "Whitespace"
  },
  "post_processor": null,
  "decoder": null,
  "model": {
    "type": "BPE",
    "dropout": null,
    "unk_token": "<UNK>",
    "continuing_subword_prefix": null,
    "end_of_word_suffix": null,
    "fuse_unk": false,
    "byte_fallback": false,
    "ignore_merges": false,
    "vocab": {
      "<UNK>": 0,
      "<SEP>": 1,
      "<MASK>": 2,
      "<CLS>": 3,
      "!": 4,
      "\"": 5,
      "$": 6,
      "%": 7,
      "&": 8,
      "'": 9,
      "(": 10,
      ")": 11,
      "*": 12,
      "+": 13,
      ",": 14,
      "-": 15,
      ".": 16,
      "/": 17,
      "0": 18,
      "1": 19,
      "2": 20,
      "3": 21,
      "4": 22,
      "5": 23,
      "6": 24,
      "7": 25,
      "8": 26,
      "9": 27,
      ":": 28,
      ";": 29,
      "<": 30,
      ">": 31,
      "?": 32,
      "A": 33,
      "B": 34,
      "C": 35,
      "D": 36,
      "E": 37,
      "F": 38,
      "G": 39,
      "H": 40,
      "I": 41,
      "J": 42,
      "K": 43,
      "L": 44,
      "M": 45,
      "N": 46,
      "O": 47,
      "P": 48,
      "Q": 49,
      "R": 50,
      "S": 51,
      "T": 52,
      "U": 53,
      "V": 54,
      "W": 55,
      "X": 56,
      "Y": 57,
      "Z": 58,
      "`": 59,
      "a": 60,
      "b": 61,
      "c": 62,
      "d": 63,
      "e": 64,
      "f": 65,
      "g": 66,
      "h": 67,
      "i": 68,
      "j": 69,
      "k": 70,
      "l": 71,
      "m": 72,
      "n": 73,
      "o": 74,
      "p": 75,
      "q": 76,
      "r": 77,
      "s": 78,
      "t": 79,
      "u": 80,
      "v": 81,
      "w": 82,
      "x": 83,
      "y": 84,
      "z": 85,
      "~": 86,
      "¡": 87,
      "¢": 88,
      "£": 89,
      "¥": 90,
      "§": 91,
      "¨": 92,
      "ª": 93,
      "«": 94,
      "®": 95,
      "°": 96,
      "±": 97,
      "²": 98,
      "³": 99,
      "´": 100,
      "µ": 101,
      "·": 102,
      "º": 103,
      "»": 104,
      "¼": 105,
      "½": 106,
      "¾": 107,
      "¿": 108,
      "Á": 109,
      "Ä": 110,
      "Å": 111,
      "Æ": 112,
      "Ç": 113,
      "È": 114,
      "É": 115,
      "Ê": 116,
      "Í": 117,
      "Î": 118,
      "Ð": 119,
      "Ñ": 120,
      "Ó": 121,
      "Ô": 122,
      "Õ": 123,
      "Ö": 124,
      "×": 125,
      "Ø": 126,
      "Ú": 127,
      "Ü": 128,
      "Þ": 129,
      "ß": 130,
      "à": 131,
      "á": 132,
      "â": 133,
      "ã": 134,
      "ä": 135,
      "å": 136,
      "æ": 137,
      "ç": 138,
      "è": 139,
      "é": 140,
      "ê": 141,
      "ë": 142,
      "ì": 143,
      "í": 144,
      "î": 145,
      "ï": 146,
      "ð": 147,
      "ñ": 148,
      "ò": 149,
      "ó": 150,
      "ô": 151,
      "õ": 152,
      "ö": 153,
      "ø": 154,
      "ù": 155,
      "ú": 156,
      "û": 157,
      "ü": 158,
      "ý": 159,
      "þ": 160,
      "ÿ": 161,
      "Ā": 162,
      "ā": 163,
      "ă": 164,
      "ą": 165,
      "Ć": 166,
      "ć": 167,
      "Č": 168,
      "č": 169,
      "ď": 170,
      "Đ": 171,
      "đ": 172,
      "Ē": 173,
      "ē": 174,
      "ĕ": 175,
      "ė": 176,
      "ę": 177,
      "ě": 178,
      "ğ": 179,
      "ġ": 180,
      "ģ": 181,
      "ħ": 182,
      "ĩ": 183,
      "ī": 184,
      "ĭ": 185,
      "į": 186,
      "İ": 187,
      "ı": 188,
      "ĳ": 189,
      "ļ": 190,
      "ľ": 191,
      "Ł": 192,
      "ł": 193,
      "ń": 194,
      "ņ": 195,
      "ň": 196,
      "ŋ": 197,
      "Ō": 198,
      "ō": 199,
      "ŏ": 200,
      "Ő": 201,
      "ő": 202,
      "Œ": 203,
      "œ": 204,
      "ř": 205,
      "Ś": 206,
      "ś": 207,
      "ŝ": 208,
      "Ş": 209,
      "ş": 210,
      "Š": 211,
      "š": 212,
      "Ţ": 213,
      "ţ": 214,
      "ť": 215,
      "ũ": 216,
      "ū": 217,
      "ŭ": 218,
      "ů": 219,
      "ű": 220,
      "ų": 221,
      "ŵ": 222,
      "ź": 223,
      "Ż": 224,
      "ż": 225,
      "Ž": 226,
      "ž": 227,
      "ſ": 228,
      "Ɔ": 229,
      "ơ": 230,
      "ư": 231,
      "ǎ": 232,
      "ǐ": 233,
      "ǒ": 234,
      "ǔ": 235,
      "ǚ": 236,
      "ǧ": 237,
      "ǿ": 238,
      "ș": 239,
      "ț": 240,
      "ɐ": 241,
      "ɑ": 242,
      "ɔ": 243,
      "ə": 244,
      "ɛ": 245,
      "ɤ": 246,
      "ɪ": 247,
      "ɫ": 248,
      "ɬ": 249,
      "ɲ": 250,
      "ɹ": 251,
      "ʃ": 252,
      "ʊ": 253,
      "ʒ": 254,
      "ʷ": 255,
      "ʻ": 256,
      "ʼ": 257,
      "ʾ": 258,
      "ʿ": 259,
      "ˇ": 260,
      "ˈ": 261,
      "ˊ": 262,
      "ˌ": 263,
      "ː": 264,
      "˚": 265,
      "ˤ": 266,
      "˥": 267,
      "́": 268,
      "̄": 269,
      "̇": 270,
      "̝": 271,
      "Β": 272,
      "Δ": 273,
      "Ε": 274,
      "Θ": 275,
      "Κ": 276,
      "Μ": 277,
      "Σ": 278,
      "Τ": 279,
      "Ψ": 280,
      "Ω": 281,
      "ά": 282,
      "έ": 283,
      "ή": 284,
      "ί": 285,
      "α": 286,
      "β": 287,
      "γ": 288,
      "δ": 289,
      "ε": 290,
      "ζ": 291,
      "η": 292,
      "θ": 293,
      "ι": 294,
      "κ": 295,
      "λ": 296,
      "μ": 297,
      "ν": 298,
      "ξ": 299,
      "ο": 300,
      "π": 301,
      "ρ": 302,
      "ς": 303,
      "σ": 304,
      "τ": 305,
      "υ": 306,
      "φ": 307,
      "χ": 308,
      "ψ": 309,
      "ω": 310,
      "ϊ": 311,
      "ό": 312,
      "ύ": 313,
      "ώ": 314,
      "ϑ": 315,
      "А": 316,
      "Б": 317,
      "В": 318,
      "Г": 319,
      "Д": 320,
      "З": 321,
      "И": 322,
      "К": 323,
      "М": 324,
      "П": 325,
      "Р": 326,
      "С": 327,
      "Т": 328,
      "Я": 329,
      "а": 330,
      "б": 331,
      "в": 332,
      "г": 333,
      "д": 334,
      "е": 335,
      "ж": 336,
      "з": 337,
      "и": 338,
      "й": 339,
      "к": 340,
      "л": 341,
      "м": 342,
      "н": 343,
      "о": 344,
      "п": 345,
      "р": 346,
      "с": 347,
      "т": 348,
      "у": 349,
      "ф": 350,
      "х": 351,
      "ц": 352,
      "ч": 353,
      "ш": 354,
      "щ": 355,
      "ъ": 356,
      "ы": 357,
      "ь": 358,
      "э": 359,
      "ю": 360,
      "я": 361,
      "ё": 362,
      "і": 363,
      "ј": 364,
      "ѳ": 365,
      "҃": 366,
      "҆": 367,
      "Ա": 368,
      "Ջ": 369,
      "ա": 370,
      "գ": 371,
      "ե": 372,
      "ի": 373,
      "խ": 374,
      "ծ": 375,
      "կ": 376,
      "մ": 377,
      "յ": 378,
      "ն": 379,
      "ր": 380,
      "ִ": 381,
      "ַ": 382,
      "א": 383,
      "ב": 384,
      "ג": 385,
      "ד": 386,
      "ה": 387,
      "ו": 388,
      "ז": 389,
      "ח": 390,
      "י": 391,
      "כ": 392,
      "ל": 393,
      "ם": 394,
      "מ": 395,
      "ן": 396,
      "ע": 397,
      "פ": 398,
      "ץ": 399,
      "צ": 400,
      "ק": 401,
      "ר": 402,
      "ש": 403,
      "ת": 404,
      "آ": 405,
      "أ": 406,
      "إ": 407,
      "ا": 408,
      "ب": 409,
      "ة": 410,
      "ث": 411,
      "ج": 412,
      "ح": 413,
      "خ": 414,
      "د": 415,
      "ر": 416,
      "س": 417,
      "ش": 418,
      "ط": 419,
      "ظ": 420,
      "ع": 421,
      "غ": 422,
      "ـ": 423,
      "ف": 424,
      "ق": 425,
      "ل": 426,
      "م": 427,
      "ن": 428,
      "ه": 429,
      "و": 430,
      "ي": 431,
      "ْ": 432,
      "پ": 433,
      "چ": 434,
      "ڠ": 435,
      "گ": 436,
      "ں": 437,
      "ھ": 438,
      "ہ": 439,
      "ی": 440,
      "ं": 441,
      "इ": 442,
      "ख": 443,
      "च": 444,
      "ट": 445,
      "द": 446,
      "न": 447,
      "प": 448,
      "फ": 449,
      "म": 450,
      "र": 451,
      "ल": 452,
      "श": 453,
      "स": 454,
      "ा": 455,
      "ु": 456,
      "े": 457,
      "ो": 458,
      "्": 459,
      "।": 460,
      "আ": 461,
      "উ": 462,
      "ক": 463,
      "গ": 464,
      "ঙ": 465,
      "চ": 466,
      "জ": 467,
      "ঞ": 468,
      "ত": 469,
      "দ": 470,
      "ন": 471,
      "প": 472,
      "ফ": 473,
      "ব": 474,
      "ম": 475,
      "য": 476,
      "র": 477,
      "ল": 478,
      "শ": 479,
      "স": 480,
      "হ": 481,
      "া": 482,
      "ি": 483,
      "ু": 484,
      "ে": 485,
      "ো": 486,
      "্": 487,
      "அ": 488,
      "உ": 489,
      "க": 490,
      "ச": 491,
      "ஜ": 492,
      "ட": 493,
      "ண": 494,
      "த": 495,
      "ந": 496,
      "ப": 497,
      "ம": 498,
      "ர": 499,
      "ல": 500,
      "ள": 501,
      "ழ": 502,
      "வ": 503,
      "ா": 504,
      "ி": 505,
      "ு": 506,
      "ூ": 507,
      "ே": 508,
      "ை": 509,
      "ொ": 510,
      "ோ": 511,
      "்": 512,
      "ം": 513,
      "ഇ": 514,
      "ട": 515,
      "ത": 516,
      "ല": 517,
      "വ": 518,
      "අ": 519,
      "ද": 520,
      "න": 521,
      "ල": 522,
      "ව": 523,
      "ා": 524,
      "ැ": 525,
      "ි": 526,
      "ෝ": 527,
      "ก": 528,
      "ข": 529,
      "ค": 530,
      "ง": 531,
      "จ": 532,
      "ช": 533,
      "ซ": 534,
      "ฒ": 535,
      "ด": 536,
      "ต": 537,
      "ถ": 538,
      "ท": 539,
      "ธ": 540,
      "น": 541,
      "บ": 542,
      "ป": 543,
      "ผ": 544,
      "พ": 545,
      "ฟ": 546,
      "ภ": 547,
      "ม": 548,
      "ย": 549,
      "ร": 550,
      "ล": 551,
      "ว": 552,
      "ศ": 553,
      "ษ": 554,
      "ส": 555,
      "ห": 556,
      "อ": 557,
      "ะ": 558,
      "ั": 559,
      "า": 560,
      "ำ": 561,
      "ิ": 562,
      "ี": 563,
      "ึ": 564,
      "ื": 565,
      "ุ": 566,
      "ู": 567,
      "เ": 568,
      "แ": 569,
      "โ": 570,
      "ไ": 571,
      "่": 572,
      "้": 573,
      "๊": 574,
      "์": 575,
      "တ": 576,
      "န": 577,
      "ပ": 578,
      "ရ": 579,
      "သ": 580,
      "ူ": 581,
      "်": 582,
      "ၐ": 583,
      "ၑ": 584,
      "ბ": 585,
      "ᐯ": 586,
      "ᐸ": 587,
      "ᑐ": 588,
      "ᘅ": 589,
      "ḍ": 590,
      "ḗ": 591,
      "Ḥ": 592,
      "ḥ": 593,
      "ḫ": 594,
      "ḷ": 595,
      "ḻ": 596,
      "ṃ": 597,
      "ṅ": 598,
      "ṇ": 599,
      "ṉ": 600,
      "ṛ": 601,
      "ṟ": 602,
      "Ṣ": 603,
      "ṣ": 604,
      "Ṭ": 605,
      "ṭ": 606,
      "ṯ": 607,
      "ẞ": 608,
      "ạ": 609,
      "ả": 610,
      "ầ": 611,
      "ẩ": 612,
      "ậ": 613,
      "ắ": 614,
      "ằ": 615,
      "ẵ": 616,
      "ẻ": 617,
      "ẽ": 618,
      "ế": 619,
      "ề": 620,
      "ễ": 621,
      "ệ": 622,
      "ị": 623,
      "ọ": 624,
      "ố": 625,
      "ồ": 626,
      "ổ": 627,
      "ộ": 628,
      "ớ": 629,
      "ờ": 630,
      "ở": 631,
      "ủ": 632,
      "ứ": 633,
      "ử": 634,
      "ữ": 635,
      "ỳ": 636,
      "ἀ": 637,
      "ἄ": 638,
      "ἰ": 639,
      "ἶ": 640,
      "ὁ": 641,
      "ὐ": 642,
      "ὑ": 643,
      "ὴ": 644,
      "ὸ": 645,
      "ῆ": 646,
      "ῖ": 647,
      "ῥ": 648,
      "ῦ": 649,
      "​": 650,
      "‎": 651,
      "‐": 652,
      "‑": 653,
      "‒": 654,
      "–": 655,
      "—": 656,
      "―": 657,
      "‘": 658,
      "’": 659,
      "‚": 660,
      "‛": 661,
      "“": 662,
      "”": 663,
      "„": 664,
      "†": 665,
      "‡": 666,
      "•": 667,
      "…": 668,
      "‰": 669,
      "′": 670,
      "″": 671,
      "‹": 672,
      "›": 673,
      "⁄": 674,
      "₂": 675,
      "₤": 676,
      "€": 677,
      "₹": 678,
      "℃": 679,
      "№": 680,
      "™": 681,
      "⅓": 682,
      "⅔": 683,
      "⅕": 684,
      "⅛": 685,
      "←": 686,
      "→": 687,
      "↔": 688,
      "∂": 689,
      "−": 690,
      "∞": 691,
      "∴": 692,
      "≈": 693,
      "≠": 694,
      "≤": 695,
      "≥": 696,
      "⊆": 697,
      "♘": 698,
      "♡": 699,
      "♭": 700,
      "⟨": 701,
      "⟩": 702,
      "⿱": 703,
      "、": 704,
      "々": 705,
      "〈": 706,
      "〉": 707,
      "《": 708,
      "》": 709,
      "「": 710,
      "」": 711,
      "『": 712,
      "』": 713,
      "〔": 714,
      "〕": 715,
      "あ": 716,
      "い": 717,
      "う": 718,
      "え": 719,
      "か": 720,
      "き": 721,
      "ぎ": 722,
      "く": 723,
      "け": 724,
      "こ": 725,
      "ご": 726,
      "さ": 727,
      "し": 728,
      "じ": 729,
      "す": 730,
      "せ": 731,
      "た": 732,
      "だ": 733,
      "ち": 734,
      "つ": 735,
      "て": 736,
      "と": 737,
      "ど": 738,
      "に": 739,
      "の": 740,
      "へ": 741,
      "ぼ": 742,
      "ま": 743,
      "み": 744,
      "む": 745,
      "ゃ": 746,
      "ら": 747,
      "り": 748,
      "わ": 749,
      "を": 750,
      "ん": 751,
      "゜": 752,
      "ア": 753,
      "イ": 754,
      "ォ": 755,
      "カ": 756,
      "キ": 757,
      "ク": 758,
      "グ": 759,
      "サ": 760,
      "シ": 761,
      "ジ": 762,
      "ス": 763,
      "ズ": 764,
      "セ": 765,
      "ゼ": 766,
      "ソ": 767,
      "タ": 768,
      "ダ": 769,
      "ッ": 770,
      "デ": 771,
      "ト": 772,
      "ド": 773,
      "ヌ": 774,
      "ノ": 775,
      "ハ": 776,
      "パ": 777,
      "ビ": 778,
      "フ": 779,
      "ブ": 780,
      "プ": 781,
      "ベ": 782,
      "ボ": 783,
      "マ": 784,
      "ミ": 785,
      "ム": 786,
      "メ": 787,
      "ュ": 788,
      "ユ": 789,
      "ョ": 790,
      "ラ": 791,
      "リ": 792,
      "ル": 793,
      "レ": 794,
      "ン": 795,
      "・": 796,
      "ー": 797,
      "ㄌ": 798,
      "ㄘ": 799,
      "ㄣ": 800,
      "ㄧ": 801,
      "ㄨ": 802,
      "一": 803,
      "丁": 804,
      "万": 805,
      "三": 806,
      "上": 807,
      "下": 808,
      "世": 809,
      "东": 810,
      "两": 811,
      "中": 812,
      "丸": 813,
      "主": 814,
      "乃": 815,
      "之": 816,
      "九": 817,
      "乡": 818,
      "事": 819,
      "二": 820,
      "于": 821,
      "五": 822,
      "井": 823,
      "亜": 824,
      "京": 825,
      "人": 826,
      "什": 827,
      "今": 828,
      "仝": 829,
      "以": 830,
      "仰": 831,
      "任": 832,
      "伏": 833,
      "伐": 834,
      "会": 835,
      "传": 836,
      "伸": 837,
      "住": 838,
      "体": 839,
      "何": 840,
      "佛": 841,
      "作": 842,
      "你": 843,
      "使": 844,
      "來": 845,
      "保": 846,
      "倉": 847,
      "偕": 848,
      "偵": 849,
      "像": 850,
      "儿": 851,
      "元": 852,
      "先": 853,
      "光": 854,
      "克": 855,
      "党": 856,
      "全": 857,
      "八": 858,
      "公": 859,
      "关": 860,
      "典": 861,
      "内": 862,
      "冒": 863,
      "决": 864,
      "凍": 865,
      "出": 866,
      "切": 867,
      "列": 868,
      "別": 869,
      "前": 870,
      "劇": 871,
      "力": 872,
      "加": 873,
      "助": 874,
      "勒": 875,
      "勤": 876,
      "北": 877,
      "区": 878,
      "十": 879,
      "千": 880,
      "協": 881,
      "南": 882,
      "博": 883,
      "危": 884,
      "厂": 885,
      "历": 886,
      "厉": 887,
      "原": 888,
      "县": 889,
      "取": 890,
      "口": 891,
      "台": 892,
      "史": 893,
      "右": 894,
      "号": 895,
      "司": 896,
      "吃": 897,
      "合": 898,
      "吉": 899,
      "同": 900,
      "名": 901,
      "向": 902,
      "君": 903,
      "听": 904,
      "吹": 905,
      "吾": 906,
      "味": 907,
      "命": 908,
      "和": 909,
      "品": 910,
      "員": 911,
      "哪": 912,
      "喃": 913,
      "喜": 914,
      "噂": 915,
      "四": 916,
      "回": 917,
      "団": 918,
      "园": 919,
      "囯": 920,
      "国": 921,
      "圆": 922,
      "國": 923,
      "園": 924,
      "土": 925,
      "在": 926,
      "坂": 927,
      "坪": 928,
      "型": 929,
      "城": 930,
      "基": 931,
      "埼": 932,
      "堀": 933,
      "堂": 934,
      "報": 935,
      "場": 936,
      "塘": 937,
      "塼": 938,
      "塽": 939,
      "壯": 940,
      "声": 941,
      "夏": 942,
      "外": 943,
      "多": 944,
      "大": 945,
      "天": 946,
      "太": 947,
      "夫": 948,
      "央": 949,
      "失": 950,
      "奇": 951,
      "奉": 952,
      "奎": 953,
      "女": 954,
      "好": 955,
      "妃": 956,
      "始": 957,
      "姜": 958,
      "威": 959,
      "娜": 960,
      "婉": 961,
      "孁": 962,
      "子": 963,
      "字": 964,
      "孝": 965,
      "孤": 966,
      "学": 967,
      "學": 968,
      "宁": 969,
      "守": 970,
      "安": 971,
      "完": 972,
      "宓": 973,
      "宝": 974,
      "実": 975,
      "宵": 976,
      "家": 977,
      "寄": 978,
      "密": 979,
      "寓": 980,
      "察": 981,
      "實": 982,
      "寺": 983,
      "寿": 984,
      "尊": 985,
      "尔": 986,
      "居": 987,
      "展": 988,
      "山": 989,
      "岡": 990,
      "岭": 991,
      "岳": 992,
      "峡": 993,
      "島": 994,
      "崇": 995,
      "川": 996,
      "州": 997,
      "巢": 998,
      "左": 999,
      "巴": 1000,
      "市": 1001,
      "布": 1002,
      "帅": 1003,
      "希": 1004,
      "師": 1005,
      "干": 1006,
      "平": 1007,
      "年": 1008,
      "幽": 1009,
      "庐": 1010,
      "府": 1011,
      "度": 1012,
      "座": 1013,
      "庭": 1014,
      "庵": 1015,
      "廉": 1016,
      "延": 1017,
      "建": 1018,
      "弓": 1019,
      "弘": 1020,
      "张": 1021,
      "徐": 1022,
      "得": 1023,
      "微": 1024,
      "徳": 1025,
      "德": 1026,
      "徹": 1027,
      "心": 1028,
      "志": 1029,
      "念": 1030,
      "性": 1031,
      "恪": 1032,
      "息": 1033,
      "悲": 1034,
      "惠": 1035,
      "慎": 1036,
      "成": 1037,
      "我": 1038,
      "戦": 1039,
      "户": 1040,
      "手": 1041,
      "打": 1042,
      "持": 1043,
      "挂": 1044,
      "按": 1045,
      "振": 1046,
      "探": 1047,
      "改": 1048,
      "政": 1049,
      "文": 1050,
      "斗": 1051,
      "料": 1052,
      "斥": 1053,
      "斯": 1054,
      "新": 1055,
      "方": 1056,
      "施": 1057,
      "族": 1058,
      "既": 1059,
      "日": 1060,
      "旰": 1061,
      "明": 1062,
      "星": 1063,
      "晁": 1064,
      "普": 1065,
      "景": 1066,
      "暗": 1067,
      "暦": 1068,
      "暫": 1069,
      "曲": 1070,
      "曳": 1071,
      "書": 1072,
      "會": 1073,
      "月": 1074,
      "有": 1075,
      "朗": 1076,
      "期": 1077,
      "木": 1078,
      "未": 1079,
      "本": 1080,
      "术": 1081,
      "朱": 1082,
      "杉": 1083,
      "李": 1084,
      "材": 1085,
      "村": 1086,
      "条": 1087,
      "来": 1088,
      "東": 1089,
      "松": 1090,
      "果": 1091,
      "柯": 1092,
      "根": 1093,
      "格": 1094,
      "桂": 1095,
      "案": 1096,
      "桜": 1097,
      "桥": 1098,
      "梅": 1099,
      "梨": 1100,
      "森": 1101,
      "楽": 1102,
      "榮": 1103,
      "樂": 1104,
      "樊": 1105,
      "橘": 1106,
      "橫": 1107,
      "檀": 1108,
      "歌": 1109,
      "歓": 1110,
      "正": 1111,
      "武": 1112,
      "歩": 1113,
      "殺": 1114,
      "比": 1115,
      "氏": 1116,
      "民": 1117,
      "水": 1118,
      "永": 1119,
      "江": 1120,
      "池": 1121,
      "汤": 1122,
      "汪": 1123,
      "沙": 1124,
      "沤": 1125,
      "河": 1126,
      "沼": 1127,
      "況": 1128,
      "泉": 1129,
      "法": 1130,
      "泰": 1131,
      "泳": 1132,
      "洛": 1133,
      "津": 1134,
      "活": 1135,
      "海": 1136,
      "涌": 1137,
      "渝": 1138,
      "渡": 1139,
      "湖": 1140,
      "湾": 1141,
      "源": 1142,
      "漠": 1143,
      "漢": 1144,
      "澳": 1145,
      "濟": 1146,
      "瀬": 1147,
      "炊": 1148,
      "炜": 1149,
      "照": 1150,
      "煮": 1151,
      "熊": 1152,
      "爱": 1153,
      "父": 1154,
      "牛": 1155,
      "物": 1156,
      "牯": 1157,
      "特": 1158,
      "献": 1159,
      "玄": 1160,
      "玉": 1161,
      "王": 1162,
      "珍": 1163,
      "班": 1164,
      "理": 1165,
      "瑶": 1166,
      "生": 1167,
      "田": 1168,
      "由": 1169,
      "甲": 1170,
      "町": 1171,
      "畅": 1172,
      "痴": 1173,
      "發": 1174,
      "白": 1175,
      "百": 1176,
      "的": 1177,
      "皇": 1178,
      "盛": 1179,
      "盟": 1180,
      "相": 1181,
      "県": 1182,
      "眞": 1183,
      "真": 1184,
      "矢": 1185,
      "知": 1186,
      "短": 1187,
      "石": 1188,
      "碣": 1189,
      "社": 1190,
      "祖": 1191,
      "神": 1192,
      "祥": 1193,
      "禅": 1194,
      "福": 1195,
      "科": 1196,
      "秘": 1197,
      "移": 1198,
      "種": 1199,
      "穆": 1200,
      "章": 1201,
      "第": 1202,
      "篇": 1203,
      "築": 1204,
      "簡": 1205,
      "糖": 1206,
      "糸": 1207,
      "紀": 1208,
      "約": 1209,
      "紅": 1210,
      "紙": 1211,
      "素": 1212,
      "紫": 1213,
      "絡": 1214,
      "絵": 1215,
      "絶": 1216,
      "絹": 1217,
      "經": 1218,
      "綬": 1219,
      "維": 1220,
      "綿": 1221,
      "総": 1222,
      "縱": 1223,
      "纪": 1224,
      "绍": 1225,
      "绛": 1226,
      "署": 1227,
      "羅": 1228,
      "美": 1229,
      "義": 1230,
      "羽": 1231,
      "翁": 1232,
      "老": 1233,
      "者": 1234,
      "而": 1235,
      "联": 1236,
      "聖": 1237,
      "聯": 1238,
      "脳": 1239,
      "腐": 1240,
      "膏": 1241,
      "臓": 1242,
      "與": 1243,
      "興": 1244,
      "航": 1245,
      "船": 1246,
      "色": 1247,
      "艺": 1248,
      "花": 1249,
      "若": 1250,
      "英": 1251,
      "茜": 1252,
      "荀": 1253,
      "草": 1254,
      "華": 1255,
      "营": 1256,
      "葉": 1257,
      "葬": 1258,
      "蒲": 1259,
      "薰": 1260,
      "藤": 1261,
      "蘋": 1262,
      "蘭": 1263,
      "虞": 1264,
      "蜀": 1265,
      "行": 1266,
      "術": 1267,
      "街": 1268,
      "衣": 1269,
      "裸": 1270,
      "製": 1271,
      "褒": 1272,
      "西": 1273,
      "要": 1274,
      "親": 1275,
      "観": 1276,
      "见": 1277,
      "角": 1278,
      "言": 1279,
      "記": 1280,
      "証": 1281,
      "語": 1282,
      "誰": 1283,
      "調": 1284,
      "諸": 1285,
      "諾": 1286,
      "講": 1287,
      "謡": 1288,
      "譜": 1289,
      "警": 1290,
      "議": 1291,
      "護": 1292,
      "讃": 1293,
      "议": 1294,
      "讲": 1295,
      "说": 1296,
      "豆": 1297,
      "豫": 1298,
      "財": 1299,
      "貫": 1300,
      "責": 1301,
      "貴": 1302,
      "賢": 1303,
      "贡": 1304,
      "赞": 1305,
      "赤": 1306,
      "走": 1307,
      "起": 1308,
      "越": 1309,
      "趙": 1310,
      "跡": 1311,
      "路": 1312,
      "踏": 1313,
      "軍": 1314,
      "軒": 1315,
      "辞": 1316,
      "辣": 1317,
      "迅": 1318,
      "过": 1319,
      "进": 1320,
      "連": 1321,
      "道": 1322,
      "遺": 1323,
      "邑": 1324,
      "邡": 1325,
      "郎": 1326,
      "郑": 1327,
      "部": 1328,
      "鄠": 1329,
      "鄰": 1330,
      "酒": 1331,
      "醂": 1332,
      "醉": 1333,
      "里": 1334,
      "金": 1335,
      "錢": 1336,
      "镇": 1337,
      "長": 1338,
      "长": 1339,
      "門": 1340,
      "間": 1341,
      "関": 1342,
      "閣": 1343,
      "门": 1344,
      "问": 1345,
      "阳": 1346,
      "阿": 1347,
      "陛": 1348,
      "険": 1349,
      "陽": 1350,
      "隆": 1351,
      "隈": 1352,
      "隐": 1353,
      "際": 1354,
      "雄": 1355,
      "雅": 1356,
      "雛": 1357,
      "雞": 1358,
      "雨": 1359,
      "雪": 1360,
      "靓": 1361,
      "靖": 1362,
      "面": 1363,
      "革": 1364,
      "韓": 1365,
      "韦": 1366,
      "音": 1367,
      "順": 1368,
      "願": 1369,
      "顶": 1370,
      "题": 1371,
      "风": 1372,
      "食": 1373,
      "館": 1374,
      "馆": 1375,
      "首": 1376,
      "馨": 1377,
      "馬": 1378,
      "駅": 1379,
      "魔": 1380,
      "鱒": 1381,
      "鲁": 1382,
      "鲤": 1383,
      "鳥": 1384,
      "鳳": 1385,
      "鴨": 1386,
      "鵜": 1387,
      "鶴": 1388,
      "鸟": 1389,
      "鸡": 1390,
      "鸭": 1391,
      "鹗": 1392,
      "鹿": 1393,
      "麻": 1394,
      "黃": 1395,
      "黄": 1396,
      "黒": 1397,
      "黨": 1398,
      "齐": 1399,
      "龍": 1400,
      "龐": 1401,
      "꜒": 1402,
      "꜖": 1403,
      "ꯀ": 1404,
      "ꯂ": 1405,
      "ꯃ": 1406,
      "ꯄ": 1407,
      "ꯅ": 1408,
      "ꯈ": 1409,
      "ꯉ": 1410,
      "ꯊ": 1411,
      "ꯔ": 1412,
      "ꯛ": 1413,
      "ꯜ": 1414,
      "ꯡ": 1415,
      "ꯣ": 1416,
      "ꯤ": 1417,
      "ꯥ": 1418,
      "ꯦ": 1419,
      "ꯧ": 1420,
      "ꯨ": 1421,
      "ꯩ": 1422,
      "가": 1423,
      "강": 1424,
      "개": 1425,
      "경": 1426,
      "계": 1427,
      "고": 1428,
      "곡": 1429,
      "공": 1430,
      "과": 1431,
      "국": 1432,
      "군": 1433,
      "궁": 1434,
      "기": 1435,
      "김": 1436,
      "난": 1437,
      "낮": 1438,
      "내": 1439,
      "너": 1440,
      "누": 1441,
      "님": 1442,
      "단": 1443,
      "당": 1444,
      "대": 1445,
      "데": 1446,
      "도": 1447,
      "동": 1448,
      "따": 1449,
      "때": 1450,
      "라": 1451,
      "례": 1452,
      "리": 1453,
      "무": 1454,
      "문": 1455,
      "뮤": 1456,
      "미": 1457,
      "민": 1458,
      "밀": 1459,
      "박": 1460,
      "밤": 1461,
      "방": 1462,
      "백": 1463,
      "뱅": 1464,
      "번": 1465,
      "본": 1466,
      "부": 1467,
      "북": 1468,
      "뷔": 1469,
      "비": 1470,
      "빈": 1471,
      "뻐": 1472,
      "사": 1473,
      "산": 1474,
      "생": 1475,
      "서": 1476,
      "선": 1477,
      "설": 1478,
      "성": 1479,
      "수": 1480,
      "시": 1481,
      "식": 1482,
      "신": 1483,
      "심": 1484,
      "쌈": 1485,
      "아": 1486,
      "악": 1487,
      "암": 1488,
      "약": 1489,
      "에": 1490,
      "엣": 1491,
      "예": 1492,
      "옹": 1493,
      "왕": 1494,
      "요": 1495,
      "우": 1496,
      "위": 1497,
      "음": 1498,
      "의": 1499,
      "이": 1500,
      "인": 1501,
      "장": 1502,
      "쟁": 1503,
      "전": 1504,
      "정": 1505,
      "제": 1506,
      "종": 1507,
      "좌": 1508,
      "주": 1509,
      "줄": 1510,
      "중": 1511,
      "지": 1512,
      "직": 1513,
      "찌": 1514,
      "처": 1515,
      "천": 1516,
      "쳐": 1517,
      "출": 1518,
      "쿵": 1519,
      "크": 1520,
      "탑": 1521,
      "토": 1522,
      "티": 1523,
      "파": 1524,
      "판": 1525,
      "평": 1526,
      "포": 1527,
      "하": 1528,
      "한": 1529,
      "해": 1530,
      "행": 1531,
      "헌": 1532,
      "현": 1533,
      "호": 1534,
      "혹": 1535,
      "홉": 1536,
      "횡": 1537,
      "훈": 1538,
      "흥": 1539,
      "ﬁ": 1540,
      "︠": 1541,
      "︡": 1542,
      "ﺍ": 1543,
      "ﺏ": 1544,
      "ﺤ": 1545,
      "ﺩ": 1546,
      "ﻫ": 1547,
      "！": 1548,
      "（": 1549,
      "）": 1550,
      "，": 1551,
      "：": 1552,
      "｢": 1553,
      "er": 1554,
      "en": 1555,
      "in": 1556,
      "ch": 1557,
      "an": 1558,
      "th": 1559,
      "st": 1560,
      "ie": 1561,
      "on": 1562,
      "un": 1563,
      "ar": 1564,
      "es": 1565,
      "al": 1566,
      "it": 1567,
      "or": 1568,
      "is": 1569,
      "the": 1570,
      "at": 1571,
      "der": 1572,
      "as": 1573,
      "re": 1574,
      "de": 1575,
      "au": 1576,
      "ge": 1577,
      "te": 1578,
      "ein": 1579,
      "le": 1580,
      "be": 1581,
      "ich": 1582,
      "ur": 1583,
      "die": 1584,
      "and": 1585,
      "of": 1586,
      "he": 1587,
      "und": 1588,
      "se": 1589,
      "am": 1590,
      "den": 1591,
      "ver": 1592,
      "il": 1593,
      "to": 1594,
      "ro": 1595,
      "sch": 1596,
      "ung": 1597,
      "ig": 1598,
      "ed": 1599,
      "im": 1600,
      "ing": 1601,
      "ion": 1602,
      "ter": 1603,
      "ol": 1604,
      "el": 1605,
      "ber": 1606,
      "ten": 1607,
      "ic": 1608,
      "ent": 1609,
      "hr": 1610,
      "om": 1611,
      "ist": 1612,
      "ir": 1613,
      "we": 1614,
      "19": 1615,
      "zu": 1616,
      "ra": 1617,
      "ut": 1618,
      "ab": 1619,
      "ne": 1620,
      "was": 1621,
      "The": 1622,
      "um": 1623,
      "ach": 1624,
      "20": 1625,
      "us": 1626,
      "for": 1627,
      "gen": 1628,
      "auf": 1629,
      "sp": 1630,
      "eine": 1631,
      "lich": 1632,
      "mit": 1633,
      "la": 1634,
      "von": 1635,
      "isch": 1636,
      "als": 1637,
      "das": 1638,
      "ier": 1639,
      "des": 1640,
      "aus": 1641,
      "wer": 1642,
      "ad": 1643,
      "ck": 1644,
      "all": 1645,
      "ul": 1646,
      "no": 1647,
      "op": 1648,
      "me": 1649,
      "ation": 1650,
      "ve": 1651,
      "fü": 1652,
      "lo": 1653,
      "ze": 1654,
      "wur": 1655,
      "ts": 1656,
      "dem": 1657,
      "war": 1658,
      "tr": 1659,
      "her": 1660,
      "ma": 1661,
      "di": 1662,
      "ke": 1663,
      "ges": 1664,
      "gr": 1665,
      "ce": 1666,
      "ho": 1667,
      "are": 1668,
      "sich": 1669,
      "ben": 1670,
      "ann": 1671,
      "af": 1672,
      "mo": 1673,
      "so": 1674,
      "ste": 1675,
      "fe": 1676,
      "ja": 1677,
      "ther": 1678,
      "sen": 1679,
      "wurde": 1680,
      "ell": 1681,
      "ap": 1682,
      "men": 1683,
      "pro": 1684,
      "wi": 1685,
      "ct": 1686,
      "et": 1687,
      "lie": 1688,
      "für": 1689,
      "nach": 1690,
      "sie": 1691,
      "ger": 1692,
      "his": 1693,
      "icht": 1694,
      "iel": 1695,
      "wo": 1696,
      "man": 1697,
      "ly": 1698,
      "ri": 1699,
      "bei": 1700,
      "vor": 1701,
      "li": 1702,
      "ischen": 1703,
      "hn": 1704,
      "pe": 1705,
      "co": 1706,
      "da": 1707,
      "that": 1708,
      "con": 1709,
      "kt": 1710,
      "än": 1711,
      "ind": 1712,
      "ser": 1713,
      "hen": 1714,
      "über": 1715,
      "up": 1716,
      "00": 1717,
      "art": 1718,
      "with": 1719,
      "ta": 1720,
      "by": 1721,
      "pr": 1722,
      "einer": 1723,
      "bo": 1724,
      "ort": 1725,
      "per": 1726,
      "unter": 1727,
      "In": 1728,
      "rom": 1729,
      "br": 1730,
      "201": 1731,
      "ff": 1732,
      "auch": 1733,
      "com": 1734,
      "ug": 1735,
      "ha": 1736,
      "hl": 1737,
      "ang": 1738,
      "ess": 1739,
      "200": 1740,
      "wie": 1741,
      "It": 1742,
      "ill": 1743,
      "He": 1744,
      "wa": 1745,
      "jahr": 1746,
      "po": 1747,
      "ht": 1748,
      "mer": 1749,
      "18": 1750,
      "dur": 1751,
      "bis": 1752,
      "ungen": 1753,
      "land": 1754,
      "fr": 1755,
      "from": 1756,
      "wir": 1757,
      "uch": 1758,
      "ame": 1759,
      "tz": 1760,
      "igen": 1761,
      "wor": 1762,
      "hat": 1763,
      "son": 1764,
      "end": 1765,
      "ik": 1766,
      "id": 1767,
      "iv": 1768,
      "qu": 1769,
      "fa": 1770,
      "ern": 1771,
      "one": 1772,
      "ies": 1773,
      "ex": 1774,
      "ate": 1775,
      "do": 1776,
      "pl": 1777,
      "geb": 1778,
      "ien": 1779,
      "schaf": 1780,
      "einen": 1781,
      "not": 1782,
      "bes": 1783,
      "go": 1784,
      "wn": 1785,
      "durch": 1786,
      "tra": 1787,
      "weit": 1788,
      "ted": 1789,
      "si": 1790,
      "str": 1791,
      "alle": 1792,
      "ub": 1793,
      "sa": 1794,
      "use": 1795,
      "pla": 1796,
      "sten": 1797,
      "gel": 1798,
      "nicht": 1799,
      "ant": 1800,
      "fl": 1801,
      "ft": 1802,
      "einem": 1803,
      "mber": 1804,
      "has": 1805,
      "sel": 1806,
      "its": 1807,
      "dr": 1808,
      "zeit": 1809,
      "ün": 1810,
      "ment": 1811,
      "fol": 1812,
      "kon": 1813,
      "were": 1814,
      "ity": 1815,
      "zur": 1816,
      "werden": 1817,
      "kl": 1818,
      "out": 1819,
      "ear": 1820,
      "ag": 1821,
      "stell": 1822,
      "hal": 1823,
      "ers": 1824,
      "rei": 1825,
      "teil": 1826,
      "che": 1827,
      "ische": 1828,
      "ungs": 1829,
      "hre": 1830,
      "also": 1831,
      "wh": 1832,
      "gro": 1833,
      "ok": 1834,
      "199": 1835,
      "gesch": 1836,
      "ör": 1837,
      "mar": 1838,
      "na": 1839,
      "sh": 1840,
      ").": 1841,
      "ba": 1842,
      "ll": 1843,
      "ite": 1844,
      "du": 1845,
      "zum": 1846,
      "fin": 1847,
      "nen": 1848,
      "ome": 1849,
      "stand": 1850,
      "ia": 1851,
      "hin": 1852,
      "ip": 1853,
      "wird": 1854,
      "ans": 1855,
      "ore": 1856,
      "sind": 1857,
      "ine": 1858,
      "ople": 1859,
      "wei": 1860,
      "vers": 1861,
      "par": 1862,
      "fo": 1863,
      "mus": 1864,
      "ust": 1865,
      "ater": 1866,
      "can": 1867,
      "fen": 1868,
      "ange": 1869,
      "oll": 1870,
      "ück": 1871,
      "chen": 1872,
      "ive": 1873,
      "od": 1874,
      "fir": 1875,
      "lichen": 1876,
      "är": 1877,
      "je": 1878,
      "have": 1879,
      "ci": 1880,
      "schaft": 1881,
      "form": 1882,
      "dass": 1883,
      "gt": 1884,
      "they": 1885,
      "ende": 1886,
      "cl": 1887,
      "iert": 1888,
      "rit": 1889,
      "ät": 1890,
      "ally": 1891,
      "ander": 1892,
      "ord": 1893,
      "kom": 1894,
      "fer": 1895,
      "bau": 1896,
      "ken": 1897,
      "mal": 1898,
      "other": 1899,
      "ac": 1900,
      "ins": 1901,
      "people": 1902,
      "ass": 1903,
      "ure": 1904,
      "ster": 1905,
      "reich": 1906,
      "ary": 1907,
      "ige": 1908,
      "diese": 1909,
      "og": 1910,
      "deut": 1911,
      "had": 1912,
      "os": 1913,
      "em": 1914,
      "ian": 1915,
      "ak": 1916,
      "ihr": 1917,
      "wurden": 1918,
      "ner": 1919,
      "führ": 1920,
      "here": 1921,
      "tim": 1922,
      "if": 1923,
      "This": 1924,
      "iz": 1925,
      "dar": 1926,
      "age": 1927,
      "zw": 1928,
      "ue": 1929,
      "ded": 1930,
      "ight": 1931,
      "ür": 1932,
      "ated": 1933,
      "play": 1934,
      "gem": 1935,
      "ard": 1936,
      "arbe": 1937,
      "first": 1938,
      "198": 1939,
      "but": 1940,
      "weiter": 1941,
      "kr": 1942,
      "ty": 1943,
      "reg": 1944,
      "spiel": 1945,
      "star": 1946,
      "which": 1947,
      "inter": 1948,
      "gan": 1949,
      "res": 1950,
      "wä": 1951,
      "their": 1952,
      "pol": 1953,
      "ks": 1954,
      "ise": 1955,
      "ild": 1956,
      "mon": 1957,
      "pa": 1958,
      "tet": 1959,
      "ish": 1960,
      "pen": 1961,
      "mehr": 1962,
      "min": 1963,
      "under": 1964,
      "ions": 1965,
      "part": 1966,
      "ied": 1967,
      "liche": 1968,
      "uld": 1969,
      "sy": 1970,
      "bec": 1971,
      "oder": 1972,
      "ph": 1973,
      "pt": 1974,
      "ys": 1975,
      "old": 1976,
      "197": 1977,
      "ings": 1978,
      "lin": 1979,
      "seit": 1980,
      "kann": 1981,
      "nur": 1982,
      "sam": 1983,
      "tt": 1984,
      "nam": 1985,
      "this": 1986,
      "zen": 1987,
      "gegen": 1988,
      "noch": 1989,
      "year": 1990,
      "17": 1991,
      "ong": 1992,
      "ön": 1993,
      "stad": 1994,
      "tre": 1995,
      "ib": 1996,
      "sein": 1997,
      "They": 1998,
      "bere": 1999,
      "ese": 2000,
      "seine": 2001,
      "ast": 2002,
      "spe": 2003,
      "del": 2004,
      "ob": 2005,
      "ld": 2006,
      "tur": 2007,
      "atz": 2008,
      "bar": 2009,
      "hm": 2010,
      "ev": 2011,
      "very": 2012,
      "ial": 2013,
      "ational": 2014,
      "ick": 2015,
      "tel": 2016,
      "sit": 2017,
      "wel": 2018,
      "amp": 2019,
      "bur": 2020,
      "kno": 2021,
      "alt": 2022,
      "ile": 2023,
      "stu": 2024,
      "off": 2025,
      "det": 2026,
      "),": 2027,
      "keit": 2028,
      "196": 2029,
      "15": 2030,
      "deutsch": 2031,
      "att": 2032,
      "äu": 2033,
      "io": 2034,
      "alled": 2035,
      "ice": 2036,
      "tro": 2037,
      "sho": 2038,
      "ical": 2039,
      "ank": 2040,
      "vie": 2041,
      "called": 2042,
      "ause": 2043,
      "cre": 2044,
      "ot": 2045,
      "who": 2046,
      "many": 2047,
      "ved": 2048,
      "bl": 2049,
      "hmen": 2050,
      "za": 2051,
      "wieder": 2052,
      "ory": 2053,
      "ep": 2054,
      "los": 2055,
      "ay": 2056,
      "fre": 2057,
      "ugh": 2058,
      "aber": 2059,
      "16": 2060,
      "10": 2061,
      "zwei": 2062,
      "erst": 2063,
      "She": 2064,
      "ign": 2065,
      "pre": 2066,
      "St": 2067,
      "led": 2068,
      "ließ": 2069,
      "two": 2070,
      "dieser": 2071,
      "est": 2072,
      "gew": 2073,
      "cht": 2074,
      "ute": 2075,
      "dam": 2076,
      "about": 2077,
      "av": 2078,
      "fam": 2079,
      "ler": 2080,
      "stadt": 2081,
      "gle": 2082,
      "fall": 2083,
      "arbeit": 2084,
      "time": 2085,
      "gs": 2086,
      "gra": 2087,
      "ele": 2088,
      "more": 2089,
      "most": 2090,
      "used": 2091,
      "gemein": 2092,
      "dern": 2093,
      "fahr": 2094,
      "stra": 2095,
      "194": 2096,
      "bre": 2097,
      "dies": 2098,
      "them": 2099,
      "any": 2100,
      "bu": 2101,
      "ister": 2102,
      "les": 2103,
      "iden": 2104,
      "ire": 2105,
      "seiner": 2106,
      "zt": 2107,
      "äl": 2108,
      "there": 2109,
      "ction": 2110,
      "zwischen": 2111,
      "kön": 2112,
      "195": 2113,
      "mann": 2114,
      "ren": 2115,
      "she": 2116,
      "tho": 2117,
      "Un": 2118,
      "gest": 2119,
      "ide": 2120,
      "jo": 2121,
      "ws": 2122,
      "anz": 2123,
      "gl": 2124,
      "wen": 2125,
      "000": 2126,
      "ble": 2127,
      "dis": 2128,
      "groß": 2129,
      "port": 2130,
      "ihre": 2131,
      "aben": 2132,
      "ds": 2133,
      "ffer": 2134,
      "bet": 2135,
      "unt": 2136,
      "jahre": 2137,
      "work": 2138,
      "comp": 2139,
      "been": 2140,
      "net": 2141,
      "hatte": 2142,
      "produ": 2143,
      "uss": 2144,
      "vom": 2145,
      "ierte": 2146,
      "igh": 2147,
      "och": 2148,
      "Ch": 2149,
      "band": 2150,
      "ou": 2151,
      "grund": 2152,
      "ain": 2153,
      "ces": 2154,
      "12": 2155,
      "made": 2156,
      "will": 2157,
      "nor": 2158,
      "ree": 2159,
      "over": 2160,
      "uni": 2161,
      "orn": 2162,
      "neu": 2163,
      "iss": 2164,
      "ath": 2165,
      "known": 2166,
      "fil": 2167,
      "vel": 2168,
      "ations": 2169,
      "14": 2170,
      "national": 2171,
      "hö": 2172,
      "beg": 2173,
      "zeich": 2174,
      "iger": 2175,
      "öff": 2176,
      "waren": 2177,
      "him": 2178,
      "jed": 2179,
      "ates": 2180,
      "fel": 2181,
      "col": 2182,
      "lang": 2183,
      "haus": 2184,
      "kir": 2185,
      "some": 2186,
      "person": 2187,
      "jahren": 2188,
      "An": 2189,
      "hand": 2190,
      "ased": 2191,
      "30": 2192,
      "when": 2193,
      "aut": 2194,
      "name": 2195,
      "able": 2196,
      "famil": 2197,
      "ms": 2198,
      "new": 2199,
      "aten": 2200,
      "ican": 2201,
      "atur": 2202,
      "spr": 2203,
      "after": 2204,
      "into": 2205,
      "med": 2206,
      "grün": 2207,
      "zahl": 2208,
      "ance": 2209,
      "ud": 2210,
      "itt": 2211,
      "car": 2212,
      "ßer": 2213,
      "than": 2214,
      "assen": 2215,
      "ens": 2216,
      "ition": 2217,
      "pf": 2218,
      "ale": 2219,
      "jedoch": 2220,
      "ieren": 2221,
      "glich": 2222,
      "ced": 2223,
      "heit": 2224,
      "igt": 2225,
      "way": 2226,
      "best": 2227,
      "13": 2228,
      "ult": 2229,
      "ga": 2230,
      "arch": 2231,
      "inn": 2232,
      "only": 2233,
      "gleich": 2234,
      "kam": 2235,
      "\".": 2236,
      "leben": 2237,
      "betr": 2238,
      "kre": 2239,
      "setz": 2240,
      "han": 2241,
      "differ": 2242,
      "dien": 2243,
      "nis": 2244,
      "eines": 2245,
      "äch": 2246,
      "cit": 2247,
      "cent": 2248,
      "wohn": 2249,
      "vis": 2250,
      "ko": 2251,
      "hör": 2252,
      "There": 2253,
      "years": 2254,
      "kur": 2255,
      "coun": 2256,
      "low": 2257,
      "ichte": 2258,
      "hunder": 2259,
      "sta": 2260,
      "hel": 2261,
      "ors": 2262,
      "vier": 2263,
      "olog": 2264,
      "act": 2265,
      "län": 2266,
      "Amer": 2267,
      "drei": 2268,
      "polit": 2269,
      "amt": 2270,
      "konn": 2271,
      "hau": 2272,
      "amm": 2273,
      "ru": 2274,
      "iff": 2275,
      "spä": 2276,
      "alb": 2277,
      "burg": 2278,
      "leg": 2279,
      "vol": 2280,
      "bel": 2281,
      "pub": 2282,
      "ry": 2283,
      "sol": 2284,
      "ters": 2285,
      "zent": 2286,
      "sche": 2287,
      "folg": 2288,
      "ober": 2289,
      "such": 2290,
      "letz": 2291,
      "193": 2292,
      "pop": 2293,
      "pres": 2294,
      "acht": 2295,
      "ka": 2296,
      "ss": 2297,
      "west": 2298,
      "ats": 2299,
      "soll": 2300,
      "besch": 2301,
      "our": 2302,
      "zer": 2303,
      "lar": 2304,
      "schl": 2305,
      "mö": 2306,
      "jahrhunder": 2307,
      "main": 2308,
      "ktion": 2309,
      "ven": 2310,
      "hol": 2311,
      "char": 2312,
      "mp": 2313,
      "num": 2314,
      "Ho": 2315,
      "imm": 2316,
      "ton": 2317,
      "verw": 2318,
      "sc": 2319,
      "igkeit": 2320,
      "weise": 2321,
      "schließ": 2322,
      "lag": 2323,
      "ere": 2324,
      "mittel": 2325,
      "dire": 2326,
      "25": 2327,
      "oren": 2328,
      "day": 2329,
      "uc": 2330,
      "anu": 2331,
      "versch": 2332,
      "became": 2333,
      "kin": 2334,
      "lage": 2335,
      "ierung": 2336,
      "Al": 2337,
      "berg": 2338,
      "rel": 2339,
      "rele": 2340,
      "De": 2341,
      "stellt": 2342,
      "team": 2343,
      "zusam": 2344,
      "different": 2345,
      "because": 2346,
      "Th": 2347,
      "halten": 2348,
      "ersten": 2349,
      "pun": 2350,
      "elle": 2351,
      "aller": 2352,
      "eng": 2353,
      "bahn": 2354,
      "zusammen": 2355,
      "isten": 2356,
      "sowie": 2357,
      "unden": 2358,
      "dy": 2359,
      "king": 2360,
      "rech": 2361,
      "aug": 2362,
      "bst": 2363,
      "tal": 2364,
      "später": 2365,
      "tern": 2366,
      "ker": 2367,
      "bro": 2368,
      "währ": 2369,
      "album": 2370,
      "zurück": 2371,
      "rich": 2372,
      "would": 2373,
      "ieb": 2374,
      "gef": 2375,
      "fore": 2376,
      "welt": 2377,
      "eben": 2378,
      "get": 2379,
      "Ne": 2380,
      "glie": 2381,
      "nie": 2382,
      "ßen": 2383,
      "bru": 2384,
      "entlich": 2385,
      "tober": 2386,
      "syste": 2387,
      "sing": 2388,
      "ents": 2389,
      "tember": 2390,
      "then": 2391,
      "fest": 2392,
      "urop": 2393,
      "ict": 2394,
      "mat": 2395,
      "popul": 2396,
      "iter": 2397,
      "Ar": 2398,
      "hist": 2399,
      "stre": 2400,
      "dort": 2401,
      "ince": 2402,
      "ase": 2403,
      "hier": 2404,
      "ca": 2405,
      "bild": 2406,
      "kar": 2407,
      "grö": 2408,
      "ually": 2409,
      "sü": 2410,
      "sm": 2411,
      "ße": 2412,
      "som": 2413,
      "vi": 2414,
      "geben": 2415,
      "ship": 2416,
      "bil": 2417,
      "ves": 2418,
      "ihn": 2419,
      "halb": 2420,
      "sk": 2421,
      "cess": 2422,
      "verl": 2423,
      "cond": 2424,
      "thro": 2425,
      "ingen": 2426,
      "ieden": 2427,
      "may": 2428,
      "mil": 2429,
      "eing": 2430,
      "like": 2431,
      "On": 2432,
      "mill": 2433,
      "stän": 2434,
      "iet": 2435,
      "hed": 2436,
      "ited": 2437,
      "haben": 2438,
      "öl": 2439,
      "rat": 2440,
      "dan": 2441,
      "gre": 2442,
      "werk": 2443,
      "ow": 2444,
      "etwa": 2445,
      "ibt": 2446,
      "verb": 2447,
      "ersch": 2448,
      "incl": 2449,
      "ischer": 2450,
      "cted": 2451,
      "ful": 2452,
      "tit": 2453,
      "organ": 2454,
      "plan": 2455,
      "ium": 2456,
      "prä": 2457,
      "back": 2458,
      "ison": 2459,
      "where": 2460,
      "ausge": 2461,
      "11": 2462,
      "einz": 2463,
      "ving": 2464,
      "ähr": 2465,
      "nung": 2466,
      "während": 2467,
      "eigen": 2468,
      "ous": 2469,
      "gener": 2470,
      "ool": 2471,
      "stru": 2472,
      "ason": 2473,
      "citation": 2474,
      "well": 2475,
      "mun": 2476,
      "kehr": 2477,
      "zweit": 2478,
      "krie": 2479,
      "seinen": 2480,
      "hof": 2481,
      "wal": 2482,
      "ween": 2483,
      "frau": 2484,
      "platz": 2485,
      "vember": 2486,
      "bereits": 2487,
      "En": 2488,
      "air": 2489,
      "dabei": 2490,
      "schn": 2491,
      "kte": 2492,
      "bekann": 2493,
      "50": 2494,
      "ital": 2495,
      "three": 2496,
      "verein": 2497,
      "cur": 2498,
      "gar": 2499,
      "American": 2500,
      "aum": 2501,
      "dor": 2502,
      "int": 2503,
      "film": 2504,
      "ics": 2505,
      "ost": 2506,
      "ihm": 2507,
      "own": 2508,
      "try": 2509,
      "number": 2510,
      "uck": 2511,
      "21": 2512,
      "turn": 2513,
      "konnte": 2514,
      "member": 2515,
      "weil": 2516,
      "world": 2517,
      "heim": 2518,
      "oc": 2519,
      "posit": 2520,
      "grup": 2521,
      "geset": 2522,
      "group": 2523,
      "released": 2524,
      "seinem": 2525,
      "writ": 2526,
      "nehmen": 2527,
      "une": 2528,
      "schen": 2529,
      "same": 2530,
      "entw": 2531,
      "inner": 2532,
      "born": 2533,
      "cy": 2534,
      "richt": 2535,
      "tain": 2536,
      "itz": 2537,
      "Co": 2538,
      "ball": 2539,
      "ders": 2540,
      "sed": 2541,
      "bra": 2542,
      "bt": 2543,
      "utz": 2544,
      "Con": 2545,
      "ran": 2546,
      "side": 2547,
      "rest": 2548,
      "2010": 2549,
      "gu": 2550,
      "selbst": 2551,
      "24": 2552,
      "heute": 2553,
      "ielt": 2554,
      "did": 2555,
      "again": 2556,
      "ihrer": 2557,
      "por": 2558,
      "No": 2559,
      "issen": 2560,
      "kun": 2561,
      "ident": 2562,
      "between": 2563,
      "weg": 2564,
      "können": 2565,
      "iven": 2566,
      "kes": 2567,
      "sup": 2568,
      "sur": 2569,
      "damit": 2570,
      "cord": 2571,
      "gibt": 2572,
      "mitglie": 2573,
      "statt": 2574,
      "zie": 2575,
      "auer": 2576,
      "cial": 2577,
      "mot": 2578,
      "until": 2579,
      "Be": 2580,
      "As": 2581,
      "died": 2582,
      "Re": 2583,
      "dann": 2584,
      "wever": 2585,
      "run": 2586,
      "wirt": 2587,
      "gehör": 2588,
      "har": 2589,
      "führt": 2590,
      "publ": 2591,
      "city": 2592,
      "make": 2593,
      "played": 2594,
      "Le": 2595,
      "erfolg": 2596,
      "igin": 2597,
      "mü": 2598,
      "cor": 2599,
      "ps": 2600,
      "isen": 2601,
      "gab": 2602,
      "erste": 2603,
      "dig": 2604,
      "hne": 2605,
      "immer": 2606,
      "fun": 2607,
      "ished": 2608,
      "vert": 2609,
      "cken": 2610,
      "cer": 2611,
      "steht": 2612,
      "dist": 2613,
      "chn": 2614,
      "kirche": 2615,
      "these": 2616,
      "Mar": 2617,
      "Af": 2618,
      "later": 2619,
      "xt": 2620,
      "möglich": 2621,
      "ple": 2622,
      "ener": 2623,
      "ilt": 2624,
      "stehen": 2625,
      "music": 2626,
      "ität": 2627,
      "far": 2628,
      "häl": 2629,
      "book": 2630,
      "frü": 2631,
      "kil": 2632,
      "haupt": 2633,
      "my": 2634,
      "cap": 2635,
      "won": 2636,
      "show": 2637,
      "stit": 2638,
      "often": 2639,
      "last": 2640,
      "ely": 2641,
      "ime": 2642,
      "wasser": 2643,
      "falls": 2644,
      "tin": 2645,
      "million": 2646,
      "don": 2647,
      "schw": 2648,
      "ehe": 2649,
      "ual": 2650,
      "beson": 2651,
      "beim": 2652,
      "öffentlich": 2653,
      "gemeinde": 2654,
      "schri": 2655,
      "fach": 2656,
      "beiden": 2657,
      "kommen": 2658,
      "ustr": 2659,
      "cke": 2660,
      "aro": 2661,
      "ica": 2662,
      "wohl": 2663,
      "fern": 2664,
      "come": 2665,
      "2011": 2666,
      "stellung": 2667,
      "anderen": 2668,
      "Com": 2669,
      "ames": 2670,
      "fig": 2671,
      "23": 2672,
      "ped": 2673,
      "His": 2674,
      "km": 2675,
      "diesem": 2676,
      "keine": 2677,
      "geschichte": 2678,
      "ütz": 2679,
      "viel": 2680,
      "stein": 2681,
      "lan": 2682,
      "mach": 2683,
      "fand": 2684,
      "second": 2685,
      "four": 2686,
      "long": 2687,
      "fra": 2688,
      "var": 2689,
      "After": 2690,
      "findet": 2691,
      "22": 2692,
      "ative": 2693,
      "gend": 2694,
      "sport": 2695,
      "meister": 2696,
      "miss": 2697,
      "red": 2698,
      "hän": 2699,
      "außer": 2700,
      "buch": 2701,
      "dent": 2702,
      "bereich": 2703,
      "zug": 2704,
      "handel": 2705,
      "sehr": 2706,
      "each": 2707,
      "gebäu": 2708,
      "sub": 2709,
      "region": 2710,
      "ule": 2711,
      "test": 2712,
      "2007": 2713,
      "oper": 2714,
      "gele": 2715,
      "ziel": 2716,
      "At": 2717,
      "schul": 2718,
      "ierten": 2719,
      "gesamt": 2720,
      "ith": 2721,
      "dre": 2722,
      "pan": 2723,
      "spra": 2724,
      "When": 2725,
      "fang": 2726,
      "chr": 2727,
      "satz": 2728,
      "weitere": 2729,
      "origin": 2730,
      "bed": 2731,
      "could": 2732,
      "akt": 2733,
      "namen": 2734,
      "change": 2735,
      "voll": 2736,
      "urch": 2737,
      "ists": 2738,
      "gestellt": 2739,
      "vern": 2740,
      "fas": 2741,
      "mut": 2742,
      "Jo": 2743,
      "movie": 2744,
      "27": 2745,
      "neben": 2746,
      "For": 2747,
      "Ro": 2748,
      "\",": 2749,
      "tig": 2750,
      "being": 2751,
      "lauf": 2752,
      "rück": 2753,
      "system": 2754,
      "26": 2755,
      "clo": 2756,
      "28": 2757,
      "see": 2758,
      "cts": 2759,
      "süd": 2760,
      "lung": 2761,
      "let": 2762,
      "folgen": 2763,
      "pon": 2764,
      "“.": 2765,
      "vo": 2766,
      "bas": 2767,
      "mä": 2768,
      "New": 2769,
      "ious": 2770,
      "started": 2771,
      "hil": 2772,
      "during": 2773,
      "ution": 2774,
      "ught": 2775,
      "bü": 2776,
      "ju": 2777,
      "2008": 2778,
      "kan": 2779,
      "lu": 2780,
      "progr": 2781,
      "Nor": 2782,
      "ward": 2783,
      "zentr": 2784,
      "ätz": 2785,
      "mel": 2786,
      "prof": 2787,
      "musik": 2788,
      "ommen": 2789,
      "dieses": 2790,
      "gy": 2791,
      "Se": 2792,
      "190": 2793,
      "verschieden": 2794,
      "water": 2795,
      "lagen": 2796,
      "hy": 2797,
      "hoch": 2798,
      "kauf": 2799,
      "trag": 2800,
      "still": 2801,
      "folge": 2802,
      "place": 2803,
      "imes": 2804,
      "gebiet": 2805,
      "Bo": 2806,
      "fu": 2807,
      "pri": 2808,
      "through": 2809,
      "Some": 2810,
      "juni": 2811,
      "29": 2812,
      "Pe": 2813,
      "ons": 2814,
      "before": 2815,
      "2012": 2816,
      "dorf": 2817,
      "schaften": 2818,
      "ina": 2819,
      "area": 2820,
      "sim": 2821,
      "now": 2822,
      "2009": 2823,
      "techn": 2824,
      "line": 2825,
      "innen": 2826,
      "kün": 2827,
      "stor": 2828,
      "dest": 2829,
      "ix": 2830,
      "versity": 2831,
      "alter": 2832,
      "fte": 2833,
      "alen": 2834,
      "said": 2835,
      "Fe": 2836,
      "ried": 2837,
      "zo": 2838,
      "wahl": 2839,
      "nahm": 2840,
      "annt": 2841,
      "life": 2842,
      "found": 2843,
      "bus": 2844,
      "alten": 2845,
      "ury": 2846,
      "wom": 2847,
      "bezeich": 2848,
      "seite": 2849,
      "ctor": 2850,
      "mas": 2851,
      "pra": 2852,
      "dessen": 2853,
      "hielt": 2854,
      "However": 2855,
      "tem": 2856,
      "fün": 2857,
      "licher": 2858,
      "jahrhundert": 2859,
      "2006": 2860,
      "usually": 2861,
      "deutschen": 2862,
      "gang": 2863,
      "wissen": 2864,
      "ationen": 2865,
      "school": 2866,
      "bekannt": 2867,
      "around": 2868,
      "wes": 2869,
      "These": 2870,
      "worden": 2871,
      "2013": 2872,
      "appe": 2873,
      "ham": 2874,
      "zä": 2875,
      "ihren": 2876,
      "fä": 2877,
      "vision": 2878,
      "oft": 2879,
      "serv": 2880,
      "wegen": 2881,
      "wan": 2882,
      "iere": 2883,
      "game": 2884,
      "Pr": 2885,
      ".\"": 2886,
      "ief": 2887,
      "urt": 2888,
      "straße": 2889,
      "season": 2890,
      "40": 2891,
      "uer": 2892,
      "punkt": 2893,
      "cause": 2894,
      "frei": 2895,
      "mals": 2896,
      "fort": 2897,
      "deutschland": 2898,
      "fiel": 2899,
      "arr": 2900,
      "ont": 2901,
      "ös": 2902,
      "proble": 2903,
      "tag": 2904,
      "2014": 2905,
      "lack": 2906,
      "ments": 2907,
      "finden": 2908,
      "dition": 2909,
      "named": 2910,
      "gren": 2911,
      "deren": 2912,
      "sei": 2913,
      "song": 2914,
      "100": 2915,
      "qual": 2916,
      "Par": 2917,
      "veral": 2918,
      "town": 2919,
      "ellen": 2920,
      "inclu": 2921,
      "dren": 2922,
      "how": 2923,
      "liegt": 2924,
      "govern": 2925,
      "flä": 2926,
      "dert": 2927,
      "typ": 2928,
      "sold": 2929,
      "hlt": 2930,
      "ink": 2931,
      "United": 2932,
      "loc": 2933,
      "mitte": 2934,
      "bal": 2935,
      "val": 2936,
      "sicht": 2937,
      "Wor": 2938,
      "though": 2939,
      "darauf": 2940,
      "zun": 2941,
      "power": 2942,
      "lieb": 2943,
      "what": 2944,
      "put": 2945,
      "bund": 2946,
      "2016": 2947,
      "build": 2948,
      "fünf": 2949,
      "rund": 2950,
      "zial": 2951,
      "gebäude": 2952,
      "mor": 2953,
      "vent": 2954,
      "ildren": 2955,
      "down": 2956,
      "lossen": 2957,
      "2000": 2958,
      "yo": 2959,
      "0er": 2960,
      "hap": 2961,
      "mb": 2962,
      "amer": 2963,
      "gesell": 2964,
      "asse": 2965,
      "ating": 2966,
      "histor": 2967,
      "May": 2968,
      "raum": 2969,
      "high": 2970,
      "ril": 2971,
      "offen": 2972,
      "lot": 2973,
      "hum": 2974,
      "dings": 2975,
      "189": 2976,
      "hinter": 2977,
      "Ger": 2978,
      "convert": 2979,
      "both": 2980,
      "enter": 2981,
      "veröffentlich": 2982,
      "betrieb": 2983,
      "sep": 2984,
      "2017": 2985,
      "kinder": 2986,
      "schließlich": 2987,
      "wenn": 2988,
      "tour": 2989,
      "kap": 2990,
      "thing": 2991,
      "uten": 2992,
      "wirtschaft": 2993,
      "ature": 2994,
      "neue": 2995,
      "meter": 2996,
      "vil": 2997,
      "haf": 2998,
      "pat": 2999
    },
    "merges": [
      [
        "e",
        "r"
      ],
      [
        "e",
        "n"
      ],
      [
        "i",
        "n"
      ],
      [
        "c",
        "h"
      ],
      [
        "a",
        "n"
      ],
      [
        "t",
        "h"
      ],
      [
        "s",
        "t"
      ],
      [
        "i",
        "e"
      ],
      [
        "o",
        "n"
      ],
      [
        "u",
        "n"
      ],
      [
        "a",
        "r"
      ],
      [
        "e",
        "s"
      ],
      [
        "a",
        "l"
      ],
      [
        "i",
        "t"
      ],
      [
        "o",
        "r"
      ],
      [
        "i",
        "s"
      ],
      [
        "th",
        "e"
      ],
      [
        "a",
        "t"
      ],
      [
        "d",
        "er"
      ],
      [
        "a",
        "s"
      ],
      [
        "r",
        "e"
      ],
      [
        "d",
        "e"
      ],
      [
        "a",
        "u"
      ],
      [
        "g",
        "e"
      ],
      [
        "t",
        "e"
      ],
      [
        "e",
        "in"
      ],
      [
        "l",
        "e"
      ],
      [
        "b",
        "e"
      ],
      [
        "i",
        "ch"
      ],
      [
        "u",
        "r"
      ],
      [
        "d",
        "ie"
      ],
      [
        "an",
        "d"
      ],
      [
        "o",
        "f"
      ],
      [
        "h",
        "e"
      ],
      [
        "un",
        "d"
      ],
      [
        "s",
        "e"
      ],
      [
        "a",
        "m"
      ],
      [
        "d",
        "en"
      ],
      [
        "v",
        "er"
      ],
      [
        "i",
        "l"
      ],
      [
        "t",
        "o"
      ],
      [
        "r",
        "o"
      ],
      [
        "s",
        "ch"
      ],
      [
        "un",
        "g"
      ],
      [
        "i",
        "g"
      ],
      [
        "e",
        "d"
      ],
      [
        "i",
        "m"
      ],
      [
        "in",
        "g"
      ],
      [
        "i",
        "on"
      ],
      [
        "t",
        "er"
      ],
      [
        "o",
        "l"
      ],
      [
        "e",
        "l"
      ],
      [
        "b",
        "er"
      ],
      [
        "t",
        "en"
      ],
      [
        "i",
        "c"
      ],
      [
        "en",
        "t"
      ],
      [
        "h",
        "r"
      ],
      [
        "o",
        "m"
      ],
      [
        "i",
        "st"
      ],
      [
        "i",
        "r"
      ],
      [
        "w",
        "e"
      ],
      [
        "1",
        "9"
      ],
      [
        "z",
        "u"
      ],
      [
        "r",
        "a"
      ],
      [
        "u",
        "t"
      ],
      [
        "a",
        "b"
      ],
      [
        "n",
        "e"
      ],
      [
        "w",
        "as"
      ],
      [
        "T",
        "he"
      ],
      [
        "u",
        "m"
      ],
      [
        "a",
        "ch"
      ],
      [
        "2",
        "0"
      ],
      [
        "u",
        "s"
      ],
      [
        "f",
        "or"
      ],
      [
        "g",
        "en"
      ],
      [
        "au",
        "f"
      ],
      [
        "s",
        "p"
      ],
      [
        "ein",
        "e"
      ],
      [
        "l",
        "ich"
      ],
      [
        "m",
        "it"
      ],
      [
        "l",
        "a"
      ],
      [
        "v",
        "on"
      ],
      [
        "is",
        "ch"
      ],
      [
        "al",
        "s"
      ],
      [
        "d",
        "as"
      ],
      [
        "i",
        "er"
      ],
      [
        "d",
        "es"
      ],
      [
        "au",
        "s"
      ],
      [
        "w",
        "er"
      ],
      [
        "a",
        "d"
      ],
      [
        "c",
        "k"
      ],
      [
        "al",
        "l"
      ],
      [
        "u",
        "l"
      ],
      [
        "n",
        "o"
      ],
      [
        "o",
        "p"
      ],
      [
        "m",
        "e"
      ],
      [
        "at",
        "ion"
      ],
      [
        "v",
        "e"
      ],
      [
        "f",
        "ü"
      ],
      [
        "l",
        "o"
      ],
      [
        "z",
        "e"
      ],
      [
        "w",
        "ur"
      ],
      [
        "t",
        "s"
      ],
      [
        "de",
        "m"
      ],
      [
        "w",
        "ar"
      ],
      [
        "t",
        "r"
      ],
      [
        "h",
        "er"
      ],
      [
        "m",
        "a"
      ],
      [
        "d",
        "i"
      ],
      [
        "k",
        "e"
      ],
      [
        "g",
        "es"
      ],
      [
        "g",
        "r"
      ],
      [
        "c",
        "e"
      ],
      [
        "h",
        "o"
      ],
      [
        "ar",
        "e"
      ],
      [
        "s",
        "ich"
      ],
      [
        "b",
        "en"
      ],
      [
        "an",
        "n"
      ],
      [
        "a",
        "f"
      ],
      [
        "m",
        "o"
      ],
      [
        "s",
        "o"
      ],
      [
        "st",
        "e"
      ],
      [
        "f",
        "e"
      ],
      [
        "j",
        "a"
      ],
      [
        "th",
        "er"
      ],
      [
        "s",
        "en"
      ],
      [
        "wur",
        "de"
      ],
      [
        "el",
        "l"
      ],
      [
        "a",
        "p"
      ],
      [
        "m",
        "en"
      ],
      [
        "p",
        "ro"
      ],
      [
        "w",
        "i"
      ],
      [
        "c",
        "t"
      ],
      [
        "e",
        "t"
      ],
      [
        "l",
        "ie"
      ],
      [
        "fü",
        "r"
      ],
      [
        "n",
        "ach"
      ],
      [
        "s",
        "ie"
      ],
      [
        "g",
        "er"
      ],
      [
        "h",
        "is"
      ],
      [
        "ich",
        "t"
      ],
      [
        "ie",
        "l"
      ],
      [
        "w",
        "o"
      ],
      [
        "m",
        "an"
      ],
      [
        "l",
        "y"
      ],
      [
        "r",
        "i"
      ],
      [
        "be",
        "i"
      ],
      [
        "v",
        "or"
      ],
      [
        "l",
        "i"
      ],
      [
        "isch",
        "en"
      ],
      [
        "h",
        "n"
      ],
      [
        "p",
        "e"
      ],
      [
        "c",
        "o"
      ],
      [
        "d",
        "a"
      ],
      [
        "th",
        "at"
      ],
      [
        "c",
        "on"
      ],
      [
        "k",
        "t"
      ],
      [
        "ä",
        "n"
      ],
      [
        "in",
        "d"
      ],
      [
        "s",
        "er"
      ],
      [
        "h",
        "en"
      ],
      [
        "ü",
        "ber"
      ],
      [
        "u",
        "p"
      ],
      [
        "0",
        "0"
      ],
      [
        "ar",
        "t"
      ],
      [
        "wi",
        "th"
      ],
      [
        "t",
        "a"
      ],
      [
        "b",
        "y"
      ],
      [
        "p",
        "r"
      ],
      [
        "ein",
        "er"
      ],
      [
        "b",
        "o"
      ],
      [
        "or",
        "t"
      ],
      [
        "p",
        "er"
      ],
      [
        "un",
        "ter"
      ],
      [
        "I",
        "n"
      ],
      [
        "ro",
        "m"
      ],
      [
        "b",
        "r"
      ],
      [
        "20",
        "1"
      ],
      [
        "f",
        "f"
      ],
      [
        "au",
        "ch"
      ],
      [
        "c",
        "om"
      ],
      [
        "u",
        "g"
      ],
      [
        "h",
        "a"
      ],
      [
        "h",
        "l"
      ],
      [
        "an",
        "g"
      ],
      [
        "es",
        "s"
      ],
      [
        "20",
        "0"
      ],
      [
        "w",
        "ie"
      ],
      [
        "I",
        "t"
      ],
      [
        "il",
        "l"
      ],
      [
        "H",
        "e"
      ],
      [
        "w",
        "a"
      ],
      [
        "ja",
        "hr"
      ],
      [
        "p",
        "o"
      ],
      [
        "h",
        "t"
      ],
      [
        "m",
        "er"
      ],
      [
        "1",
        "8"
      ],
      [
        "d",
        "ur"
      ],
      [
        "b",
        "is"
      ],
      [
        "ung",
        "en"
      ],
      [
        "l",
        "and"
      ],
      [
        "f",
        "r"
      ],
      [
        "f",
        "rom"
      ],
      [
        "w",
        "ir"
      ],
      [
        "u",
        "ch"
      ],
      [
        "am",
        "e"
      ],
      [
        "t",
        "z"
      ],
      [
        "ig",
        "en"
      ],
      [
        "w",
        "or"
      ],
      [
        "h",
        "at"
      ],
      [
        "s",
        "on"
      ],
      [
        "en",
        "d"
      ],
      [
        "i",
        "k"
      ],
      [
        "i",
        "d"
      ],
      [
        "i",
        "v"
      ],
      [
        "q",
        "u"
      ],
      [
        "f",
        "a"
      ],
      [
        "er",
        "n"
      ],
      [
        "on",
        "e"
      ],
      [
        "ie",
        "s"
      ],
      [
        "e",
        "x"
      ],
      [
        "at",
        "e"
      ],
      [
        "d",
        "o"
      ],
      [
        "p",
        "l"
      ],
      [
        "ge",
        "b"
      ],
      [
        "i",
        "en"
      ],
      [
        "sch",
        "af"
      ],
      [
        "ein",
        "en"
      ],
      [
        "no",
        "t"
      ],
      [
        "b",
        "es"
      ],
      [
        "g",
        "o"
      ],
      [
        "w",
        "n"
      ],
      [
        "dur",
        "ch"
      ],
      [
        "t",
        "ra"
      ],
      [
        "we",
        "it"
      ],
      [
        "te",
        "d"
      ],
      [
        "s",
        "i"
      ],
      [
        "st",
        "r"
      ],
      [
        "al",
        "le"
      ],
      [
        "u",
        "b"
      ],
      [
        "s",
        "a"
      ],
      [
        "u",
        "se"
      ],
      [
        "p",
        "la"
      ],
      [
        "st",
        "en"
      ],
      [
        "ge",
        "l"
      ],
      [
        "n",
        "icht"
      ],
      [
        "an",
        "t"
      ],
      [
        "f",
        "l"
      ],
      [
        "f",
        "t"
      ],
      [
        "eine",
        "m"
      ],
      [
        "m",
        "ber"
      ],
      [
        "h",
        "as"
      ],
      [
        "se",
        "l"
      ],
      [
        "it",
        "s"
      ],
      [
        "d",
        "r"
      ],
      [
        "ze",
        "it"
      ],
      [
        "ü",
        "n"
      ],
      [
        "m",
        "ent"
      ],
      [
        "f",
        "ol"
      ],
      [
        "k",
        "on"
      ],
      [
        "wer",
        "e"
      ],
      [
        "it",
        "y"
      ],
      [
        "z",
        "ur"
      ],
      [
        "wer",
        "den"
      ],
      [
        "k",
        "l"
      ],
      [
        "o",
        "ut"
      ],
      [
        "e",
        "ar"
      ],
      [
        "a",
        "g"
      ],
      [
        "st",
        "ell"
      ],
      [
        "h",
        "al"
      ],
      [
        "er",
        "s"
      ],
      [
        "re",
        "i"
      ],
      [
        "te",
        "il"
      ],
      [
        "ch",
        "e"
      ],
      [
        "isch",
        "e"
      ],
      [
        "ung",
        "s"
      ],
      [
        "h",
        "re"
      ],
      [
        "als",
        "o"
      ],
      [
        "w",
        "h"
      ],
      [
        "g",
        "ro"
      ],
      [
        "o",
        "k"
      ],
      [
        "19",
        "9"
      ],
      [
        "ges",
        "ch"
      ],
      [
        "ö",
        "r"
      ],
      [
        "m",
        "ar"
      ],
      [
        "n",
        "a"
      ],
      [
        "s",
        "h"
      ],
      [
        ")",
        "."
      ],
      [
        "b",
        "a"
      ],
      [
        "l",
        "l"
      ],
      [
        "it",
        "e"
      ],
      [
        "d",
        "u"
      ],
      [
        "zu",
        "m"
      ],
      [
        "f",
        "in"
      ],
      [
        "n",
        "en"
      ],
      [
        "om",
        "e"
      ],
      [
        "st",
        "and"
      ],
      [
        "i",
        "a"
      ],
      [
        "h",
        "in"
      ],
      [
        "i",
        "p"
      ],
      [
        "wir",
        "d"
      ],
      [
        "an",
        "s"
      ],
      [
        "or",
        "e"
      ],
      [
        "s",
        "ind"
      ],
      [
        "in",
        "e"
      ],
      [
        "op",
        "le"
      ],
      [
        "we",
        "i"
      ],
      [
        "ver",
        "s"
      ],
      [
        "p",
        "ar"
      ],
      [
        "f",
        "o"
      ],
      [
        "m",
        "us"
      ],
      [
        "u",
        "st"
      ],
      [
        "at",
        "er"
      ],
      [
        "c",
        "an"
      ],
      [
        "f",
        "en"
      ],
      [
        "an",
        "ge"
      ],
      [
        "ol",
        "l"
      ],
      [
        "ü",
        "ck"
      ],
      [
        "ch",
        "en"
      ],
      [
        "i",
        "ve"
      ],
      [
        "o",
        "d"
      ],
      [
        "f",
        "ir"
      ],
      [
        "lich",
        "en"
      ],
      [
        "ä",
        "r"
      ],
      [
        "j",
        "e"
      ],
      [
        "ha",
        "ve"
      ],
      [
        "c",
        "i"
      ],
      [
        "schaf",
        "t"
      ],
      [
        "for",
        "m"
      ],
      [
        "das",
        "s"
      ],
      [
        "g",
        "t"
      ],
      [
        "the",
        "y"
      ],
      [
        "en",
        "de"
      ],
      [
        "c",
        "l"
      ],
      [
        "ier",
        "t"
      ],
      [
        "r",
        "it"
      ],
      [
        "ä",
        "t"
      ],
      [
        "all",
        "y"
      ],
      [
        "an",
        "der"
      ],
      [
        "or",
        "d"
      ],
      [
        "k",
        "om"
      ],
      [
        "f",
        "er"
      ],
      [
        "b",
        "au"
      ],
      [
        "k",
        "en"
      ],
      [
        "m",
        "al"
      ],
      [
        "o",
        "ther"
      ],
      [
        "a",
        "c"
      ],
      [
        "in",
        "s"
      ],
      [
        "pe",
        "ople"
      ],
      [
        "as",
        "s"
      ],
      [
        "u",
        "re"
      ],
      [
        "st",
        "er"
      ],
      [
        "re",
        "ich"
      ],
      [
        "ar",
        "y"
      ],
      [
        "i",
        "ge"
      ],
      [
        "die",
        "se"
      ],
      [
        "o",
        "g"
      ],
      [
        "de",
        "ut"
      ],
      [
        "h",
        "ad"
      ],
      [
        "o",
        "s"
      ],
      [
        "e",
        "m"
      ],
      [
        "i",
        "an"
      ],
      [
        "a",
        "k"
      ],
      [
        "i",
        "hr"
      ],
      [
        "wur",
        "den"
      ],
      [
        "n",
        "er"
      ],
      [
        "fü",
        "hr"
      ],
      [
        "her",
        "e"
      ],
      [
        "t",
        "im"
      ],
      [
        "i",
        "f"
      ],
      [
        "T",
        "his"
      ],
      [
        "i",
        "z"
      ],
      [
        "d",
        "ar"
      ],
      [
        "a",
        "ge"
      ],
      [
        "z",
        "w"
      ],
      [
        "u",
        "e"
      ],
      [
        "de",
        "d"
      ],
      [
        "ig",
        "ht"
      ],
      [
        "ü",
        "r"
      ],
      [
        "at",
        "ed"
      ],
      [
        "pla",
        "y"
      ],
      [
        "ge",
        "m"
      ],
      [
        "ar",
        "d"
      ],
      [
        "ar",
        "be"
      ],
      [
        "fir",
        "st"
      ],
      [
        "19",
        "8"
      ],
      [
        "b",
        "ut"
      ],
      [
        "weit",
        "er"
      ],
      [
        "k",
        "r"
      ],
      [
        "t",
        "y"
      ],
      [
        "re",
        "g"
      ],
      [
        "sp",
        "iel"
      ],
      [
        "st",
        "ar"
      ],
      [
        "wh",
        "ich"
      ],
      [
        "in",
        "ter"
      ],
      [
        "g",
        "an"
      ],
      [
        "r",
        "es"
      ],
      [
        "w",
        "ä"
      ],
      [
        "the",
        "ir"
      ],
      [
        "p",
        "ol"
      ],
      [
        "k",
        "s"
      ],
      [
        "is",
        "e"
      ],
      [
        "il",
        "d"
      ],
      [
        "m",
        "on"
      ],
      [
        "p",
        "a"
      ],
      [
        "te",
        "t"
      ],
      [
        "is",
        "h"
      ],
      [
        "p",
        "en"
      ],
      [
        "me",
        "hr"
      ],
      [
        "m",
        "in"
      ],
      [
        "un",
        "der"
      ],
      [
        "ion",
        "s"
      ],
      [
        "p",
        "art"
      ],
      [
        "ie",
        "d"
      ],
      [
        "lich",
        "e"
      ],
      [
        "ul",
        "d"
      ],
      [
        "s",
        "y"
      ],
      [
        "be",
        "c"
      ],
      [
        "o",
        "der"
      ],
      [
        "p",
        "h"
      ],
      [
        "p",
        "t"
      ],
      [
        "y",
        "s"
      ],
      [
        "ol",
        "d"
      ],
      [
        "19",
        "7"
      ],
      [
        "ing",
        "s"
      ],
      [
        "l",
        "in"
      ],
      [
        "se",
        "it"
      ],
      [
        "k",
        "ann"
      ],
      [
        "n",
        "ur"
      ],
      [
        "s",
        "am"
      ],
      [
        "t",
        "t"
      ],
      [
        "n",
        "am"
      ],
      [
        "th",
        "is"
      ],
      [
        "z",
        "en"
      ],
      [
        "ge",
        "gen"
      ],
      [
        "no",
        "ch"
      ],
      [
        "y",
        "ear"
      ],
      [
        "1",
        "7"
      ],
      [
        "on",
        "g"
      ],
      [
        "ö",
        "n"
      ],
      [
        "st",
        "ad"
      ],
      [
        "t",
        "re"
      ],
      [
        "i",
        "b"
      ],
      [
        "s",
        "ein"
      ],
      [
        "The",
        "y"
      ],
      [
        "ber",
        "e"
      ],
      [
        "es",
        "e"
      ],
      [
        "s",
        "eine"
      ],
      [
        "a",
        "st"
      ],
      [
        "sp",
        "e"
      ],
      [
        "de",
        "l"
      ],
      [
        "o",
        "b"
      ],
      [
        "l",
        "d"
      ],
      [
        "t",
        "ur"
      ],
      [
        "at",
        "z"
      ],
      [
        "b",
        "ar"
      ],
      [
        "h",
        "m"
      ],
      [
        "e",
        "v"
      ],
      [
        "ver",
        "y"
      ],
      [
        "i",
        "al"
      ],
      [
        "ation",
        "al"
      ],
      [
        "ic",
        "k"
      ],
      [
        "te",
        "l"
      ],
      [
        "s",
        "it"
      ],
      [
        "w",
        "el"
      ],
      [
        "am",
        "p"
      ],
      [
        "b",
        "ur"
      ],
      [
        "k",
        "no"
      ],
      [
        "al",
        "t"
      ],
      [
        "i",
        "le"
      ],
      [
        "st",
        "u"
      ],
      [
        "of",
        "f"
      ],
      [
        "de",
        "t"
      ],
      [
        ")",
        ","
      ],
      [
        "ke",
        "it"
      ],
      [
        "19",
        "6"
      ],
      [
        "1",
        "5"
      ],
      [
        "deut",
        "sch"
      ],
      [
        "at",
        "t"
      ],
      [
        "ä",
        "u"
      ],
      [
        "i",
        "o"
      ],
      [
        "alle",
        "d"
      ],
      [
        "ic",
        "e"
      ],
      [
        "t",
        "ro"
      ],
      [
        "s",
        "ho"
      ],
      [
        "ic",
        "al"
      ],
      [
        "an",
        "k"
      ],
      [
        "v",
        "ie"
      ],
      [
        "c",
        "alled"
      ],
      [
        "au",
        "se"
      ],
      [
        "c",
        "re"
      ],
      [
        "o",
        "t"
      ],
      [
        "w",
        "ho"
      ],
      [
        "man",
        "y"
      ],
      [
        "v",
        "ed"
      ],
      [
        "b",
        "l"
      ],
      [
        "h",
        "men"
      ],
      [
        "z",
        "a"
      ],
      [
        "wie",
        "der"
      ],
      [
        "or",
        "y"
      ],
      [
        "e",
        "p"
      ],
      [
        "lo",
        "s"
      ],
      [
        "a",
        "y"
      ],
      [
        "f",
        "re"
      ],
      [
        "ug",
        "h"
      ],
      [
        "a",
        "ber"
      ],
      [
        "1",
        "6"
      ],
      [
        "1",
        "0"
      ],
      [
        "z",
        "wei"
      ],
      [
        "er",
        "st"
      ],
      [
        "S",
        "he"
      ],
      [
        "ig",
        "n"
      ],
      [
        "p",
        "re"
      ],
      [
        "S",
        "t"
      ],
      [
        "le",
        "d"
      ],
      [
        "lie",
        "ß"
      ],
      [
        "t",
        "wo"
      ],
      [
        "die",
        "ser"
      ],
      [
        "e",
        "st"
      ],
      [
        "ge",
        "w"
      ],
      [
        "ch",
        "t"
      ],
      [
        "u",
        "te"
      ],
      [
        "d",
        "am"
      ],
      [
        "ab",
        "out"
      ],
      [
        "a",
        "v"
      ],
      [
        "f",
        "am"
      ],
      [
        "l",
        "er"
      ],
      [
        "stad",
        "t"
      ],
      [
        "g",
        "le"
      ],
      [
        "f",
        "all"
      ],
      [
        "arbe",
        "it"
      ],
      [
        "tim",
        "e"
      ],
      [
        "g",
        "s"
      ],
      [
        "g",
        "ra"
      ],
      [
        "e",
        "le"
      ],
      [
        "m",
        "ore"
      ],
      [
        "mo",
        "st"
      ],
      [
        "use",
        "d"
      ],
      [
        "gem",
        "ein"
      ],
      [
        "der",
        "n"
      ],
      [
        "fa",
        "hr"
      ],
      [
        "st",
        "ra"
      ],
      [
        "19",
        "4"
      ],
      [
        "b",
        "re"
      ],
      [
        "die",
        "s"
      ],
      [
        "the",
        "m"
      ],
      [
        "an",
        "y"
      ],
      [
        "b",
        "u"
      ],
      [
        "ist",
        "er"
      ],
      [
        "l",
        "es"
      ],
      [
        "i",
        "den"
      ],
      [
        "i",
        "re"
      ],
      [
        "s",
        "einer"
      ],
      [
        "z",
        "t"
      ],
      [
        "ä",
        "l"
      ],
      [
        "ther",
        "e"
      ],
      [
        "ct",
        "ion"
      ],
      [
        "zw",
        "ischen"
      ],
      [
        "k",
        "ön"
      ],
      [
        "19",
        "5"
      ],
      [
        "m",
        "ann"
      ],
      [
        "r",
        "en"
      ],
      [
        "s",
        "he"
      ],
      [
        "th",
        "o"
      ],
      [
        "U",
        "n"
      ],
      [
        "ge",
        "st"
      ],
      [
        "i",
        "de"
      ],
      [
        "j",
        "o"
      ],
      [
        "w",
        "s"
      ],
      [
        "an",
        "z"
      ],
      [
        "g",
        "l"
      ],
      [
        "w",
        "en"
      ],
      [
        "00",
        "0"
      ],
      [
        "b",
        "le"
      ],
      [
        "d",
        "is"
      ],
      [
        "gro",
        "ß"
      ],
      [
        "p",
        "ort"
      ],
      [
        "i",
        "hre"
      ],
      [
        "ab",
        "en"
      ],
      [
        "d",
        "s"
      ],
      [
        "ff",
        "er"
      ],
      [
        "be",
        "t"
      ],
      [
        "un",
        "t"
      ],
      [
        "ja",
        "hre"
      ],
      [
        "wor",
        "k"
      ],
      [
        "com",
        "p"
      ],
      [
        "be",
        "en"
      ],
      [
        "ne",
        "t"
      ],
      [
        "hat",
        "te"
      ],
      [
        "pro",
        "du"
      ],
      [
        "us",
        "s"
      ],
      [
        "v",
        "om"
      ],
      [
        "ier",
        "te"
      ],
      [
        "ig",
        "h"
      ],
      [
        "o",
        "ch"
      ],
      [
        "C",
        "h"
      ],
      [
        "b",
        "and"
      ],
      [
        "o",
        "u"
      ],
      [
        "gr",
        "und"
      ],
      [
        "a",
        "in"
      ],
      [
        "c",
        "es"
      ],
      [
        "1",
        "2"
      ],
      [
        "ma",
        "de"
      ],
      [
        "w",
        "ill"
      ],
      [
        "n",
        "or"
      ],
      [
        "re",
        "e"
      ],
      [
        "o",
        "ver"
      ],
      [
        "un",
        "i"
      ],
      [
        "or",
        "n"
      ],
      [
        "ne",
        "u"
      ],
      [
        "is",
        "s"
      ],
      [
        "a",
        "th"
      ],
      [
        "kno",
        "wn"
      ],
      [
        "f",
        "il"
      ],
      [
        "v",
        "el"
      ],
      [
        "ation",
        "s"
      ],
      [
        "1",
        "4"
      ],
      [
        "n",
        "ational"
      ],
      [
        "h",
        "ö"
      ],
      [
        "be",
        "g"
      ],
      [
        "ze",
        "ich"
      ],
      [
        "ig",
        "er"
      ],
      [
        "ö",
        "ff"
      ],
      [
        "war",
        "en"
      ],
      [
        "h",
        "im"
      ],
      [
        "j",
        "ed"
      ],
      [
        "at",
        "es"
      ],
      [
        "f",
        "el"
      ],
      [
        "c",
        "ol"
      ],
      [
        "l",
        "ang"
      ],
      [
        "h",
        "aus"
      ],
      [
        "k",
        "ir"
      ],
      [
        "s",
        "ome"
      ],
      [
        "per",
        "son"
      ],
      [
        "jahr",
        "en"
      ],
      [
        "A",
        "n"
      ],
      [
        "h",
        "and"
      ],
      [
        "as",
        "ed"
      ],
      [
        "3",
        "0"
      ],
      [
        "w",
        "hen"
      ],
      [
        "au",
        "t"
      ],
      [
        "n",
        "ame"
      ],
      [
        "ab",
        "le"
      ],
      [
        "fam",
        "il"
      ],
      [
        "m",
        "s"
      ],
      [
        "ne",
        "w"
      ],
      [
        "at",
        "en"
      ],
      [
        "ic",
        "an"
      ],
      [
        "at",
        "ur"
      ],
      [
        "sp",
        "r"
      ],
      [
        "af",
        "ter"
      ],
      [
        "in",
        "to"
      ],
      [
        "m",
        "ed"
      ],
      [
        "gr",
        "ün"
      ],
      [
        "za",
        "hl"
      ],
      [
        "an",
        "ce"
      ],
      [
        "u",
        "d"
      ],
      [
        "it",
        "t"
      ],
      [
        "c",
        "ar"
      ],
      [
        "ß",
        "er"
      ],
      [
        "th",
        "an"
      ],
      [
        "as",
        "sen"
      ],
      [
        "en",
        "s"
      ],
      [
        "it",
        "ion"
      ],
      [
        "p",
        "f"
      ],
      [
        "al",
        "e"
      ],
      [
        "jed",
        "och"
      ],
      [
        "ier",
        "en"
      ],
      [
        "g",
        "lich"
      ],
      [
        "c",
        "ed"
      ],
      [
        "he",
        "it"
      ],
      [
        "ig",
        "t"
      ],
      [
        "wa",
        "y"
      ],
      [
        "be",
        "st"
      ],
      [
        "1",
        "3"
      ],
      [
        "ul",
        "t"
      ],
      [
        "g",
        "a"
      ],
      [
        "ar",
        "ch"
      ],
      [
        "in",
        "n"
      ],
      [
        "on",
        "ly"
      ],
      [
        "gle",
        "ich"
      ],
      [
        "k",
        "am"
      ],
      [
        "\"",
        "."
      ],
      [
        "le",
        "ben"
      ],
      [
        "be",
        "tr"
      ],
      [
        "k",
        "re"
      ],
      [
        "se",
        "tz"
      ],
      [
        "h",
        "an"
      ],
      [
        "di",
        "ffer"
      ],
      [
        "di",
        "en"
      ],
      [
        "n",
        "is"
      ],
      [
        "ein",
        "es"
      ],
      [
        "ä",
        "ch"
      ],
      [
        "c",
        "it"
      ],
      [
        "c",
        "ent"
      ],
      [
        "wo",
        "hn"
      ],
      [
        "v",
        "is"
      ],
      [
        "k",
        "o"
      ],
      [
        "h",
        "ör"
      ],
      [
        "T",
        "here"
      ],
      [
        "year",
        "s"
      ],
      [
        "k",
        "ur"
      ],
      [
        "co",
        "un"
      ],
      [
        "lo",
        "w"
      ],
      [
        "ich",
        "te"
      ],
      [
        "h",
        "under"
      ],
      [
        "st",
        "a"
      ],
      [
        "he",
        "l"
      ],
      [
        "or",
        "s"
      ],
      [
        "v",
        "ier"
      ],
      [
        "ol",
        "og"
      ],
      [
        "a",
        "ct"
      ],
      [
        "l",
        "än"
      ],
      [
        "A",
        "mer"
      ],
      [
        "d",
        "rei"
      ],
      [
        "pol",
        "it"
      ],
      [
        "am",
        "t"
      ],
      [
        "kon",
        "n"
      ],
      [
        "h",
        "au"
      ],
      [
        "am",
        "m"
      ],
      [
        "r",
        "u"
      ],
      [
        "i",
        "ff"
      ],
      [
        "sp",
        "ä"
      ],
      [
        "al",
        "b"
      ],
      [
        "bur",
        "g"
      ],
      [
        "le",
        "g"
      ],
      [
        "v",
        "ol"
      ],
      [
        "be",
        "l"
      ],
      [
        "p",
        "ub"
      ],
      [
        "r",
        "y"
      ],
      [
        "s",
        "ol"
      ],
      [
        "ter",
        "s"
      ],
      [
        "z",
        "ent"
      ],
      [
        "sch",
        "e"
      ],
      [
        "fol",
        "g"
      ],
      [
        "o",
        "ber"
      ],
      [
        "s",
        "uch"
      ],
      [
        "le",
        "tz"
      ],
      [
        "19",
        "3"
      ],
      [
        "p",
        "op"
      ],
      [
        "pr",
        "es"
      ],
      [
        "ach",
        "t"
      ],
      [
        "k",
        "a"
      ],
      [
        "s",
        "s"
      ],
      [
        "we",
        "st"
      ],
      [
        "at",
        "s"
      ],
      [
        "s",
        "oll"
      ],
      [
        "bes",
        "ch"
      ],
      [
        "o",
        "ur"
      ],
      [
        "z",
        "er"
      ],
      [
        "l",
        "ar"
      ],
      [
        "sch",
        "l"
      ],
      [
        "m",
        "ö"
      ],
      [
        "jahr",
        "hunder"
      ],
      [
        "ma",
        "in"
      ],
      [
        "kt",
        "ion"
      ],
      [
        "v",
        "en"
      ],
      [
        "h",
        "ol"
      ],
      [
        "ch",
        "ar"
      ],
      [
        "m",
        "p"
      ],
      [
        "n",
        "um"
      ],
      [
        "H",
        "o"
      ],
      [
        "im",
        "m"
      ],
      [
        "t",
        "on"
      ],
      [
        "ver",
        "w"
      ],
      [
        "s",
        "c"
      ],
      [
        "ig",
        "keit"
      ],
      [
        "we",
        "ise"
      ],
      [
        "sch",
        "ließ"
      ],
      [
        "la",
        "g"
      ],
      [
        "er",
        "e"
      ],
      [
        "mit",
        "tel"
      ],
      [
        "di",
        "re"
      ],
      [
        "2",
        "5"
      ],
      [
        "or",
        "en"
      ],
      [
        "da",
        "y"
      ],
      [
        "u",
        "c"
      ],
      [
        "an",
        "u"
      ],
      [
        "ver",
        "sch"
      ],
      [
        "bec",
        "ame"
      ],
      [
        "k",
        "in"
      ],
      [
        "la",
        "ge"
      ],
      [
        "ier",
        "ung"
      ],
      [
        "A",
        "l"
      ],
      [
        "ber",
        "g"
      ],
      [
        "re",
        "l"
      ],
      [
        "re",
        "le"
      ],
      [
        "D",
        "e"
      ],
      [
        "stell",
        "t"
      ],
      [
        "te",
        "am"
      ],
      [
        "zu",
        "sam"
      ],
      [
        "differ",
        "ent"
      ],
      [
        "bec",
        "ause"
      ],
      [
        "T",
        "h"
      ],
      [
        "hal",
        "ten"
      ],
      [
        "er",
        "sten"
      ],
      [
        "p",
        "un"
      ],
      [
        "el",
        "le"
      ],
      [
        "all",
        "er"
      ],
      [
        "en",
        "g"
      ],
      [
        "ba",
        "hn"
      ],
      [
        "zusam",
        "men"
      ],
      [
        "ist",
        "en"
      ],
      [
        "so",
        "wie"
      ],
      [
        "und",
        "en"
      ],
      [
        "d",
        "y"
      ],
      [
        "k",
        "ing"
      ],
      [
        "re",
        "ch"
      ],
      [
        "au",
        "g"
      ],
      [
        "b",
        "st"
      ],
      [
        "t",
        "al"
      ],
      [
        "spä",
        "ter"
      ],
      [
        "ter",
        "n"
      ],
      [
        "k",
        "er"
      ],
      [
        "b",
        "ro"
      ],
      [
        "wä",
        "hr"
      ],
      [
        "alb",
        "um"
      ],
      [
        "zur",
        "ück"
      ],
      [
        "r",
        "ich"
      ],
      [
        "wo",
        "uld"
      ],
      [
        "ie",
        "b"
      ],
      [
        "ge",
        "f"
      ],
      [
        "for",
        "e"
      ],
      [
        "wel",
        "t"
      ],
      [
        "e",
        "ben"
      ],
      [
        "ge",
        "t"
      ],
      [
        "N",
        "e"
      ],
      [
        "g",
        "lie"
      ],
      [
        "n",
        "ie"
      ],
      [
        "ß",
        "en"
      ],
      [
        "br",
        "u"
      ],
      [
        "ent",
        "lich"
      ],
      [
        "to",
        "ber"
      ],
      [
        "sy",
        "ste"
      ],
      [
        "s",
        "ing"
      ],
      [
        "ent",
        "s"
      ],
      [
        "te",
        "mber"
      ],
      [
        "th",
        "en"
      ],
      [
        "fe",
        "st"
      ],
      [
        "ur",
        "op"
      ],
      [
        "ic",
        "t"
      ],
      [
        "m",
        "at"
      ],
      [
        "pop",
        "ul"
      ],
      [
        "it",
        "er"
      ],
      [
        "A",
        "r"
      ],
      [
        "h",
        "ist"
      ],
      [
        "st",
        "re"
      ],
      [
        "d",
        "ort"
      ],
      [
        "in",
        "ce"
      ],
      [
        "as",
        "e"
      ],
      [
        "h",
        "ier"
      ],
      [
        "c",
        "a"
      ],
      [
        "b",
        "ild"
      ],
      [
        "k",
        "ar"
      ],
      [
        "gr",
        "ö"
      ],
      [
        "u",
        "ally"
      ],
      [
        "s",
        "ü"
      ],
      [
        "s",
        "m"
      ],
      [
        "ß",
        "e"
      ],
      [
        "s",
        "om"
      ],
      [
        "v",
        "i"
      ],
      [
        "ge",
        "ben"
      ],
      [
        "sh",
        "ip"
      ],
      [
        "b",
        "il"
      ],
      [
        "v",
        "es"
      ],
      [
        "i",
        "hn"
      ],
      [
        "hal",
        "b"
      ],
      [
        "s",
        "k"
      ],
      [
        "c",
        "ess"
      ],
      [
        "ver",
        "l"
      ],
      [
        "con",
        "d"
      ],
      [
        "th",
        "ro"
      ],
      [
        "ing",
        "en"
      ],
      [
        "ie",
        "den"
      ],
      [
        "ma",
        "y"
      ],
      [
        "m",
        "il"
      ],
      [
        "ein",
        "g"
      ],
      [
        "li",
        "ke"
      ],
      [
        "O",
        "n"
      ],
      [
        "m",
        "ill"
      ],
      [
        "st",
        "än"
      ],
      [
        "ie",
        "t"
      ],
      [
        "he",
        "d"
      ],
      [
        "it",
        "ed"
      ],
      [
        "h",
        "aben"
      ],
      [
        "ö",
        "l"
      ],
      [
        "r",
        "at"
      ],
      [
        "d",
        "an"
      ],
      [
        "g",
        "re"
      ],
      [
        "wer",
        "k"
      ],
      [
        "o",
        "w"
      ],
      [
        "et",
        "wa"
      ],
      [
        "ib",
        "t"
      ],
      [
        "ver",
        "b"
      ],
      [
        "er",
        "sch"
      ],
      [
        "in",
        "cl"
      ],
      [
        "isch",
        "er"
      ],
      [
        "c",
        "ted"
      ],
      [
        "f",
        "ul"
      ],
      [
        "t",
        "it"
      ],
      [
        "or",
        "gan"
      ],
      [
        "pl",
        "an"
      ],
      [
        "i",
        "um"
      ],
      [
        "pr",
        "ä"
      ],
      [
        "ba",
        "ck"
      ],
      [
        "is",
        "on"
      ],
      [
        "w",
        "here"
      ],
      [
        "aus",
        "ge"
      ],
      [
        "1",
        "1"
      ],
      [
        "ein",
        "z"
      ],
      [
        "v",
        "ing"
      ],
      [
        "ä",
        "hr"
      ],
      [
        "n",
        "ung"
      ],
      [
        "währ",
        "end"
      ],
      [
        "e",
        "igen"
      ],
      [
        "o",
        "us"
      ],
      [
        "gen",
        "er"
      ],
      [
        "o",
        "ol"
      ],
      [
        "str",
        "u"
      ],
      [
        "as",
        "on"
      ],
      [
        "cit",
        "ation"
      ],
      [
        "w",
        "ell"
      ],
      [
        "m",
        "un"
      ],
      [
        "ke",
        "hr"
      ],
      [
        "z",
        "weit"
      ],
      [
        "kr",
        "ie"
      ],
      [
        "s",
        "einen"
      ],
      [
        "h",
        "of"
      ],
      [
        "w",
        "al"
      ],
      [
        "we",
        "en"
      ],
      [
        "fr",
        "au"
      ],
      [
        "pl",
        "atz"
      ],
      [
        "ve",
        "mber"
      ],
      [
        "bere",
        "its"
      ],
      [
        "E",
        "n"
      ],
      [
        "a",
        "ir"
      ],
      [
        "da",
        "bei"
      ],
      [
        "sch",
        "n"
      ],
      [
        "k",
        "te"
      ],
      [
        "be",
        "kann"
      ],
      [
        "5",
        "0"
      ],
      [
        "it",
        "al"
      ],
      [
        "th",
        "ree"
      ],
      [
        "ver",
        "ein"
      ],
      [
        "c",
        "ur"
      ],
      [
        "g",
        "ar"
      ],
      [
        "Amer",
        "ican"
      ],
      [
        "au",
        "m"
      ],
      [
        "d",
        "or"
      ],
      [
        "in",
        "t"
      ],
      [
        "fil",
        "m"
      ],
      [
        "ic",
        "s"
      ],
      [
        "o",
        "st"
      ],
      [
        "i",
        "hm"
      ],
      [
        "o",
        "wn"
      ],
      [
        "tr",
        "y"
      ],
      [
        "num",
        "ber"
      ],
      [
        "u",
        "ck"
      ],
      [
        "2",
        "1"
      ],
      [
        "tur",
        "n"
      ],
      [
        "konn",
        "te"
      ],
      [
        "me",
        "mber"
      ],
      [
        "we",
        "il"
      ],
      [
        "wor",
        "ld"
      ],
      [
        "he",
        "im"
      ],
      [
        "o",
        "c"
      ],
      [
        "po",
        "sit"
      ],
      [
        "gr",
        "up"
      ],
      [
        "ges",
        "et"
      ],
      [
        "gro",
        "up"
      ],
      [
        "rele",
        "ased"
      ],
      [
        "s",
        "einem"
      ],
      [
        "w",
        "rit"
      ],
      [
        "ne",
        "hmen"
      ],
      [
        "un",
        "e"
      ],
      [
        "sch",
        "en"
      ],
      [
        "s",
        "ame"
      ],
      [
        "ent",
        "w"
      ],
      [
        "in",
        "ner"
      ],
      [
        "b",
        "orn"
      ],
      [
        "c",
        "y"
      ],
      [
        "r",
        "icht"
      ],
      [
        "ta",
        "in"
      ],
      [
        "it",
        "z"
      ],
      [
        "C",
        "o"
      ],
      [
        "b",
        "all"
      ],
      [
        "der",
        "s"
      ],
      [
        "se",
        "d"
      ],
      [
        "b",
        "ra"
      ],
      [
        "b",
        "t"
      ],
      [
        "ut",
        "z"
      ],
      [
        "C",
        "on"
      ],
      [
        "r",
        "an"
      ],
      [
        "si",
        "de"
      ],
      [
        "re",
        "st"
      ],
      [
        "201",
        "0"
      ],
      [
        "g",
        "u"
      ],
      [
        "sel",
        "bst"
      ],
      [
        "2",
        "4"
      ],
      [
        "he",
        "ute"
      ],
      [
        "iel",
        "t"
      ],
      [
        "di",
        "d"
      ],
      [
        "ag",
        "ain"
      ],
      [
        "ihr",
        "er"
      ],
      [
        "p",
        "or"
      ],
      [
        "N",
        "o"
      ],
      [
        "is",
        "sen"
      ],
      [
        "k",
        "un"
      ],
      [
        "iden",
        "t"
      ],
      [
        "bet",
        "ween"
      ],
      [
        "we",
        "g"
      ],
      [
        "kön",
        "nen"
      ],
      [
        "iv",
        "en"
      ],
      [
        "k",
        "es"
      ],
      [
        "s",
        "up"
      ],
      [
        "s",
        "ur"
      ],
      [
        "dam",
        "it"
      ],
      [
        "c",
        "ord"
      ],
      [
        "g",
        "ibt"
      ],
      [
        "mit",
        "glie"
      ],
      [
        "st",
        "att"
      ],
      [
        "z",
        "ie"
      ],
      [
        "au",
        "er"
      ],
      [
        "ci",
        "al"
      ],
      [
        "mo",
        "t"
      ],
      [
        "unt",
        "il"
      ],
      [
        "B",
        "e"
      ],
      [
        "A",
        "s"
      ],
      [
        "die",
        "d"
      ],
      [
        "R",
        "e"
      ],
      [
        "d",
        "ann"
      ],
      [
        "we",
        "ver"
      ],
      [
        "r",
        "un"
      ],
      [
        "wir",
        "t"
      ],
      [
        "ge",
        "hör"
      ],
      [
        "h",
        "ar"
      ],
      [
        "führ",
        "t"
      ],
      [
        "pub",
        "l"
      ],
      [
        "c",
        "ity"
      ],
      [
        "ma",
        "ke"
      ],
      [
        "play",
        "ed"
      ],
      [
        "L",
        "e"
      ],
      [
        "er",
        "folg"
      ],
      [
        "ig",
        "in"
      ],
      [
        "m",
        "ü"
      ],
      [
        "c",
        "or"
      ],
      [
        "p",
        "s"
      ],
      [
        "is",
        "en"
      ],
      [
        "g",
        "ab"
      ],
      [
        "er",
        "ste"
      ],
      [
        "d",
        "ig"
      ],
      [
        "h",
        "ne"
      ],
      [
        "im",
        "mer"
      ],
      [
        "f",
        "un"
      ],
      [
        "is",
        "hed"
      ],
      [
        "ver",
        "t"
      ],
      [
        "ck",
        "en"
      ],
      [
        "c",
        "er"
      ],
      [
        "ste",
        "ht"
      ],
      [
        "d",
        "ist"
      ],
      [
        "ch",
        "n"
      ],
      [
        "kir",
        "che"
      ],
      [
        "th",
        "ese"
      ],
      [
        "M",
        "ar"
      ],
      [
        "A",
        "f"
      ],
      [
        "l",
        "ater"
      ],
      [
        "x",
        "t"
      ],
      [
        "mö",
        "glich"
      ],
      [
        "p",
        "le"
      ],
      [
        "en",
        "er"
      ],
      [
        "il",
        "t"
      ],
      [
        "ste",
        "hen"
      ],
      [
        "mus",
        "ic"
      ],
      [
        "it",
        "ät"
      ],
      [
        "f",
        "ar"
      ],
      [
        "h",
        "äl"
      ],
      [
        "bo",
        "ok"
      ],
      [
        "fr",
        "ü"
      ],
      [
        "k",
        "il"
      ],
      [
        "hau",
        "pt"
      ],
      [
        "m",
        "y"
      ],
      [
        "c",
        "ap"
      ],
      [
        "w",
        "on"
      ],
      [
        "sho",
        "w"
      ],
      [
        "st",
        "it"
      ],
      [
        "of",
        "ten"
      ],
      [
        "la",
        "st"
      ],
      [
        "el",
        "y"
      ],
      [
        "im",
        "e"
      ],
      [
        "was",
        "ser"
      ],
      [
        "fall",
        "s"
      ],
      [
        "t",
        "in"
      ],
      [
        "mill",
        "ion"
      ],
      [
        "d",
        "on"
      ],
      [
        "sch",
        "w"
      ],
      [
        "e",
        "he"
      ],
      [
        "u",
        "al"
      ],
      [
        "bes",
        "on"
      ],
      [
        "be",
        "im"
      ],
      [
        "öff",
        "entlich"
      ],
      [
        "gemein",
        "de"
      ],
      [
        "sch",
        "ri"
      ],
      [
        "f",
        "ach"
      ],
      [
        "bei",
        "den"
      ],
      [
        "kom",
        "men"
      ],
      [
        "u",
        "str"
      ],
      [
        "ck",
        "e"
      ],
      [
        "ar",
        "o"
      ],
      [
        "ic",
        "a"
      ],
      [
        "wo",
        "hl"
      ],
      [
        "f",
        "ern"
      ],
      [
        "com",
        "e"
      ],
      [
        "201",
        "1"
      ],
      [
        "stell",
        "ung"
      ],
      [
        "ander",
        "en"
      ],
      [
        "C",
        "om"
      ],
      [
        "am",
        "es"
      ],
      [
        "f",
        "ig"
      ],
      [
        "2",
        "3"
      ],
      [
        "p",
        "ed"
      ],
      [
        "H",
        "is"
      ],
      [
        "k",
        "m"
      ],
      [
        "diese",
        "m"
      ],
      [
        "k",
        "eine"
      ],
      [
        "gesch",
        "ichte"
      ],
      [
        "ü",
        "tz"
      ],
      [
        "v",
        "iel"
      ],
      [
        "st",
        "ein"
      ],
      [
        "l",
        "an"
      ],
      [
        "m",
        "ach"
      ],
      [
        "f",
        "and"
      ],
      [
        "se",
        "cond"
      ],
      [
        "fo",
        "ur"
      ],
      [
        "l",
        "ong"
      ],
      [
        "f",
        "ra"
      ],
      [
        "v",
        "ar"
      ],
      [
        "Af",
        "ter"
      ],
      [
        "fin",
        "det"
      ],
      [
        "2",
        "2"
      ],
      [
        "at",
        "ive"
      ],
      [
        "gen",
        "d"
      ],
      [
        "sp",
        "ort"
      ],
      [
        "me",
        "ister"
      ],
      [
        "m",
        "iss"
      ],
      [
        "re",
        "d"
      ],
      [
        "h",
        "än"
      ],
      [
        "au",
        "ßer"
      ],
      [
        "b",
        "uch"
      ],
      [
        "den",
        "t"
      ],
      [
        "bere",
        "ich"
      ],
      [
        "zu",
        "g"
      ],
      [
        "han",
        "del"
      ],
      [
        "se",
        "hr"
      ],
      [
        "e",
        "ach"
      ],
      [
        "geb",
        "äu"
      ],
      [
        "s",
        "ub"
      ],
      [
        "reg",
        "ion"
      ],
      [
        "u",
        "le"
      ],
      [
        "te",
        "st"
      ],
      [
        "200",
        "7"
      ],
      [
        "op",
        "er"
      ],
      [
        "ge",
        "le"
      ],
      [
        "z",
        "iel"
      ],
      [
        "A",
        "t"
      ],
      [
        "sch",
        "ul"
      ],
      [
        "ier",
        "ten"
      ],
      [
        "ges",
        "amt"
      ],
      [
        "i",
        "th"
      ],
      [
        "d",
        "re"
      ],
      [
        "p",
        "an"
      ],
      [
        "sp",
        "ra"
      ],
      [
        "W",
        "hen"
      ],
      [
        "f",
        "ang"
      ],
      [
        "ch",
        "r"
      ],
      [
        "s",
        "atz"
      ],
      [
        "weiter",
        "e"
      ],
      [
        "or",
        "igin"
      ],
      [
        "be",
        "d"
      ],
      [
        "co",
        "uld"
      ],
      [
        "a",
        "kt"
      ],
      [
        "nam",
        "en"
      ],
      [
        "ch",
        "ange"
      ],
      [
        "v",
        "oll"
      ],
      [
        "ur",
        "ch"
      ],
      [
        "ist",
        "s"
      ],
      [
        "ge",
        "stellt"
      ],
      [
        "ver",
        "n"
      ],
      [
        "f",
        "as"
      ],
      [
        "m",
        "ut"
      ],
      [
        "J",
        "o"
      ],
      [
        "mo",
        "vie"
      ],
      [
        "2",
        "7"
      ],
      [
        "ne",
        "ben"
      ],
      [
        "F",
        "or"
      ],
      [
        "R",
        "o"
      ],
      [
        "\"",
        ","
      ],
      [
        "t",
        "ig"
      ],
      [
        "b",
        "eing"
      ],
      [
        "l",
        "auf"
      ],
      [
        "r",
        "ück"
      ],
      [
        "syste",
        "m"
      ],
      [
        "2",
        "6"
      ],
      [
        "c",
        "lo"
      ],
      [
        "2",
        "8"
      ],
      [
        "se",
        "e"
      ],
      [
        "c",
        "ts"
      ],
      [
        "sü",
        "d"
      ],
      [
        "l",
        "ung"
      ],
      [
        "le",
        "t"
      ],
      [
        "fol",
        "gen"
      ],
      [
        "p",
        "on"
      ],
      [
        "“",
        "."
      ],
      [
        "v",
        "o"
      ],
      [
        "b",
        "as"
      ],
      [
        "m",
        "ä"
      ],
      [
        "Ne",
        "w"
      ],
      [
        "io",
        "us"
      ],
      [
        "star",
        "ted"
      ],
      [
        "h",
        "il"
      ],
      [
        "dur",
        "ing"
      ],
      [
        "ut",
        "ion"
      ],
      [
        "ug",
        "ht"
      ],
      [
        "b",
        "ü"
      ],
      [
        "j",
        "u"
      ],
      [
        "200",
        "8"
      ],
      [
        "k",
        "an"
      ],
      [
        "l",
        "u"
      ],
      [
        "pro",
        "gr"
      ],
      [
        "N",
        "or"
      ],
      [
        "war",
        "d"
      ],
      [
        "zent",
        "r"
      ],
      [
        "ä",
        "tz"
      ],
      [
        "m",
        "el"
      ],
      [
        "pr",
        "of"
      ],
      [
        "mus",
        "ik"
      ],
      [
        "om",
        "men"
      ],
      [
        "dies",
        "es"
      ],
      [
        "g",
        "y"
      ],
      [
        "S",
        "e"
      ],
      [
        "19",
        "0"
      ],
      [
        "versch",
        "ieden"
      ],
      [
        "w",
        "ater"
      ],
      [
        "la",
        "gen"
      ],
      [
        "h",
        "y"
      ],
      [
        "ho",
        "ch"
      ],
      [
        "k",
        "auf"
      ],
      [
        "tra",
        "g"
      ],
      [
        "st",
        "ill"
      ],
      [
        "fol",
        "ge"
      ],
      [
        "pla",
        "ce"
      ],
      [
        "im",
        "es"
      ],
      [
        "geb",
        "iet"
      ],
      [
        "B",
        "o"
      ],
      [
        "f",
        "u"
      ],
      [
        "p",
        "ri"
      ],
      [
        "thro",
        "ugh"
      ],
      [
        "S",
        "ome"
      ],
      [
        "j",
        "uni"
      ],
      [
        "2",
        "9"
      ],
      [
        "P",
        "e"
      ],
      [
        "on",
        "s"
      ],
      [
        "be",
        "fore"
      ],
      [
        "201",
        "2"
      ],
      [
        "dor",
        "f"
      ],
      [
        "schaf",
        "ten"
      ],
      [
        "in",
        "a"
      ],
      [
        "are",
        "a"
      ],
      [
        "s",
        "im"
      ],
      [
        "no",
        "w"
      ],
      [
        "200",
        "9"
      ],
      [
        "te",
        "chn"
      ],
      [
        "l",
        "ine"
      ],
      [
        "in",
        "nen"
      ],
      [
        "k",
        "ün"
      ],
      [
        "st",
        "or"
      ],
      [
        "de",
        "st"
      ],
      [
        "i",
        "x"
      ],
      [
        "vers",
        "ity"
      ],
      [
        "al",
        "ter"
      ],
      [
        "f",
        "te"
      ],
      [
        "al",
        "en"
      ],
      [
        "sa",
        "id"
      ],
      [
        "F",
        "e"
      ],
      [
        "r",
        "ied"
      ],
      [
        "z",
        "o"
      ],
      [
        "wa",
        "hl"
      ],
      [
        "na",
        "hm"
      ],
      [
        "ann",
        "t"
      ],
      [
        "li",
        "fe"
      ],
      [
        "fo",
        "und"
      ],
      [
        "b",
        "us"
      ],
      [
        "al",
        "ten"
      ],
      [
        "ur",
        "y"
      ],
      [
        "w",
        "om"
      ],
      [
        "be",
        "zeich"
      ],
      [
        "se",
        "ite"
      ],
      [
        "ct",
        "or"
      ],
      [
        "m",
        "as"
      ],
      [
        "p",
        "ra"
      ],
      [
        "des",
        "sen"
      ],
      [
        "h",
        "ielt"
      ],
      [
        "Ho",
        "wever"
      ],
      [
        "te",
        "m"
      ],
      [
        "fü",
        "n"
      ],
      [
        "lich",
        "er"
      ],
      [
        "jahrhunder",
        "t"
      ],
      [
        "200",
        "6"
      ],
      [
        "us",
        "ually"
      ],
      [
        "deutsch",
        "en"
      ],
      [
        "g",
        "ang"
      ],
      [
        "w",
        "issen"
      ],
      [
        "ation",
        "en"
      ],
      [
        "sch",
        "ool"
      ],
      [
        "bekann",
        "t"
      ],
      [
        "aro",
        "und"
      ],
      [
        "w",
        "es"
      ],
      [
        "Th",
        "ese"
      ],
      [
        "wor",
        "den"
      ],
      [
        "201",
        "3"
      ],
      [
        "ap",
        "pe"
      ],
      [
        "h",
        "am"
      ],
      [
        "z",
        "ä"
      ],
      [
        "ihr",
        "en"
      ],
      [
        "f",
        "ä"
      ],
      [
        "vis",
        "ion"
      ],
      [
        "of",
        "t"
      ],
      [
        "ser",
        "v"
      ],
      [
        "we",
        "gen"
      ],
      [
        "w",
        "an"
      ],
      [
        "ier",
        "e"
      ],
      [
        "g",
        "ame"
      ],
      [
        "P",
        "r"
      ],
      [
        ".",
        "\""
      ],
      [
        "ie",
        "f"
      ],
      [
        "ur",
        "t"
      ],
      [
        "stra",
        "ße"
      ],
      [
        "se",
        "ason"
      ],
      [
        "4",
        "0"
      ],
      [
        "u",
        "er"
      ],
      [
        "pun",
        "kt"
      ],
      [
        "c",
        "ause"
      ],
      [
        "f",
        "rei"
      ],
      [
        "m",
        "als"
      ],
      [
        "for",
        "t"
      ],
      [
        "deutsch",
        "land"
      ],
      [
        "f",
        "iel"
      ],
      [
        "ar",
        "r"
      ],
      [
        "on",
        "t"
      ],
      [
        "ö",
        "s"
      ],
      [
        "pro",
        "ble"
      ],
      [
        "ta",
        "g"
      ],
      [
        "201",
        "4"
      ],
      [
        "la",
        "ck"
      ],
      [
        "ment",
        "s"
      ],
      [
        "fin",
        "den"
      ],
      [
        "d",
        "ition"
      ],
      [
        "nam",
        "ed"
      ],
      [
        "gr",
        "en"
      ],
      [
        "der",
        "en"
      ],
      [
        "se",
        "i"
      ],
      [
        "son",
        "g"
      ],
      [
        "1",
        "00"
      ],
      [
        "qu",
        "al"
      ],
      [
        "P",
        "ar"
      ],
      [
        "ver",
        "al"
      ],
      [
        "to",
        "wn"
      ],
      [
        "ell",
        "en"
      ],
      [
        "incl",
        "u"
      ],
      [
        "dr",
        "en"
      ],
      [
        "ho",
        "w"
      ],
      [
        "lie",
        "gt"
      ],
      [
        "go",
        "vern"
      ],
      [
        "fl",
        "ä"
      ],
      [
        "der",
        "t"
      ],
      [
        "ty",
        "p"
      ],
      [
        "s",
        "old"
      ],
      [
        "hl",
        "t"
      ],
      [
        "in",
        "k"
      ],
      [
        "Un",
        "ited"
      ],
      [
        "lo",
        "c"
      ],
      [
        "mit",
        "te"
      ],
      [
        "b",
        "al"
      ],
      [
        "v",
        "al"
      ],
      [
        "sich",
        "t"
      ],
      [
        "W",
        "or"
      ],
      [
        "tho",
        "ugh"
      ],
      [
        "dar",
        "auf"
      ],
      [
        "z",
        "un"
      ],
      [
        "po",
        "wer"
      ],
      [
        "lie",
        "b"
      ],
      [
        "w",
        "hat"
      ],
      [
        "p",
        "ut"
      ],
      [
        "b",
        "und"
      ],
      [
        "201",
        "6"
      ],
      [
        "bu",
        "ild"
      ],
      [
        "fün",
        "f"
      ],
      [
        "r",
        "und"
      ],
      [
        "z",
        "ial"
      ],
      [
        "gebäu",
        "de"
      ],
      [
        "m",
        "or"
      ],
      [
        "v",
        "ent"
      ],
      [
        "il",
        "dren"
      ],
      [
        "do",
        "wn"
      ],
      [
        "los",
        "sen"
      ],
      [
        "20",
        "00"
      ],
      [
        "y",
        "o"
      ],
      [
        "0",
        "er"
      ],
      [
        "h",
        "ap"
      ],
      [
        "m",
        "b"
      ],
      [
        "am",
        "er"
      ],
      [
        "ges",
        "ell"
      ],
      [
        "as",
        "se"
      ],
      [
        "at",
        "ing"
      ],
      [
        "hist",
        "or"
      ],
      [
        "M",
        "ay"
      ],
      [
        "r",
        "aum"
      ],
      [
        "h",
        "igh"
      ],
      [
        "r",
        "il"
      ],
      [
        "of",
        "fen"
      ],
      [
        "lo",
        "t"
      ],
      [
        "h",
        "um"
      ],
      [
        "d",
        "ings"
      ],
      [
        "18",
        "9"
      ],
      [
        "hin",
        "ter"
      ],
      [
        "G",
        "er"
      ],
      [
        "con",
        "vert"
      ],
      [
        "bo",
        "th"
      ],
      [
        "en",
        "ter"
      ],
      [
        "ver",
        "öffentlich"
      ],
      [
        "betr",
        "ieb"
      ],
      [
        "se",
        "p"
      ],
      [
        "201",
        "7"
      ],
      [
        "kin",
        "der"
      ],
      [
        "schließ",
        "lich"
      ],
      [
        "wen",
        "n"
      ],
      [
        "to",
        "ur"
      ],
      [
        "k",
        "ap"
      ],
      [
        "th",
        "ing"
      ],
      [
        "u",
        "ten"
      ],
      [
        "wirt",
        "schaft"
      ],
      [
        "at",
        "ure"
      ],
      [
        "ne",
        "ue"
      ],
      [
        "me",
        "ter"
      ],
      [
        "v",
        "il"
      ],
      [
        "h",
        "af"
      ],
      [
        "p",
        "at"
      ]
    ]
  }
}