{
  "version": "1.0",
  "truncation": null,
  "padding": null,
  "added_tokens": [
    {
      "id": 0,
      "content": "<UNK>",
      "single_word": false,
      "lstrip": false,
      "rstrip": false,
      "normalized": false,
      "special": true
    },
    {
      "id": 1,
      "content": "<SEP>",
      "single_word": false,
      "lstrip": false,
      "rstrip": false,
      "normalized": false,
      "special": true
    },
    {
      "id": 2,
      "content": "<MASK>",
      "single_word": false,
      "lstrip": false,
      "rstrip": false,
      "normalized": false,
      "special": true
    },
    {
      "id": 3,
      "content": "<CLS>",
      "single_word": false,
      "lstrip": false,
      "rstrip": false,
      "normalized": false,
      "special": true
    }
  ],
  "normalizer": null,
  "pre_tokenizer": {
    "type": "Whitespace"
  },
  "post_processor": null,
  "decoder": null,
  "model": {
    "type": "BPE",
    "dropout": null,
    "unk_token": "<UNK>",
    "continuing_subword_prefix": null,
    "end_of_word_suffix": null,
    "fuse_unk": false,
    "byte_fallback": false,
    "ignore_merges": false,
    "vocab": {
      "<UNK>": 0,
      "<SEP>": 1,
      "<MASK>": 2,
      "<CLS>": 3,
      "!": 4,
      "\"": 5,
      "$": 6,
      "%": 7,
      "&": 8,
      "'": 9,
      "(": 10,
      ")": 11,
      "*": 12,
      "+": 13,
      ",": 14,
      "-": 15,
      ".": 16,
      "/": 17,
      "0": 18,
      "1": 19,
      "2": 20,
      "3": 21,
      "4": 22,
      "5": 23,
      "6": 24,
      "7": 25,
      "8": 26,
      "9": 27,
      ":": 28,
      ";": 29,
      "<": 30,
      ">": 31,
      "?": 32,
      "A": 33,
      "B": 34,
      "C": 35,
      "D": 36,
      "E": 37,
      "F": 38,
      "G": 39,
      "H": 40,
      "I": 41,
      "J": 42,
      "K": 43,
      "L": 44,
      "M": 45,
      "N": 46,
      "O": 47,
      "P": 48,
      "Q": 49,
      "R": 50,
      "S": 51,
      "T": 52,
      "U": 53,
      "V": 54,
      "W": 55,
      "X": 56,
      "Y": 57,
      "Z": 58,
      "`": 59,
      "a": 60,
      "b": 61,
      "c": 62,
      "d": 63,
      "e": 64,
      "f": 65,
      "g": 66,
      "h": 67,
      "i": 68,
      "j": 69,
      "k": 70,
      "l": 71,
      "m": 72,
      "n": 73,
      "o": 74,
      "p": 75,
      "q": 76,
      "r": 77,
      "s": 78,
      "t": 79,
      "u": 80,
      "v": 81,
      "w": 82,
      "x": 83,
      "y": 84,
      "z": 85,
      "~": 86,
      "¡": 87,
      "¢": 88,
      "£": 89,
      "¥": 90,
      "§": 91,
      "¨": 92,
      "ª": 93,
      "«": 94,
      "®": 95,
      "°": 96,
      "±": 97,
      "²": 98,
      "³": 99,
      "´": 100,
      "µ": 101,
      "·": 102,
      "¹": 103,
      "º": 104,
      "»": 105,
      "¼": 106,
      "½": 107,
      "¾": 108,
      "¿": 109,
      "À": 110,
      "Á": 111,
      "Ä": 112,
      "Å": 113,
      "Æ": 114,
      "Ç": 115,
      "È": 116,
      "É": 117,
      "Ê": 118,
      "Ì": 119,
      "Í": 120,
      "Î": 121,
      "Ð": 122,
      "Ñ": 123,
      "Ò": 124,
      "Ó": 125,
      "Ô": 126,
      "Õ": 127,
      "Ö": 128,
      "×": 129,
      "Ø": 130,
      "Ù": 131,
      "Ú": 132,
      "Ü": 133,
      "Þ": 134,
      "ß": 135,
      "à": 136,
      "á": 137,
      "â": 138,
      "ã": 139,
      "ä": 140,
      "å": 141,
      "æ": 142,
      "ç": 143,
      "è": 144,
      "é": 145,
      "ê": 146,
      "ë": 147,
      "ì": 148,
      "í": 149,
      "î": 150,
      "ï": 151,
      "ð": 152,
      "ñ": 153,
      "ò": 154,
      "ó": 155,
      "ô": 156,
      "õ": 157,
      "ö": 158,
      "÷": 159,
      "ø": 160,
      "ù": 161,
      "ú": 162,
      "û": 163,
      "ü": 164,
      "ý": 165,
      "þ": 166,
      "ÿ": 167,
      "Ā": 168,
      "ā": 169,
      "ă": 170,
      "ą": 171,
      "Ć": 172,
      "ć": 173,
      "ĉ": 174,
      "Č": 175,
      "č": 176,
      "ď": 177,
      "Đ": 178,
      "đ": 179,
      "Ē": 180,
      "ē": 181,
      "ĕ": 182,
      "Ė": 183,
      "ė": 184,
      "ę": 185,
      "ě": 186,
      "ĝ": 187,
      "ğ": 188,
      "ġ": 189,
      "ģ": 190,
      "Ħ": 191,
      "ħ": 192,
      "ĩ": 193,
      "ī": 194,
      "ĭ": 195,
      "į": 196,
      "İ": 197,
      "ı": 198,
      "Ķ": 199,
      "ľ": 200,
      "Ł": 201,
      "ł": 202,
      "ń": 203,
      "ņ": 204,
      "ň": 205,
      "ŋ": 206,
      "Ō": 207,
      "ō": 208,
      "ŏ": 209,
      "Ő": 210,
      "ő": 211,
      "Œ": 212,
      "œ": 213,
      "ŕ": 214,
      "Ř": 215,
      "ř": 216,
      "Ś": 217,
      "ś": 218,
      "Ŝ": 219,
      "ŝ": 220,
      "Ş": 221,
      "ş": 222,
      "Š": 223,
      "š": 224,
      "Ţ": 225,
      "ţ": 226,
      "ť": 227,
      "ũ": 228,
      "ū": 229,
      "ŭ": 230,
      "ů": 231,
      "ű": 232,
      "ų": 233,
      "ŵ": 234,
      "ź": 235,
      "Ż": 236,
      "ż": 237,
      "Ž": 238,
      "ž": 239,
      "ſ": 240,
      "Ɔ": 241,
      "Ɖ": 242,
      "ơ": 243,
      "ư": 244,
      "ǎ": 245,
      "ǐ": 246,
      "ǒ": 247,
      "ǔ": 248,
      "ǚ": 249,
      "ǫ": 250,
      "Ș": 251,
      "ș": 252,
      "Ț": 253,
      "ț": 254,
      "ɑ": 255,
      "ɔ": 256,
      "ə": 257,
      "ɛ": 258,
      "ɡ": 259,
      "ɣ": 260,
      "ɤ": 261,
      "ɪ": 262,
      "ɫ": 263,
      "ɬ": 264,
      "ɭ": 265,
      "ɹ": 266,
      "ʃ": 267,
      "ʊ": 268,
      "ʒ": 269,
      "ʙ": 270,
      "ʧ": 271,
      "ʲ": 272,
      "ʷ": 273,
      "ʹ": 274,
      "ʻ": 275,
      "ʼ": 276,
      "ʾ": 277,
      "ʿ": 278,
      "ˇ": 279,
      "ˈ": 280,
      "ˊ": 281,
      "ˌ": 282,
      "ː": 283,
      "˚": 284,
      "ˤ": 285,
      "̀": 286,
      "́": 287,
      "̄": 288,
      "̈": 289,
      "̝": 290,
      "Ό": 291,
      "Α": 292,
      "Β": 293,
      "Γ": 294,
      "Δ": 295,
      "Ε": 296,
      "Ζ": 297,
      "Θ": 298,
      "Ι": 299,
      "Κ": 300,
      "Λ": 301,
      "Μ": 302,
      "Ν": 303,
      "Ξ": 304,
      "Π": 305,
      "Ρ": 306,
      "Σ": 307,
      "Τ": 308,
      "Υ": 309,
      "Φ": 310,
      "Χ": 311,
      "Ψ": 312,
      "Ω": 313,
      "ά": 314,
      "έ": 315,
      "ή": 316,
      "ί": 317,
      "α": 318,
      "β": 319,
      "γ": 320,
      "δ": 321,
      "ε": 322,
      "ζ": 323,
      "η": 324,
      "θ": 325,
      "ι": 326,
      "κ": 327,
      "λ": 328,
      "μ": 329,
      "ν": 330,
      "ξ": 331,
      "ο": 332,
      "π": 333,
      "ρ": 334,
      "ς": 335,
      "σ": 336,
      "τ": 337,
      "υ": 338,
      "φ": 339,
      "χ": 340,
      "ψ": 341,
      "ω": 342,
      "ϊ": 343,
      "ό": 344,
      "ύ": 345,
      "ώ": 346,
      "ϑ": 347,
      "Ϲ": 348,
      "Ў": 349,
      "А": 350,
      "Б": 351,
      "В": 352,
      "Г": 353,
      "Д": 354,
      "Е": 355,
      "З": 356,
      "И": 357,
      "К": 358,
      "Л": 359,
      "М": 360,
      "Н": 361,
      "О": 362,
      "П": 363,
      "Р": 364,
      "С": 365,
      "Т": 366,
      "Ф": 367,
      "Х": 368,
      "Ц": 369,
      "Ч": 370,
      "Ш": 371,
      "Ъ": 372,
      "Э": 373,
      "Ю": 374,
      "Я": 375,
      "а": 376,
      "б": 377,
      "в": 378,
      "г": 379,
      "д": 380,
      "е": 381,
      "ж": 382,
      "з": 383,
      "и": 384,
      "й": 385,
      "к": 386,
      "л": 387,
      "м": 388,
      "н": 389,
      "о": 390,
      "п": 391,
      "р": 392,
      "с": 393,
      "т": 394,
      "у": 395,
      "ф": 396,
      "х": 397,
      "ц": 398,
      "ч": 399,
      "ш": 400,
      "щ": 401,
      "ъ": 402,
      "ы": 403,
      "ь": 404,
      "э": 405,
      "ю": 406,
      "я": 407,
      "ё": 408,
      "і": 409,
      "ј": 410,
      "љ": 411,
      "џ": 412,
      "҆": 413,
      "Ҫ": 414,
      "ү": 415,
      "ӳ": 416,
      "Ա": 417,
      "Գ": 418,
      "Ծ": 419,
      "Հ": 420,
      "Ճ": 421,
      "Մ": 422,
      "Ջ": 423,
      "Ս": 424,
      "Վ": 425,
      "ա": 426,
      "գ": 427,
      "դ": 428,
      "ե": 429,
      "զ": 430,
      "ի": 431,
      "խ": 432,
      "կ": 433,
      "հ": 434,
      "ղ": 435,
      "ճ": 436,
      "մ": 437,
      "յ": 438,
      "ն": 439,
      "շ": 440,
      "ո": 441,
      "պ": 442,
      "վ": 443,
      "տ": 444,
      "ր": 445,
      "ւ": 446,
      "փ": 447,
      "։": 448,
      "ְ": 449,
      "ִ": 450,
      "ֶ": 451,
      "ַ": 452,
      "ָ": 453,
      "ֹ": 454,
      "ּ": 455,
      "ׁ": 456,
      "א": 457,
      "ב": 458,
      "ד": 459,
      "ה": 460,
      "ו": 461,
      "ז": 462,
      "ח": 463,
      "ט": 464,
      "י": 465,
      "כ": 466,
      "ל": 467,
      "ם": 468,
      "מ": 469,
      "ן": 470,
      "נ": 471,
      "ס": 472,
      "ע": 473,
      "פ": 474,
      "ץ": 475,
      "צ": 476,
      "ק": 477,
      "ר": 478,
      "ש": 479,
      "ת": 480,
      "آ": 481,
      "أ": 482,
      "إ": 483,
      "ئ": 484,
      "ا": 485,
      "ب": 486,
      "ة": 487,
      "ت": 488,
      "ث": 489,
      "ج": 490,
      "ح": 491,
      "خ": 492,
      "د": 493,
      "ذ": 494,
      "ر": 495,
      "س": 496,
      "ش": 497,
      "ص": 498,
      "ط": 499,
      "ظ": 500,
      "ع": 501,
      "غ": 502,
      "ـ": 503,
      "ف": 504,
      "ق": 505,
      "ك": 506,
      "ل": 507,
      "م": 508,
      "ن": 509,
      "ه": 510,
      "و": 511,
      "ى": 512,
      "ي": 513,
      "َ": 514,
      "ُ": 515,
      "ِ": 516,
      "ّ": 517,
      "ْ": 518,
      "ٱ": 519,
      "پ": 520,
      "چ": 521,
      "ڠ": 522,
      "ک": 523,
      "گ": 524,
      "ں": 525,
      "ھ": 526,
      "ہ": 527,
      "ی": 528,
      "ܐ": 529,
      "ܖ": 530,
      "ܟ": 531,
      "ܡ": 532,
      "ܪ": 533,
      "ं": 534,
      "इ": 535,
      "ख": 536,
      "च": 537,
      "ट": 538,
      "त": 539,
      "द": 540,
      "न": 541,
      "प": 542,
      "फ": 543,
      "म": 544,
      "र": 545,
      "ल": 546,
      "श": 547,
      "स": 548,
      "ा": 549,
      "ु": 550,
      "े": 551,
      "ो": 552,
      "्": 553,
      "।": 554,
      "আ": 555,
      "উ": 556,
      "ক": 557,
      "ঙ": 558,
      "ত": 559,
      "দ": 560,
      "ন": 561,
      "প": 562,
      "ফ": 563,
      "ব": 564,
      "ভ": 565,
      "ম": 566,
      "য": 567,
      "র": 568,
      "ল": 569,
      "শ": 570,
      "ষ": 571,
      "হ": 572,
      "া": 573,
      "ি": 574,
      "ু": 575,
      "ে": 576,
      "্": 577,
      "அ": 578,
      "உ": 579,
      "க": 580,
      "ச": 581,
      "ஜ": 582,
      "ட": 583,
      "த": 584,
      "ந": 585,
      "ப": 586,
      "ம": 587,
      "ர": 588,
      "ல": 589,
      "ழ": 590,
      "வ": 591,
      "ா": 592,
      "ி": 593,
      "ு": 594,
      "ூ": 595,
      "ே": 596,
      "ை": 597,
      "ோ": 598,
      "்": 599,
      "ം": 600,
      "ഇ": 601,
      "ട": 602,
      "ത": 603,
      "ല": 604,
      "വ": 605,
      "අ": 606,
      "ද": 607,
      "න": 608,
      "ල": 609,
      "ව": 610,
      "ා": 611,
      "ැ": 612,
      "ි": 613,
      "ෝ": 614,
      "ก": 615,
      "ข": 616,
      "ค": 617,
      "ง": 618,
      "จ": 619,
      "ช": 620,
      "ซ": 621,
      "ญ": 622,
      "ฐ": 623,
      "ฒ": 624,
      "ณ": 625,
      "ด": 626,
      "ต": 627,
      "ถ": 628,
      "ท": 629,
      "ธ": 630,
      "น": 631,
      "บ": 632,
      "ป": 633,
      "ผ": 634,
      "พ": 635,
      "ฟ": 636,
      "ภ": 637,
      "ม": 638,
      "ย": 639,
      "ร": 640,
      "ล": 641,
      "ว": 642,
      "ศ": 643,
      "ษ": 644,
      "ส": 645,
      "ห": 646,
      "อ": 647,
      "ะ": 648,
      "ั": 649,
      "า": 650,
      "ำ": 651,
      "ิ": 652,
      "ี": 653,
      "ึ": 654,
      "ื": 655,
      "ุ": 656,
      "ู": 657,
      "เ": 658,
      "แ": 659,
      "โ": 660,
      "ใ": 661,
      "ไ": 662,
      "่": 663,
      "้": 664,
      "๊": 665,
      "์": 666,
      "་": 667,
      "ག": 668,
      "ཉ": 669,
      "ད": 670,
      "ན": 671,
      "བ": 672,
      "འ": 673,
      "ཤ": 674,
      "ས": 675,
      "ི": 676,
      "ེ": 677,
      "တ": 678,
      "န": 679,
      "ပ": 680,
      "ရ": 681,
      "သ": 682,
      "ူ": 683,
      "်": 684,
      "ၐ": 685,
      "ၑ": 686,
      "ᐯ": 687,
      "ᐸ": 688,
      "ᑐ": 689,
      "ᘅ": 690,
      "ᵃ": 691,
      "ᵛ": 692,
      "ḍ": 693,
      "ḏ": 694,
      "ḗ": 695,
      "Ḥ": 696,
      "ḥ": 697,
      "Ḫ": 698,
      "ḫ": 699,
      "Ḵ": 700,
      "ḷ": 701,
      "ḻ": 702,
      "ṁ": 703,
      "ṃ": 704,
      "ṅ": 705,
      "ṇ": 706,
      "ṉ": 707,
      "ṛ": 708,
      "ṟ": 709,
      "Ṣ": 710,
      "ṣ": 711,
      "Ṭ": 712,
      "ṭ": 713,
      "ṯ": 714,
      "Ẓ": 715,
      "ẓ": 716,
      "ẞ": 717,
      "ạ": 718,
      "ả": 719,
      "ấ": 720,
      "ầ": 721,
      "ẩ": 722,
      "ắ": 723,
      "ằ": 724,
      "ẹ": 725,
      "ẻ": 726,
      "ẽ": 727,
      "ế": 728,
      "ề": 729,
      "ễ": 730,
      "ệ": 731,
      "ị": 732,
      "ọ": 733,
      "ố": 734,
      "ồ": 735,
      "ổ": 736,
      "ộ": 737,
      "ớ": 738,
      "ờ": 739,
      "ở": 740,
      "ủ": 741,
      "ứ": 742,
      "ử": 743,
      "ἀ": 744,
      "ἄ": 745,
      "Ἀ": 746,
      "Ἁ": 747,
      "ἐ": 748,
      "ἑ": 749,
      "ἔ": 750,
      "Ἐ": 751,
      "ἢ": 752,
      "ἰ": 753,
      "ἴ": 754,
      "ἵ": 755,
      "ἶ": 756,
      "Ἱ": 757,
      "Ἴ": 758,
      "ὁ": 759,
      "Ὀ": 760,
      "ὐ": 761,
      "ὑ": 762,
      "ὖ": 763,
      "ὡ": 764,
      "ὰ": 765,
      "ὲ": 766,
      "ὴ": 767,
      "ὶ": 768,
      "ὸ": 769,
      "ὺ": 770,
      "ᾠ": 771,
      "ῃ": 772,
      "ῄ": 773,
      "ῆ": 774,
      "ῖ": 775,
      "ῥ": 776,
      "ῦ": 777,
      "ῳ": 778,
      "ῶ": 779,
      "​": 780,
      "‎": 781,
      "‐": 782,
      "‑": 783,
      "‒": 784,
      "–": 785,
      "—": 786,
      "―": 787,
      "‘": 788,
      "’": 789,
      "‚": 790,
      "‛": 791,
      "“": 792,
      "”": 793,
      "„": 794,
      "†": 795,
      "‡": 796,
      "•": 797,
      "…": 798,
      "‰": 799,
      "′": 800,
      "″": 801,
      "‹": 802,
      "⁄": 803,
      "₁": 804,
      "₂": 805,
      "₃": 806,
      "₤": 807,
      "€": 808,
      "₹": 809,
      "℃": 810,
      "№": 811,
      "™": 812,
      "⅓": 813,
      "⅔": 814,
      "⅕": 815,
      "⅛": 816,
      "⅜": 817,
      "↑": 818,
      "→": 819,
      "↓": 820,
      "∂": 821,
      "∆": 822,
      "−": 823,
      "∞": 824,
      "∪": 825,
      "∴": 826,
      "≈": 827,
      "≠": 828,
      "≤": 829,
      "≥": 830,
      "◻": 831,
      "★": 832,
      "☆": 833,
      "☢": 834,
      "☥": 835,
      "♘": 836,
      "♡": 837,
      "♭": 838,
      "♯": 839,
      "⚭": 840,
      "✓": 841,
      "⟨": 842,
      "⟩": 843,
      "⿱": 844,
      "、": 845,
      "。": 846,
      "々": 847,
      "〈": 848,
      "〉": 849,
      "《": 850,
      "》": 851,
      "「": 852,
      "」": 853,
      "『": 854,
      "』": 855,
      "〔": 856,
      "〕": 857,
      "あ": 858,
      "い": 859,
      "う": 860,
      "え": 861,
      "か": 862,
      "き": 863,
      "ぎ": 864,
      "く": 865,
      "ぐ": 866,
      "け": 867,
      "こ": 868,
      "ご": 869,
      "さ": 870,
      "し": 871,
      "じ": 872,
      "す": 873,
      "せ": 874,
      "た": 875,
      "だ": 876,
      "ち": 877,
      "つ": 878,
      "て": 879,
      "で": 880,
      "と": 881,
      "ど": 882,
      "な": 883,
      "に": 884,
      "の": 885,
      "は": 886,
      "へ": 887,
      "ぼ": 888,
      "ま": 889,
      "み": 890,
      "む": 891,
      "も": 892,
      "ゃ": 893,
      "ゆ": 894,
      "ら": 895,
      "り": 896,
      "る": 897,
      "れ": 898,
      "ろ": 899,
      "わ": 900,
      "を": 901,
      "ん": 902,
      "゜": 903,
      "ア": 904,
      "ィ": 905,
      "イ": 906,
      "ウ": 907,
      "ェ": 908,
      "ォ": 909,
      "オ": 910,
      "カ": 911,
      "ガ": 912,
      "キ": 913,
      "ク": 914,
      "グ": 915,
      "ゲ": 916,
      "サ": 917,
      "シ": 918,
      "ジ": 919,
      "ス": 920,
      "ズ": 921,
      "セ": 922,
      "ゼ": 923,
      "ソ": 924,
      "ゾ": 925,
      "タ": 926,
      "ダ": 927,
      "チ": 928,
      "ッ": 929,
      "ツ": 930,
      "テ": 931,
      "デ": 932,
      "ト": 933,
      "ド": 934,
      "ナ": 935,
      "ヌ": 936,
      "ネ": 937,
      "ノ": 938,
      "ハ": 939,
      "バ": 940,
      "パ": 941,
      "ビ": 942,
      "フ": 943,
      "ブ": 944,
      "プ": 945,
      "ベ": 946,
      "ボ": 947,
      "マ": 948,
      "ミ": 949,
      "ム": 950,
      "メ": 951,
      "ュ": 952,
      "ユ": 953,
      "ョ": 954,
      "ラ": 955,
      "リ": 956,
      "ル": 957,
      "レ": 958,
      "ロ": 959,
      "ワ": 960,
      "ン": 961,
      "ヴ": 962,
      "・": 963,
      "ー": 964,
      "ㄌ": 965,
      "ㄘ": 966,
      "ㄣ": 967,
      "ㄧ": 968,
      "ㄨ": 969,
      "一": 970,
      "丁": 971,
      "万": 972,
      "三": 973,
      "上": 974,
      "下": 975,
      "不": 976,
      "与": 977,
      "丕": 978,
      "世": 979,
      "东": 980,
      "两": 981,
      "中": 982,
      "临": 983,
      "主": 984,
      "乃": 985,
      "之": 986,
      "乐": 987,
      "九": 988,
      "也": 989,
      "乡": 990,
      "乱": 991,
      "了": 992,
      "事": 993,
      "二": 994,
      "五": 995,
      "井": 996,
      "亜": 997,
      "交": 998,
      "产": 999,
      "京": 1000,
      "亭": 1001,
      "人": 1002,
      "什": 1003,
      "仁": 1004,
      "今": 1005,
      "仝": 1006,
      "令": 1007,
      "仮": 1008,
      "仰": 1009,
      "任": 1010,
      "伏": 1011,
      "伐": 1012,
      "会": 1013,
      "传": 1014,
      "伤": 1015,
      "伦": 1016,
      "伸": 1017,
      "体": 1018,
      "何": 1019,
      "余": 1020,
      "佛": 1021,
      "作": 1022,
      "你": 1023,
      "使": 1024,
      "侁": 1025,
      "侯": 1026,
      "倉": 1027,
      "偕": 1028,
      "偵": 1029,
      "偶": 1030,
      "傳": 1031,
      "像": 1032,
      "儿": 1033,
      "元": 1034,
      "先": 1035,
      "光": 1036,
      "克": 1037,
      "兒": 1038,
      "入": 1039,
      "內": 1040,
      "全": 1041,
      "八": 1042,
      "公": 1043,
      "六": 1044,
      "兵": 1045,
      "其": 1046,
      "典": 1047,
      "冒": 1048,
      "军": 1049,
      "冬": 1050,
      "凍": 1051,
      "出": 1052,
      "分": 1053,
      "切": 1054,
      "列": 1055,
      "刘": 1056,
      "则": 1057,
      "別": 1058,
      "利": 1059,
      "前": 1060,
      "劇": 1061,
      "力": 1062,
      "加": 1063,
      "助": 1064,
      "勒": 1065,
      "動": 1066,
      "化": 1067,
      "北": 1068,
      "区": 1069,
      "十": 1070,
      "千": 1071,
      "半": 1072,
      "協": 1073,
      "南": 1074,
      "博": 1075,
      "卷": 1076,
      "厂": 1077,
      "历": 1078,
      "原": 1079,
      "县": 1080,
      "反": 1081,
      "发": 1082,
      "取": 1083,
      "口": 1084,
      "台": 1085,
      "史": 1086,
      "右": 1087,
      "叶": 1088,
      "号": 1089,
      "司": 1090,
      "吃": 1091,
      "合": 1092,
      "同": 1093,
      "名": 1094,
      "后": 1095,
      "向": 1096,
      "君": 1097,
      "吹": 1098,
      "吾": 1099,
      "员": 1100,
      "周": 1101,
      "味": 1102,
      "命": 1103,
      "和": 1104,
      "咏": 1105,
      "咒": 1106,
      "品": 1107,
      "哪": 1108,
      "唐": 1109,
      "喃": 1110,
      "喜": 1111,
      "喬": 1112,
      "噂": 1113,
      "嚴": 1114,
      "四": 1115,
      "回": 1116,
      "团": 1117,
      "団": 1118,
      "园": 1119,
      "囯": 1120,
      "固": 1121,
      "国": 1122,
      "圆": 1123,
      "國": 1124,
      "園": 1125,
      "土": 1126,
      "在": 1127,
      "地": 1128,
      "址": 1129,
      "坂": 1130,
      "城": 1131,
      "域": 1132,
      "基": 1133,
      "埼": 1134,
      "堀": 1135,
      "堂": 1136,
      "報": 1137,
      "塼": 1138,
      "塽": 1139,
      "墨": 1140,
      "士": 1141,
      "壯": 1142,
      "声": 1143,
      "変": 1144,
      "夏": 1145,
      "外": 1146,
      "多": 1147,
      "大": 1148,
      "天": 1149,
      "太": 1150,
      "夫": 1151,
      "失": 1152,
      "夷": 1153,
      "奇": 1154,
      "奉": 1155,
      "奎": 1156,
      "女": 1157,
      "奸": 1158,
      "好": 1159,
      "妃": 1160,
      "委": 1161,
      "姬": 1162,
      "威": 1163,
      "婉": 1164,
      "嫮": 1165,
      "孁": 1166,
      "子": 1167,
      "字": 1168,
      "孝": 1169,
      "孟": 1170,
      "季": 1171,
      "孤": 1172,
      "学": 1173,
      "學": 1174,
      "孺": 1175,
      "宁": 1176,
      "守": 1177,
      "安": 1178,
      "宋": 1179,
      "完": 1180,
      "宏": 1181,
      "宓": 1182,
      "宝": 1183,
      "実": 1184,
      "宣": 1185,
      "室": 1186,
      "宵": 1187,
      "家": 1188,
      "寄": 1189,
      "密": 1190,
      "寓": 1191,
      "察": 1192,
      "實": 1193,
      "寺": 1194,
      "寿": 1195,
      "将": 1196,
      "小": 1197,
      "尔": 1198,
      "屋": 1199,
      "屯": 1200,
      "山": 1201,
      "岛": 1202,
      "岳": 1203,
      "峡": 1204,
      "島": 1205,
      "崇": 1206,
      "川": 1207,
      "州": 1208,
      "巢": 1209,
      "工": 1210,
      "左": 1211,
      "己": 1212,
      "巴": 1213,
      "市": 1214,
      "帅": 1215,
      "希": 1216,
      "帳": 1217,
      "平": 1218,
      "年": 1219,
      "幽": 1220,
      "广": 1221,
      "库": 1222,
      "店": 1223,
      "庙": 1224,
      "府": 1225,
      "度": 1226,
      "庭": 1227,
      "庵": 1228,
      "廉": 1229,
      "廣": 1230,
      "延": 1231,
      "建": 1232,
      "弓": 1233,
      "弘": 1234,
      "张": 1235,
      "張": 1236,
      "形": 1237,
      "彦": 1238,
      "影": 1239,
      "往": 1240,
      "徐": 1241,
      "從": 1242,
      "御": 1243,
      "微": 1244,
      "徳": 1245,
      "德": 1246,
      "心": 1247,
      "志": 1248,
      "応": 1249,
      "念": 1250,
      "性": 1251,
      "总": 1252,
      "恪": 1253,
      "息": 1254,
      "悲": 1255,
      "情": 1256,
      "惊": 1257,
      "惠": 1258,
      "愛": 1259,
      "感": 1260,
      "慎": 1261,
      "慕": 1262,
      "慧": 1263,
      "戊": 1264,
      "成": 1265,
      "我": 1266,
      "战": 1267,
      "戦": 1268,
      "户": 1269,
      "所": 1270,
      "打": 1271,
      "技": 1272,
      "拝": 1273,
      "拳": 1274,
      "持": 1275,
      "挂": 1276,
      "按": 1277,
      "捨": 1278,
      "掌": 1279,
      "探": 1280,
      "摩": 1281,
      "放": 1282,
      "政": 1283,
      "故": 1284,
      "文": 1285,
      "斗": 1286,
      "料": 1287,
      "斥": 1288,
      "斯": 1289,
      "新": 1290,
      "方": 1291,
      "施": 1292,
      "既": 1293,
      "日": 1294,
      "昌": 1295,
      "明": 1296,
      "星": 1297,
      "春": 1298,
      "是": 1299,
      "晁": 1300,
      "景": 1301,
      "暈": 1302,
      "暗": 1303,
      "暦": 1304,
      "暫": 1305,
      "曲": 1306,
      "曳": 1307,
      "書": 1308,
      "會": 1309,
      "月": 1310,
      "有": 1311,
      "朗": 1312,
      "朝": 1313,
      "木": 1314,
      "未": 1315,
      "本": 1316,
      "术": 1317,
      "朱": 1318,
      "杉": 1319,
      "李": 1320,
      "材": 1321,
      "村": 1322,
      "条": 1323,
      "東": 1324,
      "松": 1325,
      "果": 1326,
      "架": 1327,
      "根": 1328,
      "格": 1329,
      "桂": 1330,
      "案": 1331,
      "桜": 1332,
      "档": 1333,
      "梅": 1334,
      "梨": 1335,
      "棋": 1336,
      "森": 1337,
      "楠": 1338,
      "楽": 1339,
      "榮": 1340,
      "榷": 1341,
      "槃": 1342,
      "樊": 1343,
      "橘": 1344,
      "機": 1345,
      "橫": 1346,
      "檀": 1347,
      "歌": 1348,
      "正": 1349,
      "武": 1350,
      "歩": 1351,
      "死": 1352,
      "残": 1353,
      "殺": 1354,
      "母": 1355,
      "毒": 1356,
      "氏": 1357,
      "民": 1358,
      "水": 1359,
      "永": 1360,
      "江": 1361,
      "池": 1362,
      "汤": 1363,
      "汪": 1364,
      "沃": 1365,
      "沤": 1366,
      "河": 1367,
      "油": 1368,
      "治": 1369,
      "沼": 1370,
      "泉": 1371,
      "法": 1372,
      "泥": 1373,
      "泰": 1374,
      "泳": 1375,
      "泼": 1376,
      "洛": 1377,
      "活": 1378,
      "浦": 1379,
      "海": 1380,
      "涅": 1381,
      "涌": 1382,
      "渝": 1383,
      "渡": 1384,
      "湖": 1385,
      "湾": 1386,
      "源": 1387,
      "滝": 1388,
      "满": 1389,
      "漢": 1390,
      "漱": 1391,
      "濟": 1392,
      "瀬": 1393,
      "炊": 1394,
      "炎": 1395,
      "炒": 1396,
      "炜": 1397,
      "炮": 1398,
      "炳": 1399,
      "然": 1400,
      "焼": 1401,
      "煉": 1402,
      "照": 1403,
      "煮": 1404,
      "熊": 1405,
      "熙": 1406,
      "燕": 1407,
      "爱": 1408,
      "父": 1409,
      "版": 1410,
      "物": 1411,
      "特": 1412,
      "狂": 1413,
      "献": 1414,
      "獻": 1415,
      "玄": 1416,
      "率": 1417,
      "玉": 1418,
      "王": 1419,
      "珍": 1420,
      "珠": 1421,
      "班": 1422,
      "理": 1423,
      "瑶": 1424,
      "瓮": 1425,
      "生": 1426,
      "用": 1427,
      "田": 1428,
      "由": 1429,
      "町": 1430,
      "畅": 1431,
      "界": 1432,
      "略": 1433,
      "病": 1434,
      "痴": 1435,
      "發": 1436,
      "白": 1437,
      "百": 1438,
      "的": 1439,
      "皇": 1440,
      "盛": 1441,
      "相": 1442,
      "眞": 1443,
      "真": 1444,
      "督": 1445,
      "矢": 1446,
      "知": 1447,
      "短": 1448,
      "石": 1449,
      "碣": 1450,
      "社": 1451,
      "祖": 1452,
      "神": 1453,
      "祯": 1454,
      "禄": 1455,
      "科": 1456,
      "秘": 1457,
      "移": 1458,
      "種": 1459,
      "稱": 1460,
      "稷": 1461,
      "穆": 1462,
      "立": 1463,
      "章": 1464,
      "竺": 1465,
      "笑": 1466,
      "第": 1467,
      "篇": 1468,
      "築": 1469,
      "篝": 1470,
      "簡": 1471,
      "粵": 1472,
      "糖": 1473,
      "糸": 1474,
      "紀": 1475,
      "約": 1476,
      "紅": 1477,
      "紙": 1478,
      "素": 1479,
      "紫": 1480,
      "絡": 1481,
      "絶": 1482,
      "絹": 1483,
      "經": 1484,
      "綬": 1485,
      "維": 1486,
      "綿": 1487,
      "総": 1488,
      "縁": 1489,
      "縱": 1490,
      "繁": 1491,
      "绍": 1492,
      "绫": 1493,
      "编": 1494,
      "署": 1495,
      "羅": 1496,
      "美": 1497,
      "羽": 1498,
      "翁": 1499,
      "老": 1500,
      "者": 1501,
      "而": 1502,
      "联": 1503,
      "聯": 1504,
      "背": 1505,
      "胜": 1506,
      "脉": 1507,
      "脳": 1508,
      "腐": 1509,
      "膏": 1510,
      "臓": 1511,
      "自": 1512,
      "與": 1513,
      "興": 1514,
      "航": 1515,
      "般": 1516,
      "船": 1517,
      "色": 1518,
      "艺": 1519,
      "花": 1520,
      "英": 1521,
      "茜": 1522,
      "華": 1523,
      "葬": 1524,
      "薰": 1525,
      "藏": 1526,
      "藤": 1527,
      "蘋": 1528,
      "蘭": 1529,
      "蜀": 1530,
      "蝦": 1531,
      "行": 1532,
      "術": 1533,
      "衣": 1534,
      "裏": 1535,
      "補": 1536,
      "裸": 1537,
      "製": 1538,
      "褒": 1539,
      "西": 1540,
      "要": 1541,
      "親": 1542,
      "覺": 1543,
      "见": 1544,
      "角": 1545,
      "解": 1546,
      "言": 1547,
      "記": 1548,
      "証": 1549,
      "語": 1550,
      "誰": 1551,
      "調": 1552,
      "諸": 1553,
      "諾": 1554,
      "講": 1555,
      "謡": 1556,
      "譜": 1557,
      "警": 1558,
      "讃": 1559,
      "讲": 1560,
      "诗": 1561,
      "误": 1562,
      "谢": 1563,
      "谥": 1564,
      "谷": 1565,
      "豆": 1566,
      "豫": 1567,
      "貫": 1568,
      "責": 1569,
      "貴": 1570,
      "賁": 1571,
      "賢": 1572,
      "负": 1573,
      "赤": 1574,
      "走": 1575,
      "起": 1576,
      "越": 1577,
      "趙": 1578,
      "跌": 1579,
      "跡": 1580,
      "路": 1581,
      "軍": 1582,
      "軒": 1583,
      "辉": 1584,
      "辑": 1585,
      "辞": 1586,
      "迅": 1587,
      "过": 1588,
      "追": 1589,
      "退": 1590,
      "通": 1591,
      "運": 1592,
      "道": 1593,
      "遗": 1594,
      "遺": 1595,
      "邑": 1596,
      "邡": 1597,
      "那": 1598,
      "邱": 1599,
      "邳": 1600,
      "郎": 1601,
      "郑": 1602,
      "部": 1603,
      "郭": 1604,
      "都": 1605,
      "鄠": 1606,
      "鄰": 1607,
      "酒": 1608,
      "醂": 1609,
      "醉": 1610,
      "釋": 1611,
      "里": 1612,
      "金": 1613,
      "鉄": 1614,
      "鉞": 1615,
      "鋤": 1616,
      "錢": 1617,
      "鍋": 1618,
      "镇": 1619,
      "長": 1620,
      "长": 1621,
      "門": 1622,
      "閒": 1623,
      "間": 1624,
      "関": 1625,
      "门": 1626,
      "阳": 1627,
      "阴": 1628,
      "阿": 1629,
      "降": 1630,
      "陛": 1631,
      "険": 1632,
      "陽": 1633,
      "隆": 1634,
      "隐": 1635,
      "際": 1636,
      "雄": 1637,
      "集": 1638,
      "雛": 1639,
      "雞": 1640,
      "雨": 1641,
      "雪": 1642,
      "雯": 1643,
      "靖": 1644,
      "面": 1645,
      "革": 1646,
      "韓": 1647,
      "韦": 1648,
      "音": 1649,
      "順": 1650,
      "願": 1651,
      "风": 1652,
      "飛": 1653,
      "食": 1654,
      "饭": 1655,
      "馨": 1656,
      "馬": 1657,
      "駅": 1658,
      "體": 1659,
      "魔": 1660,
      "魚": 1661,
      "鱒": 1662,
      "鲁": 1663,
      "鲜": 1664,
      "鲤": 1665,
      "鳥": 1666,
      "鳩": 1667,
      "鳳": 1668,
      "鴨": 1669,
      "鶴": 1670,
      "鸟": 1671,
      "鸡": 1672,
      "鸭": 1673,
      "黃": 1674,
      "黄": 1675,
      "黒": 1676,
      "黨": 1677,
      "齊": 1678,
      "龍": 1679,
      "龐": 1680,
      "龕": 1681,
      "龙": 1682,
      "ꞌ": 1683,
      "ꯀ": 1684,
      "ꯂ": 1685,
      "ꯃ": 1686,
      "ꯄ": 1687,
      "ꯅ": 1688,
      "ꯈ": 1689,
      "ꯉ": 1690,
      "ꯊ": 1691,
      "ꯔ": 1692,
      "ꯛ": 1693,
      "ꯜ": 1694,
      "ꯡ": 1695,
      "ꯣ": 1696,
      "ꯤ": 1697,
      "ꯥ": 1698,
      "ꯦ": 1699,
      "ꯧ": 1700,
      "ꯨ": 1701,
      "ꯩ": 1702,
      "가": 1703,
      "간": 1704,
      "강": 1705,
      "개": 1706,
      "경": 1707,
      "계": 1708,
      "고": 1709,
      "곡": 1710,
      "공": 1711,
      "과": 1712,
      "관": 1713,
      "광": 1714,
      "교": 1715,
      "국": 1716,
      "군": 1717,
      "궁": 1718,
      "규": 1719,
      "기": 1720,
      "김": 1721,
      "깊": 1722,
      "난": 1723,
      "낮": 1724,
      "내": 1725,
      "너": 1726,
      "누": 1727,
      "단": 1728,
      "당": 1729,
      "대": 1730,
      "덕": 1731,
      "데": 1732,
      "도": 1733,
      "돗": 1734,
      "동": 1735,
      "따": 1736,
      "때": 1737,
      "라": 1738,
      "례": 1739,
      "리": 1740,
      "모": 1741,
      "무": 1742,
      "문": 1743,
      "뮤": 1744,
      "미": 1745,
      "민": 1746,
      "밀": 1747,
      "박": 1748,
      "밤": 1749,
      "방": 1750,
      "백": 1751,
      "뱅": 1752,
      "번": 1753,
      "별": 1754,
      "병": 1755,
      "본": 1756,
      "부": 1757,
      "북": 1758,
      "뷔": 1759,
      "비": 1760,
      "뻐": 1761,
      "사": 1762,
      "산": 1763,
      "삼": 1764,
      "상": 1765,
      "생": 1766,
      "서": 1767,
      "선": 1768,
      "설": 1769,
      "성": 1770,
      "수": 1771,
      "시": 1772,
      "식": 1773,
      "신": 1774,
      "심": 1775,
      "쌈": 1776,
      "아": 1777,
      "암": 1778,
      "약": 1779,
      "어": 1780,
      "에": 1781,
      "엣": 1782,
      "역": 1783,
      "영": 1784,
      "예": 1785,
      "옹": 1786,
      "왕": 1787,
      "요": 1788,
      "우": 1789,
      "위": 1790,
      "음": 1791,
      "의": 1792,
      "이": 1793,
      "인": 1794,
      "장": 1795,
      "쟁": 1796,
      "전": 1797,
      "정": 1798,
      "제": 1799,
      "조": 1800,
      "종": 1801,
      "좌": 1802,
      "주": 1803,
      "줄": 1804,
      "중": 1805,
      "지": 1806,
      "직": 1807,
      "진": 1808,
      "찌": 1809,
      "천": 1810,
      "쳐": 1811,
      "출": 1812,
      "쿵": 1813,
      "크": 1814,
      "토": 1815,
      "특": 1816,
      "티": 1817,
      "파": 1818,
      "판": 1819,
      "평": 1820,
      "포": 1821,
      "하": 1822,
      "한": 1823,
      "해": 1824,
      "행": 1825,
      "헌": 1826,
      "현": 1827,
      "호": 1828,
      "혹": 1829,
      "화": 1830,
      "횡": 1831,
      "훈": 1832,
      "흥": 1833,
      "희": 1834,
      "ﬁ": 1835,
      "︠": 1836,
      "︡": 1837,
      "ﺍ": 1838,
      "ﺏ": 1839,
      "ﺤ": 1840,
      "ﺩ": 1841,
      "ﻫ": 1842,
      "！": 1843,
      "（": 1844,
      "）": 1845,
      "，": 1846,
      "：": 1847,
      "｢": 1848,
      "er": 1849,
      "on": 1850,
      "in": 1851,
      "an": 1852,
      "he": 1853,
      "re": 1854,
      "at": 1855,
      "en": 1856,
      "al": 1857,
      "di": 1858,
      "st": 1859,
      "or": 1860,
      "el": 1861,
      "la": 1862,
      "ar": 1863,
      "it": 1864,
      "the": 1865,
      "to": 1866,
      "le": 1867,
      "ic": 1868,
      "un": 1869,
      "es": 1870,
      "is": 1871,
      "il": 1872,
      "te": 1873,
      "as": 1874,
      "ion": 1875,
      "ro": 1876,
      "co": 1877,
      "ra": 1878,
      "and": 1879,
      "ed": 1880,
      "ri": 1881,
      "del": 1882,
      "si": 1883,
      "ti": 1884,
      "con": 1885,
      "li": 1886,
      "am": 1887,
      "se": 1888,
      "po": 1889,
      "of": 1890,
      "de": 1891,
      "per": 1892,
      "so": 1893,
      "lo": 1894,
      "su": 1895,
      "th": 1896,
      "che": 1897,
      "me": 1898,
      "ing": 1899,
      "ta": 1900,
      "ma": 1901,
      "ch": 1902,
      "ci": 1903,
      "qu": 1904,
      "do": 1905,
      "no": 1906,
      "mo": 1907,
      "ato": 1908,
      "ent": 1909,
      "io": 1910,
      "zion": 1911,
      "are": 1912,
      "ver": 1913,
      "ut": 1914,
      "ve": 1915,
      "ter": 1916,
      "ur": 1917,
      "da": 1918,
      "et": 1919,
      "ia": 1920,
      "ere": 1921,
      "The": 1922,
      "gli": 1923,
      "ce": 1924,
      "us": 1925,
      "for": 1926,
      "mp": 1927,
      "ad": 1928,
      "pro": 1929,
      "vi": 1930,
      "ale": 1931,
      "ente": 1932,
      "ol": 1933,
      "be": 1934,
      "zione": 1935,
      "nel": 1936,
      "ono": 1937,
      "19": 1938,
      "ca": 1939,
      "all": 1940,
      "est": 1941,
      "pre": 1942,
      "was": 1943,
      "ag": 1944,
      "ne": 1945,
      "ac": 1946,
      "gi": 1947,
      "20": 1948,
      "ano": 1949,
      "pi": 1950,
      "par": 1951,
      "ul": 1952,
      "della": 1953,
      "una": 1954,
      "ata": 1955,
      "va": 1956,
      "ali": 1957,
      "ir": 1958,
      "ati": 1959,
      "pe": 1960,
      "ha": 1961,
      "za": 1962,
      "In": 1963,
      "man": 1964,
      "ab": 1965,
      "ess": 1966,
      "ho": 1967,
      "ig": 1968,
      "mb": 1969,
      "du": 1970,
      "ven": 1971,
      "ff": 1972,
      "pri": 1973,
      "tra": 1974,
      "ate": 1975,
      "ica": 1976,
      "ni": 1977,
      "ation": 1978,
      "alla": 1979,
      "ine": 1980,
      "men": 1981,
      "ico": 1982,
      "vo": 1983,
      "gu": 1984,
      "cor": 1985,
      "tro": 1986,
      "tr": 1987,
      "ito": 1988,
      "sa": 1989,
      "go": 1990,
      "ist": 1991,
      "lu": 1992,
      "one": 1993,
      "cu": 1994,
      "sp": 1995,
      "non": 1996,
      "chi": 1997,
      "ten": 1998,
      "La": 1999,
      "pp": 2000,
      "ru": 2001,
      "min": 2002,
      "Il": 2003,
      "his": 2004,
      "na": 2005,
      "ori": 2006,
      "zz": 2007,
      "rit": 2008,
      "mi": 2009,
      "ly": 2010,
      "hi": 2011,
      "ith": 2012,
      "that": 2013,
      "comp": 2014,
      "It": 2015,
      "era": 2016,
      "dell": 2017,
      "ando": 2018,
      "gio": 2019,
      "ici": 2020,
      "ment": 2021,
      "ss": 2022,
      "com": 2023,
      "ione": 2024,
      "ge": 2025,
      "op": 2026,
      "ct": 2027,
      "tre": 2028,
      "by": 2029,
      "dei": 2030,
      "mer": 2031,
      "der": 2032,
      "sc": 2033,
      "ità": 2034,
      "with": 2035,
      "fo": 2036,
      "He": 2037,
      "can": 2038,
      "rom": 2039,
      "ran": 2040,
      "ser": 2041,
      "col": 2042,
      "tu": 2043,
      "suo": 2044,
      "ric": 2045,
      "come": 2046,
      "sta": 2047,
      "bo": 2048,
      "200": 2049,
      "ort": 2050,
      "pu": 2051,
      "alle": 2052,
      "fi": 2053,
      "fu": 2054,
      "ene": 2055,
      "ante": 2056,
      "fin": 2057,
      "nu": 2058,
      "amente": 2059,
      "enti": 2060,
      "più": 2061,
      "ers": 2062,
      "sono": 2063,
      "quest": 2064,
      "cit": 2065,
      "from": 2066,
      "201": 2067,
      "gh": 2068,
      "ris": 2069,
      "tto": 2070,
      "zi": 2071,
      "vol": 2072,
      "zioni": 2073,
      "sto": 2074,
      "mon": 2075,
      "ces": 2076,
      "mente": 2077,
      "bi": 2078,
      "ke": 2079,
      "av": 2080,
      "00": 2081,
      "bu": 2082,
      "ame": 2083,
      "fe": 2084,
      "son": 2085,
      "inter": 2086,
      "ther": 2087,
      "anche": 2088,
      "gra": 2089,
      "car": 2090,
      "sul": 2091,
      "pres": 2092,
      "delle": 2093,
      "wh": 2094,
      "ant": 2095,
      "not": 2096,
      "ari": 2097,
      "wn": 2098,
      "pa": 2099,
      "ili": 2100,
      "Al": 2101,
      "gen": 2102,
      "ini": 2103,
      "im": 2104,
      "tri": 2105,
      "sua": 2106,
      "ard": 2107,
      "ill": 2108,
      "ted": 2109,
      "Co": 2110,
      "oro": 2111,
      "enza": 2112,
      "ap": 2113,
      "wo": 2114,
      "pla": 2115,
      "ero": 2116,
      "part": 2117,
      "ina": 2118,
      "ay": 2119,
      "use": 2120,
      "Nel": 2121,
      "ita": 2122,
      "dal": 2123,
      "ele": 2124,
      "tor": 2125,
      "fer": 2126,
      "ga": 2127,
      "tut": 2128,
      "imp": 2129,
      ").": 2130,
      "ex": 2131,
      "ren": 2132,
      "wor": 2133,
      "ai": 2134,
      "up": 2135,
      "ggi": 2136,
      "ino": 2137,
      "due": 2138,
      "ck": 2139,
      "were": 2140,
      "we": 2141,
      "has": 2142,
      "cre": 2143,
      "anno": 2144,
      "bb": 2145,
      "nella": 2146,
      "her": 2147,
      "ese": 2148,
      "mar": 2149,
      "uto": 2150,
      "ass": 2151,
      "Le": 2152,
      "ste": 2153,
      "und": 2154,
      "str": 2155,
      "ani": 2156,
      "Qu": 2157,
      "vis": 2158,
      "ich": 2159,
      "vel": 2160,
      "pos": 2161,
      "18": 2162,
      "out": 2163,
      "fic": 2164,
      "sti": 2165,
      "ear": 2166,
      "ell": 2167,
      "ure": 2168,
      "An": 2169,
      "cas": 2170,
      "pr": 2171,
      "lar": 2172,
      "mento": 2173,
      "ved": 2174,
      "also": 2175,
      "iti": 2176,
      "id": 2177,
      "ople": 2178,
      "end": 2179,
      "anni": 2180,
      "Ro": 2181,
      "mat": 2182,
      "zza": 2183,
      "lic": 2184,
      "ts": 2185,
      "ou": 2186,
      "cam": 2187,
      "anti": 2188,
      "sci": 2189,
      "ie": 2190,
      "vers": 2191,
      "gn": 2192,
      "les": 2193,
      "indi": 2194,
      "have": 2195,
      "parte": 2196,
      "Mar": 2197,
      "atti": 2198,
      "esso": 2199,
      "ite": 2200,
      "they": 2201,
      "cent": 2202,
      "od": 2203,
      "Ch": 2204,
      "ity": 2205,
      "ong": 2206,
      "spe": 2207,
      "fir": 2208,
      "ally": 2209,
      "ot": 2210,
      "dis": 2211,
      "quel": 2212,
      "people": 2213,
      "tà": 2214,
      "igh": 2215,
      "endo": 2216,
      "cer": 2217,
      "199": 2218,
      "mber": 2219,
      "diff": 2220,
      "ber": 2221,
      "ento": 2222,
      "mol": 2223,
      "essere": 2224,
      "but": 2225,
      "secon": 2226,
      "ld": 2227,
      "had": 2228,
      "Se": 2229,
      "get": 2230,
      "This": 2231,
      "ced": 2232,
      "Un": 2233,
      "dalla": 2234,
      "fa": 2235,
      "),": 2236,
      "ok": 2237,
      "viene": 2238,
      "ans": 2239,
      "cui": 2240,
      "itu": 2241,
      "ated": 2242,
      "fr": 2243,
      "St": 2244,
      "first": 2245,
      "iche": 2246,
      "des": 2247,
      "oc": 2248,
      "form": 2249,
      "stato": 2250,
      "play": 2251,
      "loro": 2252,
      "ary": 2253,
      "dopo": 2254,
      "segu": 2255,
      "ze": 2256,
      "\".": 2257,
      "prima": 2258,
      "hen": 2259,
      "ura": 2260,
      "which": 2261,
      "uo": 2262,
      "dio": 2263,
      "vano": 2264,
      "their": 2265,
      "leg": 2266,
      "clu": 2267,
      "atta": 2268,
      "cia": 2269,
      "contro": 2270,
      "let": 2271,
      "ana": 2272,
      "fam": 2273,
      "ater": 2274,
      "most": 2275,
      "cono": 2276,
      "att": 2277,
      "mor": 2278,
      "via": 2279,
      "So": 2280,
      "Re": 2281,
      "ang": 2282,
      "lit": 2283,
      "atto": 2284,
      "por": 2285,
      "ast": 2286,
      "ble": 2287,
      "ane": 2288,
      "uno": 2289,
      "bas": 2290,
      "cost": 2291,
      "glia": 2292,
      "land": 2293,
      "almente": 2294,
      "ioni": 2295,
      "uni": 2296,
      "dur": 2297,
      "ions": 2298,
      "year": 2299,
      "this": 2300,
      "red": 2301,
      "low": 2302,
      "og": 2303,
      "Th": 2304,
      "They": 2305,
      "uld": 2306,
      "ms": 2307,
      "Con": 2308,
      "suc": 2309,
      "sho": 2310,
      "nuo": 2311,
      "its": 2312,
      "art": 2313,
      "fter": 2314,
      "tare": 2315,
      "Ne": 2316,
      "amento": 2317,
      "oper": 2318,
      "De": 2319,
      "age": 2320,
      "bor": 2321,
      "ore": 2322,
      "au": 2323,
      "unt": 2324,
      "gre": 2325,
      "stu": 2326,
      "very": 2327,
      "other": 2328,
      "eri": 2329,
      "time": 2330,
      "set": 2331,
      "ish": 2332,
      "edi": 2333,
      "aff": 2334,
      "degli": 2335,
      "ord": 2336,
      "sco": 2337,
      "into": 2338,
      "198": 2339,
      "ak": 2340,
      "ice": 2341,
      "anto": 2342,
      "stor": 2343,
      "uc": 2344,
      "ario": 2345,
      "val": 2346,
      "alled": 2347,
      "used": 2348,
      "mis": 2349,
      "port": 2350,
      "who": 2351,
      "questo": 2352,
      "que": 2353,
      "mes": 2354,
      "ght": 2355,
      "dist": 2356,
      "sia": 2357,
      "person": 2358,
      "work": 2359,
      "zio": 2360,
      "ggio": 2361,
      "more": 2362,
      "called": 2363,
      "gro": 2364,
      "propri": 2365,
      "vent": 2366,
      "azione": 2367,
      "Ar": 2368,
      "She": 2369,
      "tem": 2370,
      "many": 2371,
      "ire": 2372,
      "lare": 2373,
      "ave": 2374,
      "speci": 2375,
      "kno": 2376,
      "Do": 2377,
      "une": 2378,
      "amp": 2379,
      "bbe": 2380,
      "ach": 2381,
      "ung": 2382,
      "some": 2383,
      "alc": 2384,
      "glio": 2385,
      "way": 2386,
      "Quest": 2387,
      "fon": 2388,
      "cess": 2389,
      "met": 2390,
      "pic": 2391,
      "colo": 2392,
      "vil": 2393,
      "inci": 2394,
      "mus": 2395,
      "two": 2396,
      "cont": 2397,
      "about": 2398,
      "ree": 2399,
      "dire": 2400,
      "cap": 2401,
      "aver": 2402,
      "cis": 2403,
      "differ": 2404,
      "any": 2405,
      "ild": 2406,
      "inf": 2407,
      "ulti": 2408,
      "oni": 2409,
      "venne": 2410,
      "app": 2411,
      "cla": 2412,
      "int": 2413,
      "197": 2414,
      "solo": 2415,
      "tur": 2416,
      "etto": 2417,
      "pubb": 2418,
      "lan": 2419,
      "led": 2420,
      "log": 2421,
      "Per": 2422,
      "os": 2423,
      "ack": 2424,
      "nell": 2425,
      "um": 2426,
      "stra": 2427,
      "loc": 2428,
      "forma": 2429,
      "there": 2430,
      "ora": 2431,
      "lav": 2432,
      "mas": 2433,
      "bile": 2434,
      "10": 2435,
      "ds": 2436,
      "tura": 2437,
      "atore": 2438,
      "zia": 2439,
      "uro": 2440,
      "soci": 2441,
      "don": 2442,
      "bre": 2443,
      "cir": 2444,
      "reg": 2445,
      "\",": 2446,
      "tta": 2447,
      "esi": 2448,
      "tras": 2449,
      "vin": 2450,
      "medi": 2451,
      "sid": 2452,
      "she": 2453,
      "org": 2454,
      "cause": 2455,
      "ry": 2456,
      "ical": 2457,
      "ph": 2458,
      "ves": 2459,
      "Si": 2460,
      "17": 2461,
      "gr": 2462,
      "ppo": 2463,
      "sh": 2464,
      "ings": 2465,
      "rac": 2466,
      "15": 2467,
      "been": 2468,
      "fil": 2469,
      "day": 2470,
      "Ho": 2471,
      "made": 2472,
      "dove": 2473,
      "dall": 2474,
      "over": 2475,
      "anza": 2476,
      "br": 2477,
      "tempo": 2478,
      "ction": 2479,
      "known": 2480,
      "ight": 2481,
      "gior": 2482,
      "sal": 2483,
      "nelle": 2484,
      "succes": 2485,
      "came": 2486,
      "gg": 2487,
      "196": 2488,
      "Bo": 2489,
      "ton": 2490,
      "zzo": 2491,
      "suoi": 2492,
      "zo": 2493,
      "orig": 2494,
      "atter": 2495,
      "Mo": 2496,
      "Amer": 2497,
      "fac": 2498,
      "ens": 2499,
      "off": 2500,
      "produ": 2501,
      "ins": 2502,
      "ust": 2503,
      "volta": 2504,
      "No": 2505,
      "Jo": 2506,
      "ue": 2507,
      "when": 2508,
      "ps": 2509,
      "molto": 2510,
      "band": 2511,
      "pass": 2512,
      "ath": 2513,
      "ty": 2514,
      "cho": 2515,
      "menti": 2516,
      "tion": 2517,
      "nam": 2518,
      "far": 2519,
      "età": 2520,
      "fine": 2521,
      "mentre": 2522,
      "cio": 2523,
      "verso": 2524,
      "new": 2525,
      "bel": 2526,
      "sing": 2527,
      "consi": 2528,
      "En": 2529,
      "perio": 2530,
      "after": 2531,
      "numer": 2532,
      "semp": 2533,
      "vie": 2534,
      "ence": 2535,
      "mil": 2536,
      "line": 2537,
      "16": 2538,
      "pun": 2539,
      "than": 2540,
      "vamente": 2541,
      "stata": 2542,
      "000": 2543,
      "sì": 2544,
      "ide": 2545,
      "primo": 2546,
      "fore": 2547,
      "only": 2548,
      "nei": 2549,
      "nor": 2550,
      "To": 2551,
      "poi": 2552,
      "Ma": 2553,
      "tt": 2554,
      "amb": 2555,
      "citation": 2556,
      "quando": 2557,
      "vic": 2558,
      "res": 2559,
      "ara": 2560,
      "ded": 2561,
      "gener": 2562,
      "There": 2563,
      "II": 2564,
      "Di": 2565,
      "fur": 2566,
      "uta": 2567,
      "ena": 2568,
      "ates": 2569,
      "star": 2570,
      "them": 2571,
      "ede": 2572,
      "ward": 2573,
      "usa": 2574,
      "years": 2575,
      "altri": 2576,
      "quad": 2577,
      "stag": 2578,
      "my": 2579,
      "albu": 2580,
      "erano": 2581,
      "essa": 2582,
      "cur": 2583,
      "ep": 2584,
      "esa": 2585,
      "hanno": 2586,
      "oltre": 2587,
      "sulla": 2588,
      "diver": 2589,
      "arono": 2590,
      "ugh": 2591,
      "cri": 2592,
      "rel": 2593,
      "194": 2594,
      "princi": 2595,
      "asi": 2596,
      "gno": 2597,
      "arti": 2598,
      "ations": 2599,
      "ory": 2600,
      "import": 2601,
      "12": 2602,
      "può": 2603,
      "aro": 2604,
      "old": 2605,
      "sub": 2606,
      "eff": 2607,
      "ational": 2608,
      "mal": 2609,
      "possi": 2610,
      "gover": 2611,
      "contin": 2612,
      "bro": 2613,
      "sol": 2614,
      "cal": 2615,
      "sin": 2616,
      "ello": 2617,
      "care": 2618,
      "ann": 2619,
      "ont": 2620,
      "inclu": 2621,
      "numero": 2622,
      "ick": 2623,
      "bet": 2624,
      "tutto": 2625,
      "ssi": 2626,
      "glie": 2627,
      "present": 2628,
      "gono": 2629,
      "arri": 2630,
      "etti": 2631,
      "ché": 2632,
      "195": 2633,
      "Be": 2634,
      "isce": 2635,
      "vita": 2636,
      "aveva": 2637,
      "dere": 2638,
      "Po": 2639,
      "polit": 2640,
      "atori": 2641,
      "aria": 2642,
      "posto": 2643,
      "coun": 2644,
      "fica": 2645,
      "Lo": 2646,
      "stesso": 2647,
      "nome": 2648,
      "stru": 2649,
      "dy": 2650,
      "sotto": 2651,
      "Fran": 2652,
      "ande": 2653,
      "14": 2654,
      "ona": 2655,
      "cora": 2656,
      "ain": 2657,
      "him": 2658,
      "album": 2659,
      "king": 2660,
      "Dopo": 2661,
      "Su": 2662,
      "città": 2663,
      "leas": 2664,
      "dai": 2665,
      "sue": 2666,
      "ster": 2667,
      "ws": 2668,
      "Car": 2669,
      "questa": 2670,
      "pl": 2671,
      "lui": 2672,
      "gru": 2673,
      "became": 2674,
      "camp": 2675,
      "vari": 2676,
      "will": 2677,
      "name": 2678,
      "utili": 2679,
      "fino": 2680,
      "abil": 2681,
      "vit": 2682,
      "ving": 2683,
      "because": 2684,
      "arsi": 2685,
      "main": 2686,
      "ance": 2687,
      "30": 2688,
      "aggi": 2689,
      "mbre": 2690,
      "così": 2691,
      "ding": 2692,
      "als": 2693,
      "did": 2694,
      "As": 2695,
      "peri": 2696,
      "Pro": 2697,
      "inizi": 2698,
      "conf": 2699,
      "gni": 2700,
      "tutti": 2701,
      "would": 2702,
      "Americ": 2703,
      "different": 2704,
      "sy": 2705,
      "princip": 2706,
      "ful": 2707,
      "dello": 2708,
      "releas": 2709,
      "sie": 2710,
      "miss": 2711,
      "qual": 2712,
      "temp": 2713,
      "anta": 2714,
      "ors": 2715,
      "quindi": 2716,
      "comun": 2717,
      "raga": 2718,
      "On": 2719,
      "dia": 2720,
      "Au": 2721,
      "posi": 2722,
      "cted": 2723,
      "ign": 2724,
      "cato": 2725,
      "ala": 2726,
      "At": 2727,
      "hed": 2728,
      "quale": 2729,
      "origin": 2730,
      "rin": 2731,
      "ger": 2732,
      "mu": 2733,
      "film": 2734,
      "mit": 2735,
      "quali": 2736,
      "long": 2737,
      "13": 2738,
      "deci": 2739,
      "aggio": 2740,
      "ks": 2741,
      "ature": 2742,
      "mini": 2743,
      "pren": 2744,
      "then": 2745,
      "if": 2746,
      "ola": 2747,
      "zionale": 2748,
      "ancora": 2749,
      "seguito": 2750,
      "segn": 2751,
      "den": 2752,
      "Par": 2753,
      "writ": 2754,
      "furono": 2755,
      "lasci": 2756,
      "ys": 2757,
      "pub": 2758,
      "cin": 2759,
      "enta": 2760,
      "dre": 2761,
      "fun": 2762,
      "giu": 2763,
      "times": 2764,
      "music": 2765,
      "like": 2766,
      "lin": 2767,
      "area": 2768,
      "ult": 2769,
      "poss": 2770,
      "però": 2771,
      "risp": 2772,
      "jo": 2773,
      "ett": 2774,
      "tti": 2775,
      "bil": 2776,
      "under": 2777,
      "rice": 2778,
      "ft": 2779,
      "Li": 2780,
      "uff": 2781,
      "durante": 2782,
      "parti": 2783,
      "state": 2784,
      "Pe": 2785,
      "Pre": 2786,
      "ron": 2787,
      "olo": 2788,
      "thro": 2789,
      "ily": 2790,
      "ason": 2791,
      "auto": 2792,
      "later": 2793,
      "pen": 2794,
      "popo": 2795,
      "rap": 2796,
      "Gi": 2797,
      "where": 2798,
      "stagione": 2799,
      "acc": 2800,
      "memb": 2801,
      "New": 2802,
      "sempre": 2803,
      "sen": 2804,
      "modo": 2805,
      "successi": 2806,
      "ies": 2807,
      "acqu": 2808,
      "fra": 2809,
      "serie": 2810,
      "fami": 2811,
      "American": 2812,
      "For": 2813,
      "inve": 2814,
      "casa": 2815,
      "elli": 2816,
      "thou": 2817,
      "Da": 2818,
      "ling": 2819,
      "25": 2820,
      "ween": 2821,
      "pes": 2822,
      "secondo": 2823,
      "may": 2824,
      "ogni": 2825,
      "alizz": 2826,
      "Pa": 2827,
      "ative": 2828,
      "found": 2829,
      "side": 2830,
      "back": 2831,
      "control": 2832,
      "grande": 2833,
      "arch": 2834,
      "squad": 2835,
      "Com": 2836,
      "rest": 2837,
      "continu": 2838,
      "Ha": 2839,
      "tal": 2840,
      "lis": 2841,
      "dice": 2842,
      "vert": 2843,
      "allo": 2844,
      "lazione": 2845,
      "three": 2846,
      "sieme": 2847,
      "erra": 2848,
      "team": 2849,
      "senza": 2850,
      "vio": 2851,
      "ba": 2852,
      "pad": 2853,
      "cul": 2854,
      "dent": 2855,
      "ture": 2856,
      "fatto": 2857,
      "tavia": 2858,
      "corso": 2859,
      "wer": 2860,
      "Dur": 2861,
      "vere": 2862,
      "released": 2863,
      "cro": 2864,
      "gest": 2865,
      "hel": 2866,
      "etta": 2867,
      "sur": 2868,
      "spa": 2869,
      "pie": 2870,
      "frat": 2871,
      "dest": 2872,
      "pubblic": 2873,
      "lun": 2874,
      "sm": 2875,
      "well": 2876,
      "crit": 2877,
      "ritor": 2878,
      "ec": 2879,
      "atura": 2880,
      "air": 2881,
      "mai": 2882,
      "chool": 2883,
      "gran": 2884,
      "uti": 2885,
      "sse": 2886,
      "costru": 2887,
      "term": 2888,
      "gruppo": 2889,
      "world": 2890,
      "pul": 2891,
      "raggi": 2892,
      "alcuni": 2893,
      "died": 2894,
      "usu": 2895,
      "again": 2896,
      "prote": 2897,
      "ner": 2898,
      "ries": 2899,
      "Nor": 2900,
      "quello": 2901,
      "group": 2902,
      "between": 2903,
      "tte": 2904,
      "chiam": 2905,
      "meno": 2906,
      "try": 2907,
      "ella": 2908,
      "pubbl": 2909,
      "quella": 2910,
      "hip": 2911,
      "Some": 2912,
      "Ger": 2913,
      "strut": 2914,
      "ters": 2915,
      "nuovo": 2916,
      "born": 2917,
      "utilizz": 2918,
      "193": 2919,
      "trova": 2920,
      "gia": 2921,
      "pra": 2922,
      "organi": 2923,
      "ista": 2924,
      "Lu": 2925,
      "tain": 2926,
      "maggio": 2927,
      "until": 2928,
      "ener": 2929,
      "ase": 2930,
      "ather": 2931,
      "ect": 2932,
      "qui": 2933,
      "fre": 2934,
      "tele": 2935,
      "ciò": 2936,
      "second": 2937,
      "wever": 2938,
      "child": 2939,
      "beg": 2940,
      "pare": 2941,
      "sost": 2942,
      "cch": 2943,
      "cy": 2944,
      "uman": 2945,
      "ited": 2946,
      "vità": 2947,
      "esse": 2948,
      "cle": 2949,
      "make": 2950,
      "even": 2951,
      "bili": 2952,
      "pend": 2953,
      "gram": 2954,
      "tere": 2955,
      "dra": 2956,
      "comb": 2957,
      "proble": 2958,
      "ning": 2959,
      "vide": 2960,
      "11": 2961,
      "song": 2962,
      "itali": 2963,
      "siste": 2964,
      "Gu": 2965,
      "super": 2966,
      "altre": 2967,
      "played": 2968,
      "tito": 2969,
      "ago": 2970,
      "bri": 2971,
      "sor": 2972,
      "tale": 2973,
      "altro": 2974,
      "consider": 2975,
      "famiglia": 2976,
      "same": 2977,
      "ics": 2978,
      "partico": 2979,
      "2010": 2980,
      "giov": 2981,
      "clo": 2982,
      "sk": 2983,
      "prof": 2984,
      "disp": 2985,
      "Me": 2986,
      "caratter": 2987,
      "sts": 2988,
      "show": 2989,
      "alia": 2990,
      "ried": 2991,
      "bar": 2992,
      "hn": 2993,
      "tore": 2994,
      "Tut": 2995,
      "opera": 2996,
      "Gli": 2997,
      "yo": 2998,
      "often": 2999
    },
    "merges": [
      [
        "e",
        "r"
      ],
      [
        "o",
        "n"
      ],
      [
        "i",
        "n"
      ],
      [
        "a",
        "n"
      ],
      [
        "h",
        "e"
      ],
      [
        "r",
        "e"
      ],
      [
        "a",
        "t"
      ],
      [
        "e",
        "n"
      ],
      [
        "a",
        "l"
      ],
      [
        "d",
        "i"
      ],
      [
        "s",
        "t"
      ],
      [
        "o",
        "r"
      ],
      [
        "e",
        "l"
      ],
      [
        "l",
        "a"
      ],
      [
        "a",
        "r"
      ],
      [
        "i",
        "t"
      ],
      [
        "t",
        "he"
      ],
      [
        "t",
        "o"
      ],
      [
        "l",
        "e"
      ],
      [
        "i",
        "c"
      ],
      [
        "u",
        "n"
      ],
      [
        "e",
        "s"
      ],
      [
        "i",
        "s"
      ],
      [
        "i",
        "l"
      ],
      [
        "t",
        "e"
      ],
      [
        "a",
        "s"
      ],
      [
        "i",
        "on"
      ],
      [
        "r",
        "o"
      ],
      [
        "c",
        "o"
      ],
      [
        "r",
        "a"
      ],
      [
        "an",
        "d"
      ],
      [
        "e",
        "d"
      ],
      [
        "r",
        "i"
      ],
      [
        "d",
        "el"
      ],
      [
        "s",
        "i"
      ],
      [
        "t",
        "i"
      ],
      [
        "c",
        "on"
      ],
      [
        "l",
        "i"
      ],
      [
        "a",
        "m"
      ],
      [
        "s",
        "e"
      ],
      [
        "p",
        "o"
      ],
      [
        "o",
        "f"
      ],
      [
        "d",
        "e"
      ],
      [
        "p",
        "er"
      ],
      [
        "s",
        "o"
      ],
      [
        "l",
        "o"
      ],
      [
        "s",
        "u"
      ],
      [
        "t",
        "h"
      ],
      [
        "c",
        "he"
      ],
      [
        "m",
        "e"
      ],
      [
        "in",
        "g"
      ],
      [
        "t",
        "a"
      ],
      [
        "m",
        "a"
      ],
      [
        "c",
        "h"
      ],
      [
        "c",
        "i"
      ],
      [
        "q",
        "u"
      ],
      [
        "d",
        "o"
      ],
      [
        "n",
        "o"
      ],
      [
        "m",
        "o"
      ],
      [
        "at",
        "o"
      ],
      [
        "en",
        "t"
      ],
      [
        "i",
        "o"
      ],
      [
        "z",
        "ion"
      ],
      [
        "a",
        "re"
      ],
      [
        "v",
        "er"
      ],
      [
        "u",
        "t"
      ],
      [
        "v",
        "e"
      ],
      [
        "t",
        "er"
      ],
      [
        "u",
        "r"
      ],
      [
        "d",
        "a"
      ],
      [
        "e",
        "t"
      ],
      [
        "i",
        "a"
      ],
      [
        "er",
        "e"
      ],
      [
        "T",
        "he"
      ],
      [
        "g",
        "li"
      ],
      [
        "c",
        "e"
      ],
      [
        "u",
        "s"
      ],
      [
        "f",
        "or"
      ],
      [
        "m",
        "p"
      ],
      [
        "a",
        "d"
      ],
      [
        "p",
        "ro"
      ],
      [
        "v",
        "i"
      ],
      [
        "al",
        "e"
      ],
      [
        "en",
        "te"
      ],
      [
        "o",
        "l"
      ],
      [
        "b",
        "e"
      ],
      [
        "zion",
        "e"
      ],
      [
        "n",
        "el"
      ],
      [
        "on",
        "o"
      ],
      [
        "1",
        "9"
      ],
      [
        "c",
        "a"
      ],
      [
        "al",
        "l"
      ],
      [
        "e",
        "st"
      ],
      [
        "p",
        "re"
      ],
      [
        "w",
        "as"
      ],
      [
        "a",
        "g"
      ],
      [
        "n",
        "e"
      ],
      [
        "a",
        "c"
      ],
      [
        "g",
        "i"
      ],
      [
        "2",
        "0"
      ],
      [
        "an",
        "o"
      ],
      [
        "p",
        "i"
      ],
      [
        "p",
        "ar"
      ],
      [
        "u",
        "l"
      ],
      [
        "del",
        "la"
      ],
      [
        "un",
        "a"
      ],
      [
        "at",
        "a"
      ],
      [
        "v",
        "a"
      ],
      [
        "al",
        "i"
      ],
      [
        "i",
        "r"
      ],
      [
        "at",
        "i"
      ],
      [
        "p",
        "e"
      ],
      [
        "h",
        "a"
      ],
      [
        "z",
        "a"
      ],
      [
        "I",
        "n"
      ],
      [
        "m",
        "an"
      ],
      [
        "a",
        "b"
      ],
      [
        "es",
        "s"
      ],
      [
        "h",
        "o"
      ],
      [
        "i",
        "g"
      ],
      [
        "m",
        "b"
      ],
      [
        "d",
        "u"
      ],
      [
        "v",
        "en"
      ],
      [
        "f",
        "f"
      ],
      [
        "p",
        "ri"
      ],
      [
        "t",
        "ra"
      ],
      [
        "at",
        "e"
      ],
      [
        "ic",
        "a"
      ],
      [
        "n",
        "i"
      ],
      [
        "at",
        "ion"
      ],
      [
        "al",
        "la"
      ],
      [
        "in",
        "e"
      ],
      [
        "m",
        "en"
      ],
      [
        "ic",
        "o"
      ],
      [
        "v",
        "o"
      ],
      [
        "g",
        "u"
      ],
      [
        "c",
        "or"
      ],
      [
        "t",
        "ro"
      ],
      [
        "t",
        "r"
      ],
      [
        "it",
        "o"
      ],
      [
        "s",
        "a"
      ],
      [
        "g",
        "o"
      ],
      [
        "i",
        "st"
      ],
      [
        "l",
        "u"
      ],
      [
        "on",
        "e"
      ],
      [
        "c",
        "u"
      ],
      [
        "s",
        "p"
      ],
      [
        "n",
        "on"
      ],
      [
        "ch",
        "i"
      ],
      [
        "t",
        "en"
      ],
      [
        "L",
        "a"
      ],
      [
        "p",
        "p"
      ],
      [
        "r",
        "u"
      ],
      [
        "m",
        "in"
      ],
      [
        "I",
        "l"
      ],
      [
        "h",
        "is"
      ],
      [
        "n",
        "a"
      ],
      [
        "or",
        "i"
      ],
      [
        "z",
        "z"
      ],
      [
        "r",
        "it"
      ],
      [
        "m",
        "i"
      ],
      [
        "l",
        "y"
      ],
      [
        "h",
        "i"
      ],
      [
        "it",
        "h"
      ],
      [
        "th",
        "at"
      ],
      [
        "co",
        "mp"
      ],
      [
        "I",
        "t"
      ],
      [
        "er",
        "a"
      ],
      [
        "del",
        "l"
      ],
      [
        "and",
        "o"
      ],
      [
        "g",
        "io"
      ],
      [
        "ic",
        "i"
      ],
      [
        "m",
        "ent"
      ],
      [
        "s",
        "s"
      ],
      [
        "co",
        "m"
      ],
      [
        "ion",
        "e"
      ],
      [
        "g",
        "e"
      ],
      [
        "o",
        "p"
      ],
      [
        "c",
        "t"
      ],
      [
        "t",
        "re"
      ],
      [
        "b",
        "y"
      ],
      [
        "de",
        "i"
      ],
      [
        "m",
        "er"
      ],
      [
        "d",
        "er"
      ],
      [
        "s",
        "c"
      ],
      [
        "it",
        "à"
      ],
      [
        "w",
        "ith"
      ],
      [
        "f",
        "o"
      ],
      [
        "H",
        "e"
      ],
      [
        "c",
        "an"
      ],
      [
        "ro",
        "m"
      ],
      [
        "r",
        "an"
      ],
      [
        "s",
        "er"
      ],
      [
        "co",
        "l"
      ],
      [
        "t",
        "u"
      ],
      [
        "su",
        "o"
      ],
      [
        "r",
        "ic"
      ],
      [
        "co",
        "me"
      ],
      [
        "st",
        "a"
      ],
      [
        "b",
        "o"
      ],
      [
        "20",
        "0"
      ],
      [
        "or",
        "t"
      ],
      [
        "p",
        "u"
      ],
      [
        "al",
        "le"
      ],
      [
        "f",
        "i"
      ],
      [
        "f",
        "u"
      ],
      [
        "en",
        "e"
      ],
      [
        "an",
        "te"
      ],
      [
        "f",
        "in"
      ],
      [
        "n",
        "u"
      ],
      [
        "am",
        "ente"
      ],
      [
        "en",
        "ti"
      ],
      [
        "pi",
        "ù"
      ],
      [
        "er",
        "s"
      ],
      [
        "s",
        "ono"
      ],
      [
        "qu",
        "est"
      ],
      [
        "c",
        "it"
      ],
      [
        "f",
        "rom"
      ],
      [
        "20",
        "1"
      ],
      [
        "g",
        "h"
      ],
      [
        "r",
        "is"
      ],
      [
        "t",
        "to"
      ],
      [
        "z",
        "i"
      ],
      [
        "v",
        "ol"
      ],
      [
        "zion",
        "i"
      ],
      [
        "st",
        "o"
      ],
      [
        "m",
        "on"
      ],
      [
        "c",
        "es"
      ],
      [
        "m",
        "ente"
      ],
      [
        "b",
        "i"
      ],
      [
        "k",
        "e"
      ],
      [
        "a",
        "v"
      ],
      [
        "0",
        "0"
      ],
      [
        "b",
        "u"
      ],
      [
        "am",
        "e"
      ],
      [
        "f",
        "e"
      ],
      [
        "s",
        "on"
      ],
      [
        "in",
        "ter"
      ],
      [
        "th",
        "er"
      ],
      [
        "an",
        "che"
      ],
      [
        "g",
        "ra"
      ],
      [
        "c",
        "ar"
      ],
      [
        "su",
        "l"
      ],
      [
        "pre",
        "s"
      ],
      [
        "del",
        "le"
      ],
      [
        "w",
        "h"
      ],
      [
        "an",
        "t"
      ],
      [
        "no",
        "t"
      ],
      [
        "ar",
        "i"
      ],
      [
        "w",
        "n"
      ],
      [
        "p",
        "a"
      ],
      [
        "il",
        "i"
      ],
      [
        "A",
        "l"
      ],
      [
        "g",
        "en"
      ],
      [
        "in",
        "i"
      ],
      [
        "i",
        "m"
      ],
      [
        "t",
        "ri"
      ],
      [
        "su",
        "a"
      ],
      [
        "ar",
        "d"
      ],
      [
        "il",
        "l"
      ],
      [
        "te",
        "d"
      ],
      [
        "C",
        "o"
      ],
      [
        "or",
        "o"
      ],
      [
        "en",
        "za"
      ],
      [
        "a",
        "p"
      ],
      [
        "w",
        "o"
      ],
      [
        "p",
        "la"
      ],
      [
        "er",
        "o"
      ],
      [
        "par",
        "t"
      ],
      [
        "in",
        "a"
      ],
      [
        "a",
        "y"
      ],
      [
        "u",
        "se"
      ],
      [
        "N",
        "el"
      ],
      [
        "it",
        "a"
      ],
      [
        "d",
        "al"
      ],
      [
        "el",
        "e"
      ],
      [
        "t",
        "or"
      ],
      [
        "f",
        "er"
      ],
      [
        "g",
        "a"
      ],
      [
        "t",
        "ut"
      ],
      [
        "i",
        "mp"
      ],
      [
        ")",
        "."
      ],
      [
        "e",
        "x"
      ],
      [
        "re",
        "n"
      ],
      [
        "w",
        "or"
      ],
      [
        "a",
        "i"
      ],
      [
        "u",
        "p"
      ],
      [
        "g",
        "gi"
      ],
      [
        "in",
        "o"
      ],
      [
        "du",
        "e"
      ],
      [
        "c",
        "k"
      ],
      [
        "w",
        "ere"
      ],
      [
        "w",
        "e"
      ],
      [
        "h",
        "as"
      ],
      [
        "c",
        "re"
      ],
      [
        "an",
        "no"
      ],
      [
        "b",
        "b"
      ],
      [
        "nel",
        "la"
      ],
      [
        "h",
        "er"
      ],
      [
        "es",
        "e"
      ],
      [
        "m",
        "ar"
      ],
      [
        "u",
        "to"
      ],
      [
        "as",
        "s"
      ],
      [
        "L",
        "e"
      ],
      [
        "st",
        "e"
      ],
      [
        "un",
        "d"
      ],
      [
        "st",
        "r"
      ],
      [
        "an",
        "i"
      ],
      [
        "Q",
        "u"
      ],
      [
        "v",
        "is"
      ],
      [
        "ic",
        "h"
      ],
      [
        "v",
        "el"
      ],
      [
        "po",
        "s"
      ],
      [
        "1",
        "8"
      ],
      [
        "o",
        "ut"
      ],
      [
        "f",
        "ic"
      ],
      [
        "st",
        "i"
      ],
      [
        "e",
        "ar"
      ],
      [
        "el",
        "l"
      ],
      [
        "u",
        "re"
      ],
      [
        "A",
        "n"
      ],
      [
        "c",
        "as"
      ],
      [
        "p",
        "r"
      ],
      [
        "la",
        "r"
      ],
      [
        "men",
        "to"
      ],
      [
        "v",
        "ed"
      ],
      [
        "al",
        "so"
      ],
      [
        "it",
        "i"
      ],
      [
        "i",
        "d"
      ],
      [
        "op",
        "le"
      ],
      [
        "en",
        "d"
      ],
      [
        "an",
        "ni"
      ],
      [
        "R",
        "o"
      ],
      [
        "m",
        "at"
      ],
      [
        "z",
        "za"
      ],
      [
        "l",
        "ic"
      ],
      [
        "t",
        "s"
      ],
      [
        "o",
        "u"
      ],
      [
        "c",
        "am"
      ],
      [
        "an",
        "ti"
      ],
      [
        "s",
        "ci"
      ],
      [
        "i",
        "e"
      ],
      [
        "ver",
        "s"
      ],
      [
        "g",
        "n"
      ],
      [
        "le",
        "s"
      ],
      [
        "in",
        "di"
      ],
      [
        "ha",
        "ve"
      ],
      [
        "par",
        "te"
      ],
      [
        "M",
        "ar"
      ],
      [
        "at",
        "ti"
      ],
      [
        "es",
        "so"
      ],
      [
        "it",
        "e"
      ],
      [
        "the",
        "y"
      ],
      [
        "c",
        "ent"
      ],
      [
        "o",
        "d"
      ],
      [
        "C",
        "h"
      ],
      [
        "it",
        "y"
      ],
      [
        "on",
        "g"
      ],
      [
        "s",
        "pe"
      ],
      [
        "f",
        "ir"
      ],
      [
        "all",
        "y"
      ],
      [
        "o",
        "t"
      ],
      [
        "di",
        "s"
      ],
      [
        "qu",
        "el"
      ],
      [
        "pe",
        "ople"
      ],
      [
        "t",
        "à"
      ],
      [
        "ig",
        "h"
      ],
      [
        "en",
        "do"
      ],
      [
        "c",
        "er"
      ],
      [
        "19",
        "9"
      ],
      [
        "mb",
        "er"
      ],
      [
        "di",
        "ff"
      ],
      [
        "b",
        "er"
      ],
      [
        "en",
        "to"
      ],
      [
        "mo",
        "l"
      ],
      [
        "ess",
        "ere"
      ],
      [
        "b",
        "ut"
      ],
      [
        "se",
        "con"
      ],
      [
        "l",
        "d"
      ],
      [
        "h",
        "ad"
      ],
      [
        "S",
        "e"
      ],
      [
        "g",
        "et"
      ],
      [
        "T",
        "his"
      ],
      [
        "c",
        "ed"
      ],
      [
        "U",
        "n"
      ],
      [
        "d",
        "alla"
      ],
      [
        "f",
        "a"
      ],
      [
        ")",
        ","
      ],
      [
        "o",
        "k"
      ],
      [
        "vi",
        "ene"
      ],
      [
        "an",
        "s"
      ],
      [
        "cu",
        "i"
      ],
      [
        "it",
        "u"
      ],
      [
        "at",
        "ed"
      ],
      [
        "f",
        "r"
      ],
      [
        "S",
        "t"
      ],
      [
        "fir",
        "st"
      ],
      [
        "ic",
        "he"
      ],
      [
        "d",
        "es"
      ],
      [
        "o",
        "c"
      ],
      [
        "for",
        "m"
      ],
      [
        "st",
        "ato"
      ],
      [
        "pla",
        "y"
      ],
      [
        "l",
        "oro"
      ],
      [
        "ar",
        "y"
      ],
      [
        "do",
        "po"
      ],
      [
        "se",
        "gu"
      ],
      [
        "z",
        "e"
      ],
      [
        "\"",
        "."
      ],
      [
        "pri",
        "ma"
      ],
      [
        "he",
        "n"
      ],
      [
        "u",
        "ra"
      ],
      [
        "wh",
        "ich"
      ],
      [
        "u",
        "o"
      ],
      [
        "di",
        "o"
      ],
      [
        "v",
        "ano"
      ],
      [
        "the",
        "ir"
      ],
      [
        "le",
        "g"
      ],
      [
        "c",
        "lu"
      ],
      [
        "at",
        "ta"
      ],
      [
        "ci",
        "a"
      ],
      [
        "con",
        "tro"
      ],
      [
        "le",
        "t"
      ],
      [
        "an",
        "a"
      ],
      [
        "f",
        "am"
      ],
      [
        "at",
        "er"
      ],
      [
        "mo",
        "st"
      ],
      [
        "con",
        "o"
      ],
      [
        "at",
        "t"
      ],
      [
        "m",
        "or"
      ],
      [
        "v",
        "ia"
      ],
      [
        "S",
        "o"
      ],
      [
        "R",
        "e"
      ],
      [
        "an",
        "g"
      ],
      [
        "l",
        "it"
      ],
      [
        "at",
        "to"
      ],
      [
        "p",
        "or"
      ],
      [
        "a",
        "st"
      ],
      [
        "b",
        "le"
      ],
      [
        "an",
        "e"
      ],
      [
        "un",
        "o"
      ],
      [
        "b",
        "as"
      ],
      [
        "co",
        "st"
      ],
      [
        "gli",
        "a"
      ],
      [
        "l",
        "and"
      ],
      [
        "al",
        "mente"
      ],
      [
        "ion",
        "i"
      ],
      [
        "un",
        "i"
      ],
      [
        "d",
        "ur"
      ],
      [
        "ion",
        "s"
      ],
      [
        "y",
        "ear"
      ],
      [
        "th",
        "is"
      ],
      [
        "re",
        "d"
      ],
      [
        "lo",
        "w"
      ],
      [
        "o",
        "g"
      ],
      [
        "T",
        "h"
      ],
      [
        "The",
        "y"
      ],
      [
        "ul",
        "d"
      ],
      [
        "m",
        "s"
      ],
      [
        "C",
        "on"
      ],
      [
        "su",
        "c"
      ],
      [
        "s",
        "ho"
      ],
      [
        "nu",
        "o"
      ],
      [
        "it",
        "s"
      ],
      [
        "ar",
        "t"
      ],
      [
        "f",
        "ter"
      ],
      [
        "ta",
        "re"
      ],
      [
        "N",
        "e"
      ],
      [
        "am",
        "ento"
      ],
      [
        "o",
        "per"
      ],
      [
        "D",
        "e"
      ],
      [
        "ag",
        "e"
      ],
      [
        "b",
        "or"
      ],
      [
        "o",
        "re"
      ],
      [
        "a",
        "u"
      ],
      [
        "un",
        "t"
      ],
      [
        "g",
        "re"
      ],
      [
        "st",
        "u"
      ],
      [
        "ver",
        "y"
      ],
      [
        "o",
        "ther"
      ],
      [
        "er",
        "i"
      ],
      [
        "ti",
        "me"
      ],
      [
        "se",
        "t"
      ],
      [
        "is",
        "h"
      ],
      [
        "e",
        "di"
      ],
      [
        "a",
        "ff"
      ],
      [
        "de",
        "gli"
      ],
      [
        "or",
        "d"
      ],
      [
        "s",
        "co"
      ],
      [
        "in",
        "to"
      ],
      [
        "19",
        "8"
      ],
      [
        "a",
        "k"
      ],
      [
        "ic",
        "e"
      ],
      [
        "an",
        "to"
      ],
      [
        "st",
        "or"
      ],
      [
        "u",
        "c"
      ],
      [
        "ar",
        "io"
      ],
      [
        "v",
        "al"
      ],
      [
        "alle",
        "d"
      ],
      [
        "us",
        "ed"
      ],
      [
        "m",
        "is"
      ],
      [
        "p",
        "ort"
      ],
      [
        "w",
        "ho"
      ],
      [
        "quest",
        "o"
      ],
      [
        "qu",
        "e"
      ],
      [
        "m",
        "es"
      ],
      [
        "gh",
        "t"
      ],
      [
        "di",
        "st"
      ],
      [
        "si",
        "a"
      ],
      [
        "per",
        "son"
      ],
      [
        "wor",
        "k"
      ],
      [
        "z",
        "io"
      ],
      [
        "g",
        "gio"
      ],
      [
        "mo",
        "re"
      ],
      [
        "c",
        "alled"
      ],
      [
        "g",
        "ro"
      ],
      [
        "pro",
        "pri"
      ],
      [
        "v",
        "ent"
      ],
      [
        "a",
        "zione"
      ],
      [
        "A",
        "r"
      ],
      [
        "S",
        "he"
      ],
      [
        "te",
        "m"
      ],
      [
        "man",
        "y"
      ],
      [
        "i",
        "re"
      ],
      [
        "la",
        "re"
      ],
      [
        "a",
        "ve"
      ],
      [
        "spe",
        "ci"
      ],
      [
        "k",
        "no"
      ],
      [
        "D",
        "o"
      ],
      [
        "un",
        "e"
      ],
      [
        "am",
        "p"
      ],
      [
        "b",
        "be"
      ],
      [
        "a",
        "ch"
      ],
      [
        "un",
        "g"
      ],
      [
        "so",
        "me"
      ],
      [
        "al",
        "c"
      ],
      [
        "gli",
        "o"
      ],
      [
        "w",
        "ay"
      ],
      [
        "Qu",
        "est"
      ],
      [
        "f",
        "on"
      ],
      [
        "c",
        "ess"
      ],
      [
        "me",
        "t"
      ],
      [
        "p",
        "ic"
      ],
      [
        "co",
        "lo"
      ],
      [
        "v",
        "il"
      ],
      [
        "in",
        "ci"
      ],
      [
        "m",
        "us"
      ],
      [
        "t",
        "wo"
      ],
      [
        "con",
        "t"
      ],
      [
        "ab",
        "out"
      ],
      [
        "re",
        "e"
      ],
      [
        "di",
        "re"
      ],
      [
        "ca",
        "p"
      ],
      [
        "a",
        "ver"
      ],
      [
        "c",
        "is"
      ],
      [
        "diff",
        "er"
      ],
      [
        "an",
        "y"
      ],
      [
        "il",
        "d"
      ],
      [
        "in",
        "f"
      ],
      [
        "ul",
        "ti"
      ],
      [
        "on",
        "i"
      ],
      [
        "ven",
        "ne"
      ],
      [
        "a",
        "pp"
      ],
      [
        "c",
        "la"
      ],
      [
        "in",
        "t"
      ],
      [
        "19",
        "7"
      ],
      [
        "so",
        "lo"
      ],
      [
        "t",
        "ur"
      ],
      [
        "et",
        "to"
      ],
      [
        "pu",
        "bb"
      ],
      [
        "l",
        "an"
      ],
      [
        "le",
        "d"
      ],
      [
        "lo",
        "g"
      ],
      [
        "P",
        "er"
      ],
      [
        "o",
        "s"
      ],
      [
        "ac",
        "k"
      ],
      [
        "nel",
        "l"
      ],
      [
        "u",
        "m"
      ],
      [
        "st",
        "ra"
      ],
      [
        "lo",
        "c"
      ],
      [
        "for",
        "ma"
      ],
      [
        "th",
        "ere"
      ],
      [
        "or",
        "a"
      ],
      [
        "la",
        "v"
      ],
      [
        "m",
        "as"
      ],
      [
        "bi",
        "le"
      ],
      [
        "1",
        "0"
      ],
      [
        "d",
        "s"
      ],
      [
        "tu",
        "ra"
      ],
      [
        "ato",
        "re"
      ],
      [
        "z",
        "ia"
      ],
      [
        "u",
        "ro"
      ],
      [
        "so",
        "ci"
      ],
      [
        "d",
        "on"
      ],
      [
        "b",
        "re"
      ],
      [
        "ci",
        "r"
      ],
      [
        "re",
        "g"
      ],
      [
        "\"",
        ","
      ],
      [
        "t",
        "ta"
      ],
      [
        "es",
        "i"
      ],
      [
        "tr",
        "as"
      ],
      [
        "v",
        "in"
      ],
      [
        "me",
        "di"
      ],
      [
        "si",
        "d"
      ],
      [
        "s",
        "he"
      ],
      [
        "or",
        "g"
      ],
      [
        "ca",
        "use"
      ],
      [
        "r",
        "y"
      ],
      [
        "ic",
        "al"
      ],
      [
        "p",
        "h"
      ],
      [
        "v",
        "es"
      ],
      [
        "S",
        "i"
      ],
      [
        "1",
        "7"
      ],
      [
        "g",
        "r"
      ],
      [
        "p",
        "po"
      ],
      [
        "s",
        "h"
      ],
      [
        "ing",
        "s"
      ],
      [
        "ra",
        "c"
      ],
      [
        "1",
        "5"
      ],
      [
        "be",
        "en"
      ],
      [
        "f",
        "il"
      ],
      [
        "da",
        "y"
      ],
      [
        "H",
        "o"
      ],
      [
        "ma",
        "de"
      ],
      [
        "do",
        "ve"
      ],
      [
        "d",
        "all"
      ],
      [
        "o",
        "ver"
      ],
      [
        "an",
        "za"
      ],
      [
        "b",
        "r"
      ],
      [
        "tem",
        "po"
      ],
      [
        "ct",
        "ion"
      ],
      [
        "kno",
        "wn"
      ],
      [
        "igh",
        "t"
      ],
      [
        "gi",
        "or"
      ],
      [
        "s",
        "al"
      ],
      [
        "nel",
        "le"
      ],
      [
        "suc",
        "ces"
      ],
      [
        "c",
        "ame"
      ],
      [
        "g",
        "g"
      ],
      [
        "19",
        "6"
      ],
      [
        "B",
        "o"
      ],
      [
        "t",
        "on"
      ],
      [
        "zz",
        "o"
      ],
      [
        "suo",
        "i"
      ],
      [
        "z",
        "o"
      ],
      [
        "or",
        "ig"
      ],
      [
        "at",
        "ter"
      ],
      [
        "M",
        "o"
      ],
      [
        "A",
        "mer"
      ],
      [
        "f",
        "ac"
      ],
      [
        "en",
        "s"
      ],
      [
        "of",
        "f"
      ],
      [
        "pro",
        "du"
      ],
      [
        "in",
        "s"
      ],
      [
        "u",
        "st"
      ],
      [
        "vol",
        "ta"
      ],
      [
        "N",
        "o"
      ],
      [
        "J",
        "o"
      ],
      [
        "u",
        "e"
      ],
      [
        "w",
        "hen"
      ],
      [
        "p",
        "s"
      ],
      [
        "mol",
        "to"
      ],
      [
        "b",
        "and"
      ],
      [
        "p",
        "ass"
      ],
      [
        "at",
        "h"
      ],
      [
        "t",
        "y"
      ],
      [
        "ch",
        "o"
      ],
      [
        "men",
        "ti"
      ],
      [
        "t",
        "ion"
      ],
      [
        "n",
        "am"
      ],
      [
        "f",
        "ar"
      ],
      [
        "et",
        "à"
      ],
      [
        "f",
        "ine"
      ],
      [
        "ment",
        "re"
      ],
      [
        "ci",
        "o"
      ],
      [
        "ver",
        "so"
      ],
      [
        "ne",
        "w"
      ],
      [
        "b",
        "el"
      ],
      [
        "s",
        "ing"
      ],
      [
        "con",
        "si"
      ],
      [
        "E",
        "n"
      ],
      [
        "per",
        "io"
      ],
      [
        "a",
        "fter"
      ],
      [
        "nu",
        "mer"
      ],
      [
        "se",
        "mp"
      ],
      [
        "vi",
        "e"
      ],
      [
        "en",
        "ce"
      ],
      [
        "m",
        "il"
      ],
      [
        "l",
        "ine"
      ],
      [
        "1",
        "6"
      ],
      [
        "p",
        "un"
      ],
      [
        "th",
        "an"
      ],
      [
        "v",
        "amente"
      ],
      [
        "st",
        "ata"
      ],
      [
        "00",
        "0"
      ],
      [
        "s",
        "ì"
      ],
      [
        "i",
        "de"
      ],
      [
        "pri",
        "mo"
      ],
      [
        "fo",
        "re"
      ],
      [
        "on",
        "ly"
      ],
      [
        "ne",
        "i"
      ],
      [
        "n",
        "or"
      ],
      [
        "T",
        "o"
      ],
      [
        "po",
        "i"
      ],
      [
        "M",
        "a"
      ],
      [
        "t",
        "t"
      ],
      [
        "am",
        "b"
      ],
      [
        "cit",
        "ation"
      ],
      [
        "qu",
        "ando"
      ],
      [
        "v",
        "ic"
      ],
      [
        "re",
        "s"
      ],
      [
        "ar",
        "a"
      ],
      [
        "d",
        "ed"
      ],
      [
        "gen",
        "er"
      ],
      [
        "Th",
        "ere"
      ],
      [
        "I",
        "I"
      ],
      [
        "D",
        "i"
      ],
      [
        "f",
        "ur"
      ],
      [
        "u",
        "ta"
      ],
      [
        "en",
        "a"
      ],
      [
        "at",
        "es"
      ],
      [
        "st",
        "ar"
      ],
      [
        "the",
        "m"
      ],
      [
        "ed",
        "e"
      ],
      [
        "w",
        "ard"
      ],
      [
        "us",
        "a"
      ],
      [
        "year",
        "s"
      ],
      [
        "al",
        "tri"
      ],
      [
        "qu",
        "ad"
      ],
      [
        "st",
        "ag"
      ],
      [
        "m",
        "y"
      ],
      [
        "al",
        "bu"
      ],
      [
        "er",
        "ano"
      ],
      [
        "ess",
        "a"
      ],
      [
        "c",
        "ur"
      ],
      [
        "e",
        "p"
      ],
      [
        "es",
        "a"
      ],
      [
        "h",
        "anno"
      ],
      [
        "ol",
        "tre"
      ],
      [
        "sul",
        "la"
      ],
      [
        "di",
        "ver"
      ],
      [
        "ar",
        "ono"
      ],
      [
        "u",
        "gh"
      ],
      [
        "c",
        "ri"
      ],
      [
        "re",
        "l"
      ],
      [
        "19",
        "4"
      ],
      [
        "pr",
        "inci"
      ],
      [
        "as",
        "i"
      ],
      [
        "g",
        "no"
      ],
      [
        "ar",
        "ti"
      ],
      [
        "ation",
        "s"
      ],
      [
        "or",
        "y"
      ],
      [
        "imp",
        "ort"
      ],
      [
        "1",
        "2"
      ],
      [
        "pu",
        "ò"
      ],
      [
        "ar",
        "o"
      ],
      [
        "ol",
        "d"
      ],
      [
        "su",
        "b"
      ],
      [
        "e",
        "ff"
      ],
      [
        "ation",
        "al"
      ],
      [
        "m",
        "al"
      ],
      [
        "pos",
        "si"
      ],
      [
        "go",
        "ver"
      ],
      [
        "cont",
        "in"
      ],
      [
        "b",
        "ro"
      ],
      [
        "so",
        "l"
      ],
      [
        "c",
        "al"
      ],
      [
        "s",
        "in"
      ],
      [
        "el",
        "lo"
      ],
      [
        "c",
        "are"
      ],
      [
        "an",
        "n"
      ],
      [
        "on",
        "t"
      ],
      [
        "in",
        "clu"
      ],
      [
        "numer",
        "o"
      ],
      [
        "ic",
        "k"
      ],
      [
        "b",
        "et"
      ],
      [
        "tut",
        "to"
      ],
      [
        "s",
        "si"
      ],
      [
        "gli",
        "e"
      ],
      [
        "pres",
        "ent"
      ],
      [
        "g",
        "ono"
      ],
      [
        "ar",
        "ri"
      ],
      [
        "et",
        "ti"
      ],
      [
        "ch",
        "é"
      ],
      [
        "19",
        "5"
      ],
      [
        "B",
        "e"
      ],
      [
        "is",
        "ce"
      ],
      [
        "v",
        "ita"
      ],
      [
        "ave",
        "va"
      ],
      [
        "d",
        "ere"
      ],
      [
        "P",
        "o"
      ],
      [
        "po",
        "lit"
      ],
      [
        "at",
        "ori"
      ],
      [
        "ar",
        "ia"
      ],
      [
        "po",
        "sto"
      ],
      [
        "co",
        "un"
      ],
      [
        "f",
        "ica"
      ],
      [
        "L",
        "o"
      ],
      [
        "st",
        "esso"
      ],
      [
        "no",
        "me"
      ],
      [
        "st",
        "ru"
      ],
      [
        "d",
        "y"
      ],
      [
        "so",
        "tto"
      ],
      [
        "F",
        "ran"
      ],
      [
        "and",
        "e"
      ],
      [
        "1",
        "4"
      ],
      [
        "on",
        "a"
      ],
      [
        "cor",
        "a"
      ],
      [
        "a",
        "in"
      ],
      [
        "hi",
        "m"
      ],
      [
        "albu",
        "m"
      ],
      [
        "k",
        "ing"
      ],
      [
        "Do",
        "po"
      ],
      [
        "S",
        "u"
      ],
      [
        "cit",
        "tà"
      ],
      [
        "le",
        "as"
      ],
      [
        "da",
        "i"
      ],
      [
        "su",
        "e"
      ],
      [
        "st",
        "er"
      ],
      [
        "w",
        "s"
      ],
      [
        "C",
        "ar"
      ],
      [
        "quest",
        "a"
      ],
      [
        "p",
        "l"
      ],
      [
        "lu",
        "i"
      ],
      [
        "g",
        "ru"
      ],
      [
        "be",
        "came"
      ],
      [
        "cam",
        "p"
      ],
      [
        "v",
        "ari"
      ],
      [
        "w",
        "ill"
      ],
      [
        "n",
        "ame"
      ],
      [
        "ut",
        "ili"
      ],
      [
        "fin",
        "o"
      ],
      [
        "ab",
        "il"
      ],
      [
        "v",
        "it"
      ],
      [
        "v",
        "ing"
      ],
      [
        "be",
        "cause"
      ],
      [
        "ar",
        "si"
      ],
      [
        "ma",
        "in"
      ],
      [
        "an",
        "ce"
      ],
      [
        "3",
        "0"
      ],
      [
        "ag",
        "gi"
      ],
      [
        "mb",
        "re"
      ],
      [
        "co",
        "sì"
      ],
      [
        "d",
        "ing"
      ],
      [
        "al",
        "s"
      ],
      [
        "di",
        "d"
      ],
      [
        "A",
        "s"
      ],
      [
        "per",
        "i"
      ],
      [
        "P",
        "ro"
      ],
      [
        "ini",
        "zi"
      ],
      [
        "con",
        "f"
      ],
      [
        "g",
        "ni"
      ],
      [
        "tut",
        "ti"
      ],
      [
        "wo",
        "uld"
      ],
      [
        "Amer",
        "ic"
      ],
      [
        "differ",
        "ent"
      ],
      [
        "s",
        "y"
      ],
      [
        "princi",
        "p"
      ],
      [
        "f",
        "ul"
      ],
      [
        "del",
        "lo"
      ],
      [
        "re",
        "leas"
      ],
      [
        "si",
        "e"
      ],
      [
        "mis",
        "s"
      ],
      [
        "qu",
        "al"
      ],
      [
        "te",
        "mp"
      ],
      [
        "an",
        "ta"
      ],
      [
        "or",
        "s"
      ],
      [
        "qu",
        "indi"
      ],
      [
        "com",
        "un"
      ],
      [
        "ra",
        "ga"
      ],
      [
        "O",
        "n"
      ],
      [
        "di",
        "a"
      ],
      [
        "A",
        "u"
      ],
      [
        "po",
        "si"
      ],
      [
        "c",
        "ted"
      ],
      [
        "ig",
        "n"
      ],
      [
        "c",
        "ato"
      ],
      [
        "al",
        "a"
      ],
      [
        "A",
        "t"
      ],
      [
        "he",
        "d"
      ],
      [
        "qu",
        "ale"
      ],
      [
        "orig",
        "in"
      ],
      [
        "r",
        "in"
      ],
      [
        "g",
        "er"
      ],
      [
        "m",
        "u"
      ],
      [
        "fil",
        "m"
      ],
      [
        "m",
        "it"
      ],
      [
        "qu",
        "ali"
      ],
      [
        "l",
        "ong"
      ],
      [
        "1",
        "3"
      ],
      [
        "de",
        "ci"
      ],
      [
        "ag",
        "gio"
      ],
      [
        "k",
        "s"
      ],
      [
        "at",
        "ure"
      ],
      [
        "min",
        "i"
      ],
      [
        "pre",
        "n"
      ],
      [
        "the",
        "n"
      ],
      [
        "i",
        "f"
      ],
      [
        "o",
        "la"
      ],
      [
        "zion",
        "ale"
      ],
      [
        "an",
        "cora"
      ],
      [
        "segu",
        "ito"
      ],
      [
        "se",
        "gn"
      ],
      [
        "d",
        "en"
      ],
      [
        "P",
        "ar"
      ],
      [
        "w",
        "rit"
      ],
      [
        "fur",
        "ono"
      ],
      [
        "la",
        "sci"
      ],
      [
        "y",
        "s"
      ],
      [
        "pu",
        "b"
      ],
      [
        "c",
        "in"
      ],
      [
        "en",
        "ta"
      ],
      [
        "d",
        "re"
      ],
      [
        "f",
        "un"
      ],
      [
        "gi",
        "u"
      ],
      [
        "ti",
        "mes"
      ],
      [
        "mus",
        "ic"
      ],
      [
        "li",
        "ke"
      ],
      [
        "l",
        "in"
      ],
      [
        "are",
        "a"
      ],
      [
        "ul",
        "t"
      ],
      [
        "po",
        "ss"
      ],
      [
        "per",
        "ò"
      ],
      [
        "ris",
        "p"
      ],
      [
        "j",
        "o"
      ],
      [
        "et",
        "t"
      ],
      [
        "t",
        "ti"
      ],
      [
        "b",
        "il"
      ],
      [
        "un",
        "der"
      ],
      [
        "ric",
        "e"
      ],
      [
        "f",
        "t"
      ],
      [
        "L",
        "i"
      ],
      [
        "u",
        "ff"
      ],
      [
        "dur",
        "ante"
      ],
      [
        "par",
        "ti"
      ],
      [
        "st",
        "ate"
      ],
      [
        "P",
        "e"
      ],
      [
        "P",
        "re"
      ],
      [
        "r",
        "on"
      ],
      [
        "o",
        "lo"
      ],
      [
        "th",
        "ro"
      ],
      [
        "il",
        "y"
      ],
      [
        "as",
        "on"
      ],
      [
        "a",
        "uto"
      ],
      [
        "l",
        "ater"
      ],
      [
        "p",
        "en"
      ],
      [
        "po",
        "po"
      ],
      [
        "ra",
        "p"
      ],
      [
        "G",
        "i"
      ],
      [
        "wh",
        "ere"
      ],
      [
        "stag",
        "ione"
      ],
      [
        "ac",
        "c"
      ],
      [
        "me",
        "mb"
      ],
      [
        "Ne",
        "w"
      ],
      [
        "semp",
        "re"
      ],
      [
        "s",
        "en"
      ],
      [
        "mo",
        "do"
      ],
      [
        "succes",
        "si"
      ],
      [
        "i",
        "es"
      ],
      [
        "ac",
        "qu"
      ],
      [
        "f",
        "ra"
      ],
      [
        "ser",
        "ie"
      ],
      [
        "fam",
        "i"
      ],
      [
        "Americ",
        "an"
      ],
      [
        "F",
        "or"
      ],
      [
        "in",
        "ve"
      ],
      [
        "cas",
        "a"
      ],
      [
        "el",
        "li"
      ],
      [
        "th",
        "ou"
      ],
      [
        "D",
        "a"
      ],
      [
        "l",
        "ing"
      ],
      [
        "2",
        "5"
      ],
      [
        "we",
        "en"
      ],
      [
        "p",
        "es"
      ],
      [
        "secon",
        "do"
      ],
      [
        "ma",
        "y"
      ],
      [
        "og",
        "ni"
      ],
      [
        "ali",
        "zz"
      ],
      [
        "P",
        "a"
      ],
      [
        "ati",
        "ve"
      ],
      [
        "fo",
        "und"
      ],
      [
        "si",
        "de"
      ],
      [
        "b",
        "ack"
      ],
      [
        "contro",
        "l"
      ],
      [
        "gr",
        "ande"
      ],
      [
        "ar",
        "ch"
      ],
      [
        "s",
        "quad"
      ],
      [
        "Co",
        "m"
      ],
      [
        "re",
        "st"
      ],
      [
        "contin",
        "u"
      ],
      [
        "H",
        "a"
      ],
      [
        "t",
        "al"
      ],
      [
        "l",
        "is"
      ],
      [
        "di",
        "ce"
      ],
      [
        "ver",
        "t"
      ],
      [
        "al",
        "lo"
      ],
      [
        "la",
        "zione"
      ],
      [
        "th",
        "ree"
      ],
      [
        "sie",
        "me"
      ],
      [
        "er",
        "ra"
      ],
      [
        "te",
        "am"
      ],
      [
        "s",
        "enza"
      ],
      [
        "v",
        "io"
      ],
      [
        "b",
        "a"
      ],
      [
        "p",
        "ad"
      ],
      [
        "c",
        "ul"
      ],
      [
        "d",
        "ent"
      ],
      [
        "tu",
        "re"
      ],
      [
        "f",
        "atto"
      ],
      [
        "ta",
        "via"
      ],
      [
        "cor",
        "so"
      ],
      [
        "w",
        "er"
      ],
      [
        "D",
        "ur"
      ],
      [
        "ver",
        "e"
      ],
      [
        "releas",
        "ed"
      ],
      [
        "c",
        "ro"
      ],
      [
        "g",
        "est"
      ],
      [
        "he",
        "l"
      ],
      [
        "et",
        "ta"
      ],
      [
        "su",
        "r"
      ],
      [
        "sp",
        "a"
      ],
      [
        "pi",
        "e"
      ],
      [
        "fr",
        "at"
      ],
      [
        "de",
        "st"
      ],
      [
        "pubb",
        "lic"
      ],
      [
        "l",
        "un"
      ],
      [
        "s",
        "m"
      ],
      [
        "w",
        "ell"
      ],
      [
        "c",
        "rit"
      ],
      [
        "rit",
        "or"
      ],
      [
        "e",
        "c"
      ],
      [
        "at",
        "ura"
      ],
      [
        "a",
        "ir"
      ],
      [
        "ma",
        "i"
      ],
      [
        "cho",
        "ol"
      ],
      [
        "g",
        "ran"
      ],
      [
        "u",
        "ti"
      ],
      [
        "s",
        "se"
      ],
      [
        "cost",
        "ru"
      ],
      [
        "ter",
        "m"
      ],
      [
        "gru",
        "ppo"
      ],
      [
        "wor",
        "ld"
      ],
      [
        "p",
        "ul"
      ],
      [
        "ra",
        "ggi"
      ],
      [
        "alc",
        "uni"
      ],
      [
        "di",
        "ed"
      ],
      [
        "u",
        "su"
      ],
      [
        "ag",
        "ain"
      ],
      [
        "pro",
        "te"
      ],
      [
        "n",
        "er"
      ],
      [
        "ri",
        "es"
      ],
      [
        "N",
        "or"
      ],
      [
        "quel",
        "lo"
      ],
      [
        "gro",
        "up"
      ],
      [
        "bet",
        "ween"
      ],
      [
        "t",
        "te"
      ],
      [
        "chi",
        "am"
      ],
      [
        "men",
        "o"
      ],
      [
        "tr",
        "y"
      ],
      [
        "el",
        "la"
      ],
      [
        "pubb",
        "l"
      ],
      [
        "quel",
        "la"
      ],
      [
        "hi",
        "p"
      ],
      [
        "So",
        "me"
      ],
      [
        "G",
        "er"
      ],
      [
        "str",
        "ut"
      ],
      [
        "ter",
        "s"
      ],
      [
        "nuo",
        "vo"
      ],
      [
        "bor",
        "n"
      ],
      [
        "utili",
        "zz"
      ],
      [
        "19",
        "3"
      ],
      [
        "tro",
        "va"
      ],
      [
        "g",
        "ia"
      ],
      [
        "p",
        "ra"
      ],
      [
        "org",
        "ani"
      ],
      [
        "ist",
        "a"
      ],
      [
        "L",
        "u"
      ],
      [
        "ta",
        "in"
      ],
      [
        "ma",
        "ggio"
      ],
      [
        "unt",
        "il"
      ],
      [
        "en",
        "er"
      ],
      [
        "as",
        "e"
      ],
      [
        "at",
        "her"
      ],
      [
        "e",
        "ct"
      ],
      [
        "qu",
        "i"
      ],
      [
        "f",
        "re"
      ],
      [
        "t",
        "ele"
      ],
      [
        "ci",
        "ò"
      ],
      [
        "secon",
        "d"
      ],
      [
        "we",
        "ver"
      ],
      [
        "ch",
        "ild"
      ],
      [
        "be",
        "g"
      ],
      [
        "p",
        "are"
      ],
      [
        "so",
        "st"
      ],
      [
        "c",
        "ch"
      ],
      [
        "c",
        "y"
      ],
      [
        "u",
        "man"
      ],
      [
        "it",
        "ed"
      ],
      [
        "v",
        "ità"
      ],
      [
        "es",
        "se"
      ],
      [
        "c",
        "le"
      ],
      [
        "ma",
        "ke"
      ],
      [
        "e",
        "ven"
      ],
      [
        "b",
        "ili"
      ],
      [
        "p",
        "end"
      ],
      [
        "gra",
        "m"
      ],
      [
        "ter",
        "e"
      ],
      [
        "d",
        "ra"
      ],
      [
        "co",
        "mb"
      ],
      [
        "pro",
        "ble"
      ],
      [
        "n",
        "ing"
      ],
      [
        "vi",
        "de"
      ],
      [
        "1",
        "1"
      ],
      [
        "son",
        "g"
      ],
      [
        "it",
        "ali"
      ],
      [
        "si",
        "ste"
      ],
      [
        "G",
        "u"
      ],
      [
        "su",
        "per"
      ],
      [
        "al",
        "tre"
      ],
      [
        "play",
        "ed"
      ],
      [
        "t",
        "ito"
      ],
      [
        "ag",
        "o"
      ],
      [
        "b",
        "ri"
      ],
      [
        "s",
        "or"
      ],
      [
        "t",
        "ale"
      ],
      [
        "al",
        "tro"
      ],
      [
        "consi",
        "der"
      ],
      [
        "fami",
        "glia"
      ],
      [
        "s",
        "ame"
      ],
      [
        "ic",
        "s"
      ],
      [
        "part",
        "ico"
      ],
      [
        "201",
        "0"
      ],
      [
        "gio",
        "v"
      ],
      [
        "c",
        "lo"
      ],
      [
        "s",
        "k"
      ],
      [
        "pro",
        "f"
      ],
      [
        "di",
        "sp"
      ],
      [
        "M",
        "e"
      ],
      [
        "car",
        "atter"
      ],
      [
        "st",
        "s"
      ],
      [
        "sho",
        "w"
      ],
      [
        "al",
        "ia"
      ],
      [
        "ri",
        "ed"
      ],
      [
        "b",
        "ar"
      ],
      [
        "h",
        "n"
      ],
      [
        "to",
        "re"
      ],
      [
        "T",
        "ut"
      ],
      [
        "oper",
        "a"
      ],
      [
        "G",
        "li"
      ],
      [
        "y",
        "o"
      ],
      [
        "of",
        "ten"
      ]
    ]
  }
}