{
  "version": "1.0",
  "truncation": null,
  "padding": null,
  "added_tokens": [
    {
      "id": 0,
      "content": "<UNK>",
      "single_word": false,
      "lstrip": false,
      "rstrip": false,
      "normalized": false,
      "special": true
    },
    {
      "id": 1,
      "content": "<SEP>",
      "single_word": false,
      "lstrip": false,
      "rstrip": false,
      "normalized": false,
      "special": true
    },
    {
      "id": 2,
      "content": "<MASK>",
      "single_word": false,
      "lstrip": false,
      "rstrip": false,
      "normalized": false,
      "special": true
    },
    {
      "id": 3,
      "content": "<CLS>",
      "single_word": false,
      "lstrip": false,
      "rstrip": false,
      "normalized": false,
      "special": true
    }
  ],
  "normalizer": null,
  "pre_tokenizer": {
    "type": "Whitespace"
  },
  "post_processor": null,
  "decoder": null,
  "model": {
    "type": "BPE",
    "dropout": null,
    "unk_token": "<UNK>",
    "continuing_subword_prefix": null,
    "end_of_word_suffix": null,
    "fuse_unk": false,
    "byte_fallback": false,
    "ignore_merges": false,
    "vocab": {
      "<UNK>": 0,
      "<SEP>": 1,
      "<MASK>": 2,
      "<CLS>": 3,
      "!": 4,
      "\"": 5,
      "$": 6,
      "%": 7,
      "&": 8,
      "'": 9,
      "(": 10,
      ")": 11,
      "*": 12,
      "+": 13,
      ",": 14,
      "-": 15,
      ".": 16,
      "/": 17,
      "0": 18,
      "1": 19,
      "2": 20,
      "3": 21,
      "4": 22,
      "5": 23,
      "6": 24,
      "7": 25,
      "8": 26,
      "9": 27,
      ":": 28,
      ";": 29,
      "<": 30,
      ">": 31,
      "?": 32,
      "A": 33,
      "B": 34,
      "C": 35,
      "D": 36,
      "E": 37,
      "F": 38,
      "G": 39,
      "H": 40,
      "I": 41,
      "J": 42,
      "K": 43,
      "L": 44,
      "M": 45,
      "N": 46,
      "O": 47,
      "P": 48,
      "Q": 49,
      "R": 50,
      "S": 51,
      "T": 52,
      "U": 53,
      "V": 54,
      "W": 55,
      "X": 56,
      "Y": 57,
      "Z": 58,
      "`": 59,
      "a": 60,
      "b": 61,
      "c": 62,
      "d": 63,
      "e": 64,
      "f": 65,
      "g": 66,
      "h": 67,
      "i": 68,
      "j": 69,
      "k": 70,
      "l": 71,
      "m": 72,
      "n": 73,
      "o": 74,
      "p": 75,
      "q": 76,
      "r": 77,
      "s": 78,
      "t": 79,
      "u": 80,
      "v": 81,
      "w": 82,
      "x": 83,
      "y": 84,
      "z": 85,
      "~": 86,
      "¡": 87,
      "£": 88,
      "¥": 89,
      "§": 90,
      "¨": 91,
      "ª": 92,
      "«": 93,
      "¬": 94,
      "®": 95,
      "°": 96,
      "±": 97,
      "²": 98,
      "³": 99,
      "´": 100,
      "µ": 101,
      "·": 102,
      "¹": 103,
      "º": 104,
      "»": 105,
      "½": 106,
      "¾": 107,
      "¿": 108,
      "À": 109,
      "Á": 110,
      "Ä": 111,
      "Å": 112,
      "Æ": 113,
      "Ç": 114,
      "È": 115,
      "É": 116,
      "Ê": 117,
      "Ì": 118,
      "Í": 119,
      "Î": 120,
      "Ò": 121,
      "Ó": 122,
      "Ô": 123,
      "Ö": 124,
      "×": 125,
      "Ø": 126,
      "Ù": 127,
      "Ú": 128,
      "Ü": 129,
      "Þ": 130,
      "ß": 131,
      "à": 132,
      "á": 133,
      "â": 134,
      "ã": 135,
      "ä": 136,
      "å": 137,
      "æ": 138,
      "ç": 139,
      "è": 140,
      "é": 141,
      "ê": 142,
      "ë": 143,
      "ì": 144,
      "í": 145,
      "î": 146,
      "ï": 147,
      "ð": 148,
      "ñ": 149,
      "ò": 150,
      "ó": 151,
      "ô": 152,
      "õ": 153,
      "ö": 154,
      "÷": 155,
      "ø": 156,
      "ù": 157,
      "ú": 158,
      "û": 159,
      "ü": 160,
      "ý": 161,
      "þ": 162,
      "ÿ": 163,
      "Ā": 164,
      "ā": 165,
      "ă": 166,
      "ą": 167,
      "Ć": 168,
      "ć": 169,
      "ĉ": 170,
      "Č": 171,
      "č": 172,
      "Ď": 173,
      "ď": 174,
      "Đ": 175,
      "đ": 176,
      "Ē": 177,
      "ē": 178,
      "ĕ": 179,
      "Ė": 180,
      "ė": 181,
      "ę": 182,
      "ě": 183,
      "ĝ": 184,
      "ğ": 185,
      "ġ": 186,
      "ģ": 187,
      "Ħ": 188,
      "ħ": 189,
      "ĩ": 190,
      "Ī": 191,
      "ī": 192,
      "Ĭ": 193,
      "ĭ": 194,
      "į": 195,
      "İ": 196,
      "ı": 197,
      "Ķ": 198,
      "Ľ": 199,
      "ľ": 200,
      "Ł": 201,
      "ł": 202,
      "ń": 203,
      "ņ": 204,
      "ň": 205,
      "ŋ": 206,
      "Ō": 207,
      "ō": 208,
      "ŏ": 209,
      "ő": 210,
      "Œ": 211,
      "œ": 212,
      "ŕ": 213,
      "Ř": 214,
      "ř": 215,
      "Ś": 216,
      "ś": 217,
      "Ŝ": 218,
      "ŝ": 219,
      "Ş": 220,
      "ş": 221,
      "Š": 222,
      "š": 223,
      "Ţ": 224,
      "ţ": 225,
      "ť": 226,
      "Ū": 227,
      "ū": 228,
      "Ŭ": 229,
      "ŭ": 230,
      "ů": 231,
      "ű": 232,
      "ų": 233,
      "ź": 234,
      "Ż": 235,
      "ż": 236,
      "Ž": 237,
      "ž": 238,
      "ſ": 239,
      "Ɖ": 240,
      "Ə": 241,
      "ơ": 242,
      "ư": 243,
      "ǎ": 244,
      "ǐ": 245,
      "ǒ": 246,
      "ǔ": 247,
      "Ǧ": 248,
      "ǧ": 249,
      "ǫ": 250,
      "Ș": 251,
      "ș": 252,
      "Ț": 253,
      "ț": 254,
      "ɑ": 255,
      "ɔ": 256,
      "ə": 257,
      "ɛ": 258,
      "ɡ": 259,
      "ɣ": 260,
      "ɤ": 261,
      "ɪ": 262,
      "ɭ": 263,
      "ɾ": 264,
      "ʂ": 265,
      "ʃ": 266,
      "ʊ": 267,
      "ʏ": 268,
      "ʐ": 269,
      "ʒ": 270,
      "ʙ": 271,
      "ʣ": 272,
      "ʤ": 273,
      "ʧ": 274,
      "ʰ": 275,
      "ʲ": 276,
      "ʹ": 277,
      "ʻ": 278,
      "ʼ": 279,
      "ʾ": 280,
      "ʿ": 281,
      "˂": 282,
      "ˈ": 283,
      "ː": 284,
      "˚": 285,
      "̀": 286,
      "́": 287,
      "̄": 288,
      "̈": 289,
      "̥": 290,
      "̨": 291,
      "Έ": 292,
      "Ό": 293,
      "Α": 294,
      "Β": 295,
      "Γ": 296,
      "Δ": 297,
      "Ε": 298,
      "Ζ": 299,
      "Η": 300,
      "Θ": 301,
      "Ι": 302,
      "Κ": 303,
      "Λ": 304,
      "Μ": 305,
      "Ν": 306,
      "Ξ": 307,
      "Ο": 308,
      "Π": 309,
      "Ρ": 310,
      "Σ": 311,
      "Τ": 312,
      "Υ": 313,
      "Φ": 314,
      "Χ": 315,
      "Ω": 316,
      "ά": 317,
      "έ": 318,
      "ή": 319,
      "ί": 320,
      "α": 321,
      "β": 322,
      "γ": 323,
      "δ": 324,
      "ε": 325,
      "ζ": 326,
      "η": 327,
      "θ": 328,
      "ι": 329,
      "κ": 330,
      "λ": 331,
      "μ": 332,
      "ν": 333,
      "ξ": 334,
      "ο": 335,
      "π": 336,
      "ρ": 337,
      "ς": 338,
      "σ": 339,
      "τ": 340,
      "υ": 341,
      "φ": 342,
      "χ": 343,
      "ψ": 344,
      "ω": 345,
      "ϊ": 346,
      "ό": 347,
      "ύ": 348,
      "ώ": 349,
      "ϑ": 350,
      "ϕ": 351,
      "Ϝ": 352,
      "ϲ": 353,
      "Ϲ": 354,
      "Ј": 355,
      "Ў": 356,
      "А": 357,
      "Б": 358,
      "В": 359,
      "Г": 360,
      "Д": 361,
      "Е": 362,
      "Ж": 363,
      "З": 364,
      "И": 365,
      "Й": 366,
      "К": 367,
      "Л": 368,
      "М": 369,
      "Н": 370,
      "О": 371,
      "П": 372,
      "Р": 373,
      "С": 374,
      "Т": 375,
      "У": 376,
      "Ф": 377,
      "Х": 378,
      "Ц": 379,
      "Ч": 380,
      "Ш": 381,
      "Ъ": 382,
      "Ь": 383,
      "Э": 384,
      "Ю": 385,
      "Я": 386,
      "а": 387,
      "б": 388,
      "в": 389,
      "г": 390,
      "д": 391,
      "е": 392,
      "ж": 393,
      "з": 394,
      "и": 395,
      "й": 396,
      "к": 397,
      "л": 398,
      "м": 399,
      "н": 400,
      "о": 401,
      "п": 402,
      "р": 403,
      "с": 404,
      "т": 405,
      "у": 406,
      "ф": 407,
      "х": 408,
      "ц": 409,
      "ч": 410,
      "ш": 411,
      "щ": 412,
      "ъ": 413,
      "ы": 414,
      "ь": 415,
      "э": 416,
      "ю": 417,
      "я": 418,
      "ё": 419,
      "і": 420,
      "ј": 421,
      "љ": 422,
      "џ": 423,
      "Ҫ": 424,
      "ү": 425,
      "ӧ": 426,
      "ӳ": 427,
      "Ա": 428,
      "Գ": 429,
      "Խ": 430,
      "Ծ": 431,
      "Կ": 432,
      "Հ": 433,
      "Ճ": 434,
      "Մ": 435,
      "Ս": 436,
      "Վ": 437,
      "ա": 438,
      "դ": 439,
      "ե": 440,
      "զ": 441,
      "ի": 442,
      "լ": 443,
      "կ": 444,
      "հ": 445,
      "ղ": 446,
      "ճ": 447,
      "մ": 448,
      "յ": 449,
      "ն": 450,
      "շ": 451,
      "ո": 452,
      "չ": 453,
      "պ": 454,
      "ջ": 455,
      "ռ": 456,
      "ս": 457,
      "վ": 458,
      "տ": 459,
      "ր": 460,
      "ւ": 461,
      "փ": 462,
      "ք": 463,
      "։": 464,
      "ְ": 465,
      "ִ": 466,
      "ֶ": 467,
      "ַ": 468,
      "ָ": 469,
      "ֹ": 470,
      "ּ": 471,
      "ׁ": 472,
      "א": 473,
      "ב": 474,
      "ג": 475,
      "ד": 476,
      "ה": 477,
      "ו": 478,
      "ז": 479,
      "ח": 480,
      "ט": 481,
      "י": 482,
      "כ": 483,
      "ל": 484,
      "ם": 485,
      "מ": 486,
      "ן": 487,
      "נ": 488,
      "ס": 489,
      "ע": 490,
      "פ": 491,
      "צ": 492,
      "ק": 493,
      "ר": 494,
      "ש": 495,
      "ת": 496,
      "״": 497,
      "ء": 498,
      "آ": 499,
      "أ": 500,
      "ئ": 501,
      "ا": 502,
      "ب": 503,
      "ة": 504,
      "ت": 505,
      "ث": 506,
      "ج": 507,
      "ح": 508,
      "خ": 509,
      "د": 510,
      "ذ": 511,
      "ر": 512,
      "س": 513,
      "ش": 514,
      "ص": 515,
      "ط": 516,
      "ع": 517,
      "غ": 518,
      "ـ": 519,
      "ف": 520,
      "ق": 521,
      "ك": 522,
      "ل": 523,
      "م": 524,
      "ن": 525,
      "ه": 526,
      "و": 527,
      "ى": 528,
      "ي": 529,
      "َ": 530,
      "ُ": 531,
      "ِ": 532,
      "ّ": 533,
      "ْ": 534,
      "ٱ": 535,
      "ک": 536,
      "ی": 537,
      "ܐ": 538,
      "ܖ": 539,
      "ܟ": 540,
      "ܡ": 541,
      "ܪ": 542,
      "त": 543,
      "र": 544,
      "श": 545,
      "स": 546,
      "ु": 547,
      "्": 548,
      "ন": 549,
      "ব": 550,
      "ভ": 551,
      "র": 552,
      "শ": 553,
      "ষ": 554,
      "ু": 555,
      "্": 556,
      "ก": 557,
      "ข": 558,
      "ค": 559,
      "ง": 560,
      "จ": 561,
      "ฉ": 562,
      "ช": 563,
      "ญ": 564,
      "ฐ": 565,
      "ณ": 566,
      "ด": 567,
      "ต": 568,
      "ถ": 569,
      "ท": 570,
      "ธ": 571,
      "น": 572,
      "บ": 573,
      "ป": 574,
      "ผ": 575,
      "พ": 576,
      "ภ": 577,
      "ม": 578,
      "ย": 579,
      "ร": 580,
      "ล": 581,
      "ว": 582,
      "ศ": 583,
      "ษ": 584,
      "ส": 585,
      "ห": 586,
      "อ": 587,
      "ะ": 588,
      "ั": 589,
      "า": 590,
      "ำ": 591,
      "ิ": 592,
      "ี": 593,
      "ื": 594,
      "ุ": 595,
      "ู": 596,
      "เ": 597,
      "แ": 598,
      "โ": 599,
      "ใ": 600,
      "ไ": 601,
      "็": 602,
      "่": 603,
      "้": 604,
      "์": 605,
      "ອ": 606,
      "་": 607,
      "ག": 608,
      "ཉ": 609,
      "ད": 610,
      "ན": 611,
      "བ": 612,
      "འ": 613,
      "ཤ": 614,
      "ས": 615,
      "ི": 616,
      "ེ": 617,
      "ა": 618,
      "დ": 619,
      "ე": 620,
      "ვ": 621,
      "თ": 622,
      "ი": 623,
      "კ": 624,
      "ლ": 625,
      "ნ": 626,
      "ო": 627,
      "რ": 628,
      "ს": 629,
      "უ": 630,
      "ფ": 631,
      "ქ": 632,
      "ყ": 633,
      "ც": 634,
      "ჰ": 635,
      "ሆ": 636,
      "ል": 637,
      "ማ": 638,
      "ሪ": 639,
      "ር": 640,
      "ስ": 641,
      "ሽ": 642,
      "በ": 643,
      "ተ": 644,
      "ት": 645,
      "ኢ": 646,
      "ያ": 647,
      "ይ": 648,
      "ዮ": 649,
      "ደ": 650,
      "ጵ": 651,
      "ፈ": 652,
      "អ": 653,
      "ᵃ": 654,
      "ᵛ": 655,
      "ḅ": 656,
      "ḍ": 657,
      "ḏ": 658,
      "Ḕ": 659,
      "ḗ": 660,
      "ḡ": 661,
      "Ḥ": 662,
      "ḥ": 663,
      "Ḫ": 664,
      "ḫ": 665,
      "ḳ": 666,
      "Ḵ": 667,
      "ḵ": 668,
      "ḷ": 669,
      "ḻ": 670,
      "ṁ": 671,
      "ṃ": 672,
      "ṅ": 673,
      "ṇ": 674,
      "ṉ": 675,
      "ṛ": 676,
      "Ṣ": 677,
      "ṣ": 678,
      "Ṭ": 679,
      "ṭ": 680,
      "Ṯ": 681,
      "ṯ": 682,
      "Ẓ": 683,
      "ẓ": 684,
      "ạ": 685,
      "ả": 686,
      "ấ": 687,
      "ầ": 688,
      "ậ": 689,
      "ằ": 690,
      "Ẹ": 691,
      "ẹ": 692,
      "ế": 693,
      "ề": 694,
      "ễ": 695,
      "ệ": 696,
      "ị": 697,
      "Ọ": 698,
      "ọ": 699,
      "ố": 700,
      "ồ": 701,
      "ổ": 702,
      "ộ": 703,
      "ợ": 704,
      "ụ": 705,
      "ủ": 706,
      "ἀ": 707,
      "ἄ": 708,
      "ἅ": 709,
      "Ἀ": 710,
      "Ἁ": 711,
      "ἐ": 712,
      "ἑ": 713,
      "ἔ": 714,
      "Ἐ": 715,
      "ἢ": 716,
      "ἰ": 717,
      "ἳ": 718,
      "ἴ": 719,
      "ἵ": 720,
      "ἶ": 721,
      "Ἱ": 722,
      "Ἴ": 723,
      "ὀ": 724,
      "ὁ": 725,
      "Ὀ": 726,
      "Ὁ": 727,
      "ὐ": 728,
      "ὑ": 729,
      "ὔ": 730,
      "ὖ": 731,
      "ὡ": 732,
      "ὰ": 733,
      "ὲ": 734,
      "ὴ": 735,
      "ὶ": 736,
      "ὸ": 737,
      "ὺ": 738,
      "ὼ": 739,
      "ᾠ": 740,
      "ᾰ": 741,
      "ῃ": 742,
      "ῄ": 743,
      "ῆ": 744,
      "ῖ": 745,
      "ῥ": 746,
      "ῦ": 747,
      "Ῥ": 748,
      "ῳ": 749,
      "ῶ": 750,
      "​": 751,
      "‎": 752,
      "‐": 753,
      "‑": 754,
      "‒": 755,
      "–": 756,
      "—": 757,
      "‘": 758,
      "’": 759,
      "‚": 760,
      "“": 761,
      "”": 762,
      "„": 763,
      "†": 764,
      "‡": 765,
      "•": 766,
      "…": 767,
      "‰": 768,
      "′": 769,
      "″": 770,
      "‹": 771,
      "›": 772,
      "⁄": 773,
      "₁": 774,
      "₂": 775,
      "₃": 776,
      "₡": 777,
      "₪": 778,
      "€": 779,
      "₹": 780,
      "℃": 781,
      "№": 782,
      "⅓": 783,
      "⅛": 784,
      "⅜": 785,
      "Ⅳ": 786,
      "↑": 787,
      "→": 788,
      "↓": 789,
      "↵": 790,
      "∀": 791,
      "∃": 792,
      "∆": 793,
      "−": 794,
      "∞": 795,
      "∪": 796,
      "≅": 797,
      "≟": 798,
      "≤": 799,
      "≥": 800,
      "⋅": 801,
      "▪": 802,
      "◻": 803,
      "★": 804,
      "☆": 805,
      "☢": 806,
      "☥": 807,
      "♂": 808,
      "♆": 809,
      "♭": 810,
      "♯": 811,
      "⚭": 812,
      "✓": 813,
      "⟨": 814,
      "⟩": 815,
      "、": 816,
      "。": 817,
      "《": 818,
      "》": 819,
      "あ": 820,
      "い": 821,
      "う": 822,
      "か": 823,
      "が": 824,
      "き": 825,
      "く": 826,
      "ぐ": 827,
      "け": 828,
      "こ": 829,
      "ご": 830,
      "さ": 831,
      "し": 832,
      "す": 833,
      "そ": 834,
      "だ": 835,
      "て": 836,
      "で": 837,
      "と": 838,
      "ど": 839,
      "な": 840,
      "に": 841,
      "の": 842,
      "は": 843,
      "ひ": 844,
      "へ": 845,
      "ま": 846,
      "み": 847,
      "も": 848,
      "ゆ": 849,
      "ら": 850,
      "り": 851,
      "る": 852,
      "れ": 853,
      "ろ": 854,
      "わ": 855,
      "ん": 856,
      "ア": 857,
      "ィ": 858,
      "イ": 859,
      "ウ": 860,
      "ェ": 861,
      "エ": 862,
      "ォ": 863,
      "オ": 864,
      "カ": 865,
      "ガ": 866,
      "キ": 867,
      "ギ": 868,
      "ク": 869,
      "グ": 870,
      "ゲ": 871,
      "ゴ": 872,
      "シ": 873,
      "ス": 874,
      "ズ": 875,
      "セ": 876,
      "ゾ": 877,
      "タ": 878,
      "ダ": 879,
      "チ": 880,
      "ッ": 881,
      "ツ": 882,
      "テ": 883,
      "ト": 884,
      "ド": 885,
      "ナ": 886,
      "ニ": 887,
      "ネ": 888,
      "ノ": 889,
      "ハ": 890,
      "バ": 891,
      "パ": 892,
      "ヒ": 893,
      "ビ": 894,
      "ブ": 895,
      "ペ": 896,
      "ホ": 897,
      "マ": 898,
      "ミ": 899,
      "ム": 900,
      "メ": 901,
      "モ": 902,
      "ヤ": 903,
      "ラ": 904,
      "リ": 905,
      "ル": 906,
      "レ": 907,
      "ロ": 908,
      "ワ": 909,
      "ン": 910,
      "ヴ": 911,
      "・": 912,
      "ー": 913,
      "㎢": 914,
      "一": 915,
      "丁": 916,
      "七": 917,
      "三": 918,
      "上": 919,
      "不": 920,
      "与": 921,
      "丕": 922,
      "世": 923,
      "丘": 924,
      "东": 925,
      "严": 926,
      "个": 927,
      "中": 928,
      "临": 929,
      "丸": 930,
      "主": 931,
      "之": 932,
      "乎": 933,
      "乐": 934,
      "九": 935,
      "也": 936,
      "乱": 937,
      "了": 938,
      "事": 939,
      "二": 940,
      "于": 941,
      "五": 942,
      "亡": 943,
      "交": 944,
      "产": 945,
      "亭": 946,
      "人": 947,
      "仁": 948,
      "今": 949,
      "代": 950,
      "令": 951,
      "们": 952,
      "仮": 953,
      "会": 954,
      "伝": 955,
      "伤": 956,
      "伦": 957,
      "体": 958,
      "余": 959,
      "使": 960,
      "侁": 961,
      "依": 962,
      "侯": 963,
      "俗": 964,
      "假": 965,
      "偶": 966,
      "傳": 967,
      "儒": 968,
      "元": 969,
      "光": 970,
      "克": 971,
      "兒": 972,
      "入": 973,
      "內": 974,
      "八": 975,
      "公": 976,
      "六": 977,
      "兰": 978,
      "兴": 979,
      "兵": 980,
      "其": 981,
      "具": 982,
      "军": 983,
      "冬": 984,
      "処": 985,
      "凸": 986,
      "出": 987,
      "刁": 988,
      "分": 989,
      "切": 990,
      "刘": 991,
      "则": 992,
      "別": 993,
      "利": 994,
      "則": 995,
      "剪": 996,
      "力": 997,
      "加": 998,
      "助": 999,
      "勒": 1000,
      "動": 1001,
      "勝": 1002,
      "化": 1003,
      "北": 1004,
      "十": 1005,
      "千": 1006,
      "升": 1007,
      "午": 1008,
      "半": 1009,
      "华": 1010,
      "南": 1011,
      "博": 1012,
      "危": 1013,
      "即": 1014,
      "卷": 1015,
      "原": 1016,
      "去": 1017,
      "县": 1018,
      "反": 1019,
      "发": 1020,
      "叔": 1021,
      "口": 1022,
      "古": 1023,
      "台": 1024,
      "史": 1025,
      "叶": 1026,
      "司": 1027,
      "合": 1028,
      "同": 1029,
      "名": 1030,
      "后": 1031,
      "吹": 1032,
      "员": 1033,
      "周": 1034,
      "命": 1035,
      "咏": 1036,
      "咒": 1037,
      "咱": 1038,
      "哀": 1039,
      "哥": 1040,
      "唐": 1041,
      "啟": 1042,
      "善": 1043,
      "喬": 1044,
      "嘉": 1045,
      "嚴": 1046,
      "四": 1047,
      "团": 1048,
      "団": 1049,
      "固": 1050,
      "国": 1051,
      "國": 1052,
      "土": 1053,
      "地": 1054,
      "址": 1055,
      "坪": 1056,
      "城": 1057,
      "域": 1058,
      "堂": 1059,
      "堯": 1060,
      "墨": 1061,
      "士": 1062,
      "声": 1063,
      "壽": 1064,
      "変": 1065,
      "夏": 1066,
      "夕": 1067,
      "夜": 1068,
      "大": 1069,
      "天": 1070,
      "太": 1071,
      "夷": 1072,
      "奸": 1073,
      "姊": 1074,
      "委": 1075,
      "姫": 1076,
      "姬": 1077,
      "嫮": 1078,
      "子": 1079,
      "字": 1080,
      "孟": 1081,
      "季": 1082,
      "学": 1083,
      "學": 1084,
      "孺": 1085,
      "宁": 1086,
      "守": 1087,
      "安": 1088,
      "宋": 1089,
      "宏": 1090,
      "定": 1091,
      "宝": 1092,
      "宣": 1093,
      "室": 1094,
      "家": 1095,
      "容": 1096,
      "寂": 1097,
      "寒": 1098,
      "寶": 1099,
      "寺": 1100,
      "対": 1101,
      "将": 1102,
      "將": 1103,
      "尉": 1104,
      "小": 1105,
      "少": 1106,
      "居": 1107,
      "屋": 1108,
      "屯": 1109,
      "山": 1110,
      "岛": 1111,
      "峻": 1112,
      "崇": 1113,
      "嵐": 1114,
      "州": 1115,
      "工": 1116,
      "己": 1117,
      "市": 1118,
      "师": 1119,
      "帳": 1120,
      "常": 1121,
      "幕": 1122,
      "年": 1123,
      "广": 1124,
      "库": 1125,
      "店": 1126,
      "庙": 1127,
      "府": 1128,
      "度": 1129,
      "庵": 1130,
      "康": 1131,
      "廓": 1132,
      "廟": 1133,
      "廣": 1134,
      "弄": 1135,
      "式": 1136,
      "张": 1137,
      "張": 1138,
      "形": 1139,
      "彦": 1140,
      "影": 1141,
      "往": 1142,
      "後": 1143,
      "徐": 1144,
      "從": 1145,
      "御": 1146,
      "微": 1147,
      "徳": 1148,
      "德": 1149,
      "心": 1150,
      "志": 1151,
      "応": 1152,
      "快": 1153,
      "总": 1154,
      "情": 1155,
      "惊": 1156,
      "惑": 1157,
      "愛": 1158,
      "感": 1159,
      "慕": 1160,
      "慧": 1161,
      "懿": 1162,
      "戈": 1163,
      "戊": 1164,
      "成": 1165,
      "我": 1166,
      "战": 1167,
      "戰": 1168,
      "所": 1169,
      "扇": 1170,
      "手": 1171,
      "扶": 1172,
      "技": 1173,
      "抄": 1174,
      "拉": 1175,
      "拝": 1176,
      "拳": 1177,
      "捨": 1178,
      "掌": 1179,
      "摩": 1180,
      "攝": 1181,
      "放": 1182,
      "故": 1183,
      "教": 1184,
      "敬": 1185,
      "文": 1186,
      "新": 1187,
      "日": 1188,
      "昌": 1189,
      "明": 1190,
      "昏": 1191,
      "星": 1192,
      "春": 1193,
      "是": 1194,
      "晉": 1195,
      "晩": 1196,
      "普": 1197,
      "景": 1198,
      "智": 1199,
      "暈": 1200,
      "曆": 1201,
      "曲": 1202,
      "會": 1203,
      "月": 1204,
      "朗": 1205,
      "朝": 1206,
      "未": 1207,
      "本": 1208,
      "李": 1209,
      "村": 1210,
      "枕": 1211,
      "林": 1212,
      "架": 1213,
      "校": 1214,
      "桂": 1215,
      "案": 1216,
      "桑": 1217,
      "档": 1218,
      "棋": 1219,
      "棒": 1220,
      "楠": 1221,
      "楽": 1222,
      "榮": 1223,
      "榷": 1224,
      "槃": 1225,
      "様": 1226,
      "機": 1227,
      "正": 1228,
      "武": 1229,
      "死": 1230,
      "残": 1231,
      "母": 1232,
      "毒": 1233,
      "气": 1234,
      "水": 1235,
      "永": 1236,
      "汉": 1237,
      "江": 1238,
      "沃": 1239,
      "没": 1240,
      "河": 1241,
      "油": 1242,
      "治": 1243,
      "法": 1244,
      "泥": 1245,
      "泼": 1246,
      "洞": 1247,
      "津": 1248,
      "洲": 1249,
      "浦": 1250,
      "浪": 1251,
      "海": 1252,
      "涅": 1253,
      "清": 1254,
      "渡": 1255,
      "港": 1256,
      "湖": 1257,
      "満": 1258,
      "滝": 1259,
      "满": 1260,
      "漢": 1261,
      "漱": 1262,
      "火": 1263,
      "炎": 1264,
      "炒": 1265,
      "炮": 1266,
      "炳": 1267,
      "無": 1268,
      "然": 1269,
      "焼": 1270,
      "煉": 1271,
      "熒": 1272,
      "熙": 1273,
      "熟": 1274,
      "燕": 1275,
      "爱": 1276,
      "爵": 1277,
      "版": 1278,
      "物": 1279,
      "特": 1280,
      "牽": 1281,
      "狂": 1282,
      "狼": 1283,
      "獻": 1284,
      "率": 1285,
      "玉": 1286,
      "王": 1287,
      "珠": 1288,
      "瓮": 1289,
      "生": 1290,
      "産": 1291,
      "用": 1292,
      "田": 1293,
      "由": 1294,
      "甲": 1295,
      "电": 1296,
      "男": 1297,
      "界": 1298,
      "略": 1299,
      "番": 1300,
      "疑": 1301,
      "病": 1302,
      "発": 1303,
      "發": 1304,
      "白": 1305,
      "百": 1306,
      "皃": 1307,
      "的": 1308,
      "盟": 1309,
      "目": 1310,
      "相": 1311,
      "省": 1312,
      "真": 1313,
      "眠": 1314,
      "着": 1315,
      "督": 1316,
      "知": 1317,
      "石": 1318,
      "社": 1319,
      "祓": 1320,
      "祖": 1321,
      "神": 1322,
      "祯": 1323,
      "禄": 1324,
      "福": 1325,
      "秋": 1326,
      "科": 1327,
      "秦": 1328,
      "程": 1329,
      "稱": 1330,
      "稷": 1331,
      "立": 1332,
      "童": 1333,
      "竹": 1334,
      "竺": 1335,
      "笑": 1336,
      "第": 1337,
      "箱": 1338,
      "節": 1339,
      "篆": 1340,
      "篇": 1341,
      "篝": 1342,
      "簾": 1343,
      "粵": 1344,
      "糕": 1345,
      "紀": 1346,
      "絳": 1347,
      "經": 1348,
      "緡": 1349,
      "縁": 1350,
      "繁": 1351,
      "经": 1352,
      "绫": 1353,
      "编": 1354,
      "羅": 1355,
      "美": 1356,
      "翁": 1357,
      "老": 1358,
      "者": 1359,
      "聖": 1360,
      "背": 1361,
      "胜": 1362,
      "胡": 1363,
      "脉": 1364,
      "臨": 1365,
      "自": 1366,
      "興": 1367,
      "舞": 1368,
      "般": 1369,
      "节": 1370,
      "花": 1371,
      "芸": 1372,
      "茂": 1373,
      "華": 1374,
      "营": 1375,
      "蒲": 1376,
      "蔵": 1377,
      "藏": 1378,
      "蚊": 1379,
      "蝦": 1380,
      "術": 1381,
      "袢": 1382,
      "装": 1383,
      "裏": 1384,
      "補": 1385,
      "裾": 1386,
      "襦": 1387,
      "西": 1388,
      "親": 1389,
      "覺": 1390,
      "觉": 1391,
      "角": 1392,
      "解": 1393,
      "触": 1394,
      "言": 1395,
      "記": 1396,
      "詩": 1397,
      "話": 1398,
      "語": 1399,
      "诗": 1400,
      "话": 1401,
      "误": 1402,
      "谢": 1403,
      "谥": 1404,
      "谷": 1405,
      "豫": 1406,
      "賁": 1407,
      "负": 1408,
      "越": 1409,
      "跌": 1410,
      "軍": 1411,
      "転": 1412,
      "辉": 1413,
      "辑": 1414,
      "辛": 1415,
      "过": 1416,
      "远": 1417,
      "迟": 1418,
      "追": 1419,
      "退": 1420,
      "逃": 1421,
      "通": 1422,
      "速": 1423,
      "連": 1424,
      "運": 1425,
      "過": 1426,
      "道": 1427,
      "遗": 1428,
      "遲": 1429,
      "邑": 1430,
      "那": 1431,
      "邱": 1432,
      "邳": 1433,
      "郎": 1434,
      "部": 1435,
      "郭": 1436,
      "都": 1437,
      "酒": 1438,
      "醉": 1439,
      "釋": 1440,
      "里": 1441,
      "重": 1442,
      "金": 1443,
      "鉄": 1444,
      "鉞": 1445,
      "鋤": 1446,
      "録": 1447,
      "鍋": 1448,
      "鍾": 1449,
      "镇": 1450,
      "長": 1451,
      "长": 1452,
      "門": 1453,
      "閃": 1454,
      "開": 1455,
      "閒": 1456,
      "間": 1457,
      "閱": 1458,
      "门": 1459,
      "阪": 1460,
      "阳": 1461,
      "阴": 1462,
      "阿": 1463,
      "降": 1464,
      "除": 1465,
      "際": 1466,
      "集": 1467,
      "雖": 1468,
      "雪": 1469,
      "雯": 1470,
      "雲": 1471,
      "電": 1472,
      "霊": 1473,
      "霍": 1474,
      "青": 1475,
      "面": 1476,
      "音": 1477,
      "頭": 1478,
      "頼": 1479,
      "願": 1480,
      "風": 1481,
      "飛": 1482,
      "饭": 1483,
      "馬": 1484,
      "體": 1485,
      "髪": 1486,
      "鬪": 1487,
      "鬼": 1488,
      "魔": 1489,
      "魚": 1490,
      "鯉": 1491,
      "鲜": 1492,
      "鳥": 1493,
      "鳩": 1494,
      "鶚": 1495,
      "鸟": 1496,
      "黃": 1497,
      "黒": 1498,
      "齊": 1499,
      "龐": 1500,
      "龕": 1501,
      "龙": 1502,
      "龜": 1503,
      "ꞌ": 1504,
      "가": 1505,
      "간": 1506,
      "갑": 1507,
      "개": 1508,
      "관": 1509,
      "광": 1510,
      "교": 1511,
      "국": 1512,
      "규": 1513,
      "깊": 1514,
      "다": 1515,
      "대": 1516,
      "덕": 1517,
      "도": 1518,
      "돗": 1519,
      "동": 1520,
      "례": 1521,
      "리": 1522,
      "모": 1523,
      "무": 1524,
      "박": 1525,
      "별": 1526,
      "병": 1527,
      "사": 1528,
      "삼": 1529,
      "상": 1530,
      "서": 1531,
      "시": 1532,
      "아": 1533,
      "악": 1534,
      "어": 1535,
      "역": 1536,
      "영": 1537,
      "오": 1538,
      "음": 1539,
      "읍": 1540,
      "이": 1541,
      "자": 1542,
      "장": 1543,
      "제": 1544,
      "조": 1545,
      "주": 1546,
      "진": 1547,
      "치": 1548,
      "특": 1549,
      "하": 1550,
      "한": 1551,
      "화": 1552,
      "희": 1553,
      "ﬁ": 1554,
      "ﺍ": 1555,
      "ﺎ": 1556,
      "ﺑ": 1557,
      "ﺣ": 1558,
      "ﺮ": 1559,
      "ﺲ": 1560,
      "ﺶ": 1561,
      "ﻋ": 1562,
      "ﻛ": 1563,
      "ﻠ": 1564,
      "ﻤ": 1565,
      "ﻮ": 1566,
      "ﻱ": 1567,
      "ﻴ": 1568,
      "！": 1569,
      "（": 1570,
      "）": 1571,
      "，": 1572,
      "／": 1573,
      "：": 1574,
      "on": 1575,
      "er": 1576,
      "di": 1577,
      "en": 1578,
      "to": 1579,
      "ta": 1580,
      "in": 1581,
      "la": 1582,
      "re": 1583,
      "el": 1584,
      "al": 1585,
      "an": 1586,
      "ri": 1587,
      "ti": 1588,
      "te": 1589,
      "ra": 1590,
      "co": 1591,
      "si": 1592,
      "un": 1593,
      "li": 1594,
      "ch": 1595,
      "del": 1596,
      "le": 1597,
      "ca": 1598,
      "es": 1599,
      "ro": 1600,
      "ci": 1601,
      "po": 1602,
      "con": 1603,
      "zi": 1604,
      "il": 1605,
      "ma": 1606,
      "che": 1607,
      "per": 1608,
      "so": 1609,
      "do": 1610,
      "lo": 1611,
      "ar": 1612,
      "su": 1613,
      "se": 1614,
      "de": 1615,
      "one": 1616,
      "gi": 1617,
      "men": 1618,
      "qu": 1619,
      "da": 1620,
      "vi": 1621,
      "pi": 1622,
      "mo": 1623,
      "no": 1624,
      "va": 1625,
      "me": 1626,
      "gli": 1627,
      "sta": 1628,
      "tu": 1629,
      "sa": 1630,
      "or": 1631,
      "tra": 1632,
      "ter": 1633,
      "zione": 1634,
      "mi": 1635,
      "nel": 1636,
      "ono": 1637,
      "tto": 1638,
      "za": 1639,
      "pa": 1640,
      "vo": 1641,
      "fi": 1642,
      "ce": 1643,
      "ale": 1644,
      "una": 1645,
      "della": 1646,
      "pre": 1647,
      "pro": 1648,
      "na": 1649,
      "ve": 1650,
      "oni": 1651,
      "bi": 1652,
      "ere": 1653,
      "ano": 1654,
      "ni": 1655,
      "tà": 1656,
      "ali": 1657,
      "chi": 1658,
      "st": 1659,
      "mente": 1660,
      "ne": 1661,
      "at": 1662,
      "com": 1663,
      "du": 1664,
      "ver": 1665,
      "tro": 1666,
      "cu": 1667,
      "dal": 1668,
      "ven": 1669,
      "pri": 1670,
      "ggi": 1671,
      "par": 1672,
      "tta": 1673,
      "gu": 1674,
      "ran": 1675,
      "era": 1676,
      "ini": 1677,
      "sti": 1678,
      "pe": 1679,
      "non": 1680,
      "fa": 1681,
      "Il": 1682,
      "ru": 1683,
      "ssi": 1684,
      "La": 1685,
      "fu": 1686,
      "ten": 1687,
      "ga": 1688,
      "tre": 1689,
      "eri": 1690,
      "ina": 1691,
      "tti": 1692,
      "lu": 1693,
      "dell": 1694,
      "go": 1695,
      "bb": 1696,
      "ad": 1697,
      "sen": 1698,
      "dei": 1699,
      "zza": 1700,
      "19": 1701,
      "sono": 1702,
      "sto": 1703,
      "ha": 1704,
      "alla": 1705,
      "im": 1706,
      "for": 1707,
      "ine": 1708,
      "suo": 1709,
      "por": 1710,
      "man": 1711,
      "cor": 1712,
      "20": 1713,
      "cen": 1714,
      "mento": 1715,
      "ino": 1716,
      "den": 1717,
      "ero": 1718,
      "più": 1719,
      "as": 1720,
      "pu": 1721,
      "zioni": 1722,
      "tri": 1723,
      "ac": 1724,
      "ques": 1725,
      "all": 1726,
      "ando": 1727,
      "come": 1728,
      "sul": 1729,
      "cia": 1730,
      "mb": 1731,
      "ene": 1732,
      "ge": 1733,
      "uo": 1734,
      "anche": 1735,
      "delle": 1736,
      "uni": 1737,
      "ste": 1738,
      "ona": 1739,
      "sua": 1740,
      "ria": 1741,
      "os": 1742,
      "col": 1743,
      "io": 1744,
      "ces": 1745,
      "gen": 1746,
      "tte": 1747,
      "Nel": 1748,
      "In": 1749,
      "ed": 1750,
      "ff": 1751,
      "av": 1752,
      "ess": 1753,
      "nella": 1754,
      "gra": 1755,
      "tan": 1756,
      "sso": 1757,
      "ba": 1758,
      "ani": 1759,
      "am": 1760,
      "vol": 1761,
      "inter": 1762,
      "due": 1763,
      "ap": 1764,
      "ren": 1765,
      "uto": 1766,
      "anno": 1767,
      "gio": 1768,
      "ul": 1769,
      "zz": 1770,
      "ai": 1771,
      "ggio": 1772,
      "anni": 1773,
      "Qu": 1774,
      "ris": 1775,
      "tura": 1776,
      "rio": 1777,
      "parte": 1778,
      "dis": 1779,
      "ese": 1780,
      "quel": 1781,
      "ol": 1782,
      "anti": 1783,
      "sc": 1784,
      "presen": 1785,
      "cam": 1786,
      "Le": 1787,
      "via": 1788,
      "bu": 1789,
      "ssa": 1790,
      "stra": 1791,
      "tato": 1792,
      "Al": 1793,
      "loro": 1794,
      "cato": 1795,
      "essere": 1796,
      "rono": 1797,
      "zia": 1798,
      "cui": 1799,
      "sione": 1800,
      "stru": 1801,
      "glia": 1802,
      "dalla": 1803,
      "indi": 1804,
      "stato": 1805,
      "ele": 1806,
      "ffi": 1807,
      "vano": 1808,
      "sci": 1809,
      "prima": 1810,
      "viene": 1811,
      "can": 1812,
      "mol": 1813,
      "tare": 1814,
      "tor": 1815,
      "gno": 1816,
      "cer": 1817,
      "atti": 1818,
      "segu": 1819,
      "dopo": 1820,
      "parti": 1821,
      "00": 1822,
      "ori": 1823,
      "colo": 1824,
      "rin": 1825,
      "gna": 1826,
      "gni": 1827,
      "chia": 1828,
      "stan": 1829,
      "alle": 1830,
      "forma": 1831,
      "ente": 1832,
      "uno": 1833,
      "bili": 1834,
      "ito": 1835,
      "glio": 1836,
      "gh": 1837,
      "bo": 1838,
      "cre": 1839,
      "nuo": 1840,
      "tem": 1841,
      "tali": 1842,
      "car": 1843,
      "Co": 1844,
      "menti": 1845,
      "mon": 1846,
      "tter": 1847,
      "are": 1848,
      "bile": 1849,
      "sco": 1850,
      "201": 1851,
      "pen": 1852,
      "fe": 1853,
      "Ma": 1854,
      "dio": 1855,
      "ato": 1856,
      "spe": 1857,
      "almente": 1858,
      "tale": 1859,
      "mu": 1860,
      "ser": 1861,
      "fica": 1862,
      "ppo": 1863,
      "sia": 1864,
      "uti": 1865,
      "cio": 1866,
      "degli": 1867,
      "questo": 1868,
      "lare": 1869,
      "lan": 1870,
      "contro": 1871,
      ").": 1872,
      "zio": 1873,
      "fra": 1874,
      "propri": 1875,
      "nu": 1876,
      "comp": 1877,
      "bbli": 1878,
      "200": 1879,
      "An": 1880,
      "tati": 1881,
      "oc": 1882,
      "dere": 1883,
      "enza": 1884,
      "secon": 1885,
      "cces": 1886,
      "des": 1887,
      "mor": 1888,
      "ze": 1889,
      "bbe": 1890,
      "Ques": 1891,
      "ing": 1892,
      "sp": 1893,
      "alc": 1894,
      "and": 1895,
      "pers": 1896,
      "inf": 1897,
      "esso": 1898,
      "mina": 1899,
      "venne": 1900,
      "gran": 1901,
      "cco": 1902,
      "dia": 1903,
      "ello": 1904,
      "pubbli": 1905,
      "sse": 1906,
      "rante": 1907,
      "zion": 1908,
      "mini": 1909,
      "Do": 1910,
      "que": 1911,
      "solo": 1912,
      "usa": 1913,
      "fon": 1914,
      "Si": 1915,
      "fin": 1916,
      "oper": 1917,
      "nell": 1918,
      "ron": 1919,
      "enti": 1920,
      "18": 1921,
      "poi": 1922,
      "ché": 1923,
      "posi": 1924,
      "qui": 1925,
      "ave": 1926,
      "tore": 1927,
      "ur": 1928,
      "trova": 1929,
      "ulti": 1930,
      "pun": 1931,
      "sce": 1932,
      "mar": 1933,
      "succes": 1934,
      "tras": 1935,
      "gione": 1936,
      "cri": 1937,
      "dall": 1938,
      "ss": 1939,
      "Se": 1940,
      "dove": 1941,
      "edi": 1942,
      "stitu": 1943,
      "tica": 1944,
      "Di": 1945,
      "vin": 1946,
      "tempo": 1947,
      "gono": 1948,
      "nelle": 1949,
      "der": 1950,
      "tt": 1951,
      "Con": 1952,
      "zzo": 1953,
      "dre": 1954,
      "cora": 1955,
      "Ro": 1956,
      "suoi": 1957,
      "porta": 1958,
      "lavo": 1959,
      "sem": 1960,
      "volta": 1961,
      "gior": 1962,
      "ante": 1963,
      "tori": 1964,
      "molto": 1965,
      "dente": 1966,
      "Per": 1967,
      "ana": 1968,
      "mentre": 1969,
      "pra": 1970,
      "esi": 1971,
      "età": 1972,
      "verso": 1973,
      "elli": 1974,
      "stata": 1975,
      "au": 1976,
      "scon": 1977,
      "),": 1978,
      "fine": 1979,
      "poli": 1980,
      "stu": 1981,
      "nei": 1982,
      "primo": 1983,
      "atta": 1984,
      "zo": 1985,
      "ttu": 1986,
      "ia": 1987,
      "cir": 1988,
      "num": 1989,
      "vamente": 1990,
      "seri": 1991,
      "Ch": 1992,
      "quando": 1993,
      "cci": 1994,
      "th": 1995,
      "erano": 1996,
      "une": 1997,
      "vita": 1998,
      "glie": 1999,
      "arti": 2000,
      "gg": 2001,
      "allo": 2002,
      "deci": 2003,
      "mer": 2004,
      "fer": 2005,
      "hanno": 2006,
      "esa": 2007,
      "ore": 2008,
      "altri": 2009,
      "sulla": 2010,
      "lib": 2011,
      "feri": 2012,
      "cip": 2013,
      "diver": 2014,
      "pie": 2015,
      "cos": 2016,
      "dire": 2017,
      "mili": 2018,
      "quad": 2019,
      "olo": 2020,
      "pia": 2021,
      "ane": 2022,
      "cit": 2023,
      "rap": 2024,
      "può": 2025,
      "ccia": 2026,
      "Re": 2027,
      "prin": 2028,
      "ttura": 2029,
      "rato": 2030,
      "vil": 2031,
      "Mi": 2032,
      "sotto": 2033,
      "perio": 2034,
      "Ca": 2035,
      "esti": 2036,
      "ffici": 2037,
      "clu": 2038,
      "sal": 2039,
      "stesso": 2040,
      "ggiun": 2041,
      "rie": 2042,
      "scri": 2043,
      "gia": 2044,
      "lui": 2045,
      "auto": 2046,
      "aveva": 2047,
      "tr": 2048,
      "nome": 2049,
      "tin": 2050,
      "ltre": 2051,
      "lun": 2052,
      "cchi": 2053,
      "città": 2054,
      "numero": 2055,
      "\".": 2056,
      "conos": 2057,
      "Dopo": 2058,
      "posto": 2059,
      "dai": 2060,
      "giu": 2061,
      "questa": 2062,
      "fil": 2063,
      "utili": 2064,
      "Pa": 2065,
      "gge": 2066,
      "anto": 2067,
      "consi": 2068,
      "quali": 2069,
      "fino": 2070,
      "costru": 2071,
      "gru": 2072,
      "uta": 2073,
      "min": 2074,
      "fo": 2075,
      "denti": 2076,
      "mbre": 2077,
      "pli": 2078,
      "alizza": 2079,
      "tutti": 2080,
      "tten": 2081,
      "ffer": 2082,
      "ella": 2083,
      "così": 2084,
      "contra": 2085,
      "ttore": 2086,
      "val": 2087,
      "mani": 2088,
      "Mar": 2089,
      "dello": 2090,
      "Vi": 2091,
      "sca": 2092,
      "don": 2093,
      "comple": 2094,
      "tamente": 2095,
      "quindi": 2096,
      "spa": 2097,
      "raga": 2098,
      "qua": 2099,
      "Ri": 2100,
      "pos": 2101,
      "gn": 2102,
      "ck": 2103,
      "quale": 2104,
      "aver": 2105,
      "tito": 2106,
      "us": 2107,
      "fini": 2108,
      "bre": 2109,
      "diven": 2110,
      "cla": 2111,
      "sor": 2112,
      "Ne": 2113,
      "speci": 2114,
      "pren": 2115,
      "sioni": 2116,
      "sue": 2117,
      "seguito": 2118,
      "essa": 2119,
      "però": 2120,
      "endo": 2121,
      "ard": 2122,
      "presenta": 2123,
      "anza": 2124,
      "pio": 2125,
      "furono": 2126,
      "zionale": 2127,
      "tur": 2128,
      "Gi": 2129,
      "cca": 2130,
      "far": 2131,
      "ancora": 2132,
      "senza": 2133,
      "199": 2134,
      "mma": 2135,
      "tivo": 2136,
      "lazione": 2137,
      "stre": 2138,
      "anta": 2139,
      "cin": 2140,
      "dato": 2141,
      "compa": 2142,
      "durante": 2143,
      "arri": 2144,
      "dice": 2145,
      "casa": 2146,
      "sin": 2147,
      "ssione": 2148,
      "sempre": 2149,
      "stagione": 2150,
      "fatto": 2151,
      "rebbe": 2152,
      "possi": 2153,
      "eme": 2154,
      "produ": 2155,
      "maggio": 2156,
      "successi": 2157,
      "tiva": 2158,
      "tutto": 2159,
      "modo": 2160,
      "azione": 2161,
      "Un": 2162,
      "serie": 2163,
      "\",": 2164,
      "popo": 2165,
      "corso": 2166,
      "moni": 2167,
      "peri": 2168,
      "erra": 2169,
      "Lo": 2170,
      "fami": 2171,
      "Ar": 2172,
      "gre": 2173,
      "entra": 2174,
      "elo": 2175,
      "pon": 2176,
      "scu": 2177,
      "rico": 2178,
      "secondo": 2179,
      "orig": 2180,
      "mato": 2181,
      "sopra": 2182,
      "Pi": 2183,
      "grande": 2184,
      "ami": 2185,
      "ogni": 2186,
      "mai": 2187,
      "Su": 2188,
      "squad": 2189,
      "lato": 2190,
      "Po": 2191,
      "ttavia": 2192,
      "princip": 2193,
      "abb": 2194,
      "ucci": 2195,
      "org": 2196,
      "rac": 2197,
      "cal": 2198,
      "teri": 2199,
      "sol": 2200,
      "Tu": 2201,
      "II": 2202,
      "stante": 2203,
      "ordi": 2204,
      "causa": 2205,
      "lari": 2206,
      "tar": 2207,
      "ire": 2208,
      "cara": 2209,
      "Du": 2210,
      "ffe": 2211,
      "tata": 2212,
      "rica": 2213,
      "cerca": 2214,
      "alcuni": 2215,
      "mano": 2216,
      "rito": 2217,
      "visi": 2218,
      "portan": 2219,
      "gruppo": 2220,
      "passa": 2221,
      "capi": 2222,
      "quello": 2223,
      "soci": 2224,
      "questi": 2225,
      "regi": 2226,
      "ir": 2227,
      "rare": 2228,
      "quella": 2229,
      "uro": 2230,
      "las": 2231,
      "cono": 2232,
      "nuovo": 2233,
      "15": 2234,
      "stri": 2235,
      "tico": 2236,
      "segna": 2237,
      "contin": 2238,
      "esta": 2239,
      "line": 2240,
      "meno": 2241,
      "10": 2242,
      "vere": 2243,
      "abi": 2244,
      "vità": 2245,
      "cambi": 2246,
      "17": 2247,
      "ppa": 2248,
      "Ha": 2249,
      "De": 2250,
      "bilità": 2251,
      "seconda": 2252,
      "lega": 2253,
      "giov": 2254,
      "Da": 2255,
      "altro": 2256,
      "opera": 2257,
      "caratter": 2258,
      "stati": 2259,
      "altre": 2260,
      "siste": 2261,
      "ciò": 2262,
      "tanto": 2263,
      "circa": 2264,
      "tano": 2265,
      "Li": 2266,
      "inizi": 2267,
      "bat": 2268,
      "tò": 2269,
      "onato": 2270,
      "die": 2271,
      "famiglia": 2272,
      "tal": 2273,
      "ber": 2274,
      "eli": 2275,
      "morte": 2276,
      "data": 2277,
      "film": 2278,
      "lei": 2279,
      "raggiun": 2280,
      "utilizza": 2281,
      "So": 2282,
      "Gli": 2283,
      "dalle": 2284,
      "schi": 2285,
      "posta": 2286,
      "ghi": 2287,
      "scen": 2288,
      "partico": 2289,
      "zie": 2290,
      "lin": 2291,
      "arono": 2292,
      "loc": 2293,
      "dono": 2294,
      "insi": 2295,
      "elle": 2296,
      "mine": 2297,
      "bbi": 2298,
      "tratta": 2299,
      "ggior": 2300,
      "essi": 2301,
      "fun": 2302,
      "Uni": 2303,
      "padre": 2304,
      "cro": 2305,
      "quanto": 2306,
      "16": 2307,
      "uffici": 2308,
      "asso": 2309,
      "hi": 2310,
      "organi": 2311,
      "pubblica": 2312,
      "perché": 2313,
      "San": 2314,
      "petto": 2315,
      "ster": 2316,
      "rice": 2317,
      "musi": 2318,
      "dera": 2319,
      "ggia": 2320,
      "usci": 2321,
      "proprio": 2322,
      "Ci": 2323,
      "para": 2324,
      "198": 2325,
      "pp": 2326,
      "Na": 2327,
      "alità": 2328,
      "zzi": 2329,
      "itali": 2330,
      "sola": 2331,
      "vengono": 2332,
      "ho": 2333,
      "posizione": 2334,
      "dare": 2335,
      "attro": 2336,
      "vece": 2337,
      "soli": 2338,
      "uomo": 2339,
      "unque": 2340,
      "nor": 2341,
      "campi": 2342,
      "torna": 2343,
      "fre": 2344,
      "ben": 2345,
      "lar": 2346,
      "mondo": 2347,
      "divi": 2348,
      "Lu": 2349,
      "importan": 2350,
      "storia": 2351,
      "porto": 2352,
      "he": 2353,
      "gua": 2354,
      "fici": 2355,
      "esse": 2356,
      "qual": 2357,
      "interno": 2358,
      "Fran": 2359,
      "tazione": 2360,
      "vilu": 2361,
      "assi": 2362,
      "periodo": 2363,
      "tina": 2364,
      "comuni": 2365,
      "continu": 2366,
      "stro": 2367,
      "persona": 2368,
      "rima": 2369,
      "proge": 2370,
      "oltre": 2371,
      "super": 2372,
      "attra": 2373,
      "svilu": 2374,
      "effe": 2375,
      "invece": 2376,
      "Nella": 2377,
      "veni": 2378,
      "Sa": 2379,
      "nero": 2380,
      "cc": 2381,
      "rà": 2382,
      "punto": 2383,
      "insieme": 2384,
      "is": 2385,
      "risul": 2386,
      "gener": 2387,
      "be": 2388,
      "picco": 2389,
      "ries": 2390,
      "fron": 2391,
      "cità": 2392,
      "quattro": 2393,
      "dif": 2394,
      "presso": 2395,
      "Questa": 2396,
      "caso": 2397,
      "guar": 2398,
      "otten": 2399,
      "pare": 2400,
      "metri": 2401,
      "ell": 2402,
      "possono": 2403,
      "servi": 2404,
      "conta": 2405,
      "son": 2406,
      "Jo": 2407,
      "ke": 2408,
      "stica": 2409,
      "caratteri": 2410,
      "dendo": 2411,
      "rata": 2412,
      "molti": 2413,
      "prece": 2414,
      "aff": 2415,
      "bito": 2416,
      "serva": 2417,
      "ultimo": 2418,
      "sero": 2419,
      "classi": 2420,
      "fos": 2421,
      "inizia": 2422,
      "tec": 2423,
      "otto": 2424,
      "dati": 2425,
      "rano": 2426,
      "mostra": 2427,
      "esem": 2428,
      "rsi": 2429,
      "sette": 2430,
      "agli": 2431,
      "vole": 2432,
      "12": 2433,
      "dov": 2434,
      "grafi": 2435,
      "corpo": 2436,
      "spesso": 2437,
      "lascia": 2438,
      "onale": 2439,
      "ture": 2440,
      "Car": 2441,
      "arsi": 2442,
      "poter": 2443,
      "Com": 2444,
      "ton": 2445,
      "attività": 2446,
      "realizza": 2447,
      "Ra": 2448,
      "000": 2449,
      "bamb": 2450,
      "197": 2451,
      "squadra": 2452,
      "lavoro": 2453,
      "Questo": 2454,
      "Una": 2455,
      "giorno": 2456,
      "tivi": 2457,
      "lla": 2458,
      "guerra": 2459,
      "194": 2460,
      "inoltre": 2461,
      "14": 2462,
      "cendo": 2463,
      "liv": 2464,
      "gui": 2465,
      "luo": 2466,
      "cce": 2467,
      "chiesa": 2468,
      "razione": 2469,
      "già": 2470,
      "Itali": 2471,
      "maggior": 2472,
      "dotto": 2473,
      "defini": 2474,
      "Bo": 2475,
      "est": 2476,
      "memb": 2477,
      "vista": 2478,
      "figlio": 2479,
      "pote": 2480,
      "cano": 2481,
      "onostante": 2482,
      "Fu": 2483,
      "ena": 2484,
      "Pro": 2485,
      "volu": 2486,
      "To": 2487,
      "diversi": 2488,
      "ann": 2489,
      "ola": 2490,
      "base": 2491,
      "denza": 2492,
      "vari": 2493,
      "informa": 2494,
      "negli": 2495,
      "gover": 2496,
      "nazionale": 2497,
      "Tra": 2498,
      "cura": 2499,
      "fare": 2500,
      "persone": 2501,
      "pes": 2502,
      "secolo": 2503,
      "ora": 2504,
      "ghe": 2505,
      "sistema": 2506,
      "cata": 2507,
      "volte": 2508,
      "cul": 2509,
      "costitu": 2510,
      "considera": 2511,
      "frat": 2512,
      "ide": 2513,
      "tive": 2514,
      "ede": 2515,
      "bil": 2516,
      "infatti": 2517,
      "grado": 2518,
      "vero": 2519,
      "tutte": 2520,
      "bum": 2521,
      "fran": 2522,
      "chiama": 2523,
      "cesso": 2524,
      "conosci": 2525,
      "op": 2526,
      "Fi": 2527,
      "tiche": 2528,
      "tari": 2529,
      "nuova": 2530,
      "13": 2531,
      "vic": 2532,
      "ble": 2533,
      "bri": 2534,
      "meri": 2535,
      "diri": 2536,
      "album": 2537,
      "desi": 2538,
      "ger": 2539,
      "mette": 2540,
      "successo": 2541,
      "lungo": 2542,
      "Quando": 2543,
      "alcune": 2544,
      "terra": 2545,
      "ki": 2546,
      "versi": 2547,
      "ziona": 2548,
      "donna": 2549,
      "tipo": 2550,
      "riman": 2551,
      "occu": 2552,
      "primi": 2553,
      "inten": 2554,
      "centro": 2555,
      "resi": 2556,
      "ov": 2557,
      "Ba": 2558,
      "Mon": 2559,
      "titolo": 2560,
      "smo": 2561,
      "Non": 2562,
      "poten": 2563,
      "riti": 2564,
      "coli": 2565,
      "terio": 2566,
      "tando": 2567,
      "Durante": 2568,
      "piano": 2569,
      "madre": 2570,
      "Mo": 2571,
      "prote": 2572,
      "forte": 2573,
      "medi": 2574,
      "inci": 2575,
      "poco": 2576,
      "lio": 2577,
      "finale": 2578,
      "care": 2579,
      "196": 2580,
      "giocato": 2581,
      "llo": 2582,
      "eno": 2583,
      "tele": 2584,
      "epi": 2585,
      "Me": 2586,
      "venti": 2587,
      "ita": 2588,
      "organizza": 2589,
      "30": 2590,
      "ban": 2591,
      "uso": 2592,
      "erci": 2593,
      "tanti": 2594,
      "gioco": 2595,
      "bar": 2596,
      "sui": 2597,
      "media": 2598,
      "stessa": 2599,
      "stanza": 2600,
      "ka": 2601,
      "gare": 2602,
      "vvi": 2603,
      "appar": 2604,
      "rive": 2605,
      "vento": 2606,
      "ry": 2607,
      "letter": 2608,
      "versa": 2609,
      "Italia": 2610,
      "fonda": 2611,
      "mia": 2612,
      "Gu": 2613,
      "ppe": 2614,
      "vato": 2615,
      "torno": 2616,
      "dedi": 2617,
      "differ": 2618,
      "sull": 2619,
      "semb": 2620,
      "sar": 2621,
      "tion": 2622,
      "capo": 2623,
      "momento": 2624,
      "50": 2625,
      "evi": 2626,
      "versione": 2627,
      "quasi": 2628,
      "mici": 2629,
      "ill": 2630,
      "spo": 2631,
      "situ": 2632,
      "possibile": 2633,
      "ttan": 2634,
      "ester": 2635,
      "tici": 2636,
      "conten": 2637,
      "eserci": 2638,
      "acce": 2639,
      "ambi": 2640,
      "avere": 2641,
      "tradi": 2642,
      "gere": 2643,
      "bra": 2644,
      "presi": 2645,
      "particolare": 2646,
      "inizio": 2647,
      "giovane": 2648,
      "use": 2649,
      "altra": 2650,
      "bbero": 2651,
      "luogo": 2652,
      "riesce": 2653,
      "ata": 2654,
      "archi": 2655,
      "termine": 2656,
      "mare": 2657,
      "ricor": 2658,
      "produzione": 2659,
      "Tuttavia": 2660,
      "et": 2661,
      "assa": 2662,
      "diverse": 2663,
      "richi": 2664,
      "amo": 2665,
      "attu": 2666,
      "singo": 2667,
      "deri": 2668,
      "rego": 2669,
      "state": 2670,
      "proble": 2671,
      "gue": 2672,
      "labo": 2673,
      "rane": 2674,
      "compe": 2675,
      "cosa": 2676,
      "oggi": 2677,
      "neces": 2678,
      "queste": 2679,
      "Te": 2680,
      "gine": 2681,
      "aper": 2682,
      "Cor": 2683,
      "sconfi": 2684,
      "ang": 2685,
      "missione": 2686,
      "dra": 2687,
      "campo": 2688,
      "veri": 2689,
      "carri": 2690,
      "Anche": 2691,
      "apri": 2692,
      "ultima": 2693,
      "resta": 2694,
      "vede": 2695,
      "nove": 2696,
      "decide": 2697,
      "sulle": 2698,
      "tuttavia": 2699,
      "impe": 2700,
      "cò": 2701,
      "rispetto": 2702,
      "nello": 2703,
      "No": 2704,
      "dagli": 2705,
      "propria": 2706,
      "bor": 2707,
      "società": 2708,
      "pone": 2709,
      "spi": 2710,
      "sei": 2711,
      "Alla": 2712,
      "sud": 2713,
      "off": 2714,
      "comune": 2715,
      "grazie": 2716,
      "principale": 2717,
      "ragazza": 2718,
      "attraverso": 2719,
      "En": 2720,
      "vata": 2721,
      "arma": 2722,
      "moglie": 2723,
      "cente": 2724,
      "fosse": 2725,
      "struttura": 2726,
      "The": 2727,
      "stico": 2728,
      "termina": 2729,
      "cine": 2730,
      "zionali": 2731,
      "vare": 2732,
      "colle": 2733,
      "fem": 2734,
      "mana": 2735,
      "dici": 2736,
      "Chi": 2737,
      "prese": 2738,
      "trice": 2739,
      "tran": 2740,
      "vide": 2741,
      "gente": 2742,
      "studio": 2743,
      "uomini": 2744,
      "Ni": 2745,
      "lano": 2746,
      "condo": 2747,
      "lati": 2748,
      "enze": 2749,
      "tecni": 2750,
      "25": 2751,
      "sch": 2752,
      "gina": 2753,
      "deve": 2754,
      "san": 2755,
      "poca": 2756,
      "giun": 2757,
      "acqua": 2758,
      "messo": 2759,
      "cinque": 2760,
      "livello": 2761,
      "grandi": 2762,
      "Be": 2763,
      "giorni": 2764,
      "bian": 2765,
      "dan": 2766,
      "massi": 2767,
      "econo": 2768,
      "ttori": 2769,
      "tino": 2770,
      "ficio": 2771,
      "Dal": 2772,
      "setti": 2773,
      "prof": 2774,
      "bilmente": 2775,
      "testa": 2776,
      "popolazione": 2777,
      "zze": 2778,
      "lasci": 2779,
      "quest": 2780,
      "mbi": 2781,
      "erà": 2782,
      "generale": 2783,
      "eria": 2784,
      "of": 2785,
      "vesti": 2786,
      "scono": 2787,
      "affi": 2788,
      "opere": 2789,
      "ilo": 2790,
      "acqui": 2791,
      "ebbe": 2792,
      "progra": 2793,
      "ex": 2794,
      "195": 2795,
      "signi": 2796,
      "ati": 2797,
      "citati": 2798,
      "este": 2799,
      "cazione": 2800,
      "corre": 2801,
      "avrebbe": 2802,
      "abband": 2803,
      "allora": 2804,
      "limi": 2805,
      "spetta": 2806,
      "plo": 2807,
      "cere": 2808,
      "stiche": 2809,
      "Pe": 2810,
      "mico": 2811,
      "centr": 2812,
      "figu": 2813,
      "scel": 2814,
      "Ino": 2815,
      "vennero": 2816,
      "presente": 2817,
      "ppi": 2818,
      "stin": 2819,
      "studi": 2820,
      "esempio": 2821,
      "pan": 2822,
      "rappresenta": 2823,
      "gioni": 2824,
      "compi": 2825,
      "Inoltre": 2826,
      "metter": 2827,
      "mpo": 2828,
      "11": 2829,
      "punti": 2830,
      "maggiore": 2831,
      "sore": 2832,
      "forni": 2833,
      "logi": 2834,
      "sempli": 2835,
      "forza": 2836,
      "ago": 2837,
      "193": 2838,
      "altà": 2839,
      "presa": 2840,
      "pic": 2841,
      "tario": 2842,
      "carriera": 2843,
      "linea": 2844,
      "tribu": 2845,
      "presenti": 2846,
      "ty": 2847,
      "zone": 2848,
      "amente": 2849,
      "vuo": 2850,
      "mino": 2851,
      "distru": 2852,
      "sten": 2853,
      "specie": 2854,
      "messa": 2855,
      "superio": 2856,
      "epoca": 2857,
      "costruzione": 2858,
      "parteci": 2859,
      "piega": 2860,
      "riferi": 2861,
      "giugno": 2862,
      "All": 2863,
      "cate": 2864,
      "paese": 2865,
      "molte": 2866,
      "settembre": 2867,
      "sarebbe": 2868,
      "migli": 2869,
      "dini": 2870,
      "ospi": 2871,
      "ficato": 2872,
      "dimen": 2873,
      "Gio": 2874,
      "zona": 2875,
      "tedes": 2876,
      "ado": 2877,
      "alto": 2878,
      "ute": 2879,
      "ttutto": 2880,
      "Bi": 2881,
      "mica": 2882,
      "marzo": 2883,
      "citation": 2884,
      "appro": 2885,
      "competi": 2886,
      "condi": 2887,
      "accor": 2888,
      "ottobre": 2889,
      "tru": 2890,
      "nato": 2891,
      "occa": 2892,
      "aggiun": 2893,
      "realtà": 2894,
      "Ru": 2895,
      "estre": 2896,
      "24": 2897,
      "segn": 2898,
      "figlia": 2899,
      "ogge": 2900,
      "informazioni": 2901,
      "velo": 2902,
      "naio": 2903,
      "batta": 2904,
      "pla": 2905,
      "subito": 2906,
      "cli": 2907,
      "modi": 2908,
      "imma": 2909,
      "Bar": 2910,
      "af": 2911,
      "Ho": 2912,
      "goni": 2913,
      "ricerca": 2914,
      "soprattutto": 2915,
      "pol": 2916,
      "uncia": 2917,
      "capa": 2918,
      "svol": 2919,
      "senti": 2920,
      "fiu": 2921,
      "tate": 2922,
      "Par": 2923,
      "ppia": 2924,
      "rani": 2925,
      "scopre": 2926,
      "divenne": 2927,
      "fuori": 2928,
      "gri": 2929,
      "commer": 2930,
      "gennaio": 2931,
      "rende": 2932,
      "male": 2933,
      "luglio": 2934,
      "occupa": 2935,
      "ruolo": 2936,
      "Ga": 2937,
      "governo": 2938,
      "rale": 2939,
      "chio": 2940,
      "Roma": 2941,
      "Pre": 2942,
      "isola": 2943,
      "um": 2944,
      "episo": 2945,
      "cale": 2946,
      "atore": 2947,
      "frequ": 2948,
      "progetto": 2949,
      "paro": 2950,
      "cchia": 2951,
      "pari": 2952,
      "tante": 2953,
      "atte": 2954,
      "maschi": 2955,
      "fratello": 2956,
      "ritorio": 2957,
      "sh": 2958,
      "comunque": 2959,
      "agosto": 2960,
      "mal": 2961,
      "ingle": 2962,
      "testi": 2963,
      "villa": 2964,
      "detta": 2965,
      "presenza": 2966,
      "conf": 2967,
      "conclu": 2968,
      "colpi": 2969,
      "tutta": 2970,
      "Come": 2971,
      "prende": 2972,
      "tipi": 2973,
      "oro": 2974,
      "territorio": 2975,
      "zzato": 2976,
      "bene": 2977,
      "dicembre": 2978,
      "aprile": 2979,
      "identi": 2980,
      "ass": 2981,
      "Tor": 2982,
      "registra": 2983,
      "lata": 2984,
      "spon": 2985,
      "For": 2986,
      "mpa": 2987,
      "rispon": 2988,
      "bbia": 2989,
      "vono": 2990,
      "detto": 2991,
      "muo": 2992,
      "din": 2993,
      "miglio": 2994,
      "unità": 2995,
      "alli": 2996,
      "pensa": 2997,
      "fru": 2998,
      "ttamente": 2999
    },
    "merges": [
      [
        "o",
        "n"
      ],
      [
        "e",
        "r"
      ],
      [
        "d",
        "i"
      ],
      [
        "e",
        "n"
      ],
      [
        "t",
        "o"
      ],
      [
        "t",
        "a"
      ],
      [
        "i",
        "n"
      ],
      [
        "l",
        "a"
      ],
      [
        "r",
        "e"
      ],
      [
        "e",
        "l"
      ],
      [
        "a",
        "l"
      ],
      [
        "a",
        "n"
      ],
      [
        "r",
        "i"
      ],
      [
        "t",
        "i"
      ],
      [
        "t",
        "e"
      ],
      [
        "r",
        "a"
      ],
      [
        "c",
        "o"
      ],
      [
        "s",
        "i"
      ],
      [
        "u",
        "n"
      ],
      [
        "l",
        "i"
      ],
      [
        "c",
        "h"
      ],
      [
        "d",
        "el"
      ],
      [
        "l",
        "e"
      ],
      [
        "c",
        "a"
      ],
      [
        "e",
        "s"
      ],
      [
        "r",
        "o"
      ],
      [
        "c",
        "i"
      ],
      [
        "p",
        "o"
      ],
      [
        "c",
        "on"
      ],
      [
        "z",
        "i"
      ],
      [
        "i",
        "l"
      ],
      [
        "m",
        "a"
      ],
      [
        "ch",
        "e"
      ],
      [
        "p",
        "er"
      ],
      [
        "s",
        "o"
      ],
      [
        "d",
        "o"
      ],
      [
        "l",
        "o"
      ],
      [
        "a",
        "r"
      ],
      [
        "s",
        "u"
      ],
      [
        "s",
        "e"
      ],
      [
        "d",
        "e"
      ],
      [
        "on",
        "e"
      ],
      [
        "g",
        "i"
      ],
      [
        "m",
        "en"
      ],
      [
        "q",
        "u"
      ],
      [
        "d",
        "a"
      ],
      [
        "v",
        "i"
      ],
      [
        "p",
        "i"
      ],
      [
        "m",
        "o"
      ],
      [
        "n",
        "o"
      ],
      [
        "v",
        "a"
      ],
      [
        "m",
        "e"
      ],
      [
        "g",
        "li"
      ],
      [
        "s",
        "ta"
      ],
      [
        "t",
        "u"
      ],
      [
        "s",
        "a"
      ],
      [
        "o",
        "r"
      ],
      [
        "t",
        "ra"
      ],
      [
        "t",
        "er"
      ],
      [
        "zi",
        "one"
      ],
      [
        "m",
        "i"
      ],
      [
        "n",
        "el"
      ],
      [
        "on",
        "o"
      ],
      [
        "t",
        "to"
      ],
      [
        "z",
        "a"
      ],
      [
        "p",
        "a"
      ],
      [
        "v",
        "o"
      ],
      [
        "f",
        "i"
      ],
      [
        "c",
        "e"
      ],
      [
        "al",
        "e"
      ],
      [
        "un",
        "a"
      ],
      [
        "del",
        "la"
      ],
      [
        "p",
        "re"
      ],
      [
        "p",
        "ro"
      ],
      [
        "n",
        "a"
      ],
      [
        "v",
        "e"
      ],
      [
        "on",
        "i"
      ],
      [
        "b",
        "i"
      ],
      [
        "er",
        "e"
      ],
      [
        "an",
        "o"
      ],
      [
        "n",
        "i"
      ],
      [
        "t",
        "à"
      ],
      [
        "al",
        "i"
      ],
      [
        "ch",
        "i"
      ],
      [
        "s",
        "t"
      ],
      [
        "men",
        "te"
      ],
      [
        "n",
        "e"
      ],
      [
        "a",
        "t"
      ],
      [
        "co",
        "m"
      ],
      [
        "d",
        "u"
      ],
      [
        "v",
        "er"
      ],
      [
        "t",
        "ro"
      ],
      [
        "c",
        "u"
      ],
      [
        "d",
        "al"
      ],
      [
        "v",
        "en"
      ],
      [
        "p",
        "ri"
      ],
      [
        "g",
        "gi"
      ],
      [
        "p",
        "ar"
      ],
      [
        "t",
        "ta"
      ],
      [
        "g",
        "u"
      ],
      [
        "r",
        "an"
      ],
      [
        "er",
        "a"
      ],
      [
        "in",
        "i"
      ],
      [
        "s",
        "ti"
      ],
      [
        "p",
        "e"
      ],
      [
        "n",
        "on"
      ],
      [
        "f",
        "a"
      ],
      [
        "I",
        "l"
      ],
      [
        "r",
        "u"
      ],
      [
        "s",
        "si"
      ],
      [
        "L",
        "a"
      ],
      [
        "f",
        "u"
      ],
      [
        "t",
        "en"
      ],
      [
        "g",
        "a"
      ],
      [
        "t",
        "re"
      ],
      [
        "er",
        "i"
      ],
      [
        "in",
        "a"
      ],
      [
        "t",
        "ti"
      ],
      [
        "l",
        "u"
      ],
      [
        "del",
        "l"
      ],
      [
        "g",
        "o"
      ],
      [
        "b",
        "b"
      ],
      [
        "a",
        "d"
      ],
      [
        "s",
        "en"
      ],
      [
        "de",
        "i"
      ],
      [
        "z",
        "za"
      ],
      [
        "1",
        "9"
      ],
      [
        "s",
        "ono"
      ],
      [
        "s",
        "to"
      ],
      [
        "h",
        "a"
      ],
      [
        "al",
        "la"
      ],
      [
        "i",
        "m"
      ],
      [
        "f",
        "or"
      ],
      [
        "in",
        "e"
      ],
      [
        "su",
        "o"
      ],
      [
        "po",
        "r"
      ],
      [
        "m",
        "an"
      ],
      [
        "co",
        "r"
      ],
      [
        "2",
        "0"
      ],
      [
        "c",
        "en"
      ],
      [
        "men",
        "to"
      ],
      [
        "in",
        "o"
      ],
      [
        "d",
        "en"
      ],
      [
        "er",
        "o"
      ],
      [
        "pi",
        "ù"
      ],
      [
        "a",
        "s"
      ],
      [
        "p",
        "u"
      ],
      [
        "zi",
        "oni"
      ],
      [
        "t",
        "ri"
      ],
      [
        "a",
        "c"
      ],
      [
        "qu",
        "es"
      ],
      [
        "al",
        "l"
      ],
      [
        "an",
        "do"
      ],
      [
        "co",
        "me"
      ],
      [
        "su",
        "l"
      ],
      [
        "ci",
        "a"
      ],
      [
        "m",
        "b"
      ],
      [
        "en",
        "e"
      ],
      [
        "g",
        "e"
      ],
      [
        "u",
        "o"
      ],
      [
        "an",
        "che"
      ],
      [
        "del",
        "le"
      ],
      [
        "un",
        "i"
      ],
      [
        "s",
        "te"
      ],
      [
        "on",
        "a"
      ],
      [
        "su",
        "a"
      ],
      [
        "ri",
        "a"
      ],
      [
        "o",
        "s"
      ],
      [
        "co",
        "l"
      ],
      [
        "i",
        "o"
      ],
      [
        "c",
        "es"
      ],
      [
        "g",
        "en"
      ],
      [
        "t",
        "te"
      ],
      [
        "N",
        "el"
      ],
      [
        "I",
        "n"
      ],
      [
        "e",
        "d"
      ],
      [
        "f",
        "f"
      ],
      [
        "a",
        "v"
      ],
      [
        "es",
        "s"
      ],
      [
        "nel",
        "la"
      ],
      [
        "g",
        "ra"
      ],
      [
        "ta",
        "n"
      ],
      [
        "s",
        "so"
      ],
      [
        "b",
        "a"
      ],
      [
        "an",
        "i"
      ],
      [
        "a",
        "m"
      ],
      [
        "vo",
        "l"
      ],
      [
        "in",
        "ter"
      ],
      [
        "du",
        "e"
      ],
      [
        "a",
        "p"
      ],
      [
        "r",
        "en"
      ],
      [
        "u",
        "to"
      ],
      [
        "an",
        "no"
      ],
      [
        "gi",
        "o"
      ],
      [
        "u",
        "l"
      ],
      [
        "z",
        "z"
      ],
      [
        "a",
        "i"
      ],
      [
        "ggi",
        "o"
      ],
      [
        "an",
        "ni"
      ],
      [
        "Q",
        "u"
      ],
      [
        "ri",
        "s"
      ],
      [
        "tu",
        "ra"
      ],
      [
        "ri",
        "o"
      ],
      [
        "par",
        "te"
      ],
      [
        "di",
        "s"
      ],
      [
        "es",
        "e"
      ],
      [
        "qu",
        "el"
      ],
      [
        "o",
        "l"
      ],
      [
        "an",
        "ti"
      ],
      [
        "s",
        "c"
      ],
      [
        "pre",
        "sen"
      ],
      [
        "ca",
        "m"
      ],
      [
        "L",
        "e"
      ],
      [
        "vi",
        "a"
      ],
      [
        "b",
        "u"
      ],
      [
        "s",
        "sa"
      ],
      [
        "s",
        "tra"
      ],
      [
        "ta",
        "to"
      ],
      [
        "A",
        "l"
      ],
      [
        "lo",
        "ro"
      ],
      [
        "ca",
        "to"
      ],
      [
        "ess",
        "ere"
      ],
      [
        "r",
        "ono"
      ],
      [
        "zi",
        "a"
      ],
      [
        "cu",
        "i"
      ],
      [
        "si",
        "one"
      ],
      [
        "st",
        "ru"
      ],
      [
        "gli",
        "a"
      ],
      [
        "dal",
        "la"
      ],
      [
        "in",
        "di"
      ],
      [
        "sta",
        "to"
      ],
      [
        "el",
        "e"
      ],
      [
        "f",
        "fi"
      ],
      [
        "v",
        "ano"
      ],
      [
        "s",
        "ci"
      ],
      [
        "pri",
        "ma"
      ],
      [
        "vi",
        "ene"
      ],
      [
        "c",
        "an"
      ],
      [
        "mo",
        "l"
      ],
      [
        "ta",
        "re"
      ],
      [
        "to",
        "r"
      ],
      [
        "g",
        "no"
      ],
      [
        "c",
        "er"
      ],
      [
        "at",
        "ti"
      ],
      [
        "se",
        "gu"
      ],
      [
        "do",
        "po"
      ],
      [
        "par",
        "ti"
      ],
      [
        "0",
        "0"
      ],
      [
        "o",
        "ri"
      ],
      [
        "co",
        "lo"
      ],
      [
        "r",
        "in"
      ],
      [
        "g",
        "na"
      ],
      [
        "g",
        "ni"
      ],
      [
        "chi",
        "a"
      ],
      [
        "sta",
        "n"
      ],
      [
        "al",
        "le"
      ],
      [
        "for",
        "ma"
      ],
      [
        "en",
        "te"
      ],
      [
        "un",
        "o"
      ],
      [
        "bi",
        "li"
      ],
      [
        "i",
        "to"
      ],
      [
        "gli",
        "o"
      ],
      [
        "g",
        "h"
      ],
      [
        "b",
        "o"
      ],
      [
        "c",
        "re"
      ],
      [
        "n",
        "uo"
      ],
      [
        "te",
        "m"
      ],
      [
        "ta",
        "li"
      ],
      [
        "ca",
        "r"
      ],
      [
        "C",
        "o"
      ],
      [
        "men",
        "ti"
      ],
      [
        "m",
        "on"
      ],
      [
        "t",
        "ter"
      ],
      [
        "a",
        "re"
      ],
      [
        "bi",
        "le"
      ],
      [
        "s",
        "co"
      ],
      [
        "20",
        "1"
      ],
      [
        "p",
        "en"
      ],
      [
        "f",
        "e"
      ],
      [
        "M",
        "a"
      ],
      [
        "di",
        "o"
      ],
      [
        "a",
        "to"
      ],
      [
        "s",
        "pe"
      ],
      [
        "al",
        "mente"
      ],
      [
        "ta",
        "le"
      ],
      [
        "m",
        "u"
      ],
      [
        "s",
        "er"
      ],
      [
        "fi",
        "ca"
      ],
      [
        "p",
        "po"
      ],
      [
        "si",
        "a"
      ],
      [
        "u",
        "ti"
      ],
      [
        "ci",
        "o"
      ],
      [
        "de",
        "gli"
      ],
      [
        "ques",
        "to"
      ],
      [
        "la",
        "re"
      ],
      [
        "la",
        "n"
      ],
      [
        "con",
        "tro"
      ],
      [
        ")",
        "."
      ],
      [
        "zi",
        "o"
      ],
      [
        "f",
        "ra"
      ],
      [
        "pro",
        "pri"
      ],
      [
        "n",
        "u"
      ],
      [
        "com",
        "p"
      ],
      [
        "bb",
        "li"
      ],
      [
        "20",
        "0"
      ],
      [
        "A",
        "n"
      ],
      [
        "ta",
        "ti"
      ],
      [
        "o",
        "c"
      ],
      [
        "d",
        "ere"
      ],
      [
        "en",
        "za"
      ],
      [
        "se",
        "con"
      ],
      [
        "c",
        "ces"
      ],
      [
        "d",
        "es"
      ],
      [
        "mo",
        "r"
      ],
      [
        "z",
        "e"
      ],
      [
        "bb",
        "e"
      ],
      [
        "Qu",
        "es"
      ],
      [
        "in",
        "g"
      ],
      [
        "s",
        "p"
      ],
      [
        "al",
        "c"
      ],
      [
        "an",
        "d"
      ],
      [
        "per",
        "s"
      ],
      [
        "in",
        "f"
      ],
      [
        "es",
        "so"
      ],
      [
        "m",
        "ina"
      ],
      [
        "ven",
        "ne"
      ],
      [
        "g",
        "ran"
      ],
      [
        "c",
        "co"
      ],
      [
        "di",
        "a"
      ],
      [
        "el",
        "lo"
      ],
      [
        "pu",
        "bbli"
      ],
      [
        "s",
        "se"
      ],
      [
        "ran",
        "te"
      ],
      [
        "zi",
        "on"
      ],
      [
        "m",
        "ini"
      ],
      [
        "D",
        "o"
      ],
      [
        "qu",
        "e"
      ],
      [
        "so",
        "lo"
      ],
      [
        "u",
        "sa"
      ],
      [
        "f",
        "on"
      ],
      [
        "S",
        "i"
      ],
      [
        "f",
        "in"
      ],
      [
        "o",
        "per"
      ],
      [
        "nel",
        "l"
      ],
      [
        "r",
        "on"
      ],
      [
        "en",
        "ti"
      ],
      [
        "1",
        "8"
      ],
      [
        "po",
        "i"
      ],
      [
        "ch",
        "é"
      ],
      [
        "po",
        "si"
      ],
      [
        "qu",
        "i"
      ],
      [
        "a",
        "ve"
      ],
      [
        "to",
        "re"
      ],
      [
        "u",
        "r"
      ],
      [
        "tro",
        "va"
      ],
      [
        "ul",
        "ti"
      ],
      [
        "p",
        "un"
      ],
      [
        "s",
        "ce"
      ],
      [
        "ma",
        "r"
      ],
      [
        "su",
        "cces"
      ],
      [
        "tra",
        "s"
      ],
      [
        "gi",
        "one"
      ],
      [
        "c",
        "ri"
      ],
      [
        "dal",
        "l"
      ],
      [
        "s",
        "s"
      ],
      [
        "S",
        "e"
      ],
      [
        "do",
        "ve"
      ],
      [
        "e",
        "di"
      ],
      [
        "sti",
        "tu"
      ],
      [
        "ti",
        "ca"
      ],
      [
        "D",
        "i"
      ],
      [
        "v",
        "in"
      ],
      [
        "tem",
        "po"
      ],
      [
        "g",
        "ono"
      ],
      [
        "nel",
        "le"
      ],
      [
        "d",
        "er"
      ],
      [
        "t",
        "t"
      ],
      [
        "C",
        "on"
      ],
      [
        "zz",
        "o"
      ],
      [
        "d",
        "re"
      ],
      [
        "co",
        "ra"
      ],
      [
        "R",
        "o"
      ],
      [
        "suo",
        "i"
      ],
      [
        "por",
        "ta"
      ],
      [
        "la",
        "vo"
      ],
      [
        "se",
        "m"
      ],
      [
        "vol",
        "ta"
      ],
      [
        "gi",
        "or"
      ],
      [
        "an",
        "te"
      ],
      [
        "to",
        "ri"
      ],
      [
        "mol",
        "to"
      ],
      [
        "den",
        "te"
      ],
      [
        "P",
        "er"
      ],
      [
        "an",
        "a"
      ],
      [
        "men",
        "tre"
      ],
      [
        "p",
        "ra"
      ],
      [
        "e",
        "si"
      ],
      [
        "e",
        "tà"
      ],
      [
        "ver",
        "so"
      ],
      [
        "el",
        "li"
      ],
      [
        "sta",
        "ta"
      ],
      [
        "a",
        "u"
      ],
      [
        "s",
        "con"
      ],
      [
        ")",
        ","
      ],
      [
        "f",
        "ine"
      ],
      [
        "po",
        "li"
      ],
      [
        "s",
        "tu"
      ],
      [
        "ne",
        "i"
      ],
      [
        "pri",
        "mo"
      ],
      [
        "at",
        "ta"
      ],
      [
        "z",
        "o"
      ],
      [
        "t",
        "tu"
      ],
      [
        "i",
        "a"
      ],
      [
        "ci",
        "r"
      ],
      [
        "nu",
        "m"
      ],
      [
        "va",
        "mente"
      ],
      [
        "s",
        "eri"
      ],
      [
        "C",
        "h"
      ],
      [
        "qu",
        "ando"
      ],
      [
        "c",
        "ci"
      ],
      [
        "t",
        "h"
      ],
      [
        "er",
        "ano"
      ],
      [
        "un",
        "e"
      ],
      [
        "vi",
        "ta"
      ],
      [
        "gli",
        "e"
      ],
      [
        "ar",
        "ti"
      ],
      [
        "g",
        "g"
      ],
      [
        "al",
        "lo"
      ],
      [
        "de",
        "ci"
      ],
      [
        "m",
        "er"
      ],
      [
        "f",
        "er"
      ],
      [
        "h",
        "anno"
      ],
      [
        "es",
        "a"
      ],
      [
        "o",
        "re"
      ],
      [
        "al",
        "tri"
      ],
      [
        "sul",
        "la"
      ],
      [
        "li",
        "b"
      ],
      [
        "f",
        "eri"
      ],
      [
        "ci",
        "p"
      ],
      [
        "di",
        "ver"
      ],
      [
        "pi",
        "e"
      ],
      [
        "co",
        "s"
      ],
      [
        "di",
        "re"
      ],
      [
        "mi",
        "li"
      ],
      [
        "qu",
        "ad"
      ],
      [
        "o",
        "lo"
      ],
      [
        "pi",
        "a"
      ],
      [
        "an",
        "e"
      ],
      [
        "ci",
        "t"
      ],
      [
        "ra",
        "p"
      ],
      [
        "pu",
        "ò"
      ],
      [
        "c",
        "cia"
      ],
      [
        "R",
        "e"
      ],
      [
        "p",
        "rin"
      ],
      [
        "t",
        "tura"
      ],
      [
        "ra",
        "to"
      ],
      [
        "v",
        "il"
      ],
      [
        "M",
        "i"
      ],
      [
        "so",
        "tto"
      ],
      [
        "per",
        "io"
      ],
      [
        "C",
        "a"
      ],
      [
        "es",
        "ti"
      ],
      [
        "ffi",
        "ci"
      ],
      [
        "c",
        "lu"
      ],
      [
        "s",
        "al"
      ],
      [
        "ste",
        "sso"
      ],
      [
        "ggi",
        "un"
      ],
      [
        "ri",
        "e"
      ],
      [
        "sc",
        "ri"
      ],
      [
        "gi",
        "a"
      ],
      [
        "lu",
        "i"
      ],
      [
        "a",
        "uto"
      ],
      [
        "ave",
        "va"
      ],
      [
        "t",
        "r"
      ],
      [
        "no",
        "me"
      ],
      [
        "t",
        "in"
      ],
      [
        "l",
        "tre"
      ],
      [
        "l",
        "un"
      ],
      [
        "c",
        "chi"
      ],
      [
        "cit",
        "tà"
      ],
      [
        "num",
        "ero"
      ],
      [
        "\"",
        "."
      ],
      [
        "con",
        "os"
      ],
      [
        "Do",
        "po"
      ],
      [
        "po",
        "sto"
      ],
      [
        "da",
        "i"
      ],
      [
        "gi",
        "u"
      ],
      [
        "ques",
        "ta"
      ],
      [
        "f",
        "il"
      ],
      [
        "uti",
        "li"
      ],
      [
        "P",
        "a"
      ],
      [
        "g",
        "ge"
      ],
      [
        "an",
        "to"
      ],
      [
        "con",
        "si"
      ],
      [
        "qu",
        "ali"
      ],
      [
        "f",
        "ino"
      ],
      [
        "co",
        "stru"
      ],
      [
        "g",
        "ru"
      ],
      [
        "u",
        "ta"
      ],
      [
        "m",
        "in"
      ],
      [
        "f",
        "o"
      ],
      [
        "den",
        "ti"
      ],
      [
        "mb",
        "re"
      ],
      [
        "p",
        "li"
      ],
      [
        "ali",
        "zza"
      ],
      [
        "tu",
        "tti"
      ],
      [
        "t",
        "ten"
      ],
      [
        "ff",
        "er"
      ],
      [
        "el",
        "la"
      ],
      [
        "cos",
        "ì"
      ],
      [
        "con",
        "tra"
      ],
      [
        "tto",
        "re"
      ],
      [
        "v",
        "al"
      ],
      [
        "man",
        "i"
      ],
      [
        "M",
        "ar"
      ],
      [
        "del",
        "lo"
      ],
      [
        "V",
        "i"
      ],
      [
        "s",
        "ca"
      ],
      [
        "d",
        "on"
      ],
      [
        "comp",
        "le"
      ],
      [
        "ta",
        "mente"
      ],
      [
        "qu",
        "indi"
      ],
      [
        "s",
        "pa"
      ],
      [
        "ra",
        "ga"
      ],
      [
        "qu",
        "a"
      ],
      [
        "R",
        "i"
      ],
      [
        "po",
        "s"
      ],
      [
        "g",
        "n"
      ],
      [
        "c",
        "k"
      ],
      [
        "qu",
        "ale"
      ],
      [
        "a",
        "ver"
      ],
      [
        "ti",
        "to"
      ],
      [
        "u",
        "s"
      ],
      [
        "f",
        "ini"
      ],
      [
        "b",
        "re"
      ],
      [
        "di",
        "ven"
      ],
      [
        "c",
        "la"
      ],
      [
        "so",
        "r"
      ],
      [
        "N",
        "e"
      ],
      [
        "spe",
        "ci"
      ],
      [
        "p",
        "ren"
      ],
      [
        "si",
        "oni"
      ],
      [
        "su",
        "e"
      ],
      [
        "segu",
        "ito"
      ],
      [
        "es",
        "sa"
      ],
      [
        "per",
        "ò"
      ],
      [
        "en",
        "do"
      ],
      [
        "ar",
        "d"
      ],
      [
        "presen",
        "ta"
      ],
      [
        "an",
        "za"
      ],
      [
        "pi",
        "o"
      ],
      [
        "fu",
        "rono"
      ],
      [
        "zion",
        "ale"
      ],
      [
        "tu",
        "r"
      ],
      [
        "G",
        "i"
      ],
      [
        "c",
        "ca"
      ],
      [
        "f",
        "ar"
      ],
      [
        "an",
        "cora"
      ],
      [
        "sen",
        "za"
      ],
      [
        "19",
        "9"
      ],
      [
        "m",
        "ma"
      ],
      [
        "ti",
        "vo"
      ],
      [
        "la",
        "zione"
      ],
      [
        "st",
        "re"
      ],
      [
        "an",
        "ta"
      ],
      [
        "c",
        "in"
      ],
      [
        "da",
        "to"
      ],
      [
        "com",
        "pa"
      ],
      [
        "du",
        "rante"
      ],
      [
        "ar",
        "ri"
      ],
      [
        "di",
        "ce"
      ],
      [
        "ca",
        "sa"
      ],
      [
        "s",
        "in"
      ],
      [
        "ssi",
        "one"
      ],
      [
        "sem",
        "pre"
      ],
      [
        "sta",
        "gione"
      ],
      [
        "fa",
        "tto"
      ],
      [
        "re",
        "bbe"
      ],
      [
        "po",
        "ssi"
      ],
      [
        "e",
        "me"
      ],
      [
        "pro",
        "du"
      ],
      [
        "ma",
        "ggio"
      ],
      [
        "succes",
        "si"
      ],
      [
        "ti",
        "va"
      ],
      [
        "tu",
        "tto"
      ],
      [
        "mo",
        "do"
      ],
      [
        "a",
        "zione"
      ],
      [
        "U",
        "n"
      ],
      [
        "seri",
        "e"
      ],
      [
        "\"",
        ","
      ],
      [
        "po",
        "po"
      ],
      [
        "cor",
        "so"
      ],
      [
        "m",
        "oni"
      ],
      [
        "per",
        "i"
      ],
      [
        "er",
        "ra"
      ],
      [
        "L",
        "o"
      ],
      [
        "fa",
        "mi"
      ],
      [
        "A",
        "r"
      ],
      [
        "g",
        "re"
      ],
      [
        "en",
        "tra"
      ],
      [
        "el",
        "o"
      ],
      [
        "p",
        "on"
      ],
      [
        "s",
        "cu"
      ],
      [
        "ri",
        "co"
      ],
      [
        "secon",
        "do"
      ],
      [
        "ori",
        "g"
      ],
      [
        "ma",
        "to"
      ],
      [
        "so",
        "pra"
      ],
      [
        "P",
        "i"
      ],
      [
        "gran",
        "de"
      ],
      [
        "a",
        "mi"
      ],
      [
        "o",
        "gni"
      ],
      [
        "ma",
        "i"
      ],
      [
        "S",
        "u"
      ],
      [
        "s",
        "quad"
      ],
      [
        "la",
        "to"
      ],
      [
        "P",
        "o"
      ],
      [
        "tta",
        "via"
      ],
      [
        "prin",
        "cip"
      ],
      [
        "a",
        "bb"
      ],
      [
        "u",
        "cci"
      ],
      [
        "or",
        "g"
      ],
      [
        "ra",
        "c"
      ],
      [
        "c",
        "al"
      ],
      [
        "ter",
        "i"
      ],
      [
        "so",
        "l"
      ],
      [
        "T",
        "u"
      ],
      [
        "I",
        "I"
      ],
      [
        "stan",
        "te"
      ],
      [
        "or",
        "di"
      ],
      [
        "ca",
        "usa"
      ],
      [
        "la",
        "ri"
      ],
      [
        "ta",
        "r"
      ],
      [
        "i",
        "re"
      ],
      [
        "ca",
        "ra"
      ],
      [
        "D",
        "u"
      ],
      [
        "ff",
        "e"
      ],
      [
        "ta",
        "ta"
      ],
      [
        "ri",
        "ca"
      ],
      [
        "cer",
        "ca"
      ],
      [
        "alc",
        "uni"
      ],
      [
        "m",
        "ano"
      ],
      [
        "ri",
        "to"
      ],
      [
        "vi",
        "si"
      ],
      [
        "por",
        "tan"
      ],
      [
        "gru",
        "ppo"
      ],
      [
        "pa",
        "ssa"
      ],
      [
        "ca",
        "pi"
      ],
      [
        "quel",
        "lo"
      ],
      [
        "so",
        "ci"
      ],
      [
        "ques",
        "ti"
      ],
      [
        "re",
        "gi"
      ],
      [
        "i",
        "r"
      ],
      [
        "ra",
        "re"
      ],
      [
        "quel",
        "la"
      ],
      [
        "u",
        "ro"
      ],
      [
        "la",
        "s"
      ],
      [
        "con",
        "o"
      ],
      [
        "nuo",
        "vo"
      ],
      [
        "1",
        "5"
      ],
      [
        "st",
        "ri"
      ],
      [
        "ti",
        "co"
      ],
      [
        "se",
        "gna"
      ],
      [
        "con",
        "tin"
      ],
      [
        "es",
        "ta"
      ],
      [
        "l",
        "ine"
      ],
      [
        "men",
        "o"
      ],
      [
        "1",
        "0"
      ],
      [
        "v",
        "ere"
      ],
      [
        "a",
        "bi"
      ],
      [
        "vi",
        "tà"
      ],
      [
        "cam",
        "bi"
      ],
      [
        "1",
        "7"
      ],
      [
        "p",
        "pa"
      ],
      [
        "H",
        "a"
      ],
      [
        "D",
        "e"
      ],
      [
        "bili",
        "tà"
      ],
      [
        "secon",
        "da"
      ],
      [
        "le",
        "ga"
      ],
      [
        "gio",
        "v"
      ],
      [
        "D",
        "a"
      ],
      [
        "al",
        "tro"
      ],
      [
        "oper",
        "a"
      ],
      [
        "cara",
        "tter"
      ],
      [
        "sta",
        "ti"
      ],
      [
        "al",
        "tre"
      ],
      [
        "si",
        "ste"
      ],
      [
        "ci",
        "ò"
      ],
      [
        "tan",
        "to"
      ],
      [
        "cir",
        "ca"
      ],
      [
        "ta",
        "no"
      ],
      [
        "L",
        "i"
      ],
      [
        "ini",
        "zi"
      ],
      [
        "b",
        "at"
      ],
      [
        "t",
        "ò"
      ],
      [
        "ona",
        "to"
      ],
      [
        "di",
        "e"
      ],
      [
        "fami",
        "glia"
      ],
      [
        "ta",
        "l"
      ],
      [
        "b",
        "er"
      ],
      [
        "el",
        "i"
      ],
      [
        "mor",
        "te"
      ],
      [
        "da",
        "ta"
      ],
      [
        "fil",
        "m"
      ],
      [
        "le",
        "i"
      ],
      [
        "ra",
        "ggiun"
      ],
      [
        "utili",
        "zza"
      ],
      [
        "S",
        "o"
      ],
      [
        "G",
        "li"
      ],
      [
        "dal",
        "le"
      ],
      [
        "s",
        "chi"
      ],
      [
        "po",
        "sta"
      ],
      [
        "gh",
        "i"
      ],
      [
        "s",
        "cen"
      ],
      [
        "parti",
        "co"
      ],
      [
        "zi",
        "e"
      ],
      [
        "l",
        "in"
      ],
      [
        "ar",
        "ono"
      ],
      [
        "lo",
        "c"
      ],
      [
        "d",
        "ono"
      ],
      [
        "in",
        "si"
      ],
      [
        "el",
        "le"
      ],
      [
        "m",
        "ine"
      ],
      [
        "b",
        "bi"
      ],
      [
        "tra",
        "tta"
      ],
      [
        "ggi",
        "or"
      ],
      [
        "es",
        "si"
      ],
      [
        "f",
        "un"
      ],
      [
        "U",
        "ni"
      ],
      [
        "pa",
        "dre"
      ],
      [
        "c",
        "ro"
      ],
      [
        "qu",
        "anto"
      ],
      [
        "1",
        "6"
      ],
      [
        "u",
        "ffici"
      ],
      [
        "as",
        "so"
      ],
      [
        "h",
        "i"
      ],
      [
        "org",
        "ani"
      ],
      [
        "pubbli",
        "ca"
      ],
      [
        "per",
        "ché"
      ],
      [
        "S",
        "an"
      ],
      [
        "pe",
        "tto"
      ],
      [
        "s",
        "ter"
      ],
      [
        "ri",
        "ce"
      ],
      [
        "mu",
        "si"
      ],
      [
        "d",
        "era"
      ],
      [
        "ggi",
        "a"
      ],
      [
        "u",
        "sci"
      ],
      [
        "propri",
        "o"
      ],
      [
        "C",
        "i"
      ],
      [
        "pa",
        "ra"
      ],
      [
        "19",
        "8"
      ],
      [
        "p",
        "p"
      ],
      [
        "N",
        "a"
      ],
      [
        "ali",
        "tà"
      ],
      [
        "z",
        "zi"
      ],
      [
        "i",
        "tali"
      ],
      [
        "so",
        "la"
      ],
      [
        "ven",
        "gono"
      ],
      [
        "h",
        "o"
      ],
      [
        "posi",
        "zione"
      ],
      [
        "da",
        "re"
      ],
      [
        "at",
        "tro"
      ],
      [
        "ve",
        "ce"
      ],
      [
        "so",
        "li"
      ],
      [
        "uo",
        "mo"
      ],
      [
        "un",
        "que"
      ],
      [
        "no",
        "r"
      ],
      [
        "cam",
        "pi"
      ],
      [
        "tor",
        "na"
      ],
      [
        "f",
        "re"
      ],
      [
        "b",
        "en"
      ],
      [
        "la",
        "r"
      ],
      [
        "mon",
        "do"
      ],
      [
        "di",
        "vi"
      ],
      [
        "L",
        "u"
      ],
      [
        "im",
        "portan"
      ],
      [
        "sto",
        "ria"
      ],
      [
        "por",
        "to"
      ],
      [
        "h",
        "e"
      ],
      [
        "gu",
        "a"
      ],
      [
        "fi",
        "ci"
      ],
      [
        "es",
        "se"
      ],
      [
        "qu",
        "al"
      ],
      [
        "inter",
        "no"
      ],
      [
        "F",
        "ran"
      ],
      [
        "ta",
        "zione"
      ],
      [
        "vil",
        "u"
      ],
      [
        "a",
        "ssi"
      ],
      [
        "perio",
        "do"
      ],
      [
        "t",
        "ina"
      ],
      [
        "com",
        "uni"
      ],
      [
        "contin",
        "u"
      ],
      [
        "st",
        "ro"
      ],
      [
        "pers",
        "ona"
      ],
      [
        "ri",
        "ma"
      ],
      [
        "pro",
        "ge"
      ],
      [
        "ol",
        "tre"
      ],
      [
        "su",
        "per"
      ],
      [
        "at",
        "tra"
      ],
      [
        "s",
        "vilu"
      ],
      [
        "e",
        "ffe"
      ],
      [
        "in",
        "vece"
      ],
      [
        "Nel",
        "la"
      ],
      [
        "ven",
        "i"
      ],
      [
        "S",
        "a"
      ],
      [
        "n",
        "ero"
      ],
      [
        "c",
        "c"
      ],
      [
        "r",
        "à"
      ],
      [
        "pun",
        "to"
      ],
      [
        "insi",
        "eme"
      ],
      [
        "i",
        "s"
      ],
      [
        "ri",
        "sul"
      ],
      [
        "gen",
        "er"
      ],
      [
        "b",
        "e"
      ],
      [
        "pi",
        "cco"
      ],
      [
        "ri",
        "es"
      ],
      [
        "f",
        "ron"
      ],
      [
        "ci",
        "tà"
      ],
      [
        "qu",
        "attro"
      ],
      [
        "di",
        "f"
      ],
      [
        "pre",
        "sso"
      ],
      [
        "Ques",
        "ta"
      ],
      [
        "ca",
        "so"
      ],
      [
        "gu",
        "ar"
      ],
      [
        "o",
        "tten"
      ],
      [
        "pa",
        "re"
      ],
      [
        "me",
        "tri"
      ],
      [
        "el",
        "l"
      ],
      [
        "pos",
        "sono"
      ],
      [
        "ser",
        "vi"
      ],
      [
        "con",
        "ta"
      ],
      [
        "s",
        "on"
      ],
      [
        "J",
        "o"
      ],
      [
        "k",
        "e"
      ],
      [
        "sti",
        "ca"
      ],
      [
        "caratter",
        "i"
      ],
      [
        "den",
        "do"
      ],
      [
        "ra",
        "ta"
      ],
      [
        "mol",
        "ti"
      ],
      [
        "pre",
        "ce"
      ],
      [
        "a",
        "ff"
      ],
      [
        "bi",
        "to"
      ],
      [
        "ser",
        "va"
      ],
      [
        "ulti",
        "mo"
      ],
      [
        "s",
        "ero"
      ],
      [
        "cla",
        "ssi"
      ],
      [
        "f",
        "os"
      ],
      [
        "ini",
        "zia"
      ],
      [
        "te",
        "c"
      ],
      [
        "o",
        "tto"
      ],
      [
        "da",
        "ti"
      ],
      [
        "r",
        "ano"
      ],
      [
        "mo",
        "stra"
      ],
      [
        "ese",
        "m"
      ],
      [
        "r",
        "si"
      ],
      [
        "se",
        "tte"
      ],
      [
        "a",
        "gli"
      ],
      [
        "vo",
        "le"
      ],
      [
        "1",
        "2"
      ],
      [
        "do",
        "v"
      ],
      [
        "gra",
        "fi"
      ],
      [
        "cor",
        "po"
      ],
      [
        "sp",
        "esso"
      ],
      [
        "las",
        "cia"
      ],
      [
        "on",
        "ale"
      ],
      [
        "tu",
        "re"
      ],
      [
        "C",
        "ar"
      ],
      [
        "ar",
        "si"
      ],
      [
        "po",
        "ter"
      ],
      [
        "Co",
        "m"
      ],
      [
        "t",
        "on"
      ],
      [
        "atti",
        "vità"
      ],
      [
        "re",
        "alizza"
      ],
      [
        "R",
        "a"
      ],
      [
        "00",
        "0"
      ],
      [
        "ba",
        "mb"
      ],
      [
        "19",
        "7"
      ],
      [
        "squad",
        "ra"
      ],
      [
        "lavo",
        "ro"
      ],
      [
        "Ques",
        "to"
      ],
      [
        "U",
        "na"
      ],
      [
        "gior",
        "no"
      ],
      [
        "ti",
        "vi"
      ],
      [
        "l",
        "la"
      ],
      [
        "gu",
        "erra"
      ],
      [
        "19",
        "4"
      ],
      [
        "ino",
        "ltre"
      ],
      [
        "1",
        "4"
      ],
      [
        "cen",
        "do"
      ],
      [
        "li",
        "v"
      ],
      [
        "gu",
        "i"
      ],
      [
        "lu",
        "o"
      ],
      [
        "c",
        "ce"
      ],
      [
        "chi",
        "esa"
      ],
      [
        "ra",
        "zione"
      ],
      [
        "gi",
        "à"
      ],
      [
        "I",
        "tali"
      ],
      [
        "ma",
        "ggior"
      ],
      [
        "do",
        "tto"
      ],
      [
        "de",
        "fini"
      ],
      [
        "B",
        "o"
      ],
      [
        "es",
        "t"
      ],
      [
        "me",
        "mb"
      ],
      [
        "vi",
        "sta"
      ],
      [
        "fi",
        "glio"
      ],
      [
        "po",
        "te"
      ],
      [
        "c",
        "ano"
      ],
      [
        "ono",
        "stante"
      ],
      [
        "F",
        "u"
      ],
      [
        "en",
        "a"
      ],
      [
        "P",
        "ro"
      ],
      [
        "vo",
        "lu"
      ],
      [
        "T",
        "o"
      ],
      [
        "diver",
        "si"
      ],
      [
        "an",
        "n"
      ],
      [
        "o",
        "la"
      ],
      [
        "ba",
        "se"
      ],
      [
        "den",
        "za"
      ],
      [
        "va",
        "ri"
      ],
      [
        "in",
        "forma"
      ],
      [
        "ne",
        "gli"
      ],
      [
        "go",
        "ver"
      ],
      [
        "na",
        "zionale"
      ],
      [
        "T",
        "ra"
      ],
      [
        "cu",
        "ra"
      ],
      [
        "fa",
        "re"
      ],
      [
        "pers",
        "one"
      ],
      [
        "p",
        "es"
      ],
      [
        "se",
        "colo"
      ],
      [
        "o",
        "ra"
      ],
      [
        "gh",
        "e"
      ],
      [
        "siste",
        "ma"
      ],
      [
        "ca",
        "ta"
      ],
      [
        "vol",
        "te"
      ],
      [
        "cu",
        "l"
      ],
      [
        "co",
        "stitu"
      ],
      [
        "consi",
        "dera"
      ],
      [
        "fra",
        "t"
      ],
      [
        "i",
        "de"
      ],
      [
        "ti",
        "ve"
      ],
      [
        "e",
        "de"
      ],
      [
        "b",
        "il"
      ],
      [
        "inf",
        "atti"
      ],
      [
        "gra",
        "do"
      ],
      [
        "ver",
        "o"
      ],
      [
        "tu",
        "tte"
      ],
      [
        "bu",
        "m"
      ],
      [
        "f",
        "ran"
      ],
      [
        "chia",
        "ma"
      ],
      [
        "ces",
        "so"
      ],
      [
        "conos",
        "ci"
      ],
      [
        "o",
        "p"
      ],
      [
        "F",
        "i"
      ],
      [
        "ti",
        "che"
      ],
      [
        "ta",
        "ri"
      ],
      [
        "nuo",
        "va"
      ],
      [
        "1",
        "3"
      ],
      [
        "vi",
        "c"
      ],
      [
        "b",
        "le"
      ],
      [
        "b",
        "ri"
      ],
      [
        "m",
        "eri"
      ],
      [
        "di",
        "ri"
      ],
      [
        "al",
        "bum"
      ],
      [
        "de",
        "si"
      ],
      [
        "g",
        "er"
      ],
      [
        "me",
        "tte"
      ],
      [
        "succes",
        "so"
      ],
      [
        "lun",
        "go"
      ],
      [
        "Qu",
        "ando"
      ],
      [
        "alc",
        "une"
      ],
      [
        "ter",
        "ra"
      ],
      [
        "k",
        "i"
      ],
      [
        "ver",
        "si"
      ],
      [
        "zi",
        "ona"
      ],
      [
        "don",
        "na"
      ],
      [
        "ti",
        "po"
      ],
      [
        "ri",
        "man"
      ],
      [
        "oc",
        "cu"
      ],
      [
        "pri",
        "mi"
      ],
      [
        "in",
        "ten"
      ],
      [
        "cen",
        "tro"
      ],
      [
        "re",
        "si"
      ],
      [
        "o",
        "v"
      ],
      [
        "B",
        "a"
      ],
      [
        "M",
        "on"
      ],
      [
        "tito",
        "lo"
      ],
      [
        "s",
        "mo"
      ],
      [
        "N",
        "on"
      ],
      [
        "po",
        "ten"
      ],
      [
        "ri",
        "ti"
      ],
      [
        "co",
        "li"
      ],
      [
        "ter",
        "io"
      ],
      [
        "tan",
        "do"
      ],
      [
        "Du",
        "rante"
      ],
      [
        "pi",
        "ano"
      ],
      [
        "ma",
        "dre"
      ],
      [
        "M",
        "o"
      ],
      [
        "pro",
        "te"
      ],
      [
        "for",
        "te"
      ],
      [
        "me",
        "di"
      ],
      [
        "in",
        "ci"
      ],
      [
        "po",
        "co"
      ],
      [
        "li",
        "o"
      ],
      [
        "fin",
        "ale"
      ],
      [
        "ca",
        "re"
      ],
      [
        "19",
        "6"
      ],
      [
        "gio",
        "cato"
      ],
      [
        "l",
        "lo"
      ],
      [
        "en",
        "o"
      ],
      [
        "t",
        "ele"
      ],
      [
        "e",
        "pi"
      ],
      [
        "M",
        "e"
      ],
      [
        "ven",
        "ti"
      ],
      [
        "i",
        "ta"
      ],
      [
        "organi",
        "zza"
      ],
      [
        "3",
        "0"
      ],
      [
        "b",
        "an"
      ],
      [
        "u",
        "so"
      ],
      [
        "er",
        "ci"
      ],
      [
        "tan",
        "ti"
      ],
      [
        "gio",
        "co"
      ],
      [
        "b",
        "ar"
      ],
      [
        "su",
        "i"
      ],
      [
        "me",
        "dia"
      ],
      [
        "ste",
        "ssa"
      ],
      [
        "stan",
        "za"
      ],
      [
        "k",
        "a"
      ],
      [
        "ga",
        "re"
      ],
      [
        "v",
        "vi"
      ],
      [
        "ap",
        "par"
      ],
      [
        "ri",
        "ve"
      ],
      [
        "ven",
        "to"
      ],
      [
        "r",
        "y"
      ],
      [
        "le",
        "tter"
      ],
      [
        "ver",
        "sa"
      ],
      [
        "Itali",
        "a"
      ],
      [
        "fon",
        "da"
      ],
      [
        "mi",
        "a"
      ],
      [
        "G",
        "u"
      ],
      [
        "p",
        "pe"
      ],
      [
        "va",
        "to"
      ],
      [
        "tor",
        "no"
      ],
      [
        "de",
        "di"
      ],
      [
        "di",
        "ffer"
      ],
      [
        "sul",
        "l"
      ],
      [
        "se",
        "mb"
      ],
      [
        "s",
        "ar"
      ],
      [
        "ti",
        "on"
      ],
      [
        "ca",
        "po"
      ],
      [
        "mo",
        "mento"
      ],
      [
        "5",
        "0"
      ],
      [
        "e",
        "vi"
      ],
      [
        "ver",
        "sione"
      ],
      [
        "qua",
        "si"
      ],
      [
        "mi",
        "ci"
      ],
      [
        "il",
        "l"
      ],
      [
        "s",
        "po"
      ],
      [
        "si",
        "tu"
      ],
      [
        "possi",
        "bile"
      ],
      [
        "tta",
        "n"
      ],
      [
        "es",
        "ter"
      ],
      [
        "ti",
        "ci"
      ],
      [
        "con",
        "ten"
      ],
      [
        "es",
        "erci"
      ],
      [
        "ac",
        "ce"
      ],
      [
        "am",
        "bi"
      ],
      [
        "av",
        "ere"
      ],
      [
        "tra",
        "di"
      ],
      [
        "g",
        "ere"
      ],
      [
        "b",
        "ra"
      ],
      [
        "pre",
        "si"
      ],
      [
        "partico",
        "lare"
      ],
      [
        "ini",
        "zio"
      ],
      [
        "giov",
        "ane"
      ],
      [
        "u",
        "se"
      ],
      [
        "al",
        "tra"
      ],
      [
        "bb",
        "ero"
      ],
      [
        "luo",
        "go"
      ],
      [
        "ries",
        "ce"
      ],
      [
        "a",
        "ta"
      ],
      [
        "ar",
        "chi"
      ],
      [
        "ter",
        "mine"
      ],
      [
        "ma",
        "re"
      ],
      [
        "ri",
        "cor"
      ],
      [
        "produ",
        "zione"
      ],
      [
        "Tu",
        "ttavia"
      ],
      [
        "e",
        "t"
      ],
      [
        "as",
        "sa"
      ],
      [
        "diver",
        "se"
      ],
      [
        "ri",
        "chi"
      ],
      [
        "a",
        "mo"
      ],
      [
        "at",
        "tu"
      ],
      [
        "sin",
        "go"
      ],
      [
        "d",
        "eri"
      ],
      [
        "re",
        "go"
      ],
      [
        "sta",
        "te"
      ],
      [
        "pro",
        "ble"
      ],
      [
        "gu",
        "e"
      ],
      [
        "la",
        "bo"
      ],
      [
        "ran",
        "e"
      ],
      [
        "com",
        "pe"
      ],
      [
        "co",
        "sa"
      ],
      [
        "o",
        "ggi"
      ],
      [
        "ne",
        "ces"
      ],
      [
        "ques",
        "te"
      ],
      [
        "T",
        "e"
      ],
      [
        "g",
        "ine"
      ],
      [
        "a",
        "per"
      ],
      [
        "C",
        "or"
      ],
      [
        "scon",
        "fi"
      ],
      [
        "an",
        "g"
      ],
      [
        "mi",
        "ssione"
      ],
      [
        "d",
        "ra"
      ],
      [
        "cam",
        "po"
      ],
      [
        "ver",
        "i"
      ],
      [
        "car",
        "ri"
      ],
      [
        "An",
        "che"
      ],
      [
        "a",
        "pri"
      ],
      [
        "ulti",
        "ma"
      ],
      [
        "re",
        "sta"
      ],
      [
        "ve",
        "de"
      ],
      [
        "no",
        "ve"
      ],
      [
        "deci",
        "de"
      ],
      [
        "sul",
        "le"
      ],
      [
        "tu",
        "ttavia"
      ],
      [
        "im",
        "pe"
      ],
      [
        "c",
        "ò"
      ],
      [
        "ris",
        "petto"
      ],
      [
        "nel",
        "lo"
      ],
      [
        "N",
        "o"
      ],
      [
        "da",
        "gli"
      ],
      [
        "propri",
        "a"
      ],
      [
        "b",
        "or"
      ],
      [
        "soci",
        "età"
      ],
      [
        "p",
        "one"
      ],
      [
        "s",
        "pi"
      ],
      [
        "se",
        "i"
      ],
      [
        "Al",
        "la"
      ],
      [
        "su",
        "d"
      ],
      [
        "o",
        "ff"
      ],
      [
        "com",
        "une"
      ],
      [
        "gra",
        "zie"
      ],
      [
        "princip",
        "ale"
      ],
      [
        "raga",
        "zza"
      ],
      [
        "attra",
        "verso"
      ],
      [
        "E",
        "n"
      ],
      [
        "va",
        "ta"
      ],
      [
        "ar",
        "ma"
      ],
      [
        "mo",
        "glie"
      ],
      [
        "cen",
        "te"
      ],
      [
        "fos",
        "se"
      ],
      [
        "stru",
        "ttura"
      ],
      [
        "T",
        "he"
      ],
      [
        "sti",
        "co"
      ],
      [
        "ter",
        "mina"
      ],
      [
        "c",
        "ine"
      ],
      [
        "zion",
        "ali"
      ],
      [
        "va",
        "re"
      ],
      [
        "col",
        "le"
      ],
      [
        "fe",
        "m"
      ],
      [
        "man",
        "a"
      ],
      [
        "di",
        "ci"
      ],
      [
        "Ch",
        "i"
      ],
      [
        "pre",
        "se"
      ],
      [
        "tri",
        "ce"
      ],
      [
        "t",
        "ran"
      ],
      [
        "vi",
        "de"
      ],
      [
        "gen",
        "te"
      ],
      [
        "stu",
        "dio"
      ],
      [
        "uo",
        "mini"
      ],
      [
        "N",
        "i"
      ],
      [
        "la",
        "no"
      ],
      [
        "con",
        "do"
      ],
      [
        "la",
        "ti"
      ],
      [
        "en",
        "ze"
      ],
      [
        "tec",
        "ni"
      ],
      [
        "2",
        "5"
      ],
      [
        "s",
        "ch"
      ],
      [
        "g",
        "ina"
      ],
      [
        "de",
        "ve"
      ],
      [
        "s",
        "an"
      ],
      [
        "po",
        "ca"
      ],
      [
        "gi",
        "un"
      ],
      [
        "ac",
        "qua"
      ],
      [
        "m",
        "esso"
      ],
      [
        "cin",
        "que"
      ],
      [
        "liv",
        "ello"
      ],
      [
        "gran",
        "di"
      ],
      [
        "B",
        "e"
      ],
      [
        "gior",
        "ni"
      ],
      [
        "bi",
        "an"
      ],
      [
        "d",
        "an"
      ],
      [
        "ma",
        "ssi"
      ],
      [
        "e",
        "cono"
      ],
      [
        "tto",
        "ri"
      ],
      [
        "t",
        "ino"
      ],
      [
        "fi",
        "cio"
      ],
      [
        "D",
        "al"
      ],
      [
        "se",
        "tti"
      ],
      [
        "pro",
        "f"
      ],
      [
        "bil",
        "mente"
      ],
      [
        "te",
        "sta"
      ],
      [
        "popo",
        "lazione"
      ],
      [
        "zz",
        "e"
      ],
      [
        "la",
        "sci"
      ],
      [
        "ques",
        "t"
      ],
      [
        "m",
        "bi"
      ],
      [
        "er",
        "à"
      ],
      [
        "gener",
        "ale"
      ],
      [
        "eri",
        "a"
      ],
      [
        "o",
        "f"
      ],
      [
        "v",
        "esti"
      ],
      [
        "scon",
        "o"
      ],
      [
        "a",
        "ffi"
      ],
      [
        "oper",
        "e"
      ],
      [
        "il",
        "o"
      ],
      [
        "ac",
        "qui"
      ],
      [
        "e",
        "bbe"
      ],
      [
        "pro",
        "gra"
      ],
      [
        "e",
        "x"
      ],
      [
        "19",
        "5"
      ],
      [
        "si",
        "gni"
      ],
      [
        "a",
        "ti"
      ],
      [
        "ci",
        "tati"
      ],
      [
        "es",
        "te"
      ],
      [
        "ca",
        "zione"
      ],
      [
        "cor",
        "re"
      ],
      [
        "av",
        "rebbe"
      ],
      [
        "abb",
        "and"
      ],
      [
        "allo",
        "ra"
      ],
      [
        "li",
        "mi"
      ],
      [
        "spe",
        "tta"
      ],
      [
        "p",
        "lo"
      ],
      [
        "c",
        "ere"
      ],
      [
        "sti",
        "che"
      ],
      [
        "P",
        "e"
      ],
      [
        "mi",
        "co"
      ],
      [
        "cen",
        "tr"
      ],
      [
        "fi",
        "gu"
      ],
      [
        "sc",
        "el"
      ],
      [
        "I",
        "no"
      ],
      [
        "ven",
        "nero"
      ],
      [
        "presen",
        "te"
      ],
      [
        "p",
        "pi"
      ],
      [
        "st",
        "in"
      ],
      [
        "stu",
        "di"
      ],
      [
        "esem",
        "pio"
      ],
      [
        "p",
        "an"
      ],
      [
        "rap",
        "presenta"
      ],
      [
        "gi",
        "oni"
      ],
      [
        "com",
        "pi"
      ],
      [
        "Ino",
        "ltre"
      ],
      [
        "me",
        "tter"
      ],
      [
        "m",
        "po"
      ],
      [
        "1",
        "1"
      ],
      [
        "pun",
        "ti"
      ],
      [
        "maggio",
        "re"
      ],
      [
        "so",
        "re"
      ],
      [
        "for",
        "ni"
      ],
      [
        "lo",
        "gi"
      ],
      [
        "sem",
        "pli"
      ],
      [
        "for",
        "za"
      ],
      [
        "a",
        "go"
      ],
      [
        "19",
        "3"
      ],
      [
        "al",
        "tà"
      ],
      [
        "pre",
        "sa"
      ],
      [
        "pi",
        "c"
      ],
      [
        "ta",
        "rio"
      ],
      [
        "carri",
        "era"
      ],
      [
        "line",
        "a"
      ],
      [
        "tri",
        "bu"
      ],
      [
        "presen",
        "ti"
      ],
      [
        "t",
        "y"
      ],
      [
        "z",
        "one"
      ],
      [
        "a",
        "mente"
      ],
      [
        "v",
        "uo"
      ],
      [
        "m",
        "ino"
      ],
      [
        "di",
        "stru"
      ],
      [
        "st",
        "en"
      ],
      [
        "speci",
        "e"
      ],
      [
        "m",
        "essa"
      ],
      [
        "su",
        "perio"
      ],
      [
        "e",
        "poca"
      ],
      [
        "costru",
        "zione"
      ],
      [
        "parte",
        "ci"
      ],
      [
        "pie",
        "ga"
      ],
      [
        "ri",
        "feri"
      ],
      [
        "giu",
        "gno"
      ],
      [
        "Al",
        "l"
      ],
      [
        "ca",
        "te"
      ],
      [
        "pa",
        "ese"
      ],
      [
        "mol",
        "te"
      ],
      [
        "sette",
        "mbre"
      ],
      [
        "sa",
        "rebbe"
      ],
      [
        "mi",
        "gli"
      ],
      [
        "di",
        "ni"
      ],
      [
        "os",
        "pi"
      ],
      [
        "fi",
        "cato"
      ],
      [
        "di",
        "men"
      ],
      [
        "G",
        "io"
      ],
      [
        "z",
        "ona"
      ],
      [
        "te",
        "des"
      ],
      [
        "a",
        "do"
      ],
      [
        "al",
        "to"
      ],
      [
        "u",
        "te"
      ],
      [
        "ttu",
        "tto"
      ],
      [
        "B",
        "i"
      ],
      [
        "mi",
        "ca"
      ],
      [
        "mar",
        "zo"
      ],
      [
        "citati",
        "on"
      ],
      [
        "ap",
        "pro"
      ],
      [
        "compe",
        "ti"
      ],
      [
        "con",
        "di"
      ],
      [
        "ac",
        "cor"
      ],
      [
        "otto",
        "bre"
      ],
      [
        "t",
        "ru"
      ],
      [
        "na",
        "to"
      ],
      [
        "oc",
        "ca"
      ],
      [
        "a",
        "ggiun"
      ],
      [
        "re",
        "altà"
      ],
      [
        "R",
        "u"
      ],
      [
        "es",
        "tre"
      ],
      [
        "2",
        "4"
      ],
      [
        "se",
        "gn"
      ],
      [
        "fi",
        "glia"
      ],
      [
        "o",
        "gge"
      ],
      [
        "informa",
        "zioni"
      ],
      [
        "v",
        "elo"
      ],
      [
        "na",
        "io"
      ],
      [
        "b",
        "atta"
      ],
      [
        "p",
        "la"
      ],
      [
        "su",
        "bito"
      ],
      [
        "c",
        "li"
      ],
      [
        "mo",
        "di"
      ],
      [
        "im",
        "ma"
      ],
      [
        "B",
        "ar"
      ],
      [
        "a",
        "f"
      ],
      [
        "H",
        "o"
      ],
      [
        "g",
        "oni"
      ],
      [
        "ri",
        "cerca"
      ],
      [
        "sopra",
        "ttutto"
      ],
      [
        "po",
        "l"
      ],
      [
        "un",
        "cia"
      ],
      [
        "ca",
        "pa"
      ],
      [
        "s",
        "vol"
      ],
      [
        "sen",
        "ti"
      ],
      [
        "fi",
        "u"
      ],
      [
        "ta",
        "te"
      ],
      [
        "P",
        "ar"
      ],
      [
        "p",
        "pia"
      ],
      [
        "ran",
        "i"
      ],
      [
        "sco",
        "pre"
      ],
      [
        "di",
        "venne"
      ],
      [
        "fu",
        "ori"
      ],
      [
        "g",
        "ri"
      ],
      [
        "com",
        "mer"
      ],
      [
        "gen",
        "naio"
      ],
      [
        "ren",
        "de"
      ],
      [
        "m",
        "ale"
      ],
      [
        "lu",
        "glio"
      ],
      [
        "occu",
        "pa"
      ],
      [
        "ru",
        "olo"
      ],
      [
        "G",
        "a"
      ],
      [
        "gover",
        "no"
      ],
      [
        "r",
        "ale"
      ],
      [
        "chi",
        "o"
      ],
      [
        "Ro",
        "ma"
      ],
      [
        "P",
        "re"
      ],
      [
        "i",
        "sola"
      ],
      [
        "u",
        "m"
      ],
      [
        "epi",
        "so"
      ],
      [
        "c",
        "ale"
      ],
      [
        "ato",
        "re"
      ],
      [
        "fre",
        "qu"
      ],
      [
        "proge",
        "tto"
      ],
      [
        "pa",
        "ro"
      ],
      [
        "c",
        "chia"
      ],
      [
        "pa",
        "ri"
      ],
      [
        "tan",
        "te"
      ],
      [
        "at",
        "te"
      ],
      [
        "ma",
        "schi"
      ],
      [
        "frat",
        "ello"
      ],
      [
        "rito",
        "rio"
      ],
      [
        "s",
        "h"
      ],
      [
        "com",
        "unque"
      ],
      [
        "ago",
        "sto"
      ],
      [
        "m",
        "al"
      ],
      [
        "ing",
        "le"
      ],
      [
        "te",
        "sti"
      ],
      [
        "vil",
        "la"
      ],
      [
        "de",
        "tta"
      ],
      [
        "presen",
        "za"
      ],
      [
        "con",
        "f"
      ],
      [
        "con",
        "clu"
      ],
      [
        "col",
        "pi"
      ],
      [
        "tu",
        "tta"
      ],
      [
        "Co",
        "me"
      ],
      [
        "pren",
        "de"
      ],
      [
        "ti",
        "pi"
      ],
      [
        "o",
        "ro"
      ],
      [
        "ter",
        "ritorio"
      ],
      [
        "zza",
        "to"
      ],
      [
        "b",
        "ene"
      ],
      [
        "dice",
        "mbre"
      ],
      [
        "apri",
        "le"
      ],
      [
        "i",
        "denti"
      ],
      [
        "as",
        "s"
      ],
      [
        "T",
        "or"
      ],
      [
        "regi",
        "stra"
      ],
      [
        "la",
        "ta"
      ],
      [
        "sp",
        "on"
      ],
      [
        "F",
        "or"
      ],
      [
        "m",
        "pa"
      ],
      [
        "ris",
        "pon"
      ],
      [
        "bbi",
        "a"
      ],
      [
        "v",
        "ono"
      ],
      [
        "de",
        "tto"
      ],
      [
        "m",
        "uo"
      ],
      [
        "di",
        "n"
      ],
      [
        "mi",
        "glio"
      ],
      [
        "uni",
        "tà"
      ],
      [
        "al",
        "li"
      ],
      [
        "pen",
        "sa"
      ],
      [
        "f",
        "ru"
      ],
      [
        "tta",
        "mente"
      ]
    ]
  }
}