{
  "version": "1.0",
  "truncation": null,
  "padding": null,
  "added_tokens": [
    {
      "id": 0,
      "content": "<UNK>",
      "single_word": false,
      "lstrip": false,
      "rstrip": false,
      "normalized": false,
      "special": true
    },
    {
      "id": 1,
      "content": "<SEP>",
      "single_word": false,
      "lstrip": false,
      "rstrip": false,
      "normalized": false,
      "special": true
    },
    {
      "id": 2,
      "content": "<MASK>",
      "single_word": false,
      "lstrip": false,
      "rstrip": false,
      "normalized": false,
      "special": true
    },
    {
      "id": 3,
      "content": "<CLS>",
      "single_word": false,
      "lstrip": false,
      "rstrip": false,
      "normalized": false,
      "special": true
    }
  ],
  "normalizer": null,
  "pre_tokenizer": {
    "type": "Whitespace"
  },
  "post_processor": null,
  "decoder": null,
  "model": {
    "type": "BPE",
    "dropout": null,
    "unk_token": "<UNK>",
    "continuing_subword_prefix": null,
    "end_of_word_suffix": null,
    "fuse_unk": false,
    "byte_fallback": false,
    "ignore_merges": false,
    "vocab": {
      "<UNK>": 0,
      "<SEP>": 1,
      "<MASK>": 2,
      "<CLS>": 3,
      "!": 4,
      "\"": 5,
      "$": 6,
      "%": 7,
      "&": 8,
      "'": 9,
      "(": 10,
      ")": 11,
      "*": 12,
      "+": 13,
      ",": 14,
      "-": 15,
      ".": 16,
      "/": 17,
      "0": 18,
      "1": 19,
      "2": 20,
      "3": 21,
      "4": 22,
      "5": 23,
      "6": 24,
      "7": 25,
      "8": 26,
      "9": 27,
      ":": 28,
      ";": 29,
      "<": 30,
      ">": 31,
      "?": 32,
      "A": 33,
      "B": 34,
      "C": 35,
      "D": 36,
      "E": 37,
      "F": 38,
      "G": 39,
      "H": 40,
      "I": 41,
      "J": 42,
      "K": 43,
      "L": 44,
      "M": 45,
      "N": 46,
      "O": 47,
      "P": 48,
      "Q": 49,
      "R": 50,
      "S": 51,
      "T": 52,
      "U": 53,
      "V": 54,
      "W": 55,
      "X": 56,
      "Y": 57,
      "Z": 58,
      "`": 59,
      "a": 60,
      "b": 61,
      "c": 62,
      "d": 63,
      "e": 64,
      "f": 65,
      "g": 66,
      "h": 67,
      "i": 68,
      "j": 69,
      "k": 70,
      "l": 71,
      "m": 72,
      "n": 73,
      "o": 74,
      "p": 75,
      "q": 76,
      "r": 77,
      "s": 78,
      "t": 79,
      "u": 80,
      "v": 81,
      "w": 82,
      "x": 83,
      "y": 84,
      "z": 85,
      "~": 86,
      "¡": 87,
      "¢": 88,
      "£": 89,
      "¥": 90,
      "§": 91,
      "«": 92,
      "®": 93,
      "°": 94,
      "±": 95,
      "²": 96,
      "³": 97,
      "´": 98,
      "µ": 99,
      "·": 100,
      "¸": 101,
      "º": 102,
      "»": 103,
      "¼": 104,
      "½": 105,
      "¾": 106,
      "¿": 107,
      "À": 108,
      "Á": 109,
      "Ä": 110,
      "Å": 111,
      "Æ": 112,
      "Ç": 113,
      "È": 114,
      "É": 115,
      "Ê": 116,
      "Í": 117,
      "Î": 118,
      "Ð": 119,
      "Ñ": 120,
      "Ó": 121,
      "Ô": 122,
      "Õ": 123,
      "Ö": 124,
      "×": 125,
      "Ø": 126,
      "Ú": 127,
      "Ü": 128,
      "Þ": 129,
      "ß": 130,
      "à": 131,
      "á": 132,
      "â": 133,
      "ã": 134,
      "ä": 135,
      "å": 136,
      "æ": 137,
      "ç": 138,
      "è": 139,
      "é": 140,
      "ê": 141,
      "ë": 142,
      "ì": 143,
      "í": 144,
      "î": 145,
      "ï": 146,
      "ð": 147,
      "ñ": 148,
      "ò": 149,
      "ó": 150,
      "ô": 151,
      "õ": 152,
      "ö": 153,
      "÷": 154,
      "ø": 155,
      "ù": 156,
      "ú": 157,
      "û": 158,
      "ü": 159,
      "ý": 160,
      "þ": 161,
      "ÿ": 162,
      "Ā": 163,
      "ā": 164,
      "ă": 165,
      "ą": 166,
      "Ć": 167,
      "ć": 168,
      "Č": 169,
      "č": 170,
      "ď": 171,
      "Đ": 172,
      "đ": 173,
      "Ē": 174,
      "ē": 175,
      "ė": 176,
      "ę": 177,
      "ě": 178,
      "ğ": 179,
      "Ġ": 180,
      "ħ": 181,
      "ĩ": 182,
      "ī": 183,
      "ĭ": 184,
      "į": 185,
      "İ": 186,
      "ı": 187,
      "ķ": 188,
      "ļ": 189,
      "Ľ": 190,
      "ľ": 191,
      "Ł": 192,
      "ł": 193,
      "ń": 194,
      "ņ": 195,
      "ň": 196,
      "Ō": 197,
      "ō": 198,
      "ŏ": 199,
      "Ő": 200,
      "ő": 201,
      "Œ": 202,
      "œ": 203,
      "ŕ": 204,
      "ř": 205,
      "Ś": 206,
      "ś": 207,
      "Ş": 208,
      "ş": 209,
      "Š": 210,
      "š": 211,
      "Ţ": 212,
      "ţ": 213,
      "ť": 214,
      "ũ": 215,
      "ū": 216,
      "ŭ": 217,
      "ů": 218,
      "ű": 219,
      "ų": 220,
      "ŵ": 221,
      "ŷ": 222,
      "ź": 223,
      "Ż": 224,
      "ż": 225,
      "Ž": 226,
      "ž": 227,
      "ſ": 228,
      "Ɔ": 229,
      "ƚ": 230,
      "ơ": 231,
      "ư": 232,
      "Ǎ": 233,
      "ǎ": 234,
      "ǐ": 235,
      "ǒ": 236,
      "ǔ": 237,
      "ǚ": 238,
      "ǝ": 239,
      "ș": 240,
      "ț": 241,
      "ɐ": 242,
      "ɑ": 243,
      "ɔ": 244,
      "ə": 245,
      "ɛ": 246,
      "ɟ": 247,
      "ɡ": 248,
      "ɤ": 249,
      "ɪ": 250,
      "ɫ": 251,
      "ɬ": 252,
      "ɹ": 253,
      "ʃ": 254,
      "ʇ": 255,
      "ʊ": 256,
      "ʎ": 257,
      "ʒ": 258,
      "ʷ": 259,
      "ʹ": 260,
      "ʻ": 261,
      "ʼ": 262,
      "ʾ": 263,
      "ʿ": 264,
      "ˇ": 265,
      "ˈ": 266,
      "ˊ": 267,
      "ˌ": 268,
      "ː": 269,
      "˚": 270,
      "ˤ": 271,
      "́": 272,
      "̄": 273,
      "̝": 274,
      "̧": 275,
      "̱": 276,
      "Ά": 277,
      "Α": 278,
      "Β": 279,
      "Δ": 280,
      "Ε": 281,
      "Η": 282,
      "Θ": 283,
      "Κ": 284,
      "Λ": 285,
      "Μ": 286,
      "Π": 287,
      "Σ": 288,
      "Τ": 289,
      "Ψ": 290,
      "Ω": 291,
      "ά": 292,
      "έ": 293,
      "ή": 294,
      "ί": 295,
      "α": 296,
      "β": 297,
      "γ": 298,
      "δ": 299,
      "ε": 300,
      "ζ": 301,
      "η": 302,
      "θ": 303,
      "ι": 304,
      "κ": 305,
      "λ": 306,
      "μ": 307,
      "ν": 308,
      "ξ": 309,
      "ο": 310,
      "π": 311,
      "ρ": 312,
      "ς": 313,
      "σ": 314,
      "τ": 315,
      "υ": 316,
      "φ": 317,
      "χ": 318,
      "ψ": 319,
      "ω": 320,
      "ϊ": 321,
      "ό": 322,
      "ύ": 323,
      "ώ": 324,
      "А": 325,
      "Б": 326,
      "В": 327,
      "Г": 328,
      "Д": 329,
      "Е": 330,
      "Ж": 331,
      "З": 332,
      "И": 333,
      "Й": 334,
      "К": 335,
      "Л": 336,
      "М": 337,
      "О": 338,
      "П": 339,
      "Р": 340,
      "С": 341,
      "Т": 342,
      "У": 343,
      "Ш": 344,
      "Ю": 345,
      "Я": 346,
      "а": 347,
      "б": 348,
      "в": 349,
      "г": 350,
      "д": 351,
      "е": 352,
      "ж": 353,
      "з": 354,
      "и": 355,
      "й": 356,
      "к": 357,
      "л": 358,
      "м": 359,
      "н": 360,
      "о": 361,
      "п": 362,
      "р": 363,
      "с": 364,
      "т": 365,
      "у": 366,
      "х": 367,
      "ц": 368,
      "ч": 369,
      "ш": 370,
      "ы": 371,
      "ь": 372,
      "э": 373,
      "ю": 374,
      "я": 375,
      "і": 376,
      "ї": 377,
      "ћ": 378,
      "҆": 379,
      "Ա": 380,
      "Հ": 381,
      "Ջ": 382,
      "Ս": 383,
      "ա": 384,
      "բ": 385,
      "գ": 386,
      "ե": 387,
      "ի": 388,
      "խ": 389,
      "կ": 390,
      "մ": 391,
      "յ": 392,
      "ն": 393,
      "ո": 394,
      "ս": 395,
      "ր": 396,
      "ւ": 397,
      "ָ": 398,
      "ׁ": 399,
      "א": 400,
      "ב": 401,
      "ד": 402,
      "ה": 403,
      "ו": 404,
      "ז": 405,
      "י": 406,
      "כ": 407,
      "ל": 408,
      "מ": 409,
      "ע": 410,
      "פ": 411,
      "ץ": 412,
      "צ": 413,
      "ק": 414,
      "ר": 415,
      "ש": 416,
      "ء": 417,
      "آ": 418,
      "أ": 419,
      "إ": 420,
      "ا": 421,
      "ب": 422,
      "ة": 423,
      "ت": 424,
      "ث": 425,
      "ج": 426,
      "ح": 427,
      "خ": 428,
      "د": 429,
      "ذ": 430,
      "ر": 431,
      "ز": 432,
      "س": 433,
      "ش": 434,
      "ص": 435,
      "ط": 436,
      "ظ": 437,
      "ع": 438,
      "غ": 439,
      "ـ": 440,
      "ف": 441,
      "ق": 442,
      "ك": 443,
      "ل": 444,
      "م": 445,
      "ن": 446,
      "ه": 447,
      "و": 448,
      "ى": 449,
      "ي": 450,
      "ّ": 451,
      "ْ": 452,
      "پ": 453,
      "چ": 454,
      "ڈ": 455,
      "ڠ": 456,
      "ک": 457,
      "گ": 458,
      "ں": 459,
      "ھ": 460,
      "ہ": 461,
      "ی": 462,
      "܀": 463,
      "ܐ": 464,
      "ܒ": 465,
      "ܕ": 466,
      "ܘ": 467,
      "ܚ": 468,
      "ܛ": 469,
      "ܝ": 470,
      "ܟ": 471,
      "ܠ": 472,
      "ܡ": 473,
      "ܢ": 474,
      "ܣ": 475,
      "ܦ": 476,
      "ܪ": 477,
      "ܫ": 478,
      "ܬ": 479,
      "ܰ": 480,
      "ܳ": 481,
      "ܶ": 482,
      "ܺ": 483,
      "ܽ": 484,
      "ं": 485,
      "इ": 486,
      "क": 487,
      "ख": 488,
      "ग": 489,
      "च": 490,
      "ट": 491,
      "त": 492,
      "द": 493,
      "न": 494,
      "प": 495,
      "फ": 496,
      "भ": 497,
      "म": 498,
      "य": 499,
      "र": 500,
      "ल": 501,
      "व": 502,
      "श": 503,
      "स": 504,
      "ह": 505,
      "ा": 506,
      "ि": 507,
      "ी": 508,
      "ु": 509,
      "ू": 510,
      "े": 511,
      "ो": 512,
      "्": 513,
      "।": 514,
      "আ": 515,
      "উ": 516,
      "ক": 517,
      "ঙ": 518,
      "চ": 519,
      "ত": 520,
      "দ": 521,
      "ধ": 522,
      "ন": 523,
      "প": 524,
      "ফ": 525,
      "ব": 526,
      "ম": 527,
      "য": 528,
      "র": 529,
      "ল": 530,
      "শ": 531,
      "স": 532,
      "হ": 533,
      "া": 534,
      "ি": 535,
      "ী": 536,
      "ু": 537,
      "ে": 538,
      "ৌ": 539,
      "্": 540,
      "ਅ": 541,
      "ਖ": 542,
      "ਤ": 543,
      "ਰ": 544,
      "ਾ": 545,
      "ੀ": 546,
      "ੋ": 547,
      "ੜ": 548,
      "ੱ": 549,
      "அ": 550,
      "உ": 551,
      "க": 552,
      "ச": 553,
      "ஜ": 554,
      "ட": 555,
      "த": 556,
      "ந": 557,
      "ப": 558,
      "ம": 559,
      "ய": 560,
      "ர": 561,
      "ல": 562,
      "ழ": 563,
      "வ": 564,
      "ா": 565,
      "ி": 566,
      "ு": 567,
      "ூ": 568,
      "ே": 569,
      "ை": 570,
      "ோ": 571,
      "்": 572,
      "ം": 573,
      "ഇ": 574,
      "ഉ": 575,
      "ക": 576,
      "ങ": 577,
      "ട": 578,
      "ത": 579,
      "പ": 580,
      "മ": 581,
      "യ": 582,
      "ല": 583,
      "വ": 584,
      "ാ": 585,
      "ി": 586,
      "്": 587,
      "අ": 588,
      "ද": 589,
      "න": 590,
      "ල": 591,
      "ව": 592,
      "ා": 593,
      "ැ": 594,
      "ි": 595,
      "ෝ": 596,
      "ก": 597,
      "ข": 598,
      "ค": 599,
      "ง": 600,
      "จ": 601,
      "ช": 602,
      "ซ": 603,
      "ญ": 604,
      "ฎ": 605,
      "ฑ": 606,
      "ฒ": 607,
      "ณ": 608,
      "ด": 609,
      "ต": 610,
      "ถ": 611,
      "ท": 612,
      "ธ": 613,
      "น": 614,
      "บ": 615,
      "ป": 616,
      "ผ": 617,
      "พ": 618,
      "ฟ": 619,
      "ภ": 620,
      "ม": 621,
      "ย": 622,
      "ร": 623,
      "ล": 624,
      "ว": 625,
      "ศ": 626,
      "ษ": 627,
      "ส": 628,
      "ห": 629,
      "อ": 630,
      "ะ": 631,
      "ั": 632,
      "า": 633,
      "ำ": 634,
      "ิ": 635,
      "ี": 636,
      "ึ": 637,
      "ื": 638,
      "ุ": 639,
      "ู": 640,
      "เ": 641,
      "แ": 642,
      "โ": 643,
      "ไ": 644,
      "่": 645,
      "้": 646,
      "๊": 647,
      "์": 648,
      "་": 649,
      "ག": 650,
      "ང": 651,
      "མ": 652,
      "ར": 653,
      "ས": 654,
      "ཧ": 655,
      "ཱ": 656,
      "ེ": 657,
      "ྟ": 658,
      "က": 659,
      "ခ": 660,
      "င": 661,
      "စ": 662,
      "ဇ": 663,
      "ဈ": 664,
      "တ": 665,
      "ဒ": 666,
      "န": 667,
      "ပ": 668,
      "မ": 669,
      "ရ": 670,
      "လ": 671,
      "ဝ": 672,
      "သ": 673,
      "ါ": 674,
      "ာ": 675,
      "ိ": 676,
      "ု": 677,
      "ူ": 678,
      "း": 679,
      "္": 680,
      "်": 681,
      "ှ": 682,
      "၁": 683,
      "၅": 684,
      "၈": 685,
      "၊": 686,
      "။": 687,
      "ၐ": 688,
      "ၑ": 689,
      "ა": 690,
      "ბ": 691,
      "ლ": 692,
      "ტ": 693,
      "უ": 694,
      "ᐯ": 695,
      "ᐸ": 696,
      "ᑐ": 697,
      "ᘅ": 698,
      "ក": 699,
      "ខ": 700,
      "ជ": 701,
      "ព": 702,
      "ម": 703,
      "រ": 704,
      "ា": 705,
      "ុ": 706,
      "ែ": 707,
      "្": 708,
      "ḍ": 709,
      "Ḥ": 710,
      "ḥ": 711,
      "Ḩ": 712,
      "ḫ": 713,
      "ḷ": 714,
      "ḻ": 715,
      "ṃ": 716,
      "ṅ": 717,
      "ṇ": 718,
      "ṉ": 719,
      "ṛ": 720,
      "ṟ": 721,
      "Ṣ": 722,
      "ṣ": 723,
      "Ṭ": 724,
      "ṭ": 725,
      "ṯ": 726,
      "ẓ": 727,
      "ẞ": 728,
      "ạ": 729,
      "ả": 730,
      "ầ": 731,
      "ẩ": 732,
      "ậ": 733,
      "Ắ": 734,
      "ắ": 735,
      "Ằ": 736,
      "ằ": 737,
      "Ẳ": 738,
      "Ẵ": 739,
      "ẵ": 740,
      "Ặ": 741,
      "ẻ": 742,
      "ẽ": 743,
      "ế": 744,
      "ề": 745,
      "ễ": 746,
      "ệ": 747,
      "ỉ": 748,
      "ị": 749,
      "ọ": 750,
      "ố": 751,
      "ồ": 752,
      "ổ": 753,
      "ộ": 754,
      "ớ": 755,
      "ờ": 756,
      "ở": 757,
      "ợ": 758,
      "ụ": 759,
      "ủ": 760,
      "ứ": 761,
      "ừ": 762,
      "ử": 763,
      "ữ": 764,
      "ự": 765,
      "ỹ": 766,
      "ἀ": 767,
      "ἄ": 768,
      "Ἅ": 769,
      "ἱ": 770,
      "ἶ": 771,
      "ὑ": 772,
      "ὸ": 773,
      "ῆ": 774,
      "ῥ": 775,
      "ῦ": 776,
      "​": 777,
      "‎": 778,
      "‐": 779,
      "‑": 780,
      "–": 781,
      "—": 782,
      "―": 783,
      "‘": 784,
      "’": 785,
      "‚": 786,
      "‛": 787,
      "“": 788,
      "”": 789,
      "„": 790,
      "†": 791,
      "‡": 792,
      "•": 793,
      "…": 794,
      "‪": 795,
      "‬": 796,
      "‰": 797,
      "′": 798,
      "″": 799,
      "‽": 800,
      "⁄": 801,
      "₤": 802,
      "₦": 803,
      "₩": 804,
      "€": 805,
      "₵": 806,
      "₹": 807,
      "℃": 808,
      "№": 809,
      "™": 810,
      "⅓": 811,
      "⅔": 812,
      "⅕": 813,
      "⅛": 814,
      "←": 815,
      "→": 816,
      "∀": 817,
      "∂": 818,
      "∆": 819,
      "−": 820,
      "∞": 821,
      "∴": 822,
      "≈": 823,
      "≠": 824,
      "≤": 825,
      "≥": 826,
      "⊂": 827,
      "☆": 828,
      "♘": 829,
      "♡": 830,
      "♭": 831,
      "♯": 832,
      "⟨": 833,
      "⟩": 834,
      "ⴰ": 835,
      "ⵉ": 836,
      "ⵍ": 837,
      "ⵎ": 838,
      "ⵓ": 839,
      "ⵖ": 840,
      "ⵜ": 841,
      "ⵢ": 842,
      "ⵣ": 843,
      "⿱": 844,
      "、": 845,
      "。": 846,
      "々": 847,
      "〈": 848,
      "〉": 849,
      "《": 850,
      "》": 851,
      "「": 852,
      "」": 853,
      "『": 854,
      "』": 855,
      "〔": 856,
      "〕": 857,
      "あ": 858,
      "い": 859,
      "う": 860,
      "え": 861,
      "か": 862,
      "が": 863,
      "き": 864,
      "ぎ": 865,
      "く": 866,
      "ぐ": 867,
      "け": 868,
      "こ": 869,
      "ご": 870,
      "さ": 871,
      "し": 872,
      "じ": 873,
      "す": 874,
      "せ": 875,
      "た": 876,
      "だ": 877,
      "ち": 878,
      "つ": 879,
      "て": 880,
      "で": 881,
      "と": 882,
      "ど": 883,
      "な": 884,
      "に": 885,
      "の": 886,
      "は": 887,
      "ば": 888,
      "へ": 889,
      "べ": 890,
      "ぼ": 891,
      "ま": 892,
      "み": 893,
      "む": 894,
      "め": 895,
      "も": 896,
      "ゃ": 897,
      "よ": 898,
      "ら": 899,
      "り": 900,
      "ろ": 901,
      "わ": 902,
      "を": 903,
      "ん": 904,
      "゛": 905,
      "゜": 906,
      "ァ": 907,
      "ア": 908,
      "ィ": 909,
      "イ": 910,
      "ウ": 911,
      "エ": 912,
      "ォ": 913,
      "オ": 914,
      "カ": 915,
      "ガ": 916,
      "キ": 917,
      "ク": 918,
      "グ": 919,
      "ゲ": 920,
      "コ": 921,
      "サ": 922,
      "シ": 923,
      "ジ": 924,
      "ス": 925,
      "ズ": 926,
      "セ": 927,
      "ゼ": 928,
      "ソ": 929,
      "ゾ": 930,
      "タ": 931,
      "ダ": 932,
      "ッ": 933,
      "ツ": 934,
      "デ": 935,
      "ト": 936,
      "ド": 937,
      "ニ": 938,
      "ヌ": 939,
      "ノ": 940,
      "ハ": 941,
      "バ": 942,
      "パ": 943,
      "ヒ": 944,
      "ビ": 945,
      "フ": 946,
      "ブ": 947,
      "プ": 948,
      "ベ": 949,
      "ボ": 950,
      "マ": 951,
      "ミ": 952,
      "ム": 953,
      "メ": 954,
      "モ": 955,
      "ャ": 956,
      "ヤ": 957,
      "ュ": 958,
      "ユ": 959,
      "ョ": 960,
      "ラ": 961,
      "リ": 962,
      "ル": 963,
      "レ": 964,
      "ワ": 965,
      "ン": 966,
      "・": 967,
      "ー": 968,
      "ㄌ": 969,
      "ㄘ": 970,
      "ㄣ": 971,
      "ㄧ": 972,
      "ㄨ": 973,
      "ㄴ": 974,
      "ㄷ": 975,
      "ㅂ": 976,
      "ㅅ": 977,
      "ㅇ": 978,
      "ㅍ": 979,
      "ㅎ": 980,
      "ㅗ": 981,
      "一": 982,
      "七": 983,
      "万": 984,
      "三": 985,
      "上": 986,
      "下": 987,
      "世": 988,
      "丘": 989,
      "丙": 990,
      "两": 991,
      "中": 992,
      "主": 993,
      "乃": 994,
      "久": 995,
      "之": 996,
      "九": 997,
      "也": 998,
      "乡": 999,
      "书": 1000,
      "事": 1001,
      "二": 1002,
      "五": 1003,
      "井": 1004,
      "亜": 1005,
      "亞": 1006,
      "京": 1007,
      "人": 1008,
      "什": 1009,
      "仇": 1010,
      "今": 1011,
      "他": 1012,
      "仝": 1013,
      "代": 1014,
      "令": 1015,
      "以": 1016,
      "仰": 1017,
      "仲": 1018,
      "件": 1019,
      "任": 1020,
      "份": 1021,
      "伏": 1022,
      "伐": 1023,
      "休": 1024,
      "会": 1025,
      "传": 1026,
      "伸": 1027,
      "位": 1028,
      "住": 1029,
      "体": 1030,
      "何": 1031,
      "佛": 1032,
      "作": 1033,
      "你": 1034,
      "使": 1035,
      "侍": 1036,
      "俄": 1037,
      "俊": 1038,
      "保": 1039,
      "信": 1040,
      "倉": 1041,
      "們": 1042,
      "倫": 1043,
      "偕": 1044,
      "健": 1045,
      "偵": 1046,
      "像": 1047,
      "儀": 1048,
      "優": 1049,
      "儿": 1050,
      "允": 1051,
      "元": 1052,
      "先": 1053,
      "光": 1054,
      "克": 1055,
      "全": 1056,
      "八": 1057,
      "公": 1058,
      "六": 1059,
      "兰": 1060,
      "典": 1061,
      "养": 1062,
      "内": 1063,
      "冒": 1064,
      "农": 1065,
      "冬": 1066,
      "凍": 1067,
      "出": 1068,
      "切": 1069,
      "列": 1070,
      "別": 1071,
      "刻": 1072,
      "前": 1073,
      "剛": 1074,
      "剧": 1075,
      "創": 1076,
      "劇": 1077,
      "力": 1078,
      "加": 1079,
      "动": 1080,
      "助": 1081,
      "劳": 1082,
      "北": 1083,
      "区": 1084,
      "十": 1085,
      "千": 1086,
      "华": 1087,
      "卓": 1088,
      "協": 1089,
      "南": 1090,
      "博": 1091,
      "卜": 1092,
      "卿": 1093,
      "厂": 1094,
      "历": 1095,
      "原": 1096,
      "去": 1097,
      "县": 1098,
      "取": 1099,
      "口": 1100,
      "古": 1101,
      "台": 1102,
      "右": 1103,
      "号": 1104,
      "司": 1105,
      "吃": 1106,
      "合": 1107,
      "同": 1108,
      "名": 1109,
      "向": 1110,
      "君": 1111,
      "吹": 1112,
      "吾": 1113,
      "周": 1114,
      "味": 1115,
      "命": 1116,
      "和": 1117,
      "咖": 1118,
      "咲": 1119,
      "品": 1120,
      "哪": 1121,
      "唐": 1122,
      "啓": 1123,
      "啡": 1124,
      "喃": 1125,
      "善": 1126,
      "喜": 1127,
      "噂": 1128,
      "噌": 1129,
      "嚴": 1130,
      "四": 1131,
      "回": 1132,
      "因": 1133,
      "団": 1134,
      "园": 1135,
      "囯": 1136,
      "国": 1137,
      "圆": 1138,
      "國": 1139,
      "園": 1140,
      "土": 1141,
      "在": 1142,
      "地": 1143,
      "场": 1144,
      "坂": 1145,
      "坊": 1146,
      "城": 1147,
      "基": 1148,
      "埼": 1149,
      "堀": 1150,
      "堂": 1151,
      "堯": 1152,
      "報": 1153,
      "塩": 1154,
      "塼": 1155,
      "塽": 1156,
      "士": 1157,
      "壯": 1158,
      "声": 1159,
      "夏": 1160,
      "外": 1161,
      "多": 1162,
      "大": 1163,
      "天": 1164,
      "太": 1165,
      "夫": 1166,
      "央": 1167,
      "失": 1168,
      "奇": 1169,
      "奉": 1170,
      "奎": 1171,
      "女": 1172,
      "好": 1173,
      "妃": 1174,
      "威": 1175,
      "婉": 1176,
      "孁": 1177,
      "子": 1178,
      "孔": 1179,
      "字": 1180,
      "存": 1181,
      "孙": 1182,
      "孝": 1183,
      "季": 1184,
      "孤": 1185,
      "学": 1186,
      "學": 1187,
      "宁": 1188,
      "宅": 1189,
      "守": 1190,
      "安": 1191,
      "完": 1192,
      "宓": 1193,
      "宗": 1194,
      "官": 1195,
      "定": 1196,
      "宝": 1197,
      "実": 1198,
      "宮": 1199,
      "宵": 1200,
      "家": 1201,
      "寄": 1202,
      "密": 1203,
      "寓": 1204,
      "察": 1205,
      "實": 1206,
      "寺": 1207,
      "寿": 1208,
      "小": 1209,
      "尔": 1210,
      "居": 1211,
      "屋": 1212,
      "山": 1213,
      "岳": 1214,
      "峡": 1215,
      "島": 1216,
      "川": 1217,
      "州": 1218,
      "巢": 1219,
      "左": 1220,
      "巴": 1221,
      "市": 1222,
      "帅": 1223,
      "师": 1224,
      "希": 1225,
      "帝": 1226,
      "带": 1227,
      "帶": 1228,
      "常": 1229,
      "幕": 1230,
      "平": 1231,
      "年": 1232,
      "幽": 1233,
      "广": 1234,
      "府": 1235,
      "度": 1236,
      "庭": 1237,
      "庵": 1238,
      "廉": 1239,
      "延": 1240,
      "建": 1241,
      "弁": 1242,
      "式": 1243,
      "弓": 1244,
      "弘": 1245,
      "後": 1246,
      "徐": 1247,
      "従": 1248,
      "微": 1249,
      "徳": 1250,
      "徵": 1251,
      "德": 1252,
      "徹": 1253,
      "心": 1254,
      "志": 1255,
      "念": 1256,
      "性": 1257,
      "怨": 1258,
      "恨": 1259,
      "恪": 1260,
      "息": 1261,
      "悔": 1262,
      "悲": 1263,
      "惠": 1264,
      "惺": 1265,
      "感": 1266,
      "愼": 1267,
      "愿": 1268,
      "慎": 1269,
      "慶": 1270,
      "憎": 1271,
      "應": 1272,
      "戀": 1273,
      "戏": 1274,
      "成": 1275,
      "我": 1276,
      "戦": 1277,
      "戯": 1278,
      "户": 1279,
      "房": 1280,
      "所": 1281,
      "扈": 1282,
      "手": 1283,
      "打": 1284,
      "拉": 1285,
      "持": 1286,
      "挂": 1287,
      "指": 1288,
      "按": 1289,
      "探": 1290,
      "摺": 1291,
      "擇": 1292,
      "擔": 1293,
      "改": 1294,
      "放": 1295,
      "政": 1296,
      "教": 1297,
      "散": 1298,
      "敬": 1299,
      "文": 1300,
      "斗": 1301,
      "料": 1302,
      "斥": 1303,
      "斯": 1304,
      "新": 1305,
      "方": 1306,
      "施": 1307,
      "既": 1308,
      "日": 1309,
      "旧": 1310,
      "明": 1311,
      "易": 1312,
      "星": 1313,
      "映": 1314,
      "是": 1315,
      "晁": 1316,
      "時": 1317,
      "景": 1318,
      "暗": 1319,
      "暦": 1320,
      "暫": 1321,
      "曲": 1322,
      "曳": 1323,
      "書": 1324,
      "會": 1325,
      "月": 1326,
      "有": 1327,
      "朗": 1328,
      "朝": 1329,
      "木": 1330,
      "未": 1331,
      "本": 1332,
      "术": 1333,
      "朱": 1334,
      "杉": 1335,
      "李": 1336,
      "材": 1337,
      "村": 1338,
      "条": 1339,
      "東": 1340,
      "杵": 1341,
      "松": 1342,
      "林": 1343,
      "果": 1344,
      "柯": 1345,
      "株": 1346,
      "根": 1347,
      "格": 1348,
      "桂": 1349,
      "案": 1350,
      "桐": 1351,
      "桜": 1352,
      "梅": 1353,
      "梨": 1354,
      "棋": 1355,
      "森": 1356,
      "椎": 1357,
      "楽": 1358,
      "榮": 1359,
      "樊": 1360,
      "権": 1361,
      "横": 1362,
      "橘": 1363,
      "橫": 1364,
      "檀": 1365,
      "歌": 1366,
      "正": 1367,
      "武": 1368,
      "歩": 1369,
      "死": 1370,
      "殺": 1371,
      "毛": 1372,
      "氏": 1373,
      "民": 1374,
      "气": 1375,
      "水": 1376,
      "永": 1377,
      "求": 1378,
      "江": 1379,
      "池": 1380,
      "汤": 1381,
      "汪": 1382,
      "沒": 1383,
      "沤": 1384,
      "河": 1385,
      "治": 1386,
      "沼": 1387,
      "泉": 1388,
      "法": 1389,
      "泛": 1390,
      "泰": 1391,
      "泳": 1392,
      "洋": 1393,
      "洛": 1394,
      "活": 1395,
      "流": 1396,
      "海": 1397,
      "涌": 1398,
      "淸": 1399,
      "清": 1400,
      "渝": 1401,
      "渡": 1402,
      "港": 1403,
      "湖": 1404,
      "湯": 1405,
      "湾": 1406,
      "源": 1407,
      "滿": 1408,
      "漢": 1409,
      "潤": 1410,
      "濟": 1411,
      "瀬": 1412,
      "炊": 1413,
      "炒": 1414,
      "炜": 1415,
      "照": 1416,
      "煮": 1417,
      "熊": 1418,
      "爱": 1419,
      "父": 1420,
      "特": 1421,
      "猛": 1422,
      "猫": 1423,
      "献": 1424,
      "玄": 1425,
      "玉": 1426,
      "王": 1427,
      "玛": 1428,
      "珈": 1429,
      "珍": 1430,
      "班": 1431,
      "理": 1432,
      "琦": 1433,
      "琲": 1434,
      "琴": 1435,
      "琼": 1436,
      "瑛": 1437,
      "瑶": 1438,
      "瓦": 1439,
      "生": 1440,
      "甫": 1441,
      "田": 1442,
      "由": 1443,
      "町": 1444,
      "画": 1445,
      "畅": 1446,
      "略": 1447,
      "痴": 1448,
      "発": 1449,
      "白": 1450,
      "百": 1451,
      "的": 1452,
      "皇": 1453,
      "盆": 1454,
      "盛": 1455,
      "相": 1456,
      "盼": 1457,
      "眞": 1458,
      "真": 1459,
      "矢": 1460,
      "知": 1461,
      "短": 1462,
      "石": 1463,
      "碑": 1464,
      "碣": 1465,
      "礼": 1466,
      "社": 1467,
      "神": 1468,
      "禁": 1469,
      "禮": 1470,
      "禹": 1471,
      "私": 1472,
      "科": 1473,
      "秘": 1474,
      "秦": 1475,
      "移": 1476,
      "種": 1477,
      "穆": 1478,
      "積": 1479,
      "竜": 1480,
      "章": 1481,
      "笑": 1482,
      "第": 1483,
      "篇": 1484,
      "築": 1485,
      "簡": 1486,
      "米": 1487,
      "粉": 1488,
      "粤": 1489,
      "糖": 1490,
      "糸": 1491,
      "紀": 1492,
      "約": 1493,
      "紅": 1494,
      "紙": 1495,
      "素": 1496,
      "紫": 1497,
      "絃": 1498,
      "絕": 1499,
      "絡": 1500,
      "統": 1501,
      "絶": 1502,
      "絹": 1503,
      "經": 1504,
      "綬": 1505,
      "維": 1506,
      "綸": 1507,
      "綿": 1508,
      "総": 1509,
      "編": 1510,
      "縣": 1511,
      "縱": 1512,
      "绍": 1513,
      "经": 1514,
      "署": 1515,
      "羅": 1516,
      "美": 1517,
      "羽": 1518,
      "翁": 1519,
      "老": 1520,
      "者": 1521,
      "而": 1522,
      "耶": 1523,
      "联": 1524,
      "聖": 1525,
      "聯": 1526,
      "脳": 1527,
      "腐": 1528,
      "膏": 1529,
      "臓": 1530,
      "臼": 1531,
      "與": 1532,
      "舜": 1533,
      "航": 1534,
      "般": 1535,
      "船": 1536,
      "良": 1537,
      "色": 1538,
      "艺": 1539,
      "花": 1540,
      "芸": 1541,
      "芽": 1542,
      "英": 1543,
      "茜": 1544,
      "茸": 1545,
      "茹": 1546,
      "荆": 1547,
      "草": 1548,
      "荊": 1549,
      "菜": 1550,
      "華": 1551,
      "菲": 1552,
      "著": 1553,
      "葬": 1554,
      "薇": 1555,
      "薔": 1556,
      "薰": 1557,
      "藤": 1558,
      "蘇": 1559,
      "蘋": 1560,
      "蘭": 1561,
      "蛇": 1562,
      "蛟": 1563,
      "蜀": 1564,
      "行": 1565,
      "術": 1566,
      "街": 1567,
      "衣": 1568,
      "裸": 1569,
      "製": 1570,
      "褒": 1571,
      "西": 1572,
      "要": 1573,
      "覆": 1574,
      "見": 1575,
      "覚": 1576,
      "親": 1577,
      "见": 1578,
      "角": 1579,
      "解": 1580,
      "言": 1581,
      "記": 1582,
      "証": 1583,
      "話": 1584,
      "誉": 1585,
      "語": 1586,
      "誰": 1587,
      "調": 1588,
      "諸": 1589,
      "諾": 1590,
      "講": 1591,
      "謝": 1592,
      "謡": 1593,
      "譜": 1594,
      "警": 1595,
      "讀": 1596,
      "讃": 1597,
      "讲": 1598,
      "语": 1599,
      "谷": 1600,
      "豆": 1601,
      "豢": 1602,
      "豫": 1603,
      "貫": 1604,
      "責": 1605,
      "貴": 1606,
      "賢": 1607,
      "質": 1608,
      "赤": 1609,
      "走": 1610,
      "起": 1611,
      "越": 1612,
      "趙": 1613,
      "足": 1614,
      "跡": 1615,
      "路": 1616,
      "軍": 1617,
      "軒": 1618,
      "転": 1619,
      "轄": 1620,
      "辞": 1621,
      "農": 1622,
      "达": 1623,
      "迅": 1624,
      "过": 1625,
      "送": 1626,
      "逆": 1627,
      "速": 1628,
      "進": 1629,
      "遊": 1630,
      "遍": 1631,
      "道": 1632,
      "遺": 1633,
      "邊": 1634,
      "邑": 1635,
      "邡": 1636,
      "郎": 1637,
      "郑": 1638,
      "郡": 1639,
      "部": 1640,
      "鄉": 1641,
      "鄠": 1642,
      "鄰": 1643,
      "酒": 1644,
      "醂": 1645,
      "醉": 1646,
      "里": 1647,
      "野": 1648,
      "金": 1649,
      "釜": 1650,
      "銅": 1651,
      "錢": 1652,
      "録": 1653,
      "鎮": 1654,
      "针": 1655,
      "镇": 1656,
      "長": 1657,
      "长": 1658,
      "門": 1659,
      "閑": 1660,
      "間": 1661,
      "関": 1662,
      "闾": 1663,
      "阎": 1664,
      "阿": 1665,
      "陛": 1666,
      "院": 1667,
      "険": 1668,
      "陽": 1669,
      "隆": 1670,
      "隐": 1671,
      "際": 1672,
      "雁": 1673,
      "雄": 1674,
      "雙": 1675,
      "雛": 1676,
      "雞": 1677,
      "雨": 1678,
      "雪": 1679,
      "靖": 1680,
      "非": 1681,
      "面": 1682,
      "革": 1683,
      "韋": 1684,
      "韓": 1685,
      "韦": 1686,
      "音": 1687,
      "順": 1688,
      "須": 1689,
      "願": 1690,
      "風": 1691,
      "风": 1692,
      "食": 1693,
      "館": 1694,
      "首": 1695,
      "馨": 1696,
      "馬": 1697,
      "駅": 1698,
      "駿": 1699,
      "马": 1700,
      "魁": 1701,
      "魏": 1702,
      "魚": 1703,
      "鮮": 1704,
      "鯀": 1705,
      "鱒": 1706,
      "鲁": 1707,
      "鲜": 1708,
      "鲤": 1709,
      "鳥": 1710,
      "鳳": 1711,
      "鴨": 1712,
      "鶴": 1713,
      "鸟": 1714,
      "鸡": 1715,
      "鸭": 1716,
      "鹽": 1717,
      "麦": 1718,
      "麻": 1719,
      "黃": 1720,
      "黄": 1721,
      "黒": 1722,
      "黨": 1723,
      "齋": 1724,
      "齦": 1725,
      "龍": 1726,
      "龐": 1727,
      "ꯀ": 1728,
      "ꯂ": 1729,
      "ꯃ": 1730,
      "ꯄ": 1731,
      "ꯅ": 1732,
      "ꯆ": 1733,
      "ꯈ": 1734,
      "ꯉ": 1735,
      "ꯊ": 1736,
      "ꯔ": 1737,
      "ꯛ": 1738,
      "ꯜ": 1739,
      "ꯡ": 1740,
      "ꯣ": 1741,
      "ꯤ": 1742,
      "ꯥ": 1743,
      "ꯦ": 1744,
      "ꯧ": 1745,
      "ꯨ": 1746,
      "ꯩ": 1747,
      "가": 1748,
      "간": 1749,
      "강": 1750,
      "개": 1751,
      "거": 1752,
      "걸": 1753,
      "경": 1754,
      "계": 1755,
      "고": 1756,
      "곡": 1757,
      "공": 1758,
      "과": 1759,
      "괴": 1760,
      "교": 1761,
      "국": 1762,
      "군": 1763,
      "궁": 1764,
      "기": 1765,
      "김": 1766,
      "나": 1767,
      "난": 1768,
      "남": 1769,
      "낮": 1770,
      "내": 1771,
      "너": 1772,
      "년": 1773,
      "누": 1774,
      "늘": 1775,
      "능": 1776,
      "니": 1777,
      "다": 1778,
      "단": 1779,
      "담": 1780,
      "당": 1781,
      "대": 1782,
      "데": 1783,
      "도": 1784,
      "동": 1785,
      "두": 1786,
      "따": 1787,
      "때": 1788,
      "라": 1789,
      "례": 1790,
      "리": 1791,
      "매": 1792,
      "멈": 1793,
      "무": 1794,
      "문": 1795,
      "뮤": 1796,
      "미": 1797,
      "민": 1798,
      "밀": 1799,
      "바": 1800,
      "박": 1801,
      "밤": 1802,
      "방": 1803,
      "백": 1804,
      "뱅": 1805,
      "번": 1806,
      "보": 1807,
      "복": 1808,
      "본": 1809,
      "부": 1810,
      "북": 1811,
      "분": 1812,
      "뷔": 1813,
      "비": 1814,
      "빛": 1815,
      "빠": 1816,
      "뻐": 1817,
      "사": 1818,
      "산": 1819,
      "삼": 1820,
      "생": 1821,
      "서": 1822,
      "선": 1823,
      "설": 1824,
      "성": 1825,
      "소": 1826,
      "송": 1827,
      "수": 1828,
      "스": 1829,
      "승": 1830,
      "시": 1831,
      "식": 1832,
      "신": 1833,
      "심": 1834,
      "쌈": 1835,
      "쌍": 1836,
      "아": 1837,
      "암": 1838,
      "약": 1839,
      "양": 1840,
      "어": 1841,
      "언": 1842,
      "에": 1843,
      "엣": 1844,
      "연": 1845,
      "영": 1846,
      "예": 1847,
      "오": 1848,
      "옹": 1849,
      "왕": 1850,
      "요": 1851,
      "우": 1852,
      "운": 1853,
      "웅": 1854,
      "월": 1855,
      "위": 1856,
      "유": 1857,
      "윤": 1858,
      "은": 1859,
      "음": 1860,
      "의": 1861,
      "이": 1862,
      "인": 1863,
      "일": 1864,
      "자": 1865,
      "장": 1866,
      "재": 1867,
      "쟁": 1868,
      "전": 1869,
      "접": 1870,
      "정": 1871,
      "조": 1872,
      "종": 1873,
      "좌": 1874,
      "주": 1875,
      "줄": 1876,
      "중": 1877,
      "지": 1878,
      "직": 1879,
      "징": 1880,
      "쪽": 1881,
      "찌": 1882,
      "천": 1883,
      "청": 1884,
      "쳐": 1885,
      "출": 1886,
      "춰": 1887,
      "침": 1888,
      "쿵": 1889,
      "크": 1890,
      "탕": 1891,
      "토": 1892,
      "티": 1893,
      "파": 1894,
      "판": 1895,
      "페": 1896,
      "편": 1897,
      "평": 1898,
      "포": 1899,
      "하": 1900,
      "학": 1901,
      "한": 1902,
      "해": 1903,
      "행": 1904,
      "헌": 1905,
      "현": 1906,
      "호": 1907,
      "혹": 1908,
      "홀": 1909,
      "회": 1910,
      "횡": 1911,
      "훈": 1912,
      "훗": 1913,
      "휴": 1914,
      "흥": 1915,
      "희": 1916,
      "ﬁ": 1917,
      "︠": 1918,
      "︡": 1919,
      "ﺍ": 1920,
      "ﺏ": 1921,
      "ﺤ": 1922,
      "ﺩ": 1923,
      "ﻫ": 1924,
      "！": 1925,
      "（": 1926,
      "）": 1927,
      "，": 1928,
      "：": 1929,
      "｢": 1930,
      "￼": 1931,
      "he": 1932,
      "in": 1933,
      "the": 1934,
      "an": 1935,
      "er": 1936,
      "on": 1937,
      "re": 1938,
      "is": 1939,
      "at": 1940,
      "ed": 1941,
      "or": 1942,
      "al": 1943,
      "as": 1944,
      "en": 1945,
      "es": 1946,
      "ar": 1947,
      "of": 1948,
      "it": 1949,
      "and": 1950,
      "to": 1951,
      "ou": 1952,
      "ing": 1953,
      "th": 1954,
      "ic": 1955,
      "le": 1956,
      "st": 1957,
      "om": 1958,
      "ion": 1959,
      "The": 1960,
      "il": 1961,
      "am": 1962,
      "se": 1963,
      "was": 1964,
      "be": 1965,
      "ent": 1966,
      "ac": 1967,
      "ad": 1968,
      "ro": 1969,
      "ol": 1970,
      "ve": 1971,
      "for": 1972,
      "ch": 1973,
      "ver": 1974,
      "ly": 1975,
      "ow": 1976,
      "ir": 1977,
      "im": 1978,
      "ay": 1979,
      "are": 1980,
      "id": 1981,
      "ter": 1982,
      "ur": 1983,
      "19": 1984,
      "us": 1985,
      "ig": 1986,
      "ot": 1987,
      "un": 1988,
      "20": 1989,
      "pe": 1990,
      "ation": 1991,
      "op": 1992,
      "his": 1993,
      "mo": 1994,
      "ce": 1995,
      "all": 1996,
      "ag": 1997,
      "ct": 1998,
      "de": 1999,
      "ith": 2000,
      "that": 2001,
      "tr": 2002,
      "pl": 2003,
      "fr": 2004,
      "ul": 2005,
      "te": 2006,
      "oun": 2007,
      "con": 2008,
      "with": 2009,
      "ts": 2010,
      "ther": 2011,
      "wh": 2012,
      "ab": 2013,
      "li": 2014,
      "In": 2015,
      "by": 2016,
      "di": 2017,
      "ne": 2018,
      "ut": 2019,
      "He": 2020,
      "ap": 2021,
      "ers": 2022,
      "It": 2023,
      "so": 2024,
      "um": 2025,
      "ain": 2026,
      "com": 2027,
      "res": 2028,
      "el": 2029,
      "et": 2030,
      "from": 2031,
      "ak": 2032,
      "art": 2033,
      "sh": 2034,
      "est": 2035,
      "ill": 2036,
      "ies": 2037,
      "em": 2038,
      "ha": 2039,
      "ame": 2040,
      "one": 2041,
      "not": 2042,
      "lo": 2043,
      "ld": 2044,
      "ri": 2045,
      "man": 2046,
      "pro": 2047,
      "ber": 2048,
      "od": 2049,
      "ere": 2050,
      "igh": 2051,
      "ate": 2052,
      "out": 2053,
      "wor": 2054,
      "has": 2055,
      "ear": 2056,
      "were": 2057,
      "su": 2058,
      "ity": 2059,
      "ge": 2060,
      "ong": 2061,
      "ex": 2062,
      "200": 2063,
      "also": 2064,
      "os": 2065,
      "fe": 2066,
      "ard": 2067,
      "gh": 2068,
      "au": 2069,
      "own": 2070,
      "ist": 2071,
      "ople": 2072,
      "ess": 2073,
      "tw": 2074,
      "can": 2075,
      "her": 2076,
      "our": 2077,
      "end": 2078,
      "ich": 2079,
      "201": 2080,
      "have": 2081,
      "ound": 2082,
      "gr": 2083,
      "ant": 2084,
      "ment": 2085,
      "ci": 2086,
      "other": 2087,
      "per": 2088,
      "ome": 2089,
      "they": 2090,
      "qu": 2091,
      "cl": 2092,
      "over": 2093,
      "ally": 2094,
      "ke": 2095,
      "people": 2096,
      "ive": 2097,
      "ian": 2098,
      "ie": 2099,
      "irst": 2100,
      "ary": 2101,
      "had": 2102,
      "act": 2103,
      "This": 2104,
      "whe": 2105,
      "ated": 2106,
      "00": 2107,
      "ack": 2108,
      "pr": 2109,
      "ort": 2110,
      "but": 2111,
      "ast": 2112,
      "first": 2113,
      "ough": 2114,
      "ight": 2115,
      "iv": 2116,
      "me": 2117,
      "red": 2118,
      "bo": 2119,
      "ff": 2120,
      "which": 2121,
      "play": 2122,
      "ok": 2123,
      "their": 2124,
      "up": 2125,
      "Ch": 2126,
      "der": 2127,
      "ust": 2128,
      "ide": 2129,
      "tim": 2130,
      "age": 2131,
      "ang": 2132,
      "ll": 2133,
      "bec": 2134,
      "ish": 2135,
      "ia": 2136,
      "ine": 2137,
      "year": 2138,
      "ans": 2139,
      "mer": 2140,
      "do": 2141,
      "ip": 2142,
      "this": 2143,
      "aw": 2144,
      "ould": 2145,
      "ore": 2146,
      "call": 2147,
      "They": 2148,
      "fter": 2149,
      "rit": 2150,
      "av": 2151,
      "kn": 2152,
      "ater": 2153,
      "St": 2154,
      "its": 2155,
      "bl": 2156,
      "ep": 2157,
      "ous": 2158,
      "very": 2159,
      "br": 2160,
      "used": 2161,
      "ade": 2162,
      "if": 2163,
      "who": 2164,
      "ach": 2165,
      "ud": 2166,
      "land": 2167,
      "many": 2168,
      "part": 2169,
      "called": 2170,
      "ical": 2171,
      "ev": 2172,
      "ass": 2173,
      "ree": 2174,
      "ren": 2175,
      "She": 2176,
      "work": 2177,
      "18": 2178,
      ").": 2179,
      "ind": 2180,
      "ure": 2181,
      "co": 2182,
      "ser": 2183,
      "two": 2184,
      "ions": 2185,
      "most": 2186,
      "ace": 2187,
      "about": 2188,
      "dis": 2189,
      "more": 2190,
      "old": 2191,
      "go": 2192,
      "sp": 2193,
      "199": 2194,
      "ory": 2195,
      "ten": 2196,
      "ice": 2197,
      "du": 2198,
      "time": 2199,
      "comp": 2200,
      "ck": 2201,
      "form": 2202,
      "ved": 2203,
      "any": 2204,
      "ild": 2205,
      "low": 2206,
      "ake": 2207,
      "there": 2208,
      "cre": 2209,
      "An": 2210,
      "Un": 2211,
      "che": 2212,
      "po": 2213,
      "ra": 2214,
      "been": 2215,
      "ause": 2216,
      "she": 2217,
      "them": 2218,
      "ty": 2219,
      "made": 2220,
      "known": 2221,
      "iz": 2222,
      "we": 2223,
      "ord": 2224,
      "port": 2225,
      "ings": 2226,
      "some": 2227,
      "lect": 2228,
      "spe": 2229,
      "amp": 2230,
      "ased": 2231,
      "ign": 2232,
      "vers": 2233,
      "diff": 2234,
      "ue": 2235,
      "way": 2236,
      "only": 2237,
      "when": 2238,
      "cent": 2239,
      "no": 2240,
      "coun": 2241,
      "into": 2242,
      "him": 2243,
      "after": 2244,
      "str": 2245,
      "than": 2246,
      "ican": 2247,
      "cont": 2248,
      "off": 2249,
      "mber": 2250,
      "vel": 2251,
      "mar": 2252,
      "pres": 2253,
      "ence": 2254,
      "ates": 2255,
      "ite": 2256,
      "bu": 2257,
      "There": 2258,
      "years": 2259,
      "new": 2260,
      "les": 2261,
      "cit": 2262,
      "198": 2263,
      "col": 2264,
      "\".": 2265,
      "mon": 2266,
      "Amer": 2267,
      "ath": 2268,
      "ult": 2269,
      "hed": 2270,
      "att": 2271,
      "differ": 2272,
      "ial": 2273,
      "day": 2274,
      "ition": 2275,
      "ell": 2276,
      "able": 2277,
      "orn": 2278,
      "ance": 2279,
      "ph": 2280,
      "Ar": 2281,
      "ble": 2282,
      "Mar": 2283,
      "fore": 2284,
      "ational": 2285,
      "ces": 2286,
      "ile": 2287,
      "use": 2288,
      "vie": 2289,
      "),": 2290,
      "lar": 2291,
      "ever": 2292,
      "Al": 2293,
      "cho": 2294,
      "air": 2295,
      "sy": 2296,
      "will": 2297,
      "ict": 2298,
      "uring": 2299,
      "197": 2300,
      "became": 2301,
      "because": 2302,
      "ations": 2303,
      "pos": 2304,
      "ors": 2305,
      "urn": 2306,
      "og": 2307,
      "like": 2308,
      "par": 2309,
      "ens": 2310,
      "ick": 2311,
      "ubl": 2312,
      "row": 2313,
      "pt": 2314,
      "different": 2315,
      "pol": 2316,
      "rele": 2317,
      "sa": 2318,
      "would": 2319,
      "ters": 2320,
      "ob": 2321,
      "main": 2322,
      "unt": 2323,
      "tern": 2324,
      "De": 2325,
      "int": 2326,
      "gan": 2327,
      "long": 2328,
      "ire": 2329,
      "mem": 2330,
      "ry": 2331,
      "cond": 2332,
      "ents": 2333,
      "As": 2334,
      "ced": 2335,
      "oup": 2336,
      "gen": 2337,
      "name": 2338,
      "Th": 2339,
      "Ne": 2340,
      "ince": 2341,
      "ons": 2342,
      "then": 2343,
      "pop": 2344,
      "als": 2345,
      "fam": 2346,
      "cc": 2347,
      "ction": 2348,
      "des": 2349,
      "pre": 2350,
      "start": 2351,
      "writ": 2352,
      "found": 2353,
      "ually": 2354,
      "ug": 2355,
      "try": 2356,
      "En": 2357,
      "On": 2358,
      "sing": 2359,
      "incl": 2360,
      "ins": 2361,
      "vis": 2362,
      "ran": 2363,
      "196": 2364,
      "num": 2365,
      "een": 2366,
      "ited": 2367,
      "show": 2368,
      "popul": 2369,
      "ail": 2370,
      "uary": 2371,
      "though": 2372,
      "citation": 2373,
      "fin": 2374,
      "ful": 2375,
      "may": 2376,
      "where": 2377,
      "mus": 2378,
      "nam": 2379,
      "car": 2380,
      "pers": 2381,
      "ft": 2382,
      "American": 2383,
      "hen": 2384,
      "ship": 2385,
      "min": 2386,
      "ase": 2387,
      "fl": 2388,
      "ving": 2389,
      "three": 2390,
      "released": 2391,
      "rough": 2392,
      "sm": 2393,
      "back": 2394,
      "ily": 2395,
      "get": 2396,
      "ood": 2397,
      "ret": 2398,
      "betw": 2399,
      "ident": 2400,
      "between": 2401,
      "hel": 2402,
      "reat": 2403,
      "reg": 2404,
      "elect": 2405,
      "son": 2406,
      "did": 2407,
      "again": 2408,
      "overn": 2409,
      "ost": 2410,
      "dr": 2411,
      "until": 2412,
      "ix": 2413,
      "top": 2414,
      "world": 2415,
      "ied": 2416,
      "ics": 2417,
      "arm": 2418,
      "group": 2419,
      "ks": 2420,
      "owever": 2421,
      "sel": 2422,
      "ress": 2423,
      "chool": 2424,
      "10": 2425,
      "died": 2426,
      "Le": 2427,
      "born": 2428,
      "ished": 2429,
      "produ": 2430,
      "make": 2431,
      "Be": 2432,
      "ward": 2433,
      "played": 2434,
      "cord": 2435,
      "child": 2436,
      "ub": 2437,
      "bum": 2438,
      "comm": 2439,
      "let": 2440,
      "cr": 2441,
      "ale": 2442,
      "ves": 2443,
      "ove": 2444,
      "team": 2445,
      "well": 2446,
      "under": 2447,
      "publ": 2448,
      "same": 2449,
      "rel": 2450,
      "tain": 2451,
      "second": 2452,
      "later": 2453,
      "song": 2454,
      "eng": 2455,
      "cial": 2456,
      "through": 2457,
      "His": 2458,
      "person": 2459,
      "17": 2460,
      "Re": 2461,
      "often": 2462,
      "city": 2463,
      "ma": 2464,
      "195": 2465,
      "New": 2466,
      "outh": 2467,
      "ann": 2468,
      "book": 2469,
      "come": 2470,
      "won": 2471,
      "small": 2472,
      "vi": 2473,
      "At": 2474,
      "app": 2475,
      "Com": 2476,
      "these": 2477,
      "med": 2478,
      "uch": 2479,
      "000": 2480,
      "inter": 2481,
      "album": 2482,
      "After": 2483,
      "ason": 2484,
      "cer": 2485,
      "Ro": 2486,
      "ivers": 2487,
      "je": 2488,
      "kill": 2489,
      "char": 2490,
      "four": 2491,
      "music": 2492,
      "Jo": 2493,
      "15": 2494,
      "cy": 2495,
      "ines": 2496,
      "number": 2497,
      "io": 2498,
      "For": 2499,
      "When": 2500,
      "movie": 2501,
      "ca": 2502,
      "includ": 2503,
      "could": 2504,
      "sur": 2505,
      "ists": 2506,
      "each": 2507,
      "ather": 2508,
      "vert": 2509,
      "ames": 2510,
      "started": 2511,
      "during": 2512,
      "cur": 2513,
      "mak": 2514,
      "ms": 2515,
      "being": 2516,
      "ven": 2517,
      "help": 2518,
      "194": 2519,
      "set": 2520,
      "gl": 2521,
      "Nor": 2522,
      "ried": 2523,
      "16": 2524,
      "ave": 2525,
      "Con": 2526,
      "tow": 2527,
      "bers": 2528,
      "cted": 2529,
      "Sh": 2530,
      "before": 2531,
      "govern": 2532,
      "\",": 2533,
      "ds": 2534,
      "band": 2535,
      "nor": 2536,
      "ual": 2537,
      "ury": 2538,
      "sc": 2539,
      "king": 2540,
      "ah": 2541,
      "Some": 2542,
      "inn": 2543,
      "area": 2544,
      "However": 2545,
      "said": 2546,
      "Pe": 2547,
      "sol": 2548,
      "now": 2549,
      "So": 2550,
      "12": 2551,
      "water": 2552,
      "such": 2553,
      "mat": 2554,
      "These": 2555,
      "0s": 2556,
      "ss": 2557,
      "ative": 2558,
      "iss": 2559,
      "stem": 2560,
      "ys": 2561,
      "led": 2562,
      "eral": 2563,
      "war": 2564,
      "hist": 2565,
      "place": 2566,
      "ouse": 2567,
      "imes": 2568,
      "usually": 2569,
      "clo": 2570,
      "cap": 2571,
      "Jan": 2572,
      "fer": 2573,
      "dec": 2574,
      "ower": 2575,
      "around": 2576,
      "dire": 2577,
      "giv": 2578,
      "ures": 2579,
      "life": 2580,
      "Fr": 2581,
      ".\"": 2582,
      "chang": 2583,
      "olog": 2584,
      "tal": 2585,
      "lead": 2586,
      "Bo": 2587,
      "igin": 2588,
      "Se": 2589,
      "United": 2590,
      "cover": 2591,
      "Par": 2592,
      "game": 2593,
      "sever": 2594,
      "appe": 2595,
      "Wor": 2596,
      "gu": 2597,
      "gest": 2598,
      "read": 2599,
      "cons": 2600,
      "named": 2601,
      "ib": 2602,
      "ton": 2603,
      "ral": 2604,
      "May": 2605,
      "convert": 2606,
      "record": 2607,
      "iversity": 2608,
      "une": 2609,
      "mp": 2610,
      "ating": 2611,
      "town": 2612,
      "chan": 2613,
      "az": 2614,
      "ages": 2615,
      "omet": 2616,
      "193": 2617,
      "add": 2618,
      "ject": 2619,
      "school": 2620,
      "bro": 2621,
      "wom": 2622,
      "loc": 2623,
      "ger": 2624,
      "leg": 2625,
      "what": 2626,
      "thing": 2627,
      "polit": 2628,
      "build": 2629,
      "iel": 2630,
      "both": 2631,
      "every": 2632,
      "last": 2633,
      "fol": 2634,
      "Ger": 2635,
      "plac": 2636,
      "ball": 2637,
      "much": 2638,
      "Pr": 2639,
      "death": 2640,
      "ody": 2641,
      "sub": 2642,
      "ef": 2643,
      "self": 2644,
      "13": 2645,
      "men": 2646,
      "cle": 2647,
      "less": 2648,
      "origin": 2649,
      "14": 2650,
      "itt": 2651,
      "Brit": 2652,
      "illion": 2653,
      "series": 2654,
      "ose": 2655,
      "ants": 2656,
      "still": 2657,
      "family": 2658,
      "apan": 2659,
      "cess": 2660,
      "children": 2661,
      "Her": 2662,
      "import": 2663,
      "run": 2664,
      "government": 2665,
      "inv": 2666,
      "sup": 2667,
      "jo": 2668,
      "ars": 2669,
      "Wh": 2670,
      "tak": 2671,
      "Japan": 2672,
      "ious": 2673,
      "several": 2674,
      "ise": 2675,
      "system": 2676,
      "down": 2677,
      "ik": 2678,
      "does": 2679,
      "ste": 2680,
      "my": 2681,
      "say": 2682,
      "Ju": 2683,
      "large": 2684,
      "sim": 2685,
      "ash": 2686,
      "married": 2687,
      "Sp": 2688,
      "season": 2689,
      "even": 2690,
      "la": 2691,
      "ered": 2692,
      "left": 2693,
      "Fe": 2694,
      "2010": 2695,
      "lang": 2696,
      "ometimes": 2697,
      "high": 2698,
      "rest": 2699,
      "dep": 2700,
      "began": 2701,
      "ond": 2702,
      "Gr": 2703,
      "while": 2704,
      "how": 2705,
      "head": 2706,
      "good": 2707,
      "ired": 2708,
      "January": 2709,
      "ctor": 2710,
      "ink": 2711,
      "uro": 2712,
      "need": 2713,
      "velop": 2714,
      "care": 2715,
      "ution": 2716,
      "means": 2717,
      "member": 2718,
      "World": 2719,
      "line": 2720,
      "Oc": 2721,
      "xt": 2722,
      "trans": 2723,
      "ways": 2724,
      "ened": 2725,
      "ica": 2726,
      "tries": 2727,
      "ley": 2728,
      "best": 2729,
      "ilt": 2730,
      "power": 2731,
      "States": 2732,
      "Sep": 2733,
      "sk": 2734,
      "stand": 2735,
      "tra": 2736,
      "since": 2737,
      "ible": 2738,
      "vid": 2739,
      "allow": 2740,
      "tober": 2741,
      "ime": 2742,
      "near": 2743,
      "ared": 2744,
      "October": 2745,
      "important": 2746,
      "vision": 2747,
      "ature": 2748,
      "fect": 2749,
      "ina": 2750,
      "ird": 2751,
      "25": 2752,
      "bre": 2753,
      "happ": 2754,
      "Aust": 2755,
      "arch": 2756,
      "ular": 2757,
      "follow": 2758,
      "state": 2759,
      "tember": 2760,
      "body": 2761,
      "want": 2762,
      "September": 2763,
      "ities": 2764,
      "serv": 2765,
      "augh": 2766,
      "hy": 2767,
      "lot": 2768,
      "July": 2769,
      "ural": 2770,
      "ax": 2771,
      "law": 2772,
      "Indi": 2773,
      "Is": 2774,
      "light": 2775,
      "fo": 2776,
      "rop": 2777,
      "move": 2778,
      "country": 2779,
      "built": 2780,
      "ches": 2781,
      "langu": 2782,
      "tit": 2783,
      "val": 2784,
      "ister": 2785,
      "popular": 2786,
      "hum": 2787,
      "oper": 2788,
      "30": 2789,
      "century": 2790,
      "develop": 2791,
      "offic": 2792,
      "Many": 2793,
      "Nove": 2794,
      "University": 2795,
      "gy": 2796,
      "Col": 2797,
      "ccess": 2798,
      "ital": 2799,
      "big": 2800,
      "ting": 2801,
      "contro": 2802,
      "November": 2803,
      "another": 2804,
      "Joh": 2805,
      "live": 2806,
      "point": 2807,
      "If": 2808,
      "present": 2809,
      "put": 2810,
      "stud": 2811,
      "ism": 2812,
      "ments": 2813,
      "rent": 2814,
      "Aug": 2815,
      "Apr": 2816,
      "sign": 2817,
      "March": 2818,
      "million": 2819,
      "just": 2820,
      "organ": 2821,
      "order": 2822,
      "Coun": 2823,
      "charac": 2824,
      "April": 2825,
      "lived": 2826,
      "var": 2827,
      "against": 2828,
      "One": 2829,
      "population": 2830,
      "gre": 2831,
      "peri": 2832,
      "Car": 2833,
      "look": 2834,
      "went": 2835,
      "ron": 2836,
      "pass": 2837,
      "contin": 2838,
      "August": 2839,
      "11": 2840,
      "early": 2841,
      "Euro": 2842,
      "Tr": 2843,
      "you": 2844,
      "met": 2845,
      "success": 2846,
      "gram": 2847,
      "times": 2848,
      "stru": 2849,
      "uses": 2850,
      "All": 2851,
      "ier": 2852,
      "view": 2853,
      "things": 2854,
      "father": 2855,
      "ended": 2856,
      "Febr": 2857,
      "cies": 2858,
      "February": 2859,
      "created": 2860,
      "ends": 2861,
      "ample": 2862,
      "become": 2863,
      "und": 2864,
      "Dece": 2865,
      "ales": 2866,
      "rote": 2867,
      "gether": 2868,
      "side": 2869,
      "ific": 2870,
      "formed": 2871,
      "stit": 2872,
      "beli": 2873,
      "December": 2874,
      "John": 2875,
      "21": 2876,
      "ls": 2877,
      "ked": 2878,
      "ampion": 2879,
      "National": 2880,
      "tell": 2881,
      "June": 2882,
      "ted": 2883,
      "por": 2884,
      "player": 2885,
      "mil": 2886,
      "Engl": 2887,
      "English": 2888,
      "British": 2889,
      "But": 2890,
      "Cl": 2891,
      "bus": 2892,
      "2007": 2893,
      "ont": 2894,
      "cause": 2895,
      "using": 2896,
      "ized": 2897,
      "members": 2898,
      "rece": 2899,
      "Ph": 2900,
      "right": 2901,
      "anim": 2902,
      "return": 2903,
      "ium": 2904,
      "Europe": 2905,
      "few": 2906,
      "eas": 2907,
      "see": 2908,
      "oney": 2909,
      "find": 2910,
      "ats": 2911,
      "ple": 2912,
      "II": 2913,
      "attack": 2914,
      "Or": 2915,
      "home": 2916,
      "cient": 2917,
      "jor": 2918,
      "youn": 2919,
      "took": 2920,
      "Bl": 2921,
      "ai": 2922,
      "cour": 2923,
      "ped": 2924,
      "countries": 2925,
      "Pro": 2926,
      "ians": 2927,
      "ison": 2928,
      "design": 2929,
      "got": 2930,
      "stu": 2931,
      "word": 2932,
      "given": 2933,
      "Li": 2934,
      "wrote": 2935,
      "2011": 2936,
      "hand": 2937,
      "soci": 2938,
      "short": 2939,
      "King": 2940,
      "ese": 2941,
      "Br": 2942,
      "based": 2943,
      "ude": 2944,
      "written": 2945,
      "together": 2946,
      "stor": 2947,
      "cri": 2948,
      "example": 2949,
      "plan": 2950,
      "fri": 2951,
      "2008": 2952,
      "games": 2953,
      "vent": 2954,
      "Chr": 2955,
      "50": 2956,
      "moved": 2957,
      "fil": 2958,
      "ross": 2959,
      "24": 2960,
      "uss": 2961,
      "stop": 2962,
      "Pl": 2963,
      "history": 2964,
      "ety": 2965,
      "Co": 2966,
      "ank": 2967,
      "liam": 2968,
      "ional": 2969,
      "arn": 2970,
      "tem": 2971,
      "ived": 2972,
      "ric": 2973,
      "killed": 2974,
      "take": 2975,
      "grow": 2976,
      "five": 2977,
      "list": 2978,
      "public": 2979,
      "North": 2980,
      "great": 2981,
      "real": 2982,
      "grap": 2983,
      "cept": 2984,
      "sometimes": 2985,
      "six": 2986,
      "cor": 2987,
      "Can": 2988,
      "pain": 2989,
      "including": 2990,
      "af": 2991,
      "aren": 2992,
      "change": 2993,
      "bet": 2994,
      "bur": 2995,
      "species": 2996,
      "famous": 2997,
      "proble": 2998,
      "ield": 2999
    },
    "merges": [
      [
        "h",
        "e"
      ],
      [
        "i",
        "n"
      ],
      [
        "t",
        "he"
      ],
      [
        "a",
        "n"
      ],
      [
        "e",
        "r"
      ],
      [
        "o",
        "n"
      ],
      [
        "r",
        "e"
      ],
      [
        "i",
        "s"
      ],
      [
        "a",
        "t"
      ],
      [
        "e",
        "d"
      ],
      [
        "o",
        "r"
      ],
      [
        "a",
        "l"
      ],
      [
        "a",
        "s"
      ],
      [
        "e",
        "n"
      ],
      [
        "e",
        "s"
      ],
      [
        "a",
        "r"
      ],
      [
        "o",
        "f"
      ],
      [
        "i",
        "t"
      ],
      [
        "an",
        "d"
      ],
      [
        "t",
        "o"
      ],
      [
        "o",
        "u"
      ],
      [
        "in",
        "g"
      ],
      [
        "t",
        "h"
      ],
      [
        "i",
        "c"
      ],
      [
        "l",
        "e"
      ],
      [
        "s",
        "t"
      ],
      [
        "o",
        "m"
      ],
      [
        "i",
        "on"
      ],
      [
        "T",
        "he"
      ],
      [
        "i",
        "l"
      ],
      [
        "a",
        "m"
      ],
      [
        "s",
        "e"
      ],
      [
        "w",
        "as"
      ],
      [
        "b",
        "e"
      ],
      [
        "en",
        "t"
      ],
      [
        "a",
        "c"
      ],
      [
        "a",
        "d"
      ],
      [
        "r",
        "o"
      ],
      [
        "o",
        "l"
      ],
      [
        "v",
        "e"
      ],
      [
        "f",
        "or"
      ],
      [
        "c",
        "h"
      ],
      [
        "v",
        "er"
      ],
      [
        "l",
        "y"
      ],
      [
        "o",
        "w"
      ],
      [
        "i",
        "r"
      ],
      [
        "i",
        "m"
      ],
      [
        "a",
        "y"
      ],
      [
        "a",
        "re"
      ],
      [
        "i",
        "d"
      ],
      [
        "t",
        "er"
      ],
      [
        "u",
        "r"
      ],
      [
        "1",
        "9"
      ],
      [
        "u",
        "s"
      ],
      [
        "i",
        "g"
      ],
      [
        "o",
        "t"
      ],
      [
        "u",
        "n"
      ],
      [
        "2",
        "0"
      ],
      [
        "p",
        "e"
      ],
      [
        "at",
        "ion"
      ],
      [
        "o",
        "p"
      ],
      [
        "h",
        "is"
      ],
      [
        "m",
        "o"
      ],
      [
        "c",
        "e"
      ],
      [
        "al",
        "l"
      ],
      [
        "a",
        "g"
      ],
      [
        "c",
        "t"
      ],
      [
        "d",
        "e"
      ],
      [
        "it",
        "h"
      ],
      [
        "th",
        "at"
      ],
      [
        "t",
        "r"
      ],
      [
        "p",
        "l"
      ],
      [
        "f",
        "r"
      ],
      [
        "u",
        "l"
      ],
      [
        "t",
        "e"
      ],
      [
        "ou",
        "n"
      ],
      [
        "c",
        "on"
      ],
      [
        "w",
        "ith"
      ],
      [
        "t",
        "s"
      ],
      [
        "the",
        "r"
      ],
      [
        "w",
        "h"
      ],
      [
        "a",
        "b"
      ],
      [
        "l",
        "i"
      ],
      [
        "I",
        "n"
      ],
      [
        "b",
        "y"
      ],
      [
        "d",
        "i"
      ],
      [
        "n",
        "e"
      ],
      [
        "u",
        "t"
      ],
      [
        "H",
        "e"
      ],
      [
        "a",
        "p"
      ],
      [
        "er",
        "s"
      ],
      [
        "I",
        "t"
      ],
      [
        "s",
        "o"
      ],
      [
        "u",
        "m"
      ],
      [
        "a",
        "in"
      ],
      [
        "c",
        "om"
      ],
      [
        "re",
        "s"
      ],
      [
        "e",
        "l"
      ],
      [
        "e",
        "t"
      ],
      [
        "fr",
        "om"
      ],
      [
        "a",
        "k"
      ],
      [
        "ar",
        "t"
      ],
      [
        "s",
        "h"
      ],
      [
        "es",
        "t"
      ],
      [
        "il",
        "l"
      ],
      [
        "i",
        "es"
      ],
      [
        "e",
        "m"
      ],
      [
        "h",
        "a"
      ],
      [
        "am",
        "e"
      ],
      [
        "on",
        "e"
      ],
      [
        "n",
        "ot"
      ],
      [
        "l",
        "o"
      ],
      [
        "l",
        "d"
      ],
      [
        "r",
        "i"
      ],
      [
        "m",
        "an"
      ],
      [
        "p",
        "ro"
      ],
      [
        "b",
        "er"
      ],
      [
        "o",
        "d"
      ],
      [
        "er",
        "e"
      ],
      [
        "ig",
        "h"
      ],
      [
        "at",
        "e"
      ],
      [
        "ou",
        "t"
      ],
      [
        "w",
        "or"
      ],
      [
        "h",
        "as"
      ],
      [
        "e",
        "ar"
      ],
      [
        "w",
        "ere"
      ],
      [
        "s",
        "u"
      ],
      [
        "it",
        "y"
      ],
      [
        "g",
        "e"
      ],
      [
        "on",
        "g"
      ],
      [
        "e",
        "x"
      ],
      [
        "20",
        "0"
      ],
      [
        "al",
        "so"
      ],
      [
        "o",
        "s"
      ],
      [
        "f",
        "e"
      ],
      [
        "ar",
        "d"
      ],
      [
        "g",
        "h"
      ],
      [
        "a",
        "u"
      ],
      [
        "ow",
        "n"
      ],
      [
        "is",
        "t"
      ],
      [
        "op",
        "le"
      ],
      [
        "es",
        "s"
      ],
      [
        "t",
        "w"
      ],
      [
        "c",
        "an"
      ],
      [
        "he",
        "r"
      ],
      [
        "ou",
        "r"
      ],
      [
        "en",
        "d"
      ],
      [
        "ic",
        "h"
      ],
      [
        "20",
        "1"
      ],
      [
        "ha",
        "ve"
      ],
      [
        "oun",
        "d"
      ],
      [
        "g",
        "r"
      ],
      [
        "an",
        "t"
      ],
      [
        "m",
        "ent"
      ],
      [
        "c",
        "i"
      ],
      [
        "o",
        "ther"
      ],
      [
        "p",
        "er"
      ],
      [
        "om",
        "e"
      ],
      [
        "the",
        "y"
      ],
      [
        "q",
        "u"
      ],
      [
        "c",
        "l"
      ],
      [
        "o",
        "ver"
      ],
      [
        "al",
        "ly"
      ],
      [
        "k",
        "e"
      ],
      [
        "pe",
        "ople"
      ],
      [
        "i",
        "ve"
      ],
      [
        "i",
        "an"
      ],
      [
        "i",
        "e"
      ],
      [
        "ir",
        "st"
      ],
      [
        "ar",
        "y"
      ],
      [
        "h",
        "ad"
      ],
      [
        "ac",
        "t"
      ],
      [
        "T",
        "his"
      ],
      [
        "w",
        "he"
      ],
      [
        "at",
        "ed"
      ],
      [
        "0",
        "0"
      ],
      [
        "ac",
        "k"
      ],
      [
        "p",
        "r"
      ],
      [
        "or",
        "t"
      ],
      [
        "b",
        "ut"
      ],
      [
        "as",
        "t"
      ],
      [
        "f",
        "irst"
      ],
      [
        "ou",
        "gh"
      ],
      [
        "igh",
        "t"
      ],
      [
        "i",
        "v"
      ],
      [
        "m",
        "e"
      ],
      [
        "re",
        "d"
      ],
      [
        "b",
        "o"
      ],
      [
        "f",
        "f"
      ],
      [
        "wh",
        "ich"
      ],
      [
        "pl",
        "ay"
      ],
      [
        "o",
        "k"
      ],
      [
        "the",
        "ir"
      ],
      [
        "u",
        "p"
      ],
      [
        "C",
        "h"
      ],
      [
        "d",
        "er"
      ],
      [
        "u",
        "st"
      ],
      [
        "id",
        "e"
      ],
      [
        "t",
        "im"
      ],
      [
        "ag",
        "e"
      ],
      [
        "an",
        "g"
      ],
      [
        "l",
        "l"
      ],
      [
        "be",
        "c"
      ],
      [
        "is",
        "h"
      ],
      [
        "i",
        "a"
      ],
      [
        "in",
        "e"
      ],
      [
        "y",
        "ear"
      ],
      [
        "an",
        "s"
      ],
      [
        "m",
        "er"
      ],
      [
        "d",
        "o"
      ],
      [
        "i",
        "p"
      ],
      [
        "th",
        "is"
      ],
      [
        "a",
        "w"
      ],
      [
        "ou",
        "ld"
      ],
      [
        "o",
        "re"
      ],
      [
        "c",
        "all"
      ],
      [
        "The",
        "y"
      ],
      [
        "f",
        "ter"
      ],
      [
        "r",
        "it"
      ],
      [
        "a",
        "v"
      ],
      [
        "k",
        "n"
      ],
      [
        "at",
        "er"
      ],
      [
        "S",
        "t"
      ],
      [
        "it",
        "s"
      ],
      [
        "b",
        "l"
      ],
      [
        "e",
        "p"
      ],
      [
        "ou",
        "s"
      ],
      [
        "ver",
        "y"
      ],
      [
        "b",
        "r"
      ],
      [
        "us",
        "ed"
      ],
      [
        "ad",
        "e"
      ],
      [
        "i",
        "f"
      ],
      [
        "wh",
        "o"
      ],
      [
        "ac",
        "h"
      ],
      [
        "u",
        "d"
      ],
      [
        "l",
        "and"
      ],
      [
        "man",
        "y"
      ],
      [
        "p",
        "art"
      ],
      [
        "call",
        "ed"
      ],
      [
        "ic",
        "al"
      ],
      [
        "e",
        "v"
      ],
      [
        "as",
        "s"
      ],
      [
        "re",
        "e"
      ],
      [
        "re",
        "n"
      ],
      [
        "S",
        "he"
      ],
      [
        "wor",
        "k"
      ],
      [
        "1",
        "8"
      ],
      [
        ")",
        "."
      ],
      [
        "in",
        "d"
      ],
      [
        "u",
        "re"
      ],
      [
        "c",
        "o"
      ],
      [
        "s",
        "er"
      ],
      [
        "tw",
        "o"
      ],
      [
        "ion",
        "s"
      ],
      [
        "mo",
        "st"
      ],
      [
        "ac",
        "e"
      ],
      [
        "ab",
        "out"
      ],
      [
        "d",
        "is"
      ],
      [
        "mo",
        "re"
      ],
      [
        "ol",
        "d"
      ],
      [
        "g",
        "o"
      ],
      [
        "s",
        "p"
      ],
      [
        "19",
        "9"
      ],
      [
        "or",
        "y"
      ],
      [
        "t",
        "en"
      ],
      [
        "ic",
        "e"
      ],
      [
        "d",
        "u"
      ],
      [
        "tim",
        "e"
      ],
      [
        "com",
        "p"
      ],
      [
        "c",
        "k"
      ],
      [
        "for",
        "m"
      ],
      [
        "v",
        "ed"
      ],
      [
        "an",
        "y"
      ],
      [
        "il",
        "d"
      ],
      [
        "l",
        "ow"
      ],
      [
        "ak",
        "e"
      ],
      [
        "the",
        "re"
      ],
      [
        "c",
        "re"
      ],
      [
        "A",
        "n"
      ],
      [
        "U",
        "n"
      ],
      [
        "c",
        "he"
      ],
      [
        "p",
        "o"
      ],
      [
        "r",
        "a"
      ],
      [
        "be",
        "en"
      ],
      [
        "au",
        "se"
      ],
      [
        "s",
        "he"
      ],
      [
        "the",
        "m"
      ],
      [
        "t",
        "y"
      ],
      [
        "m",
        "ade"
      ],
      [
        "kn",
        "own"
      ],
      [
        "i",
        "z"
      ],
      [
        "w",
        "e"
      ],
      [
        "or",
        "d"
      ],
      [
        "p",
        "ort"
      ],
      [
        "ing",
        "s"
      ],
      [
        "s",
        "ome"
      ],
      [
        "le",
        "ct"
      ],
      [
        "s",
        "pe"
      ],
      [
        "am",
        "p"
      ],
      [
        "as",
        "ed"
      ],
      [
        "ig",
        "n"
      ],
      [
        "ver",
        "s"
      ],
      [
        "di",
        "ff"
      ],
      [
        "u",
        "e"
      ],
      [
        "w",
        "ay"
      ],
      [
        "on",
        "ly"
      ],
      [
        "whe",
        "n"
      ],
      [
        "c",
        "ent"
      ],
      [
        "n",
        "o"
      ],
      [
        "c",
        "oun"
      ],
      [
        "in",
        "to"
      ],
      [
        "h",
        "im"
      ],
      [
        "a",
        "fter"
      ],
      [
        "st",
        "r"
      ],
      [
        "th",
        "an"
      ],
      [
        "ic",
        "an"
      ],
      [
        "con",
        "t"
      ],
      [
        "of",
        "f"
      ],
      [
        "m",
        "ber"
      ],
      [
        "ve",
        "l"
      ],
      [
        "m",
        "ar"
      ],
      [
        "p",
        "res"
      ],
      [
        "en",
        "ce"
      ],
      [
        "at",
        "es"
      ],
      [
        "it",
        "e"
      ],
      [
        "b",
        "u"
      ],
      [
        "The",
        "re"
      ],
      [
        "year",
        "s"
      ],
      [
        "ne",
        "w"
      ],
      [
        "l",
        "es"
      ],
      [
        "c",
        "it"
      ],
      [
        "19",
        "8"
      ],
      [
        "c",
        "ol"
      ],
      [
        "\"",
        "."
      ],
      [
        "m",
        "on"
      ],
      [
        "A",
        "mer"
      ],
      [
        "at",
        "h"
      ],
      [
        "ul",
        "t"
      ],
      [
        "he",
        "d"
      ],
      [
        "at",
        "t"
      ],
      [
        "diff",
        "er"
      ],
      [
        "i",
        "al"
      ],
      [
        "d",
        "ay"
      ],
      [
        "it",
        "ion"
      ],
      [
        "el",
        "l"
      ],
      [
        "ab",
        "le"
      ],
      [
        "or",
        "n"
      ],
      [
        "an",
        "ce"
      ],
      [
        "p",
        "h"
      ],
      [
        "A",
        "r"
      ],
      [
        "b",
        "le"
      ],
      [
        "M",
        "ar"
      ],
      [
        "f",
        "ore"
      ],
      [
        "ation",
        "al"
      ],
      [
        "c",
        "es"
      ],
      [
        "i",
        "le"
      ],
      [
        "u",
        "se"
      ],
      [
        "v",
        "ie"
      ],
      [
        ")",
        ","
      ],
      [
        "l",
        "ar"
      ],
      [
        "e",
        "ver"
      ],
      [
        "A",
        "l"
      ],
      [
        "ch",
        "o"
      ],
      [
        "a",
        "ir"
      ],
      [
        "s",
        "y"
      ],
      [
        "w",
        "ill"
      ],
      [
        "ic",
        "t"
      ],
      [
        "ur",
        "ing"
      ],
      [
        "19",
        "7"
      ],
      [
        "bec",
        "ame"
      ],
      [
        "bec",
        "ause"
      ],
      [
        "ation",
        "s"
      ],
      [
        "p",
        "os"
      ],
      [
        "or",
        "s"
      ],
      [
        "ur",
        "n"
      ],
      [
        "o",
        "g"
      ],
      [
        "li",
        "ke"
      ],
      [
        "p",
        "ar"
      ],
      [
        "en",
        "s"
      ],
      [
        "ic",
        "k"
      ],
      [
        "u",
        "bl"
      ],
      [
        "ro",
        "w"
      ],
      [
        "p",
        "t"
      ],
      [
        "differ",
        "ent"
      ],
      [
        "p",
        "ol"
      ],
      [
        "re",
        "le"
      ],
      [
        "s",
        "a"
      ],
      [
        "w",
        "ould"
      ],
      [
        "ter",
        "s"
      ],
      [
        "o",
        "b"
      ],
      [
        "m",
        "ain"
      ],
      [
        "un",
        "t"
      ],
      [
        "ter",
        "n"
      ],
      [
        "D",
        "e"
      ],
      [
        "in",
        "t"
      ],
      [
        "g",
        "an"
      ],
      [
        "l",
        "ong"
      ],
      [
        "i",
        "re"
      ],
      [
        "m",
        "em"
      ],
      [
        "r",
        "y"
      ],
      [
        "con",
        "d"
      ],
      [
        "ent",
        "s"
      ],
      [
        "A",
        "s"
      ],
      [
        "c",
        "ed"
      ],
      [
        "ou",
        "p"
      ],
      [
        "g",
        "en"
      ],
      [
        "n",
        "ame"
      ],
      [
        "T",
        "h"
      ],
      [
        "N",
        "e"
      ],
      [
        "in",
        "ce"
      ],
      [
        "on",
        "s"
      ],
      [
        "the",
        "n"
      ],
      [
        "p",
        "op"
      ],
      [
        "al",
        "s"
      ],
      [
        "f",
        "am"
      ],
      [
        "c",
        "c"
      ],
      [
        "ct",
        "ion"
      ],
      [
        "d",
        "es"
      ],
      [
        "p",
        "re"
      ],
      [
        "st",
        "art"
      ],
      [
        "w",
        "rit"
      ],
      [
        "f",
        "ound"
      ],
      [
        "u",
        "ally"
      ],
      [
        "u",
        "g"
      ],
      [
        "tr",
        "y"
      ],
      [
        "E",
        "n"
      ],
      [
        "O",
        "n"
      ],
      [
        "s",
        "ing"
      ],
      [
        "in",
        "cl"
      ],
      [
        "in",
        "s"
      ],
      [
        "v",
        "is"
      ],
      [
        "r",
        "an"
      ],
      [
        "19",
        "6"
      ],
      [
        "n",
        "um"
      ],
      [
        "e",
        "en"
      ],
      [
        "it",
        "ed"
      ],
      [
        "sh",
        "ow"
      ],
      [
        "pop",
        "ul"
      ],
      [
        "a",
        "il"
      ],
      [
        "u",
        "ary"
      ],
      [
        "th",
        "ough"
      ],
      [
        "cit",
        "ation"
      ],
      [
        "f",
        "in"
      ],
      [
        "f",
        "ul"
      ],
      [
        "m",
        "ay"
      ],
      [
        "whe",
        "re"
      ],
      [
        "m",
        "us"
      ],
      [
        "n",
        "am"
      ],
      [
        "c",
        "ar"
      ],
      [
        "p",
        "ers"
      ],
      [
        "f",
        "t"
      ],
      [
        "Amer",
        "ican"
      ],
      [
        "he",
        "n"
      ],
      [
        "sh",
        "ip"
      ],
      [
        "m",
        "in"
      ],
      [
        "as",
        "e"
      ],
      [
        "f",
        "l"
      ],
      [
        "v",
        "ing"
      ],
      [
        "th",
        "ree"
      ],
      [
        "rele",
        "ased"
      ],
      [
        "r",
        "ough"
      ],
      [
        "s",
        "m"
      ],
      [
        "b",
        "ack"
      ],
      [
        "il",
        "y"
      ],
      [
        "g",
        "et"
      ],
      [
        "o",
        "od"
      ],
      [
        "re",
        "t"
      ],
      [
        "be",
        "tw"
      ],
      [
        "id",
        "ent"
      ],
      [
        "betw",
        "een"
      ],
      [
        "he",
        "l"
      ],
      [
        "re",
        "at"
      ],
      [
        "re",
        "g"
      ],
      [
        "e",
        "lect"
      ],
      [
        "s",
        "on"
      ],
      [
        "d",
        "id"
      ],
      [
        "ag",
        "ain"
      ],
      [
        "over",
        "n"
      ],
      [
        "o",
        "st"
      ],
      [
        "d",
        "r"
      ],
      [
        "unt",
        "il"
      ],
      [
        "i",
        "x"
      ],
      [
        "to",
        "p"
      ],
      [
        "wor",
        "ld"
      ],
      [
        "i",
        "ed"
      ],
      [
        "ic",
        "s"
      ],
      [
        "ar",
        "m"
      ],
      [
        "gr",
        "oup"
      ],
      [
        "k",
        "s"
      ],
      [
        "ow",
        "ever"
      ],
      [
        "se",
        "l"
      ],
      [
        "res",
        "s"
      ],
      [
        "cho",
        "ol"
      ],
      [
        "1",
        "0"
      ],
      [
        "di",
        "ed"
      ],
      [
        "L",
        "e"
      ],
      [
        "b",
        "orn"
      ],
      [
        "is",
        "hed"
      ],
      [
        "pro",
        "du"
      ],
      [
        "m",
        "ake"
      ],
      [
        "B",
        "e"
      ],
      [
        "w",
        "ard"
      ],
      [
        "play",
        "ed"
      ],
      [
        "c",
        "ord"
      ],
      [
        "ch",
        "ild"
      ],
      [
        "u",
        "b"
      ],
      [
        "b",
        "um"
      ],
      [
        "com",
        "m"
      ],
      [
        "le",
        "t"
      ],
      [
        "c",
        "r"
      ],
      [
        "al",
        "e"
      ],
      [
        "v",
        "es"
      ],
      [
        "o",
        "ve"
      ],
      [
        "te",
        "am"
      ],
      [
        "w",
        "ell"
      ],
      [
        "un",
        "der"
      ],
      [
        "p",
        "ubl"
      ],
      [
        "s",
        "ame"
      ],
      [
        "re",
        "l"
      ],
      [
        "t",
        "ain"
      ],
      [
        "se",
        "cond"
      ],
      [
        "l",
        "ater"
      ],
      [
        "s",
        "ong"
      ],
      [
        "en",
        "g"
      ],
      [
        "ci",
        "al"
      ],
      [
        "th",
        "rough"
      ],
      [
        "H",
        "is"
      ],
      [
        "pers",
        "on"
      ],
      [
        "1",
        "7"
      ],
      [
        "R",
        "e"
      ],
      [
        "of",
        "ten"
      ],
      [
        "c",
        "ity"
      ],
      [
        "m",
        "a"
      ],
      [
        "19",
        "5"
      ],
      [
        "Ne",
        "w"
      ],
      [
        "ou",
        "th"
      ],
      [
        "an",
        "n"
      ],
      [
        "bo",
        "ok"
      ],
      [
        "com",
        "e"
      ],
      [
        "w",
        "on"
      ],
      [
        "sm",
        "all"
      ],
      [
        "v",
        "i"
      ],
      [
        "A",
        "t"
      ],
      [
        "ap",
        "p"
      ],
      [
        "C",
        "om"
      ],
      [
        "the",
        "se"
      ],
      [
        "m",
        "ed"
      ],
      [
        "u",
        "ch"
      ],
      [
        "00",
        "0"
      ],
      [
        "in",
        "ter"
      ],
      [
        "al",
        "bum"
      ],
      [
        "A",
        "fter"
      ],
      [
        "as",
        "on"
      ],
      [
        "c",
        "er"
      ],
      [
        "R",
        "o"
      ],
      [
        "i",
        "vers"
      ],
      [
        "j",
        "e"
      ],
      [
        "k",
        "ill"
      ],
      [
        "ch",
        "ar"
      ],
      [
        "f",
        "our"
      ],
      [
        "mus",
        "ic"
      ],
      [
        "J",
        "o"
      ],
      [
        "1",
        "5"
      ],
      [
        "c",
        "y"
      ],
      [
        "in",
        "es"
      ],
      [
        "num",
        "ber"
      ],
      [
        "i",
        "o"
      ],
      [
        "F",
        "or"
      ],
      [
        "W",
        "hen"
      ],
      [
        "mo",
        "vie"
      ],
      [
        "c",
        "a"
      ],
      [
        "incl",
        "ud"
      ],
      [
        "c",
        "ould"
      ],
      [
        "s",
        "ur"
      ],
      [
        "is",
        "ts"
      ],
      [
        "e",
        "ach"
      ],
      [
        "a",
        "ther"
      ],
      [
        "ver",
        "t"
      ],
      [
        "am",
        "es"
      ],
      [
        "start",
        "ed"
      ],
      [
        "d",
        "uring"
      ],
      [
        "c",
        "ur"
      ],
      [
        "m",
        "ak"
      ],
      [
        "m",
        "s"
      ],
      [
        "be",
        "ing"
      ],
      [
        "v",
        "en"
      ],
      [
        "hel",
        "p"
      ],
      [
        "19",
        "4"
      ],
      [
        "se",
        "t"
      ],
      [
        "g",
        "l"
      ],
      [
        "N",
        "or"
      ],
      [
        "ri",
        "ed"
      ],
      [
        "1",
        "6"
      ],
      [
        "a",
        "ve"
      ],
      [
        "C",
        "on"
      ],
      [
        "to",
        "w"
      ],
      [
        "b",
        "ers"
      ],
      [
        "ct",
        "ed"
      ],
      [
        "S",
        "h"
      ],
      [
        "be",
        "fore"
      ],
      [
        "g",
        "overn"
      ],
      [
        "\"",
        ","
      ],
      [
        "d",
        "s"
      ],
      [
        "b",
        "and"
      ],
      [
        "n",
        "or"
      ],
      [
        "u",
        "al"
      ],
      [
        "ur",
        "y"
      ],
      [
        "s",
        "c"
      ],
      [
        "k",
        "ing"
      ],
      [
        "a",
        "h"
      ],
      [
        "S",
        "ome"
      ],
      [
        "in",
        "n"
      ],
      [
        "are",
        "a"
      ],
      [
        "H",
        "owever"
      ],
      [
        "sa",
        "id"
      ],
      [
        "P",
        "e"
      ],
      [
        "s",
        "ol"
      ],
      [
        "n",
        "ow"
      ],
      [
        "S",
        "o"
      ],
      [
        "1",
        "2"
      ],
      [
        "w",
        "ater"
      ],
      [
        "su",
        "ch"
      ],
      [
        "m",
        "at"
      ],
      [
        "The",
        "se"
      ],
      [
        "0",
        "s"
      ],
      [
        "s",
        "s"
      ],
      [
        "at",
        "ive"
      ],
      [
        "is",
        "s"
      ],
      [
        "st",
        "em"
      ],
      [
        "y",
        "s"
      ],
      [
        "l",
        "ed"
      ],
      [
        "er",
        "al"
      ],
      [
        "w",
        "ar"
      ],
      [
        "his",
        "t"
      ],
      [
        "pl",
        "ace"
      ],
      [
        "ou",
        "se"
      ],
      [
        "im",
        "es"
      ],
      [
        "us",
        "ually"
      ],
      [
        "c",
        "lo"
      ],
      [
        "c",
        "ap"
      ],
      [
        "J",
        "an"
      ],
      [
        "f",
        "er"
      ],
      [
        "de",
        "c"
      ],
      [
        "ow",
        "er"
      ],
      [
        "ar",
        "ound"
      ],
      [
        "di",
        "re"
      ],
      [
        "g",
        "iv"
      ],
      [
        "u",
        "res"
      ],
      [
        "li",
        "fe"
      ],
      [
        "F",
        "r"
      ],
      [
        ".",
        "\""
      ],
      [
        "ch",
        "ang"
      ],
      [
        "ol",
        "og"
      ],
      [
        "t",
        "al"
      ],
      [
        "le",
        "ad"
      ],
      [
        "B",
        "o"
      ],
      [
        "ig",
        "in"
      ],
      [
        "S",
        "e"
      ],
      [
        "Un",
        "ited"
      ],
      [
        "c",
        "over"
      ],
      [
        "P",
        "ar"
      ],
      [
        "g",
        "ame"
      ],
      [
        "se",
        "ver"
      ],
      [
        "ap",
        "pe"
      ],
      [
        "W",
        "or"
      ],
      [
        "g",
        "u"
      ],
      [
        "g",
        "est"
      ],
      [
        "re",
        "ad"
      ],
      [
        "con",
        "s"
      ],
      [
        "nam",
        "ed"
      ],
      [
        "i",
        "b"
      ],
      [
        "t",
        "on"
      ],
      [
        "r",
        "al"
      ],
      [
        "M",
        "ay"
      ],
      [
        "con",
        "vert"
      ],
      [
        "re",
        "cord"
      ],
      [
        "ivers",
        "ity"
      ],
      [
        "un",
        "e"
      ],
      [
        "m",
        "p"
      ],
      [
        "at",
        "ing"
      ],
      [
        "tow",
        "n"
      ],
      [
        "ch",
        "an"
      ],
      [
        "a",
        "z"
      ],
      [
        "ag",
        "es"
      ],
      [
        "om",
        "et"
      ],
      [
        "19",
        "3"
      ],
      [
        "ad",
        "d"
      ],
      [
        "je",
        "ct"
      ],
      [
        "s",
        "chool"
      ],
      [
        "b",
        "ro"
      ],
      [
        "w",
        "om"
      ],
      [
        "lo",
        "c"
      ],
      [
        "g",
        "er"
      ],
      [
        "le",
        "g"
      ],
      [
        "wh",
        "at"
      ],
      [
        "th",
        "ing"
      ],
      [
        "pol",
        "it"
      ],
      [
        "bu",
        "ild"
      ],
      [
        "i",
        "el"
      ],
      [
        "bo",
        "th"
      ],
      [
        "e",
        "very"
      ],
      [
        "l",
        "ast"
      ],
      [
        "f",
        "ol"
      ],
      [
        "G",
        "er"
      ],
      [
        "pl",
        "ac"
      ],
      [
        "b",
        "all"
      ],
      [
        "m",
        "uch"
      ],
      [
        "P",
        "r"
      ],
      [
        "de",
        "ath"
      ],
      [
        "od",
        "y"
      ],
      [
        "su",
        "b"
      ],
      [
        "e",
        "f"
      ],
      [
        "sel",
        "f"
      ],
      [
        "1",
        "3"
      ],
      [
        "m",
        "en"
      ],
      [
        "c",
        "le"
      ],
      [
        "l",
        "ess"
      ],
      [
        "or",
        "igin"
      ],
      [
        "1",
        "4"
      ],
      [
        "it",
        "t"
      ],
      [
        "B",
        "rit"
      ],
      [
        "ill",
        "ion"
      ],
      [
        "ser",
        "ies"
      ],
      [
        "o",
        "se"
      ],
      [
        "an",
        "ts"
      ],
      [
        "st",
        "ill"
      ],
      [
        "fam",
        "ily"
      ],
      [
        "ap",
        "an"
      ],
      [
        "c",
        "ess"
      ],
      [
        "child",
        "ren"
      ],
      [
        "H",
        "er"
      ],
      [
        "im",
        "port"
      ],
      [
        "r",
        "un"
      ],
      [
        "govern",
        "ment"
      ],
      [
        "in",
        "v"
      ],
      [
        "su",
        "p"
      ],
      [
        "j",
        "o"
      ],
      [
        "ar",
        "s"
      ],
      [
        "W",
        "h"
      ],
      [
        "t",
        "ak"
      ],
      [
        "J",
        "apan"
      ],
      [
        "i",
        "ous"
      ],
      [
        "sever",
        "al"
      ],
      [
        "is",
        "e"
      ],
      [
        "sy",
        "stem"
      ],
      [
        "d",
        "own"
      ],
      [
        "i",
        "k"
      ],
      [
        "do",
        "es"
      ],
      [
        "st",
        "e"
      ],
      [
        "m",
        "y"
      ],
      [
        "s",
        "ay"
      ],
      [
        "J",
        "u"
      ],
      [
        "lar",
        "ge"
      ],
      [
        "s",
        "im"
      ],
      [
        "as",
        "h"
      ],
      [
        "mar",
        "ried"
      ],
      [
        "S",
        "p"
      ],
      [
        "se",
        "ason"
      ],
      [
        "ev",
        "en"
      ],
      [
        "l",
        "a"
      ],
      [
        "er",
        "ed"
      ],
      [
        "le",
        "ft"
      ],
      [
        "F",
        "e"
      ],
      [
        "201",
        "0"
      ],
      [
        "l",
        "ang"
      ],
      [
        "omet",
        "imes"
      ],
      [
        "h",
        "igh"
      ],
      [
        "re",
        "st"
      ],
      [
        "de",
        "p"
      ],
      [
        "be",
        "gan"
      ],
      [
        "on",
        "d"
      ],
      [
        "G",
        "r"
      ],
      [
        "wh",
        "ile"
      ],
      [
        "h",
        "ow"
      ],
      [
        "he",
        "ad"
      ],
      [
        "go",
        "od"
      ],
      [
        "i",
        "red"
      ],
      [
        "Jan",
        "uary"
      ],
      [
        "ct",
        "or"
      ],
      [
        "in",
        "k"
      ],
      [
        "u",
        "ro"
      ],
      [
        "ne",
        "ed"
      ],
      [
        "vel",
        "op"
      ],
      [
        "c",
        "are"
      ],
      [
        "ut",
        "ion"
      ],
      [
        "me",
        "ans"
      ],
      [
        "mem",
        "ber"
      ],
      [
        "Wor",
        "ld"
      ],
      [
        "l",
        "ine"
      ],
      [
        "O",
        "c"
      ],
      [
        "x",
        "t"
      ],
      [
        "tr",
        "ans"
      ],
      [
        "way",
        "s"
      ],
      [
        "en",
        "ed"
      ],
      [
        "ic",
        "a"
      ],
      [
        "tr",
        "ies"
      ],
      [
        "le",
        "y"
      ],
      [
        "b",
        "est"
      ],
      [
        "il",
        "t"
      ],
      [
        "p",
        "ower"
      ],
      [
        "St",
        "ates"
      ],
      [
        "S",
        "ep"
      ],
      [
        "s",
        "k"
      ],
      [
        "st",
        "and"
      ],
      [
        "tr",
        "a"
      ],
      [
        "s",
        "ince"
      ],
      [
        "i",
        "ble"
      ],
      [
        "v",
        "id"
      ],
      [
        "all",
        "ow"
      ],
      [
        "to",
        "ber"
      ],
      [
        "im",
        "e"
      ],
      [
        "ne",
        "ar"
      ],
      [
        "are",
        "d"
      ],
      [
        "Oc",
        "tober"
      ],
      [
        "import",
        "ant"
      ],
      [
        "vis",
        "ion"
      ],
      [
        "at",
        "ure"
      ],
      [
        "fe",
        "ct"
      ],
      [
        "in",
        "a"
      ],
      [
        "ir",
        "d"
      ],
      [
        "2",
        "5"
      ],
      [
        "b",
        "re"
      ],
      [
        "h",
        "app"
      ],
      [
        "A",
        "ust"
      ],
      [
        "ar",
        "ch"
      ],
      [
        "ul",
        "ar"
      ],
      [
        "fol",
        "low"
      ],
      [
        "st",
        "ate"
      ],
      [
        "te",
        "mber"
      ],
      [
        "b",
        "ody"
      ],
      [
        "w",
        "ant"
      ],
      [
        "Sep",
        "tember"
      ],
      [
        "it",
        "ies"
      ],
      [
        "ser",
        "v"
      ],
      [
        "au",
        "gh"
      ],
      [
        "h",
        "y"
      ],
      [
        "l",
        "ot"
      ],
      [
        "Ju",
        "ly"
      ],
      [
        "ur",
        "al"
      ],
      [
        "a",
        "x"
      ],
      [
        "l",
        "aw"
      ],
      [
        "In",
        "di"
      ],
      [
        "I",
        "s"
      ],
      [
        "l",
        "ight"
      ],
      [
        "f",
        "o"
      ],
      [
        "ro",
        "p"
      ],
      [
        "mo",
        "ve"
      ],
      [
        "coun",
        "try"
      ],
      [
        "bu",
        "ilt"
      ],
      [
        "che",
        "s"
      ],
      [
        "lang",
        "u"
      ],
      [
        "t",
        "it"
      ],
      [
        "v",
        "al"
      ],
      [
        "is",
        "ter"
      ],
      [
        "popul",
        "ar"
      ],
      [
        "h",
        "um"
      ],
      [
        "op",
        "er"
      ],
      [
        "3",
        "0"
      ],
      [
        "cent",
        "ury"
      ],
      [
        "de",
        "velop"
      ],
      [
        "off",
        "ic"
      ],
      [
        "M",
        "any"
      ],
      [
        "N",
        "ove"
      ],
      [
        "Un",
        "iversity"
      ],
      [
        "g",
        "y"
      ],
      [
        "C",
        "ol"
      ],
      [
        "cc",
        "ess"
      ],
      [
        "it",
        "al"
      ],
      [
        "b",
        "ig"
      ],
      [
        "t",
        "ing"
      ],
      [
        "cont",
        "ro"
      ],
      [
        "Nove",
        "mber"
      ],
      [
        "an",
        "other"
      ],
      [
        "Jo",
        "h"
      ],
      [
        "li",
        "ve"
      ],
      [
        "po",
        "int"
      ],
      [
        "I",
        "f"
      ],
      [
        "pres",
        "ent"
      ],
      [
        "p",
        "ut"
      ],
      [
        "st",
        "ud"
      ],
      [
        "is",
        "m"
      ],
      [
        "ment",
        "s"
      ],
      [
        "ren",
        "t"
      ],
      [
        "A",
        "ug"
      ],
      [
        "A",
        "pr"
      ],
      [
        "s",
        "ign"
      ],
      [
        "Mar",
        "ch"
      ],
      [
        "m",
        "illion"
      ],
      [
        "j",
        "ust"
      ],
      [
        "or",
        "gan"
      ],
      [
        "or",
        "der"
      ],
      [
        "C",
        "oun"
      ],
      [
        "char",
        "ac"
      ],
      [
        "Apr",
        "il"
      ],
      [
        "li",
        "ved"
      ],
      [
        "v",
        "ar"
      ],
      [
        "again",
        "st"
      ],
      [
        "O",
        "ne"
      ],
      [
        "popul",
        "ation"
      ],
      [
        "g",
        "re"
      ],
      [
        "per",
        "i"
      ],
      [
        "C",
        "ar"
      ],
      [
        "lo",
        "ok"
      ],
      [
        "w",
        "ent"
      ],
      [
        "r",
        "on"
      ],
      [
        "p",
        "ass"
      ],
      [
        "cont",
        "in"
      ],
      [
        "Aug",
        "ust"
      ],
      [
        "1",
        "1"
      ],
      [
        "ear",
        "ly"
      ],
      [
        "E",
        "uro"
      ],
      [
        "T",
        "r"
      ],
      [
        "y",
        "ou"
      ],
      [
        "m",
        "et"
      ],
      [
        "su",
        "ccess"
      ],
      [
        "gr",
        "am"
      ],
      [
        "tim",
        "es"
      ],
      [
        "str",
        "u"
      ],
      [
        "us",
        "es"
      ],
      [
        "A",
        "ll"
      ],
      [
        "i",
        "er"
      ],
      [
        "vie",
        "w"
      ],
      [
        "th",
        "ings"
      ],
      [
        "f",
        "ather"
      ],
      [
        "end",
        "ed"
      ],
      [
        "Fe",
        "br"
      ],
      [
        "c",
        "ies"
      ],
      [
        "Febr",
        "uary"
      ],
      [
        "cre",
        "ated"
      ],
      [
        "end",
        "s"
      ],
      [
        "amp",
        "le"
      ],
      [
        "be",
        "come"
      ],
      [
        "un",
        "d"
      ],
      [
        "De",
        "ce"
      ],
      [
        "al",
        "es"
      ],
      [
        "ro",
        "te"
      ],
      [
        "ge",
        "ther"
      ],
      [
        "s",
        "ide"
      ],
      [
        "if",
        "ic"
      ],
      [
        "form",
        "ed"
      ],
      [
        "st",
        "it"
      ],
      [
        "be",
        "li"
      ],
      [
        "Dece",
        "mber"
      ],
      [
        "Joh",
        "n"
      ],
      [
        "2",
        "1"
      ],
      [
        "l",
        "s"
      ],
      [
        "k",
        "ed"
      ],
      [
        "amp",
        "ion"
      ],
      [
        "N",
        "ational"
      ],
      [
        "te",
        "ll"
      ],
      [
        "J",
        "une"
      ],
      [
        "t",
        "ed"
      ],
      [
        "p",
        "or"
      ],
      [
        "play",
        "er"
      ],
      [
        "m",
        "il"
      ],
      [
        "En",
        "gl"
      ],
      [
        "Engl",
        "ish"
      ],
      [
        "Brit",
        "ish"
      ],
      [
        "B",
        "ut"
      ],
      [
        "C",
        "l"
      ],
      [
        "b",
        "us"
      ],
      [
        "200",
        "7"
      ],
      [
        "on",
        "t"
      ],
      [
        "c",
        "ause"
      ],
      [
        "us",
        "ing"
      ],
      [
        "iz",
        "ed"
      ],
      [
        "mem",
        "bers"
      ],
      [
        "re",
        "ce"
      ],
      [
        "P",
        "h"
      ],
      [
        "r",
        "ight"
      ],
      [
        "an",
        "im"
      ],
      [
        "ret",
        "urn"
      ],
      [
        "i",
        "um"
      ],
      [
        "Euro",
        "pe"
      ],
      [
        "fe",
        "w"
      ],
      [
        "e",
        "as"
      ],
      [
        "se",
        "e"
      ],
      [
        "one",
        "y"
      ],
      [
        "f",
        "ind"
      ],
      [
        "at",
        "s"
      ],
      [
        "p",
        "le"
      ],
      [
        "I",
        "I"
      ],
      [
        "att",
        "ack"
      ],
      [
        "O",
        "r"
      ],
      [
        "h",
        "ome"
      ],
      [
        "ci",
        "ent"
      ],
      [
        "j",
        "or"
      ],
      [
        "y",
        "oun"
      ],
      [
        "to",
        "ok"
      ],
      [
        "B",
        "l"
      ],
      [
        "a",
        "i"
      ],
      [
        "c",
        "our"
      ],
      [
        "p",
        "ed"
      ],
      [
        "coun",
        "tries"
      ],
      [
        "P",
        "ro"
      ],
      [
        "ian",
        "s"
      ],
      [
        "is",
        "on"
      ],
      [
        "des",
        "ign"
      ],
      [
        "g",
        "ot"
      ],
      [
        "st",
        "u"
      ],
      [
        "wor",
        "d"
      ],
      [
        "giv",
        "en"
      ],
      [
        "L",
        "i"
      ],
      [
        "w",
        "rote"
      ],
      [
        "201",
        "1"
      ],
      [
        "h",
        "and"
      ],
      [
        "so",
        "ci"
      ],
      [
        "sh",
        "ort"
      ],
      [
        "K",
        "ing"
      ],
      [
        "es",
        "e"
      ],
      [
        "B",
        "r"
      ],
      [
        "b",
        "ased"
      ],
      [
        "u",
        "de"
      ],
      [
        "writ",
        "ten"
      ],
      [
        "to",
        "gether"
      ],
      [
        "st",
        "or"
      ],
      [
        "c",
        "ri"
      ],
      [
        "ex",
        "ample"
      ],
      [
        "pl",
        "an"
      ],
      [
        "fr",
        "i"
      ],
      [
        "200",
        "8"
      ],
      [
        "g",
        "ames"
      ],
      [
        "v",
        "ent"
      ],
      [
        "Ch",
        "r"
      ],
      [
        "5",
        "0"
      ],
      [
        "mo",
        "ved"
      ],
      [
        "f",
        "il"
      ],
      [
        "ro",
        "ss"
      ],
      [
        "2",
        "4"
      ],
      [
        "us",
        "s"
      ],
      [
        "s",
        "top"
      ],
      [
        "P",
        "l"
      ],
      [
        "hist",
        "ory"
      ],
      [
        "et",
        "y"
      ],
      [
        "C",
        "o"
      ],
      [
        "an",
        "k"
      ],
      [
        "li",
        "am"
      ],
      [
        "ion",
        "al"
      ],
      [
        "ar",
        "n"
      ],
      [
        "te",
        "m"
      ],
      [
        "iv",
        "ed"
      ],
      [
        "r",
        "ic"
      ],
      [
        "kill",
        "ed"
      ],
      [
        "t",
        "ake"
      ],
      [
        "g",
        "row"
      ],
      [
        "f",
        "ive"
      ],
      [
        "l",
        "ist"
      ],
      [
        "publ",
        "ic"
      ],
      [
        "Nor",
        "th"
      ],
      [
        "g",
        "reat"
      ],
      [
        "re",
        "al"
      ],
      [
        "gr",
        "ap"
      ],
      [
        "ce",
        "pt"
      ],
      [
        "s",
        "ometimes"
      ],
      [
        "s",
        "ix"
      ],
      [
        "c",
        "or"
      ],
      [
        "C",
        "an"
      ],
      [
        "p",
        "ain"
      ],
      [
        "includ",
        "ing"
      ],
      [
        "a",
        "f"
      ],
      [
        "are",
        "n"
      ],
      [
        "chan",
        "ge"
      ],
      [
        "be",
        "t"
      ],
      [
        "b",
        "ur"
      ],
      [
        "spe",
        "cies"
      ],
      [
        "fam",
        "ous"
      ],
      [
        "pro",
        "ble"
      ],
      [
        "iel",
        "d"
      ]
    ]
  }
}